#version: 0.2 - Trained by `huggingface/tokenizers`
▁ t
▁ a
▁t h
i n
r e
o u
▁ s
▁ w
▁th e
o n
e r
a t
i t
▁ b
i s
▁ I
▁ h
▁ c
▁ m
in g
e n
o r
a n
▁ f
▁ p
▁ d
e s
▁t o
l l
▁ o
e d
▁a n
▁ y
▁ l
o m
▁y ou
a r
▁ g
a s
▁ n
▁o f
▁ in
l e
o t
i c
u s
v e
▁ is
▁ it
▁b e
▁an d
▁th at
o w
a l
▁ T
▁ e
▁ re
▁w h
e t
. .
▁ on
l y
i d
' s
h e
l d
a y
' t
i on
u t
▁h a
v er
k e
en t
▁f or
s t
a c
▁ A
i m
g h
a m
a ll
a d
ou t
▁ W
o o
▁s t
r o
u n
▁ S
e .
ou ld
it h
▁h e
c h
▁d o
▁n ot
▁l i
o p
s e
i r
▁a re
s .
r i
▁w as
c t
▁w e
▁ha ve
▁w ith
▁ j
us t
t h
▁a s
i f
all y
t t
i ll
▁ H
u p
▁ k
▁th is
▁ "
▁I '
▁T he
gh t
▁ Y
▁m e
▁s e
om e
▁ M
▁ C
n 't
c e
▁b ut
▁ B
▁s h
▁m o
.. .
▁T h
▁the y
u r
▁m y
▁c an
▁ N
▁a b
i l
▁li ke
▁n e
▁ D
c k
in k
is t
a g
▁you r
▁s o
▁j ust
on 't
▁ r
▁ O
▁ P
an t
▁c om
▁ or
on e
t er
n d
▁I t
o l
▁w ould
us e
u l
▁d e
an d
i g
at e
▁g o
at ion
▁a ll
u m
a b
▁w or
es t
▁a t
▁p ro
▁g et
er s
▁e x
a p
▁ab out
e op
▁c on
▁W h
a in
w w
eop le
es s
▁d on't
e re
▁ F
▁ *
▁Y ou
▁wh at
▁ up
▁th ink
▁ if
▁ v
▁a l
▁f r
e m
▁s u
▁ G
▁p eople
: /
▁s ome
▁ R
▁I' m
▁an y
tt p
en d
:/ /
▁k n
▁p o
c om
ttp ://
▁ out
n t
▁ (
ver y
p e
in d
q u
▁m a
▁ un
m ent
▁ E
▁t r
ar d
ar t
t ;
▁c h
e l
s ,
▁ [
▁kn ow
ac k
▁on e
i ve
am e
▁fr om
▁wh o
i e
▁the re
d d
▁ &
g t;
' re
p p
oo d
y .
as t
▁ L
oo k
c a
▁it 's
▁ us
▁n o
ou r
▁mo re
▁l e
▁& gt;
e ll
ou s
u ck
a re
or t
es .
▁ 1
▁d id
v en
▁the m
on g
ou gh
0 0
u re
id e
▁p re
▁p l
▁a r
▁s ay
▁h as
h ing
o re
o d
▁wh en
▁b y
ca use
▁th an
▁t im
k ing
▁ U
▁w ill
▁do es
ou nd
ac t
com /
▁Th at
h er
i ght
o s
▁in t
▁a g
▁h ow
▁g u
ow n
e ,
e ar
▁ J
d er
h ttp://
ic k
it y
] (
b le
▁the ir
c i
▁th ing
]( http://
it e
r a
▁It 's
p l
w .
▁ i
▁l o
f f
▁m an
▁re ally
▁be cause
▁I f
ri ght
a h
▁ -
e p
u b
▁w ant
▁on ly
u ally
r y
ed .
▁t a
in t
th er
▁c l
i re
▁a ct
▁sh ould
▁h is
▁s a
s s
▁ qu
ww w.
▁a m
i p
▁to o
s o
an g
▁f e
o se
i es
an s
i z
u d
▁ha d
w ay
▁e very
p t
▁ 2
▁ en
▁it .
in e
ic h
ic e
▁se e
▁com p
u ch
▁Wh at
▁c ould
ing .
▁we re
▁ right
▁g ood
▁ im
dd it
b er
▁the n
om et
e ct
▁of f
▁o ther
▁ma ke
i a
▁m uch
▁l ook
▁be en
▁d own
it t
er .
is h
▁w ay
▁wor k
le t
ag e
▁y ear
▁A nd
▁p r
i ous
es ,
i v
. com/
▁H e
▁b l
▁ne ed
▁Th is
o g
▁s omet
▁f uck
▁n ow
▁o ver
▁s p
re at
▁e ven
re e
l f
▁c o
▁s he
ou nt
at ch
▁w r
▁N o
as s
▁tim e
ab le
▁be ing
▁you 're
▁d is
i k
▁h ttp://
▁wh y
▁h im
am p
i le
▁go ing
m o
▁ use
▁b u
▁h er
▁he re
▁The y
▁g ot
▁somet hing
! !
▁gu y
▁S o
▁g r
s h
m er
a k
u e
▁ne ver
▁a c
d e
▁re ad
▁st ill
v ing
i an
▁po int
g e
▁I' ve
▁ :
ou ght
y ,
▁p art
en s
▁does n't
▁can 't
▁int o
ul t
▁b ack
c on
▁mo st
▁B ut
ac e
p er
b e
a il
▁act ually
en ce
ir st
t ing
▁me an
as e
▁con t
▁c r
▁s up
▁did n't
oo l
▁be l
▁I s
ig n
th ing
▁s pe
d it
ic al
an k
e ah
▁H ow
e w
▁I n
o b
](http:// www.
) .
f ere
▁f un
re ad
ad e
▁un der
▁re s
▁po st
▁re al
▁s ame
ic t
▁ 3
w n
at ed
s ?
tt y
▁That 's
▁ very
▁t e
▁a d
▁c all
▁wh ich
w ik
▁we ll
▁ K
▁th ose
▁d ay
▁that 's
▁b r
k es
▁su re
p ort
▁com ment
▁ha pp
▁l a
▁S t
▁s c
ac h
o y
▁C h
ab ly
▁wh ere
ot her
▁f irst
▁re ddit
▁be tt
f ore
▁tr y
* *
is s
▁ne w
▁some one
se lf
▁pre tty
a v
▁The re
▁p er
▁t w
▁ '
▁bel ie
▁al so
f ter
i gh
f t
ers on
▁sa id
ion .
en .
ion s
he re
▁l ot
ri end
a ve
▁W e
▁d if
▁th ought
i ld
ot e
u ll
▁s er
as on
or m
▁ag ain
▁D o
or g
▁su b
ar k
▁m ay
ter n
▁pl ay
▁ ro
▁N ot
▁f ind
re ss
▁b ad
▁ta ke
▁ ke
▁th ough
mer ic
n y
▁Wh y
is m
x t
▁is n't
a .
▁bett er
▁con s
or y
an ce
▁re l
▁se em
▁M y
▁a pp
b ably
way s
let ed
o c
ar y
▁ V
▁e ver
▁p erson
w e
▁p h
▁man y
▁sh it
▁o wn
c l
▁be fore
at h
▁l ong
▁f l
ed ia
▁A meric
▁st art
▁the se
▁it s
u al
g r
l ic
▁a fter
▁ our
▁A l
▁fe el
▁[ de
leted ]
▁[de leted]
▁c he
or d
ot h
ed ,
l ess
u g
▁dif fere
▁c ount
▁t al
ur n
▁d r
ver s
▁al ways
i ble
▁Y eah
▁o ld
itt le
at ing
▁th r
▁de f
▁W ell
▁m ade
ble m
▁as s
▁I' d
▁re ason
▁t ell
▁k ind
▁d es
▁e l
▁p ol
▁ac c
▁a tt
▁ar t
ly .
ic ally
▁pro bably
or n
▁s m
▁p ut
▁o b
▁g ir
▁pro blem
▁ar ound
▁ 4
▁l ittle
ce pt
org /
▁f act
▁lo ve
▁sh ow
▁b it
▁m one
▁B e
on s
pe ct
▁tw o
ly ,
▁w om
▁l et
▁U S
amp ;
▁in st
' ll
▁http:// www.
▁belie ve
▁ ide
▁wr ong
s /
▁h ard
f ul
" .
▁year s
▁k id
in ce
on t
e e
▁s y
▁us ed
▁wor ld
▁ $
▁li f
▁that .
h ,
▁O n
o st
▁thing s
▁a w
▁c ar
i al
▁g reat
▁any thing
' ve
re d
▁e v
er t
▁p ay
▁g en
▁wor d
▁re m
▁en ough
od y
.. ..
▁ end
▁f riend
▁h igh
ve l
ing ,
▁fuck ing
▁s l
▁com m
▁ 5
▁* *
i b
p h
o .
o x
▁it ,
▁wh ile
▁ma kes
▁s im
▁b ig
' d
a it
st and
t he
▁c are
a z
re ddit
o ck
▁qu est
▁m ight
▁fe w
c e.
▁k ill
v es
a ke
v ed
▁you .
▁m on
▁in s
▁t er
▁h and
d u
v ot
. org/
▁e m
▁A s
▁m e.
▁ ...
n g
▁r un
g et
at er
ere st
i ly
e ly
p le
▁o p
ver n
e ver
▁g ive
▁le ast
▁b as
▁in f
a ,
▁C an
▁J ust
ar m
ip edia
▁O b
▁re c
ub lic
▁be t
id ent
u ff
▁w atch
at her
l p
▁O r
ic le
▁any one
▁ ent
▁n ame
▁gir l
▁with out
▁c or
at es
▁under stand
or s
is e
▁m in
▁get ting
▁de c
l es
i x
▁ke ep
▁I' ll
▁R ed
as h
o ld
vern ment
▁Th ank
▁happ en
▁b est
iz e
ar n
a ir
▁j o
▁in v
ere d
▁l ast
▁st op
am a
▁do ing
& amp;
p os
▁s ound
▁h um
▁c ome
e ad
i /
m an
▁he lp
▁mone y
▁ch ang
▁not hing
us h
▁l ink
er ,
▁se x
ci al
w h
▁he ad
▁thr ough
A A
ic s
▁li ve
▁gu ess
on .
ul ar
k s
▁c le
▁t ri
e. com/
▁s ch
le ct
g g
ow s
r ist
op e
i ke
▁Yeah ,
v ie
en se
E R
▁el se
d ay
▁say ing
▁ex pl
▁su ch
▁differe nt
▁he 's
ar ch
▁go vernment
re s
at ive
e x
▁int erest
st em
▁st r
▁s ince
tern et
▁try ing
c ess
▁Red dit
ation .
wik i/
▁l ess
ol og
are nt
e g
▁No ,
y p
▁w on
ent ion
wik ipedia
▁us ing
ow er
▁would n't
▁j ob
▁re p
re n
▁al read
▁ ed
up id
▁: )
at ter
▁e as
▁bu y
▁an other
▁they 're
j ect
▁v ide
▁re g
b ody
▁c our
▁T H
▁b oth
▁ch ild
▁Wh en
m m
▁d ri
▁a dd
▁as k
▁f ar
wikipedia .org/
▁every one
g le
▁s ur
en. wikipedia.org/
en.wikipedia.org/ wiki/
I N
am n
con d
ist s
- -
▁art icle
o ll
▁m ust
▁ex act
c es
▁ 9
▁sy stem
▁in c
▁se en
00 0
p r
am m
▁ha ving
out ub
it ion
ious ly
▁re f
▁You 're
w atch
in al
▁sch ool
▁le g
▁c a
▁M ay
le ase
▁f ree
▁la w
ut ion
us s
▁them .
▁h ate
o ot
▁st ate
▁s it
▁ar g
I T
▁quest ion
▁st upid
▁O h
. "
▁D on't
um b
▁U n
▁S h
▁seem s
▁a way
▁a p
al th
▁l ist
ra el
re ct
y outub
a w
l o
ation s
▁who le
p g
▁alread y
c ed
▁e ith
▁too .
ar s
▁g ame
▁st and
▁st uff
▁un t
▁gen er
ap p
v =
t m
▁was n't
youtub e.com/
▁S he
▁tal king
▁t urn
▁g am
um ent
n ot
▁ma king
▁ =
? v=
▁in d
▁v ot
em ber
▁rel ig
a ul
ert ain
u c
▁lif e
▁c re
youtube.com/ watch
youtube.com/watch ?v=
an n
w ard
▁m ind
▁b ook
▁again st
n ce
i ed
▁A re
▁Well ,
or ry
▁sup port
▁F or
) ,
▁Ob ama
▁ 6
it y.
▁po ss
ar i
▁Al so
O O
ro ll
▁m iss
s w
▁1 0
j pg
if ic
▁ex t
▁are n't
oo gle
▁comp let
ict ure
▁R e
▁f re
▁ide a
? ?
▁w ait
▁d ou
▁re t
▁f in
▁g l
▁c op
y s
▁there 's
▁he ard
▁unt il
es e
▁d one
▁e ff
▁m et
▁se cond
▁aw es
t y
▁ch ar
▁cons id
h tm
▁w ar
mo st
▁we e
▁tim e.
le .
ut h
▁" I
im e
▁pre s
▁s et
▁in ternet
▁y et
▁p op
▁this .
▁def in
▁res p
▁con f
▁won der
un ch
ag es
▁G od
2 00
▁May be
▁P aul
ou se
▁he ll
at ure
O U
▁ /
▁b re
▁call ed
ct ion
▁dis c
▁f ound
on d
▁E x
we en
▁re st
▁im p
T he
▁vide o
1 1
▁mon th
▁qu ite
▁co ll
▁p icture
i er
▁s k
▁Y es,
ar ly
▁Be cause
▁ne xt
ir d
▁it ?
▁Is rael
g er
▁Americ an
b l
▁wom en
▁m atter
▁ag ree
▁guy s
w here
i es.
al .
▁look s
▁h ope
▁me m
i ans
▁N ow
▁on ce
▁ 8
▁D id
or k
▁Ch rist
▁bet ween
▁pro gr
▁though .
ic .
c ri
▁s w
t en
▁w on't
▁ex per
▁count ry
ut e
ro p
▁pol it
▁may be
▁f ull
▁to p
▁c ou
▁A ny
r u
▁me ans
um ber
▁S ome
reddit .com/
er s.
▁get s
▁ta x
b s
▁inst ead
▁le ft
▁r ather
al f
▁Th en
▁bl ack
ud e
ber t
▁comp an
▁s ci
▁an sw
▁m ark
▁le arn
▁is s
n ing
it s
▁c ur
▁su ck
t e
at s
▁rem ember
▁exact ly
▁h our
▁A ll
▁in ter
▁hum an
l ed
n e
▁you ,
r /
▁c ool
' m
re nt
▁say s
od e
▁look ing
▁m us
ation al
▁ .
▁h ome
▁he ar
▁b us
▁now .
▁your self
r or
▁che ck
ap s
iz ed
A T
▁ 7
▁f am
▁Wh o
al s
▁w in
▁s ign
c ome
▁You r
. jpg
a im
▁go d
▁pro du
▁w ent
▁ab le
ic e.
o h
t c
at e.
▁c ertain
c c
o ,
1 0
ire d
ap h
ot t
er ing
▁e lect
▁cor rect
▁sm all
il ity
▁ass um
re t
▁th read
▁pl ace
▁tr u
▁every thing
on -
▁ob v
i -
▁per f
▁that ,
▁p ass
iv es
r it
▁g un
l ish
ven 't
](http:// en.wikipedia.org/wiki/
R E
2 0
vot ed
▁think ing
▁n ice
▁op en
if e
▁de p
▁ex p
o ve
▁s ing
it ed
& gt;
▁comp ut
▁up .
O T
▁m ar
▁pl an
▁wor th
▁ent ire
▁jo ke
▁sc re
▁there .
L L
r ic
htm l
▁expl ain
▁A ct
▁cour se
▁ex ist
▁for m
▁ id
▁to t
▁my self
▁c ame
▁s ort
ent s
▁here .
▁tim es
a king
▁e tc
um p
k en
▁c ap
r act
▁al most
▁y eah
▁ex pect
▁sa w
▁p ower
▁n umber
▁wee k
it ch
▁cl ass
er n
g in
at t
ent .
ang u
▁l ar
▁f ail
▁A t
▁re qu
▁G ood
▁S e
▁on e.
▁o pp
T F
▁st ory
▁so l
▁he alth
or .
ag e.
i ot
it .
O N
▁v al
▁wom an
" ,
u gh
e f
▁1 9
▁ha ven't
▁f il
▁ad v
et s
ou p
▁be h
▁p ublic
on e.
▁F uck
▁T o
▁arg ument
on est
A N
▁m om
▁m il
▁Do es
▁2 0
ow ing
▁ ill
in u
▁st ud
▁ter m
l and
▁chang e
- s
▁r ac
▁d ist
ou s.
▁ z
▁tal k
id d
▁ ir
▁F r
▁cl aim
▁v ote
im g
b t
ur ing
▁W ow
▁m en
▁ X
▁me ,
- f
▁f air
ion ,
▁h alf
▁c ra
▁co st
▁e ach
▁E very
se l
a a
b r
im es
▁ vers
er v
y ing
▁e at
▁mo vie
▁There 's
w are
in es
▁w ish
c y
al k
lo ad
le as
un t
ch n
IN G
▁l angu
n ess
p ly
▁f av
u ght
j or
▁s ense
▁or ig
ing s
in ess
▁eith er
▁out .
ig ure
end ing
▁ Q
c he
ci ally
▁complet ely
▁fun ny
▁ ign
▁m ention
con om
▁A n
▁Also ,
E S
it al
b o
v ote
▁A r
un k
ate ly
▁E dit
▁M c
▁bu ll
▁Act ually
▁ab s
! "
▁P ro
▁s ent
▁d amn
▁pro f
y pe
▁Thank s
▁f ood
E E
ill ion
▁p ri
▁2 00
▁pl ac
▁e qu
c r
j oy
p or
▁- -
▁c ut
z y
pos ed
▁ed it
▁n ight
il ar
▁pr ot
▁you ?
▁c ase
▁an t
▁On e
▁p ar
▁im ag
▁ad m
is ed
▁exper i
t o
ers ,
▁v ie
▁sound s
C K
!! !!
▁is .
p ro
▁e y
▁p ur
▁g ay
▁sub m
▁G o
▁dr ink
▁at he
h h
▁ ;
▁He 's
▁h ot
- b
▁H is
out h
▁f oll
▁1 00
▁r id
▁N ew
at or
▁id iot
es ?
▁li ght
▁d i
5 0
▁ma jor
▁w ater
▁too k
f er
ro ss
▁f igure
on n
▁a v
ire ct
vel op
ro l
▁lo g
▁s mo
▁new s
▁awes ome
](http://www. youtube.com/watch?v=
ate ver
▁kid s
▁s ide
▁com es
▁TH E
▁tr ans
l ine
a le
▁well .
▁c as
▁p ast
▁d et
▁r ap
▁P eople
▁C om
▁need s
▁op in
▁read ing
f ort
ir t
▁wor king
▁know ,
▁c reat
▁se c
o le
▁mo ve
re m
▁Can ad
▁eff ect
al ity
om e.
▁o k
▁mark et
▁any way
▁do g
U U
▁b ro
▁s our
▁t est
▁ es
com ment
▁all .
ite ly
▁h or
▁W here
▁se lf
▁all ow
ac y
ri b
▁What 's
▁g i
▁tr ue
▁L et
▁de ad
▁vie w
T h
▁comment s
▁s n
S .
▁to ld
▁tri ed
▁p en
▁la ugh
▁f ire
l t;
▁im port
i o
▁acc ount
a id
▁st or
▁start ed
▁n am
s e.
▁sing le
▁ Z
/ 0
▁m is
▁ag re
▁t yp
i pp
▁de al
▁you 've
▁p arent
▁Y OU
▁pro v
en ce.
i ent
pe cially
▁want ed
▁B ush
- m
▁gr oup
▁child ren
? !
▁poss ible
▁su gg
▁ph ot
▁we 're
▁sugg est
▁bre ak
as ter
▁go es
▁us ually
* .
▁A pp
ar c
▁e conom
▁en joy
▁: (
▁m or
H H
▁Edit :
? "
ang e
▁n on-
o f
▁m ess
▁in cl
▁friend s
▁ser ious
, 000
es us
▁could n't
▁S er
▁people .
ation ,
▁M an
▁f ight
▁s ad
un d
▁B l
D IT
▁t it
▁spe c
▁E ng
▁de ath
▁bu ild
▁mo d
reddit.com/ r/
▁to day
sh ip
▁me ant
▁le vel
▁C l
▁is ,
ar ing
▁m ain
▁st e
▁ex amp
it ies
▁po s
f or
▁h it
▁h u
▁h ist
in s
▁h old
▁p e
▁f ace
▁im m
▁t roll
f e
▁con st
ri ble
▁wh ite
▁that ?
et her
r y.
▁pro per
id ence
▁L ook
▁M ost
u ri
▁comm un
▁m ed
ig g
▁p un
▁R ep
▁do ll
▁&gt; I
▁v i
us ed
itt ing
▁min ut
▁att ack
a x
▁H ere
▁fr ont
o id
▁sur pr
re am
ive .
om b
▁A m
▁O h,
▁b ab
he ad
th is
▁cur rent
in e.
comment s/
▁work s
1 2
▁b ar
y ou
h aps
▁h ouse
O R
a ult
▁right ?
▁un i
▁ _
" ?
▁a ff
▁e ar
▁right .
r ow
A R
▁re d
er y
▁p ick
▁thing .
▁progr am
on y
▁fav or
m ore
able .
ed ?
are d
ol ut
pt ion
it er
an .
▁com pl
▁not .
▁perf ect
▁sim ply
▁en g
▁te chn
l ike
▁ch o
iv ing
▁b o
t on
▁t ype
▁U p
▁p age
▁de velop
f ull
▁f ore
▁do .
at ic
▁po or
▁le ad
▁mus ic
▁dr ug
▁ta king
▁sup posed
▁w ind
▁cont rol
▁differe nce
▁sup er
l ing
▁" W
▁inf orm
▁h onest
▁mo v
▁answ er
▁cou ple
▁tot ally
▁H ave
m y
▁them sel
▁c ol
an e
▁f all
▁s ong
I S
ter s
▁ex cept
e xt
▁ap pe
▁sh ot
▁Americ a
le v
▁import ant
▁E ven
▁so cial
!! !
▁like ly
▁orig inal
▁iss u
oo p
w ork
▁ ri
▁s ite
▁se ll
▁real ize
▁be come
▁as sh
▁him .
n ew
▁ag o
▁l ine
O L
▁of ten
et .
▁p lease
▁am az
▁th ree
vie w
▁d irect
▁bas ed
▁a ir
▁on es
r ing
▁spe ak
s ide
inu x
▁b all
▁kn ew
▁fun n
img ur
p ose
ver t
is on
onn a
- d
▁day s
ment .
▁g re
▁P er
▁( I
▁le ave
▁sh ort
ard s
▁de m
▁s orry
l im
ur al
▁P l
imgur .com/
g re
▁lar ge
▁r u
▁P al
o int
- p
h ow
r al
it ing
▁part ic
▁v is
▁am ount
▁wh atever
▁ro om
▁examp le
▁S orry
. html
▁O k
pl oy
ur t
▁an n
u ro
ant s
▁b oy
▁you 'll
AA AA
l i
ap er
▁lo c
▁ ve
▁defin itely
olog y
▁bus iness
t op
▁point .
ib ly
at .
op h
▁than k
▁f ix
mo dd
▁p ain
▁this ,
▁cl ose
ri ed
▁an im
oc r
▁way .
s y
se arch
▁J ew
es s.
ever ,
g an
▁cr ap
9 9
▁S p
ing ?
▁con c
▁or der
g y
▁Mc C
▁sit u
idd le
g ot
n et
▁1 .
▁res ult
▁p ot
▁ac cept
▁s ens
▁what 's
s p
em pt
ri es
▁re pl
ion al
▁pre v
▁n orm
▁f an
- c
oo f
▁D e
▁dri ve
▁interest ing
▁happen ed
▁vers ion
n o
▁d ick
▁ser v
▁wr ite
▁etc .
ent ly
▁d uring
t r
▁Wh ich
▁ +
▁comm on
d o
▁you ng
re l
▁It s
▁p ie
▁g onna
▁consid er
▁o th
ir c
▁want s
b y
▁lo st
▁sim ilar
▁should n't
▁R o
▁I nd
b ook
▁wrong .
▁eas y
▁br ain
O M
et y
▁comput er
ist .
▁O f
▁play ing
▁she 's
A S
ul ation
▁int ell
▁dis ag
▁li ving
o ly
id ed
a ut
/ c
▁vi ol
E D
▁run ning
▁re fere
▁E DIT
▁so ft
l er
▁des ign
▁for get
▁bit ch
f l
▁m other
▁L ike
▁p ull
th ough
▁P lease
▁M e
▁d at
▁T r
id es
▁R on
▁produ ct
i .
end s
▁J esus
▁so ci
▁list en
▁f ac
▁b ill
▁te xt
▁off ic
▁f em
▁W ould
▁leg al
▁st ra
n er
▁ro ck
▁( and
▁sub reddit
▁br ing
▁resp ons
▁I r
▁can not
▁l and
com m
▁ch ick
▁pre fer
▁cl os
▁gam es
▁st ay
▁e p
▁p orn
ou d
U CK
- w
r .
arent ly
▁opp os
/ )
▁A N
▁gi ven
ur b
▁c ult
▁They 're
▁t ast
ie ld
▁ta kes
e y
▁McC ain
▁disc uss
▁st ore
E N
▁dou bt
ic ro
▁inv ol
▁l im
▁Rep ublic
▁pol ice
▁c ent
3 0
k ed
▁W ith
▁com ing
ound s
▁ca use
▁girl s
if y
on ,
c ing
▁se arch
▁d umb
▁hu ge
▁b ank
am er
▁day .
▁& lt;
▁on .
▁y es
▁pri v
oo oo
ou ch
▁l ol
▁c ode
▁; )
▁2 .
oo se
▁ev idence
h .
▁certain ly
▁Christ ian
▁ er
▁l ow
▁m ass
▁con v
▁qu ick
▁ill eg
▁w ife
▁word s
os s
A M
in a
ver age
/ s
▁beh ind
▁EDIT :
▁year s.
▁o cc
▁st at
▁fun d
▁Re ally
A H
ity ,
6 0
▁m ach
▁compan y
▁I S
▁ke y
▁i 'm
.jpg )
itt en
▁a ut
▁fam ily
olut ely
▁st ick
iv il
ar ian
▁bull sh
▁3 0
m od
ut ure
▁G oogle
▁know s
▁work .
le ep
▁un less
▁again .
ic ul
▁W ind
▁oth ers
▁hour s
▁b ott
p ed
▁Eng lish
▁m ag
▁c it
▁act ual
pl ay
▁you 'd
▁cl ick
▁b ox
▁ant i-
▁sh oot
▁ign or
g o
▁ar m
ol ution
▁a uth
in '
▁ 0
▁char ac
full y
▁p at
▁experi ence
▁d ont
▁p iss
▁l ack
em ent
▁b unch
▁de b
th ing.
▁l uck
▁c amp
▁m ist
▁gener al
it ive
ies ,
▁sour ce
▁Actually ,
as m
▁sim ple
lf riend
ic es
ist ic
▁res pect
▁we bs
ith er
▁wor se
▁month s
▁shit .
▁f at
▁" s
▁G et
▁m ur
▁to get
▁part y
▁pres ident
▁wh ether
▁tim e,
▁g ave
▁spe ll
▁toget her
▁y es,
▁s al
▁know .
▁ex c
U S
▁watch ing
▁happ ens
_ _
▁t reat
▁c at
- t
and om
▁foll ow
▁imag ine
▁1 2
ens ive
- h
▁relig ion
▁sp end
▁happ y
▁m illion
r aph
▁ask ed
▁ret ard
E T
i or
▁" f
▁des cri
▁obv iously
▁it self
▁W as
▁W ait
▁this ?
▁5 0
▁http:// en.wikipedia.org/wiki/
▁d ie
▁as king
uro pe
▁requ ire
▁ ?
▁post ed
▁$ 1
ism .
▁Americ ans
▁re port
▁So ,
▁st re
▁S ure
▁pr om
▁d est
▁Y es
▁" S
▁& amp;
▁T V
l ight
▁ref er
▁ph ys
▁k arm
▁cle ar
▁relig ious
▁mil it
ment s
▁ne cess
▁ta ken
▁though ,
O W
▁now ,
▁ x
I D
▁f uture
▁b en
▁lif e.
▁" A
▁d a
▁p aid
▁On ly
▁http://www. youtube.com/watch?v=
el s
e ch
](http://www. reddit.com/r/
▁inst all
▁work ed
▁we b
▁reddit .
▁we ird
▁m iddle
a ff
▁al ong
is ion
▁de v
▁m ult
▁tru e.
an ce.
bo ard
▁ter ror
▁pol ic
i ally
▁de mo
fort un
▁tr uth
ast ic
ot s
ward s
▁langu age
a ving
/ comments/
▁es pecially
▁partic ular
ar y.
ur ch
▁than ks
▁N OT
ore d
▁them ,
▁h om
▁soft ware
▁any more
as ed
th at
ou n
▁well ,
▁progr amm
or ld
e c
▁be at
▁rec ord
▁" H
st er
▁kill ed
it ,
wh at
▁D em
▁gir lfriend
er m
▁Ro bert
▁ch ance
▁Wow ,
r on
▁cra zy
e ge
▁c ivil
▁ext rem
▁w alk
in ed
▁sci ent
▁n et
▁G u
▁I T
▁parent s
▁sci ence
▁pr act
▁see ing
f orm
▁ #
▁person al
r up
ict ion
▁c ard
▁j ud
▁cle arly
▁ph one
u u
▁good .
am e.
▁themsel ves
▁re mo
▁polit ical
▁know n
8 0
so ft
▁s ca
▁r a
▁minut es
▁incl ud
o ver
is ing
▁1 5
F F
▁abs olutely
f ic
ah ah
▁iss ue
re st
▁s ick
▁m edia
▁R ight
▁prot ect
▁assum e
▁down vot
▁yeah ,
▁ab ove
4 0
Y ou
▁[ this
ke y
▁se ver
ain ing
ed om
▁h op
or th
▁tit le
▁can d
▁I m
im ate
▁ag o.
▁g iving
ra w
▁ne ar
' .
▁rid icul
▁be gin
e v
▁ed uc
▁B r
▁Q u
er al
▁str ong
ap e
end ed
er man
▁edit :
▁ev il
▁out side
ant .
▁p leas
/ 2
f ox
g ress
ver se
▁stra ight
b all
il t
▁belie f
▁f ast
▁c irc
A L
▁ser iously
▁cr im
▁auth or
▁mean ,
s on.
▁T w
▁vot ed
▁no ,
i i
m e
▁bas ically
o ff
▁li ber
ang er
▁opin ion
▁r andom
er ve
a f
and s
▁f ine
▁P h
▁Th ose
▁sm art
▁eith er.
▁fil m
. com
▁sl ow
▁Ser ious
▁c uri
▁favor ite
▁che ap
i um
if t
g ed
▁look ed
g ing
▁( or
▁man .
s !
▁F UCK
▁l ab
▁sever al
▁up ,
▁stand ard
▁ |
▁o h
▁b ought
b ut
▁ann oy
en n
▁s ir
us ing
ra q
I C
ar .
- l
▁pop ular
▁d en
▁em ploy
▁D amn
s c
▁mo der
▁c al
▁intell ig
▁r ul
ly ing
▁b ody
▁or gan
in .
▁G r
▁ha ir
y n
▁d ue
ent y
▁S c
▁play ed
ic e,
ap an
ent al
p ir
s ...
▁C he
ic king
1 5
▁A f
▁F l
▁here ,
▁B rit
ic ,
▁S omet
s "
▁off .
▁awes ome.
▁to .
ag ed
as .
▁gl ad
er ?
▁app ro
▁b urn
▁me et
un g
▁su c
ic s.
▁cr it
▁wr itten
ar r
▁I raq
i en
▁wor st
▁s leep
on es
▁allow ed
it ution
▁M ac
▁for got
▁long er
p ut
▁b ac
▁att empt
▁b or
▁obv ious
▁down load
p s
itt ed
u k
▁some where
▁No .
le x
i e.
▁B y
▁s end
iz ation
▁Fr om
▁M ore
n ow
ro om
▁E urope
▁sa ve
▁h urt
▁so ld
▁call ing
▁hist ory
ed i
y ?
▁inc re
▁scre en
▁demo cr
▁pro cess
▁too ,
icro soft
▁l ater
ay ,
▁s us
b ed
▁: -
ch an
▁b i
ph p
▁v o
▁so on
▁tell ing
▁imp ress
L E
▁cor por
▁A ust
iss ion
▁cop y
ent ,
▁g ives
▁somet imes
▁T ry
▁s we
▁br ows
ate ,
▁consid ered
iv id
▁pay ing
▁right ,
-- --
▁him self
▁coll ege
▁A fter
▁" The
▁C on
n ect
el t
ust om
oh n
▁P r
▁what ?
is .
▁cre dit
▁Paul son.
▁O K
▁bett er.
▁sh are
▁Wind ows
▁r ich
al ,
▁show s
if ied
▁charac ter
▁cit iz
/ d
▁D own
▁p ack
▁R uss
▁cle an
a ?
ir th
▁we ap
▁s qu
ag e,
ill y
▁W H
/ m
▁k ick
ant ly
ic ed
▁state ment
▁a verage
▁L inux
▁Any one
▁l os
▁people ,
▁he art
▁P C
ud e,
▁Let 's
▁eng ine
g en
▁ins ur
ia .
itt y
c ent
▁pie ce
modd ed
ain s
▁p ort
▁w all
▁M us
▁do ct
▁mar ri
▁spe cial
▁N e
▁How ever,
▁Th ese
▁complet e
as c
▁A d
▁inv est
▁m ot
▁o per
s. com/
▁st ri
an c
▁kind a
▁n ut
u el
▁an al
ri ll
▁o il
un n
▁f oot
2 .
▁W TF
▁t ouch
▁said ,
iz ing
▁way ,
▁r ad
▁say ,
g u
▁reg ard
▁U K
▁s arc
ub e
V E
▁G e
▁ag e
og raph
▁law s
w ord
ir m
▁there ,
1 9
▁major ity
c le
▁right s
▁athe ist
id e.
▁us er
V ER
▁loc al
. S.
▁g oogle
▁need ed
▁in .
is k
con t
/ 200
▁n at
▁lo se
▁world .
h ?
▁a f
us es
▁rem ind
▁something .
▁ev ent
▁bl ood
▁d ad
▁sc en
▁3 .
▁c amer
OO OO
ally ,
▁sp ace
▁st ep
▁I N
or y.
▁ben ef
on se
▁bl og
ord ing
▁te ac
▁s um
▁reg ular
us .
▁th ous
▁ext ra
▁o pt
▁av ail
▁F ire
W h
p ar
▁m ine
▁pre ss
▁su ff
▁d on
▁l iter
ru ct
in y
▁ob ject
▁mone y.
▁O S
▁b and
▁to ol
in ation
▁down .
▁us es
▁G reat
▁I nt
ak es
▁in de
▁with in
▁are .
▁sub ject
▁Wh ile
ou ble
g est
▁inform ation
1 .
▁ins ide
j ust
▁will ing
▁en c
▁" b
z z
t .
1 6
▁gr ow
en g
▁st ar
▁re search
▁cap ital
▁ne g
▁think s
ar ily
▁rel ation
m p
▁be com
res ent
ou s,
▁co ver
sy ch
▁man ,
▁tr ust
▁Is n't
▁inf l
▁P re
er ic
▁1 8
▁pro ject
2 5
y le
▁one ,
▁te am
▁ind ust
ac c
▁for ce
b it
▁" p
▁not ,
▁much .
▁up vote
▁that s
▁kill ing
▁rac ist
▁comp et
▁av oid
▁mean ing
▁fe ature
as p
1 3
▁ u
▁count ries
z e
▁turn ed
em s
▁compan ies
▁problem s
▁bl ock
i et
▁illeg al
▁Per haps
▁go ld
▁situ ation
▁fuck ed
▁dou che
it es
▁thr ow
fic ult
Th is
▁f our
▁4 0
▁milit ary
og n
▁lot s
▁L e
▁resp onse
▁t end
ure .
/ 11
▁Ex cept
o ke
it e.
▁Dem ocr
▁wor ry
▁g one
im ages
I I
g n
▁feel ing
▁F irst
▁fre edom
▁out ,
▁Y es.
▁em ail
▁surpr ised
▁ro ad
▁spe ed
▁amaz ing
m b
▁cont ext
id =
▁c ustom
▁up vot
▁t re
▁were n't
s )
▁so .
iz z
▁b ag
▁J apan
▁d ude
▁" d
O P
▁sp ent
▁lo ad
▁met h
b um
▁f ake
▁norm al
o e
▁point s
▁b oo
▁j ump
t a
▁all ,
▁cont in
▁tr ack
▁then .
▁dif ficult
g oogle
at ed.
bl og
ren ch
▁wr iting
▁b ur
▁no body
▁S ounds
](http:// imgur.com/
▁re comm
ib ility
as k
▁con nect
m ,
ive ly
▁bad .
ce ll
▁" m
y th
r om
▁f ear
▁( wh
▁con vers
▁dec ided
re ci
an ,
▁f ur
▁en er
▁h ang
▁any thing.
A .
▁p ow
▁doll ar
ure d
▁N ever
/ p
▁most ly
▁ter rible
% 2
▁more .
▁interest ed
▁uni vers
▁" D
▁li ked
▁gr and
or ,
▁dest ro
A D
▁s at
▁S ince
et h
▁acc ident
▁cre ate
▁spe ech
ivid ual
▁" M
▁H ell
▁im age
▁b orn
▁c atch
▁qu ot
▁al one
▁be aut
▁pr oof
▁ac ross
▁T O
▁eas ier
▁sw itch
▁karm a
▁priv ate
1 8
▁problem .
▁th reat
▁ch oose
▁miss ed
▁anyway .
cl us
▁App le
o on
▁car ry
ah ,
▁other w
▁h er.
an y
▁pr ice
▁R em
▁c ook
▁re ce
▁pro p
▁eas ily
an a
▁thing s.
re w
▁about .
▁Here 's
it ter
▁acc ess
er o
▁ear th
▁m outh
▁we ar
▁f ill
+ +
▁" C
▁cons erv
▁prof ess
▁C al
1 4
▁bab y
▁J ohn
▁vot ing
▁dr unk
d om
▁att ract
▁" h
▁con cept
▁sh op
▁re act
A Y
t f
v es.
▁ep is
▁wr ote
▁e ating
▁sub s
ful .
▁ret urn
▁disag ree
▁ro ll
▁cand id
▁miss ing
▁sec ret
▁polit ic
▁P res
und red
▁high er
▁down voted
▁" B
▁b irth
▁pre t
le ar
s on
▁mur der
▁S ee
▁fem ale
7 0
▁l ate
as s.
▁ha h
▁cho ice
▁coll ect
in ist
f uck
▁* s
▁funn y.
▁not ice
▁C ould
▁m ad
▁dat a
ur ity
▁Un less
▁fun ction
com p
▁f ell
l am
▁com b
t ain
an ces
▁defin ition
▁f ather
▁so ,
▁f a
est in
▁l ad
a ur
3 3
is c
▁acc ur
UU UU
▁put ting
r ation
▁G erman
▁G l
▁H mm
9 0
i od
i ous.
▁gr ad
A C
r ap
ar b
▁post ing
O S
b ack
▁am eric
▁In ternet
▁comment .
▁d rop
▁back .
▁it !
▁p aper
▁relation ship
he m
▁insur ance
ic les
▁Mus lim
▁Really ?
ar th
ra id
▁S H
du ct
▁pos ition
if ul
▁ch urch
▁an g
om en
ion s.
▁de ep
▁f ing
▁has n't
▁F ox
▁add ress
▁ind ividual
▁im pl
▁course ,
▁hor rible
▁M icrosoft
se c
▁" c
▁pen is
▁some body
▁do c
▁c ell
▁w al
▁gener ally
v ir
▁We 're
▁th ird
ow .
▁h yp
▁perf orm
ci ent
▁refere nce
at er.
ik ipedia
ent ial
▁st ates
▁ide a.
er c
pos s
▁: D
- in
i qu
r r
▁att ention
▁S T
▁sm ell
▁AN D
▁te ach
a ign
ph ot
▁ste al
▁did .
▁Some one
▁o dd
u es
▁c ry
ak ed
▁m orn
▁T e
▁aw are
▁m ill
▁gr ound
▁poss ibly
in e,
▁compl ain
▁f elt
▁gam e.
▁pro ve
▁f ed
▁b an
▁f ile
ver .
▁g as
▁val ue
▁: P
il i
▁spec ific
▁smo ke
▁fact ,
▁Ex act
▁W ill
oh ol
▁N ice
▁inc red
x ual
▁us ers
▁T oo
- C
▁fin ish
▁agre e.
et ic
▁n umb
▁re pe
q =
▁sl ight
▁Not hing
▁A gre
igh b
▁app arently
▁post s
cri pt
▁h undred
▁ro b
gr ound
▁tr ave
ol es
1 7
▁sh ut
▁h y
▁quest ion.
▁v ir
▁on ,
or rect
▁y es.
in ing
b ox
▁some how
▁ est
▁suc cess
▁o ption
▁be .
▁v ol
▁buy ing
▁v ag
▁a ud
rop ri
▁" N
▁creat ed
▁bl ame
▁wait ing
c ohol
▁ ver
r ay
▁li ves
▁He y,
▁avail able
us ,
▁per haps
▁po ll
▁learn ed
ur y
▁ma le
▁prov ide
k .
in c
▁hand s
U T
▁c ity
▁scre w
ab ility
▁d om
▁tr ain
al d
▁[ H
con s
▁to wn
▁c od
▁t ab
▁" w
ou l
▁soci ety
▁qu ality
▁d ig
is e.
os h
▁d anger
ia ,
▁app reci
▁He y
▁St ill
▁bl ow
▁Aust ral
3 .
▁b omb
▁pl enty
rup t
▁f ol
▁no .
▁c orn
▁f ant
▁be er
▁sens e.
▁watch ed
ent ed
▁( s
▁100 %
/ f
▁s ize
▁" the
/ h
▁resp ond
▁d raw
▁again ,
▁M S
▁plac e.
▁" O
▁9 0
▁ey es
▁fl o
os p
▁sk ill
et ,
er 's
I G
▁Sorry ,
▁O P
▁af raid
▁Ch in
▁Pro bably
▁S ame
▁v ict
▁picture s
▁n or
▁stop ped
▁conc ern
pp ed
.. ...
▁ne ighb
▁ridicul ous
led ge
▁year .
▁cult ure
▁cr ack
▁do ,
▁co ld
▁doll ars
▁we aring
▁R E
▁l ap
en ,
ip s
▁H ah
in n
▁cons um
▁S up
▁aff ord
ad d
▁tr ad
4 .
▁St e
▁webs ite
▁C ong
▁any where
▁D O
app y
▁h ous
▁recomm end
▁U .S.
* ,
▁H oly
ers ?
▁camp aign
▁S w
s k
▁c e
▁ ident
▁Canad a
▁ey e
▁E n
▁rep resent
▁sa f
ra ft
▁qu ote
▁ne arly
▁ ur
a ud
▁kid d
▁tot al
▁Every one
▁sex ual
▁1 6
u dd
p ing
▁bullsh it
▁b other
▁val id
▁pop ulation
▁p sych
▁li ved
lev ant
▁al tern
t s
▁on line
▁dec ent
I L
▁ap art
▁cont ent
▁gu y.
▁d ream
▁d ro
▁f ault
▁W ar
▁now ?
▁aut om
st r
▁2 5
▁up d
▁f ive
▁L OL
i est
) ?
▁fin ally
2 2
▁tr ouble
▁let 's
▁f it
▁not iced
▁us .
▁refer ring
▁U s
▁j ail
▁li bert
▁ins ult
▁co ck
▁Sh ould
▁d am
▁rec ogn
▁gr amm
▁fe ed
▁dou ble
rib ut
▁was te
▁C ar
▁ob s
are ly
- g
▁co ff
▁ch rist
▁Pres ident
▁sup pose
p ic
▁US A
▁H as
un ny
▁det ail
s _
▁r isk
ol it
▁i P
▁"W h
▁serv ice
▁imm edi
▁do or
▁She 's
ir l
▁f ield
▁ir on
O D
d ered
n ce.
F W
▁dri ving
t w
▁ ut
▁chang ed
▁doc ument
▁stor ies
id ing
ca re
▁down vote
▁M ar
▁cou n
▁Look s
ud e.
▁joke .
▁exp ress
▁off ice
▁re leas
▁ener gy
poss ible
▁use ful
▁re v
▁Serious ly,
▁mov ies
if ically
ay .
l es.
▁anim al
▁Ir an
▁bott om
r am
▁meth od
▁imp ro
or ies
▁R ead
▁l ay
▁they 'll
▁O N
▁h at
uc lear
R R
o v
b ers
▁" F
T H
S S
A K
4 5
AH AH
▁p ed
al se
▁per iod
▁d ied
?? ?
▁commun ity
▁J av
▁eff ort
▁d iv
vir on
▁f ool
▁cop s
▁fair ly
ist er
▁se m
▁me as
a !
▁c ross
▁&gt; A
▁rep ublic
▁h arm
▁enough .
▁[ I
▁got ten
▁C ons
▁e arly
▁beh av
▁t on
▁t en
▁tr ick
▁start ing
▁[ S
a _
▁sent ence
▁assh ole
▁adm it
▁book s
re g
▁quest ions
▁wee ks
▁w arm
▁N O
ac e.
▁8 0
▁to wards
▁t ort
HH HH
▁d ark
▁A h,
▁tru ly
▁entire ly
▁pr im
- up
▁gr aph
▁ `
▁sur v
▁thing ,
▁extrem ely
▁pr int
▁contin ue
u ct
▁I M
▁h ost
▁mach ine
b ag
▁Up voted
▁p ush
▁el se.
▁it ...
▁mom ent
▁sol ution
iv al
▁ !
▁Pal estin
▁with .
▁Brit ish
▁A w
▁dis app
h ood
▁pre d
e al
am es
▁rep ly
▁for .
▁build ing
in ,
/ b
▁K e
▁crim inal
j u
▁l ower
▁M on
▁ca ught
y ond
3 5
or ge
▁ad vert
▁t ar
▁ru le
▁al cohol
▁fa ith
▁p ers
▁point ,
▁s itting
▁Republic an
▁pr in
/c 0
m .
u e.
▁l ic
▁t em
able ,
▁in n
▁TH AT
r im
▁who 's
ra v
il os
▁mist ake
m ark
am ing
▁bu ilt
ob al
▁V ery
▁St op
i ,
A LL
o -
ard .
our n
▁we ight
▁moder n
ive ,
A P
▁rap e
▁n ational
▁them ?
▁rec ent
▁mention ed
the _
ter .
▁f aster
▁&gt; The
▁" G
▁pur pose
▁p ir
▁he av
▁S im
▁us ern
▁Af ric
▁pr ison
▁plac es
▁br other
▁" t
▁t ick
E .
▁T ex
▁A h
▁count ry.
▁exp ensive
▁real ized
▁ab ort
▁ph r
▁fur ther
at ives
▁person ally
▁mult ip
▁me at
▁ser ver
▁him ,
b el
▁qu al
▁stuff .
▁perfect ly
▁Y ep
ple ment
▁the ory
▁nat ural
m as
▁cont ract
▁s and
▁Un ited
of _
▁ab ility
▁rec ently
ure s
▁A M
▁lo ck
o /
▁stupid .
▁min or
▁s un
er d
▁mess age
▁n one
▁beaut iful
if f
▁year s,
▁destro y
▁" P
▁sh irt
u it
google .com/
▁m ix
o il
▁rel ated
▁me ?
B C
▁app lic
▁S pe
▁stre et
▁al though
ater ial
▁tax es
▁vo ice
in f
▁up on
▁are a
▁b ann
I M
▁c ow
et t
ol f
▁day ,
▁S outh
▁B ill
▁teac her
▁e le
ism ,
▁ 's
en c
▁you !
▁yourself .
▁job .
▁sign ific
s l
▁wind ow
▁al bum
php ?
▁arg u
▁current ly
▁b ase
▁sh itty
▁issu es
les s.
▁reason s
a u
▁yet .
▁mod el
▁ar rest
▁disag re
▁in tern
▁man ag
▁m ath
▁( the
T W
▁Un fortun
m on
▁tim es.
our ce
▁Al though
▁dep ress
iv ed
▁lap top
▁O ther
at ically
▁know ing
L Y
ci ence
▁dec ide
aa aa
▁p ub
▁ad ult
▁arg ue
▁ever .
▁/ r/
- st
▁system .
▁cr ime
▁p unch
▁away .
▁shit ,
ur s
▁en viron
p ng
▁like ,
▁work ,
▁cour t
ic ient
▁de l
▁said .
ur d
▁prev ent
▁appe ar
o es
▁col or
ation s.
▁Y e
▁then ,
▁y ell
▁phot o
t ime
▁app l
▁mo ving
7 5
▁day s.
\ *
▁honest ly
▁ex ec
▁comp ared
▁a head
ony m
% 20
▁Can 't
▁L i
er k
▁bl ind
▁N op
▁wrong ,
▁ign ore
ist ,
▁tru e,
i ant
▁ke pt
▁cre ep
a i
N N
g es
▁consid ering
▁we 'll
ind ex
ance ,
un e
▁H it
▁self -
▁P S
▁smo king
▁* w
▁S m
▁cont r
▁am ong
▁aff ect
▁im possible
▁bu dd
▁fore ign
▁b uck
▁neg ative
▁" T
y ear
▁p ath
▁before .
▁tast e
it or
_ of_
▁ap olog
ent ially
▁Cl int
▁f ish
id er
▁N or
▁B et
▁gl ass
▁se par
▁T ake
f riend
▁comp ar
▁H ill
▁Jew s
ro du
▁how ever
▁em b
▁char ge
▁Fire fox
▁p et
▁j ew
▁re ach
▁em ot
▁crit ic
if orn
end er
▁C ol
en cy
▁be yond
▁sa fe
▁e th
9 .
en ces
2 4
▁n ature
▁Canad ian
▁liber al
▁stor y.
▁foll owing
▁we ak
▁6 0
▁s on
▁but ton
▁ ess
▁c y
av es
▁A b
▁c art
▁programm ing
▁for ward
▁they 've
▁br ought
▁bac on
or rent
re ly
▁lo ved
▁ide as
S FW
▁act ion
ep end
▁numb ers
... "
▁G en
▁Ar ab
▁com mer
▁t ired
▁p an
▁de li
▁m aterial
▁E arth
▁" l
▁good ,
▁You 've
▁as s.
▁this :
c d
▁really .
▁spe aking
▁up voted
at ory
's .
▁Wait ,
h ip
▁b ast
▁con dit
▁med ical
ol ic
... I
▁cons pir
t ed
un der
v ide
▁r ate
▁p ure
f ace
▁b ed
v al
▁can c
▁h ar
▁c ash
▁curi ous
▁article .
▁des erve
ann a
▁for ced
7 .
▁anymore .
▁pun ish
▁" g
▁hop ing
▁sk in
g e.
▁Does n't
▁T ell
▁think .
▁ex am
o k
- sh
▁Bl ack
▁ ug
pl es
▁log ic
▁big ger
D .
▁invol ved
▁N Y
▁r an
▁multip le
▁otherw ise
▁1 4
▁:- )
ex ic
▁term s
▁cas e,
8 6
▁ignor ant
▁to m
▁9 /11
▁m ac
▁way s
▁st uck
▁vict im
ilos oph
▁D r
▁D igg
▁cra z
▁ ..
yth on
ment ,
▁On ce
▁got ta
ari ju
▁f oc
▁ag o,
s. "
ie ve
▁se ason
▁gun s
is hing
r is
▁then ?
est .
▁car s
▁nam e.
▁(wh ich
▁b od
▁n ation
▁li kes
▁disapp oint
▁N az
▁St ar
▁big gest
▁app ropri
.html )
▁p ic
▁1 1
ose xual
8 /
▁part s
▁ha ck
g .
g ust
att le
▁d one.
▁do es.
ci ous
▁respons ible
app ed
▁reddit ors
▁bl ue
▁link s
▁stud ent
▁sh all
▁sec urity
▁Ch ina
ac he
▁requ ired
▁n uclear
ow ,
▁every where
TF Y
▁f alse
▁mor al
▁sh ock
c an
▁li br
▁fl ash
h am
▁bas ic
a -
ot .
re al
▁sarc asm
▁sus pect
▁Ob am
cell ent
b ing
▁but t
im ent
S t
unt u
▁E s
▁1 3
▁App arently
▁know ledge
▁de bt
▁real ity
▁direct ly
▁b illion
▁h ook
it ation
e k
▁M r.
▁nam ed
▁today .
▁r ace
▁W orld
▁mov ie.
▁st yle
▁[ A
▁cost s
▁per cent
_ s
▁figure d
▁( in
▁m id
ate g
▁not e
▁drink ing
▁im plement
f act
▁econom y
b and
▁dem and
▁d ate
▁v ari
▁des k
p .
▁they 'd
▁mind .
I R
▁tar get
st ood
▁in ,
as ing
▁sp ort
▁post .
▁pres ent
▁bro ken
▁Se ems
I LL
ag es.
6 4
▁Ob v
▁B ig
qu e
let e
▁de cl
▁da ught
▁Wow .
ay s
▁reason .
▁cont inu
▁tw ice
▁internet .
ort un
C H
▁spec ifically
▁indust ry
▁any body
ne y
d own
▁A T
▁pur ch
▁rul es
▁cool .
▁l ines
o le.
▁includ ing
▁hand le
▁econom ic
▁bro ke
▁Is lam
▁D ude,
il es
ic ated
▁myself .
t le
▁ev olution
▁d ress
& lt;
▁circ um
y r
▁d igg
▁liter ally
re en
▁http://www. reddit.com/r/
▁pr on
▁O F
▁Somet imes
▁H am
▁m atch
▁inn oc
i vers
▁act iv
3 4
▁sc ri
▁leg it
s et
▁prof it
▁expl an
▁M exic
pe ll
▁old er
. c
▁sp read
▁wonder ing
p et
▁D ep
▁really ,
▁t ip
▁r ound
▁Ok ,
▁n on
ir ty
at ors
▁Pal in
▁ent ertain
▁hum ans
▁first .
▁Int erest
at es.
ch ool
ist s.
or ry.
▁" L
▁ser ies
▁commer cial
l ig
▁assum ing
▁reddit ,
▁slight ly
▁scri pt
C h
▁des p
▁discuss ion
e el
▁j ack
▁Pre tty
ie f
▁F re
as y
▁sp ending
▁event ually
▁let ter
▁gre en
w ith
▁around .
a el
▁er ror
▁sp am
▁st ock
▁net work
i let
t 's
8 8
▁M ich
▁D ef
ed y
▁li e
um e
g ar
es tern
▁second s
▁there ?
▁mem e
▁Reddit .
net /
▁ 't
▁C ome
200 9
▁I E
▁rel ative
▁every body
▁thous ands
▁we l
▁school .
▁h ol
▁F TFY
I ON
▁equ al
it ion.
g ree
▁incl ude
olog ical
is es
▁m ent
▁4 chan
▁se lect
R ed
▁re du
▁doct or
▁s il
e ff
ate ly,
▁we alth
▁coun ter
▁F rench
▁adv ice
▁happ en.
▁appreci ate
m a
3 2
▁Ser iously
▁s ix
▁dis gust
▁offic ial
' ,
▁l oud
ri f
▁r ub
▁Cal iforn
▁repl ac
▁Republic ans
ro s
▁cr ow
▁Did n't
▁acc ording
_ p
or row
3 6
▁t ag
▁retard ed
▁un f
ann el
5 .
st itution
g l
al t
if i
▁head line
▁Jew ish
▁feel s
▁bu g
k y
▁lim it
▁un s
▁prot est
▁keep s
▁B est
rel ated
- to
im um
▁down mod
▁com ic
et er
r d
▁add ed
▁find ing
is e,
▁Christ ians
in st
as ,
▁J ack
▁Israel i
▁trave l
▁Th ink
1 /
▁back ground
▁uni verse
▁intellig ent
▁incred ibly
i pe
▁suck s
▁* h
▁B E
it ut
▁camer a
▁go .
▁mar ried
▁su dd
7 6
▁ball s
▁N orth
▁Be ing
▁Es pecially
▁mo ved
▁drug s
▁wal king
de f
▁point ing
▁A LL
▁seem ed
▁be c
w ell
▁high ly
▁P erson
▁des er
▁phys ical
ically ,
▁http:// imgur.com/
▁Com p
▁Why ?
▁show ing
▁say .
▁law y
▁te en
▁soci et
▁b on
▁prop ag
▁sit es
▁cl ub
▁F ed
▁comp lex
▁re view
▁dep ends
▁H E
r ome
▁2 4
l in
▁hold ing
se qu
p en
▁P art
AAAA AAAA
▁n erd
▁s pl
▁sub st
▁m ap
▁w arn
▁subm ission
▁old .
▁p uss
▁person .
▁b le
▁don't .
▁un fortun
▁E v
▁there fore
ourn al
▁Chin ese
▁mass ive
new s/
▁key board
▁trans l
▁T ru
▁H ope
▁conserv ative
? )
▁understand ing
- M
▁wind ows
▁H A
▁sup por
▁great .
▁tr aff
▁fed eral
es ome
▁Che ck
' T
▁was .
▁In st
so ci
y our
▁you t
▁ne ither
▁turn s
▁piss ed
ict ed
ro g
▁gi ant
▁oppos ite
▁cr ash
▁sure .
▁es c
▁sorry ,
▁v ar
▁" n
▁reason able
▁mem ber
▁min ute
▁mill ions
ain ed
i ven
▁S ad
▁inter view
7 /
▁m ir
8 4
g un
▁Tw o
▁fin e.
▁coff ee
al es
▁iP h
▁That s
▁about ?
m en
▁m ut
▁citiz en
ous ly
▁US .
▁E ither
1 00
pp ing
▁B u
▁Ke ep
cont ent
y l
▁annoy ing
▁something ?
▁exc use
▁e gg
▁gramm ar
▁remo ve
▁p ig
▁Thank s.
▁on to
▁deb ate
8 .
▁swe et
▁[ M
▁ind ic
- A
I A
▁benef it
▁sudd en
▁f asc
ast urb
▁pe ace
▁can t
▁U P
ar y,
▁elect ion
▁off er
ou nce
u ke
▁be ar
ed it
c ul
/ w
M L
ro c
ad ing
▁r ational
ight .
▁No body
it le
▁b al
at ,
p ret
▁scient ific
▁orig in
▁weap on
▁St ates
ible .
▁in it
▁b ud
▁fin an
▁ ~
▁I D
▁H ar
' S
EE EE
▁th us
▁health care
▁conf used
▁to ilet
▁like .
▁dec ision
▁Sure ,
▁educ ation
▁we 've
ad es
▁necess arily
▁to ,
▁polic y
a use
v ed.
i ence
▁end ed
▁bullsh it.
▁b ath
b oy
▁New s
▁idiot .
▁marri age
▁H er
▁inc ome
▁mem bers
▁proper ty
▁head .
am s
c ast
▁med ic
▁brows er
▁pre gn
▁hist or
▁plan et
▁" You
▁ang ry
▁G ive
▁ph ilosoph
▁cont roll
▁def end
▁let s
e es
▁epis ode
▁becom es
▁The ir
▁e arn
ag ing
ens e.
▁do ?
▁run s
▁* I
9 5
▁gl obal
▁full y
E !
▁people 's
as es
▁s illy
▁f ly
▁y a
▁H onest
▁how ever,
r ant
▁b ail
▁cont act
▁neighb or
▁Fuck ing
- the
▁conf us
▁have .
= 1
▁1 7
▁anim als
in ary
ed u
▁s ame.
▁are ,
ar ter
U R
▁p ap
▁pos itive
- r
▁ ,
▁nam es
y m
▁hum or
ol ute
im m
▁( not
▁start s
▁C ap
▁pl ann
ic ide
▁la zy
▁pers pect
▁job s
▁ma il
▁ca used
▁sp ot
▁usern ame
▁i 've
▁Clint on
ac y.
▁bel ong
▁* is
▁mone y,
as ion
is p
▁oppos ed
▁convers ation
▁b ow
▁b reat
▁b oot
o. uk
▁m at
▁mem ory
▁appe ars
as hing
▁fl u
C .
▁N SFW
▁over .
▁Man y
▁hard ly
▁B oth
ines s.
ific ation
▁athe ists
▁M ake
▁c ute
▁prev ious
it 's
▁pl ug
▁Agre ed.
▁tell s
▁dri ver
▁ta ught
▁infl u
▁sell ing
e b
▁techn ology
▁ ice
in ate
▁kn ock
▁re lease
▁C r
▁Jav a
▁thread .
n ess.
id .
8 5
osh op
9 6
▁app ly
▁polit ics
▁immedi ately
▁example ,
▁lif e,
le y
▁[ C
▁h ide
▁A p
l ine.
dd amn
▁O ur
▁too !
oo s
ci es
p oint
it ude
ar ant
▁fun .
Th at
om an
▁qu it
▁en em
▁p izz
▁A ss
▁t ough
en ed
▁r out
in 't
’ s
ter day
▁con clus
▁4 .
▁dem on
▁cas e.
▁down ,
!!!! !!!!
▁ ult
▁C le
ari o
▁propag and
▁crow d
▁off ,
_ d
j ob
n ces
▁keep ing
▁E VER
▁O ff
▁Man ,
▁M Y
▁TH IS
▁sc r
▁bec ame
ack .
▁sh ip
▁de gree
▁fight ing
in ct
▁conf irm
ag on
▁fail ed
2 6
▁art icles
▁viol ence
▁f arm
▁com fort
▁ra ise
▁vot es
um .
▁work s.
▁Ge orge
▁pop ul
▁pr oud
▁we ed
an ced
b ar
▁D is
▁guess ing
▁p age.
▁sh ame
▁pre p
▁read y
▁vis it
l m
▁un like
ve red
▁v ia
ee ee
▁agre e,
▁de lic
▁Se cond
▁re levant
ar ies
ist an
▁design ed
▁sca red
▁t iny
▁guy ,
▁g ift
▁fund am
▁altern ative
▁U N
▁A cc
d a
▁pl at
▁str ange
▁morn ing
▁st ere
▁stud y
▁c up
▁B ar
us er
k n
ens ion
▁cl oth
um m
/ l
** .
▁stand ing
▁Somet hing
▁un d
▁dis play
▁fol ks
▁call s
le ,
▁reddit or
▁r at
▁particular ly
▁Rem ember
▁ch all
▁b ike
▁S un
▁anything ,
▁w anna
▁y e
o or
▁jud ge
r ong
▁ok ay
▁adm inist
fe ature
▁St ep
▁V ist
▁con d
▁bad ,
▁prin ci
id s
am .
ariju ana
▁Ind e
▁government .
▁of .
Red dit
▁require s
▁jo in
▁pleas e.
▁week .
▁danger ous
▁under stood
▁A the
_ the_
▁fre ak
▁regard less
▁night .
▁h osp
▁$ 5
▁Japan ese
▁actually .
▁opp ortun
▁he 'd
▁result s
▁b ot
▁m ental
▁conspir acy
▁conv in
oc ol
▁fix ed
for ce
▁w tf
_ c
▁vide os
▁p ill
▁some what
- n
▁on ce.
/ t
▁z omb
▁hard ware
▁det erm
= =
▁C ath
▁P ol
um an
th .
ipp ing
▁M E
▁fact s
R e
▁b rill
▁bel ow
▁m er
ab or
▁tr uck
▁7 0
ile .
P .
m ail
, "
al m
▁P R
▁occ ur
▁spell ing
H T
▁a ddit
▁fre qu
▁subs cri
▁learn ing
▁Th ough
▁r h
▁Hit ler
O .
- )
▁cor rupt
ain .
▁cons ist
▁pass word
▁def ense
▁What ?
en ing
▁elect ric
i ly.
e very
P S
▁who se
▁che m
▁boy friend
▁b ra
▁sa ving
▁h ilar
▁sa ke
se m
▁pl us
▁fl ag
▁m asturb
▁R el
a ven
▁hard er
▁fe et
▁requ est
▁Americ a.
▁* d
▁def ault
▁K ore
▁z ero
ir ing
▁w ood
n c
ick r
▁environ ment
EN T
▁ir re
i us
ish .
w ich
▁mil k
▁corpor ate
▁t ap
▁issu e.
il ity.
p y
▁claim s
▁world ,
is ,
▁sir .
▁b atter
▁h ole
▁log ical
▁nothing .
▁1 )
▁a ch
▁libert arian
▁douche bag
le g
▁as soci
▁K ind
▁rad io
__ __
▁l ying
▁bo ard
o ?
▁You 'll
▁[ P
▁cour se.
▁h us
▁inde ed
▁pot ential
▁cl ar
ove red
8 /0
u h
▁p ark
▁want .
_ f
▁comm and
▁link ed
d b
▁set ting
! ?
re h
▁expect ing
ili ar
▁N E
▁F OR
ic it
▁&gt; S
▁gr ab
▁comp are
▁he ld
▁le aving
▁R es
▁Com m
▁ce le
▁inf in
arr ass
▁l inux
9 /
▁Wh ite
ap t
en e
▁An other
ess ion
* ?
▁thous and
3 7
▁g ee
▁enc our
▁quick ly
us hing
▁W ikipedia
▁h ip
▁correct .
▁f ired
▁stud ents
▁Bet ter
▁power ful
▁it 'll
▁pro gress
▁jo kes
▁T ime
ian .
▁necess ary
▁D V
ant ic
▁br and
ce ed
▁int ention
sh ot
▁S y
▁incre ase
▁Y ork
im es.
▁[H ere
▁mil es
i ers
art icle
▁A RE
▁A g
_ m
▁citiz ens
▁d er
it e,
▁care .
▁S l
S T
/ or
▁H a
▁suck s.
▁wait ,
▁pl ant
ru ction
▁per m
▁fac e.
▁friend .
▁too ?
hh hh
▁to w
▁S at
at he
u x
▁[ B
▁You 'd
▁[ here
5 %
▁O ut
ation ?
▁phr ase
we b
il it
▁a in't
▁lab el
▁ref use
▁use less
▁ex cellent
▁hear ing
▁down modded
0 .
▁subm it
▁rest aur
▁S U
ipp ed
▁C all
▁equ ival
b ur
▁enough ,
▁hand ,
▁ad s
▁P ut
▁had n't
▁scen e
▁accur ate
phot os
▁fre sh
ug g
▁exec ut
gh an
▁L I
▁But ,
▁word .
▁m ouse
▁play er
▁che ese
▁co vered
▁dis e
▁se e.
▁one ?
▁*is *
▁anal og
▁FUCK ING
ul ate
- year
▁pick ed
9 4
▁al ien
▁vide o.
ing "
▁appropri ate
▁yes terday
▁d ude.
▁m aster
▁Mich ael
▁here ?
▁r ide
▁tri p
▁B el
▁b es
▁her o
▁hom osexual
▁ind epend
C T
▁possible .
▁weap ons
v ent
▁w ire
▁res our
▁Obama 's
▁Ok ay,
re ally
▁L ast
uu uu
r at
an ch
▁sit e.
▁N ext
▁cle ver
▁adv oc
ER E
▁chick en
▁( A
▁terror ist
ain ,
▁w ild
▁every thing.
com pl
w ood
6 6
2 /
▁d ump
▁c ig
r ict
ure ,
▁* not
▁adv ant
▁idiot s
in o
▁de gre
3 /
▁ “
) )
▁str ang
▁expect ed
▁Exact ly.
ay ing
one y
▁coll eg
▁t ear
m s
▁yet ,
▁la w.
▁when ever
▁chang es
▁l at
er ry
▁not ?
▁luck y
▁pull ed
▁lo b
p ress
▁YOU R
▁ins an
▁other .
▁S O
l ier
▁W or
&amp; s
l ock
▁comment s.
▁cap t
▁begin ning
il ty
nd er
▁sex .
id ge
▁Be ck
▁var ious
▁E ver
app ing
_ h
▁pl ain
S D
uc in
2 ,
▁innoc ent
▁po ck
▁det ect
▁funn y,
▁B ible
▁v ast
▁book .
▁w ide
▁shoot ing
▁remind s
up .
▁iPh one
▁inter pret
▁c ast
in ter
▁C o
▁re nt
st ream
c .
▁yout ube
▁fl aw
▁W atch
▁for mer
▁val u
▁d in
b untu
▁const itution
▁show ed
▁Am az
▁ ....
▁appro ach
▁top ic
▁question ,
▁pre m
▁bro ad
▁themsel ves.
▁( as
res s.
▁[ This
▁other s.
▁W ay
re ak
l t
R L
▁Christ mas
▁candid ate
th ink
us ion
▁argu ing
▁stere ot
here d
▁typ es
s :
▁becom ing
▁2 000
▁up ?
▁pret end
▁produ ce
▁link .
▁tom orrow
▁f inal
▁sc ore
▁H igh
---- ----
al o
▁great est
▁Hill ary
▁repl ace
▁w ing
▁"I 'm
▁gu ess.
▁C D
I P
▁fil es
▁thank s.
▁small er
▁part .
▁listen ing
▁pr ices
▁something ,
▁americ an
▁lad y
▁impro ve
▁b oss
▁act ing
▁rec all
_ b
▁react ion
▁h ome.
▁g e
is l
▁me rely
▁thing s,
2 7
▁is ?
▁Would n't
▁b ible
▁" E
a ught
▁wom en.
r ated
▁met al
▁s oul
U N
▁can .
▁laugh ing
▁god ,
▁effect ive
▁P e
▁act ions
▁c ens
▁O M
▁that ...
▁signific ant
ed "
▁thr owing
oc al
▁r ing
▁Yeah .
▁behav ior
▁int rodu
▁here 's
- S
▁C ++
▁ve get
▁help s
▁sw ear
▁n om
ab lish
id ay
▁intell ect
▁lic ense
▁aw ful
ac es
▁God ,
▁C ont
▁r are
r ug
▁lar ger
▁matter .
ch ange
▁hus band
▁emb arrass
▁care s
▁* **
▁Russ ia
▁I P
▁Tex as
- D
▁f uel
h old
▁h un
▁v ac
▁fell ow
▁B as
▁wr it
▁exist ence
▁relig ion.
▁end .
- of
▁desk top
ally .
▁f et
▁[ D
w in
▁ug ly
▁con dom
▁p ics
▁desp ite
▁fre e.
▁up gr
▁G ot
▁gre w
▁s en
▁gu arant
il ing
▁se qu
▁down modd
▁la unch
▁autom atically
▁ar ch
iz es
▁cas es
T A
el .
▁Thank s,
▁pass ed
8 7
up load
▁D R
▁da ily
▁he 'll
▁reg ist
▁sand wich
here nt
▁meas ure
▁D a
▁plat form
▁much ,
▁lot .
▁traff ic
- old
▁bre aking
T ER
m ...
▁descri be
idd en
▁sa ved
▁&gt; H
ian s.
▁W o
▁W E
▁" R
▁c red
▁lo ves
▁&gt; "
▁W W
▁interest ing.
▁P ost
▁t ank
▁war .
on ald
▁pl astic
▁f lying
▁C H
y y
▁plan e
v i
▁L ove
P G
▁argument .
▁inc orrect
▁wel come
1 ,
▁check ed
▁R eg
r s
or ing
▁finan cial
▁Now ,
L D
9 7
u z
▁; -)
▁super ior
▁p ee
▁H aving
▁n ons
▁was ,
▁did ,
fere nce
▁str uct
▁tr ade
▁0 .
▁people ?
n n
sh it
▁W est
▁Democr ats
▁hundred s
ph one
▁se at
▁from ?
in ated
▁show .
h ib
ion ?
▁n aked
av id
▁b at
▁Fr ank
e gr
▁no vel
▁v s
▁comment ,
▁for um
▁ve h
▁F ree
▁OK ,
▁fair ,
▁mean ?
as e.
▁p up
▁C ool
▁subm iss
▁e h?
▁S cient
an s.
▁turn ing
▁em pt
▁sum m
en ced
cl ud
che ck
▁her ,
▁want ing
▁su it
▁pur pos
▁gr ade
l ook
▁b ird
▁epis od
gr amm
▁W el
▁pri or
▁separ ate
▁qu e
▁D E
▁Any way
▁D es
▁p ant
▁E d
▁U se
z en
▁typ ical
ain t
▁langu ages
/ 4
▁and /or
▁man aged
▁j ournal
▁week end
▁own .
▁t ill
it ions
Y Y
at ing.
▁opin ion.
? q=
▁p ants
▁ )
▁pract ice
ALL Y
content /
▁const antly
▁car .
ic a
▁before ,
p re
▁U buntu
▁R ock
▁[ The
c o
eng th
▁che aper
▁crap .
▁happen ing
▁I d
am b
▁dam age
▁gr owing
▁article ,
▁C or
ing ly
▁Palestin ians
▁mo on
▁sp ir
▁dec is
ut s
▁ex erc
▁&gt; Wh
▁ \
ed d
▁t v
il ities
▁someone 's
i ous,
k ward
▁sh o
2 3
▁comput ers
▁a st
▁H ouse
▁game ,
k in
▁read .
w ar
▁w ater.
▁inf o
▁sol id
▁N ah,
▁Every thing
A ,
- a
ag ine
or s.
▁Af ghan
o om
act ion
▁imm ig
wh y
▁alread y.
il ari
▁for ,
▁jo king
▁c ab
▁gu ilty
▁Sw ed
▁hilar ious
▁exist .
▁fam iliar
▁subm itted
ke ll
▁r ough
▁d irty
▁wor ried
▁[ F
w or
▁lim ited
▁re -
▁hous e.
▁s ister
▁me chan
▁sh own
▁al ive
▁accident ally
▁ma x
▁me !
▁go al
▁O per
▁l oss
ag n
▁P ython
▁c ake
▁s ke
▁los ing
▁mor on
▁dep end
▁re ven
▁jud g
▁support ing
a 's
▁she ep
▁P H
l .
▁m ount
▁part ies
▁fundam ental
▁E r
▁bre ast
us e.
▁H u
▁mot iv
oop s
_ t
▁di e.
E dit
▁K n
u ine
▁[ s
ac hing
▁put s
im p
▁job ,
▁al t
u fact
ag er
" )
▁go ddamn
ick s
▁year ,
fl ickr
▁im ages
▁time ?
▁br own
▁Austral ia
▁... and
5 5
▁2 )
▁friend s.
6 .
▁up mod
▁langu age.
▁* f
▁h on
▁canc er
▁gam es.
▁se ction
▁p ages
▁mean .
▁H D
▁we 'd
▁b ub
▁" Y
▁equival ent
▁ref lect
▁own ed
▁assh ole.
im b
▁B ack
feature =
▁pre c
se e
k a
▁v s.
▁pro ven
ab out
▁out r
▁kid s.
▁dead .
▁t orrent
▁who re
▁mus lim
▁grad u
▁" st
▁ins ane
▁or d
▁b arely
▁C AN
▁elect ed
▁explan ation
▁v irt
▁ab use
▁Ham as
▁dist urb
▁conf l
flickr .com/
inf o/
▁T re
are tt
▁commun ic
&amp; feature=
olog y.
▁sy mb
▁ass ault
▁own ers
/ 3
▁Un ivers
im e.
▁j u
▁enjoy ed
ah .
im al
▁K ing
▁res ist
▁itself .
R A
ical .
ri v
▁sir ,
h ...
▁C S
▁[ N
▁chang ing
▁ro ot
i j
ill a
▁s outh
▁d ire
▁A L
h ost
▁assum ed
▁m al
▁let ting
x y
▁fing er
▁foc us
▁D ear
▁while .
▁athe ism
G B
an ish
▁w ake
** *
el ess
! )
▁Sh ow
▁sudden ly
▁con sequ
▁heav y
▁b read
▁one 's
▁instead .
▁comm it
▁fr ame
▁dep art
w orld
▁Se c
▁end s
▁help .
▁th umb
▁dr ag
▁list .
▁invest ig
▁l ame
▁cre ation
▁bath room
▁ser ve
images /
▁sure ,
▁ent er
▁c ore
▁point ed
or der
00 00
▁better ,
▁ut ter
▁O ld
▁out ?
OM E
▁WH AT
if e.
▁ra ised
▁did nt
▁sol ve
▁post er
▁c unt
▁fill ed
▁politic ians
▁ear lier
▁ ^
d f
▁as ide
▁G old
▁tr ash
▁profess ional
it ar
▁fav our
▁A S
▁all ows
▁kind s
▁r ain
▁cele br
K E
i h
G E
▁Inst ead
FF FF
▁P ar
▁* c
▁cal cul
▁dis s
▁est ablish
▁n ail
or id
▁mist ak
▁ru in
I .
▁5 00
▁occ up
ic ag
▁F ace
▁system s
▁Obv iously
▁o m
▁* m
▁releas ed
▁' em
▁As k
▁word s,
▁d ish
as s,
▁cl ip
ar ah
c ore
ic es.
▁A bs
▁girl .
ucin ich
▁argument s
▁mar ry
▁ex ists
▁Acc ording
▁( f
▁! =
2 9
▁( m
n s
▁M et
▁Yep ,
▁ess entially
▁clos er
▁school ,
▁trad ition
▁O pen
▁serious ly,
z .
▁children .
▁Europe an
▁Serious ly.
l s
▁be ,
▁$ 10
▁DV D
US T
▁dog s
P L
▁mo b
▁guy s.
▁Cong ress
ill ing
▁intellig ence
ian ,
▁te ch
▁t all
y "
ep t
▁Pl us
▁fore ver
▁st ate.
▁* that
▁first ,
▁Eng land
▁leg isl
ri es.
▁g arb
jpg )
▁ch annel
▁situ ation.
▁recogn ize
on ly
▁ide a,
▁group s
at ri
- 8
▁f ag
▁develop ment
▁work ?
▁m ort
▁hard .
▁will .
▁subreddit .
▁F in
▁differe nce.
2 8
▁$1 00
▁remo ved
n ic
▁help ed
▁n ice.
▁tr ail
em ploy
▁hor se
▁su gar
▁A nt
▁se e,
go v
▁bann ed
▁fl at
mp ath
index .
▁bud get
g if
k cd
ic he
oun ced
▁bit .
4 7
▁I ,
▁L ets
▁stat ist
▁L aw
▁vir gin
▁wor se.
▁ex clus
▁Aw esome
9 %
t itle
oooo oooo
▁Californ ia
ah oo
▁dro pped
▁bus y
▁an arch
an cy
ast .
▁ac compl
l =
▁min imum
▁3 60
▁W al
▁in ch
ari ans
ret ch
▁E m
▁3 rd
▁deser ves
▁app arent
i am
▁win .
▁hosp ital
▁belie ves
▁su icide
▁gener ation
.c o.uk
▁g rav
es h
▁T om
▁S ub
▁ :/
▁h ates
▁it 'd
ity ?
▁f ash
▁man ufact
ar l
▁wh eel
▁tort ure
▁la id
OOOO OOOO
▁S en
▁" you
▁c ats
us /
at o
▁Nop e,
▁bott le
▁G OD
▁laugh ed
I V
▁great ,
▁end ing
▁back ,
▁help ing
▁for ?
bl ock
▁disagre e.
▁belief s
▁D r.
▁Hah a,
' ?
▁cr appy
▁program mer
▁cap able
▁just ify
▁sal es
▁bor der
- re
▁p air
ter ,
p ost
f ire
▁sup ply
▁w ikipedia
ated ,
▁mother fuck
▁to ?
▁J ud
▁cont ribut
▁him ?
▁Unfortun ately,
▁sn ow
▁p ool
▁again ?
▁success ful
ay er
y !
▁different .
▁tick et
l es,
i er.
▁charac ters
▁" J
r ound
▁ca uses
▁b ored
▁Im agine
▁Reddit ,
▁sc ary
▁b right
▁B ad
▁best .
ies ?
▁daught er
▁t ree
u .
ter m
▁*not *
▁phot os
U L
▁re ject
▁ad op
S !
▁B es
/ g
▁sat is
▁abort ion
▁gen uine
▁li qu
▁R ich
▁g ang
ve re
▁bast ard
▁te lev
rib ly
▁r arely
▁Vist a
▁d are
▁re b
▁to ler
▁h oly
al ing
ic s/
▁f old
▁great er
▁thing ?
▁h ilari
- B
▁disc overed
▁problem ,
▁mag ic
ate ?
▁Obam a.
▁M en
ind s
▁t able
▁t our
▁truth .
▁is :
o ca
▁B ull
rib ute
▁s orry.
▁[ T
▁suggest ing
▁j erk
▁F F
▁proper ly
▁aw kward
▁that !
AK E
▁clos ed
▁H ard
9 8
▁* you
j a
▁d ict
▁abs olute
▁w ow
▁sum mer
ac on
am ed
?! ?!
▁so ck
▁r ot
ass es
▁claim ing
▁techn ically
▁creat ing
p art
) :
▁Other w
op s
▁Thanks !
▁g ain
▁concern ed
▁view s
▁ um
▁AN Y
in em
▁g ig
all ow
▁copy right
▁3 00
▁[ c
▁den y
▁god .
▁d ying
▁cho ice.
▁ver b
arc asm
▁" a
▁tim es,
▁- &gt;
▁main tain
▁st ab
▁assh oles
_ w
▁school s
▁S P
▁b ang
AN T
▁amaz ing.
z er
▁int ended
▁Re al
▁add ict
/ st
▁bor ing
▁M o
ac e,
a wn
b on
im ately
am ent
her n
▁pro b
▁me ...
▁us e.
▁int egr
▁cont ain
▁point ?
▁B TW
ad ed
▁pred ict
▁sp in
▁teac hing
▁c ateg
▁1 000
▁(I 'm
▁con vert
▁[ L
▁C are
▁viol ent
ut ch
▁democr acy
▁n ative
▁Ex pl
up ,
mm mm
em on
▁chall en
▁bus iness.
▁OM G
▁rem ote
▁up set
ness ,
▁ir ony
less ,
▁on es.
▁impress ion
▁"Wh at
▁l ine.
▁intern ational
▁together .
id es,
▁man age
▁respons ibility
ON E
or al
▁m arijuana
▁d ude,
▁n az
.... ....
▁t act
▁X P
- ch
▁H T
▁or g
▁kid .
ant ,
▁compar ison
▁mo ck
um er
▁mean s.
ant ed
▁answ er.
▁T ot
2009 /0
▁90 %
▁d ry
id ence.
O RE
C E
g e,
I s
as er
▁guy 's
▁F unny
▁m and
en ey
▁cur ren
▁dire ction
▁sad .
▁conv ince
▁&gt; B
▁pow er.
- and
▁problem s.
▁tre nd
▁2 1
▁cig arett
▁understand .
▁pub lish
oth ers
▁inv ented
_ to
r ont
g or
▁sim pl
▁con ven
▁EVER Y
▁st ation
▁finish ed
l iv
▁happen ed.
▁comp reh
p olit
▁O ver
▁eng lish
▁bank s
ot ic
▁[ W
▁program s
▁O H
▁Wh atever
v es,
▁c able
▁steal ing
▁mir ror
▁k iss
▁norm ally
d r
pro duct
▁W omen
▁product s
m ber
▁L ife
t =
1 )
U n
▁birth day
▁click ed
▁boo b
▁Muslim s
▁food .
▁ne ck
▁partic ip
im db
ap pe
rib ution
▁God .
▁experi ence.
▁p oop
▁ch ose
▁re ve
▁convin ced
▁country ,
▁rap ed
_ a_
at iv
▁h ated
_ in
E O
▁E l
ic ial
▁def ine
▁US ,
▁w ont
▁l unch
▁legit imate
res p
▁song s
▁sy mpath
▁a im
▁S n
▁U nt
▁imp act
h a
S ,
▁( a
▁d ial
er. com/
▁Mc D
▁add ing
▁Y E
▁abs urd
the y
- P
▁l ater.
▁month s.
▁M a
▁demon str
▁s ides
▁ob sc
▁des ire
▁L a
▁Sup er
▁foot ball
▁V al
▁troll .
▁el abor
▁Americ a,
▁compl aining
imdb .com/
oo g
▁effect s
4 4
▁pizz a
es c
o s.
▁hell .
▁Ind ian
rem e
▁mon itor
b b
ed ic
▁w it
op ath
](http://www. reddit.com/
▁real .
▁sh ar
M M
▁s ill
ic y
j o
▁tit le.
- 0
▁Be fore
▁Tr ue
▁C O
▁Hell ,
▁chang e.
▁opin ions
oca ust
k now
▁s ending
6 5
▁P ark
▁head s
▁hah a
▁L eg
▁t ons
UUUU UUUU
▁mus ic.
IG HT
▁st on
▁kill s
▁eff icient
er "
▁inc ident
▁S ch
▁Wel come
▁W ere
▁opportun ity
▁circ le
▁h ug
▁system ,
▁C ent
▁attract ive
l a
▁word s.
▁K ucinich
▁ridicul ous.
▁main stream
ab y
▁talk ed
▁is rael
▁* S
▁So cial
ick .
▁se en.
▁Y et
▁am b
▁symb ol
▁dis m
▁J oe
▁confl ict
▁d un
▁s an
▁n ast
▁long .
▁ar my
▁Nop e.
▁relative ly
C D
▁hist ory.
▁surpr ise
▁face book
▁( N
onym ous
ve .
▁condit ion
▁dis like
▁craz y.
ne cess
▁i 'd
▁n a
▁wh y.
▁us ,
▁Con stitution
▁play s
6 7
u le
▁new s.
▁serious ly.
▁h ur
▁att ach
▁Gu ess
?? ??
▁follow ed
▁bail out
▁far .
▁l ength
! *
man .
▁T or
▁form at
▁h ung
▁fl av
▁li es
▁was h
▁Interest ing
▁what ,
▁your s
▁Go vernment
it ies.
▁us ual
▁d ating
▁wonder ful
I n
▁T F
▁more ,
▁hu h?
▁accept able
▁r ab
▁t att
▁inv ent
▁[ O
in ating
▁as pect
▁ro le
▁can n
html )
▁treat ed
▁attack s
▁comp il
▁sh ift
▁from .
▁M ark
▁Def in
▁in comp
▁st ol
▁bas is
▁play ers
▁bl ank
6 /
▁n ar
▁* t
ap .
▁A dd
▁al one.
▁D N
▁Unfortun ately
▁won dered
▁P ort
l aw
's ,
▁G az
▁d im
ant a
ri al
▁H el
s '
▁2 nd
▁J on
. )
▁It al
▁ob lig
▁accompl ish
▁With out
▁( S
▁h ire
ri ef
▁exper t
▁bab ies
▁v acc
▁rem ain
at or.
▁e mer
▁con gress
ed s
orm on
u zz
▁connect ion
▁phot ograph
▁brill iant
/ S
▁min e.
▁&gt; W
▁myself ,
▁news p
▁in j
▁upvot es
▁death .
▁fol k
▁ok ,
in es.
am ,
▁bl ah
▁her self
ad .
C C
▁G U
▁Ye a,
▁imp ly
end ment
▁S an
- th
▁why ?
te xt
▁ach ieve
▁plann ing
▁kn ife
▁Cath olic
/ P
▁en force
/comments/ 9
ee z
▁sca le
sp ot
▁would 've
’ t
▁* A
▁f ont
- 3
▁G irl
▁50 %
▁reddit ?
M .
▁guy s,
▁it em
pro f
▁M akes
▁( d
▁de al.
x .
▁ne ut
▁yeah .
▁$ 2
- e
▁te le
▁retard ed.
" ...
▁s in
ain e
▁R ub
IT H
▁( h
▁ha m
▁sk y
▁D avid
▁reason ,
W W
▁perform ance
▁produ ction
and er
▁stand ards
p age
▁flo or
▁se ct
▁ev ol
▁fact .
▁g all
▁cl ass.
▁st ated
▁st ream
▁sarc astic
▁mat hem
▁sp o
▁he at
u ce
▁de leted
▁" he
▁Ch urch
▁benef its
▁tem per
▁Li bert
▁she ll
▁st retch
▁un c
▁P leas
▁extrem e
▁ch air
if ying
p -
▁thought s
▁fl ight
▁my th
▁A P
▁Damn ,
▁5 .
▁de lete
▁f irm
AT E
▁w ars
▁p al
▁walk ed
▁market ing
▁( if
▁Honest ly,
▁F air
m ind
il s
▁arm s
▁in ?
r ate
▁be ll
▁person ,
uck s
ber g
▁m icro
▁reg ul
h ap
do es
▁sy n
▁woman .
▁Unt il
y 's
▁en s
G G
▁b ush
▁Fl ash
▁$ 3
▁cool ,
▁dick .
▁explain s
▁or ange
▁stuff ,
: **
ag an
▁app le
▁advant age
out hern
▁C P
▁includ ed
y e
▁so on.
tern al
- 4
▁fam ous
▁applic ation
▁move ment
▁W ord
▁Q ue
▁Right ,
▁old ,
▁mon op
am az
▁char ged
▁W AS
▁const ruct
b /
▁A c
▁libr ary
png )
▁st ole
▁bring ing
▁[ G
▁Tru e,
▁thr own
▁b ark
▁resour ces
▁stat us
▁&gt; M
▁kidd ing
▁health y
▁fuck .
\ _
▁joke ,
... but
▁s ac
▁does nt
▁Israel .
▁mis le
▁Ab out
▁U h,
▁thought .
ad e.
sh ow
▁M ine
▁belie ving
▁A ng
▁republic an
/ n
- cl
▁B ob
▁Was hing
v iet
▁corpor ations
▁St ate
▁Fl orid
▁for g
ed !
▁hand .
▁support s
i ents
▁I Q
▁upd ate
▁Rel ig
em ent.
▁wh om
▁ag gress
▁picture .
▁E X
▁dev ice
ist s,
▁( b
▁minut es.
▁Russ ian
▁cl ue
▁percent age
▁tast es
▁( like
er !
▁U m,
c es.
▁pro sec
▁christ ian
▁stor y,
/ M
▁C NN
▁D ude
▁say ing.
▁prov ided
or y,
/ C
▁S ay
st e
T .
v y
um ing
▁sp oil
▁Ch icag
▁Te chn
▁you ...
▁know ?
es b
▁typ ing
▁boy s
▁iron ic
▁S cience
▁fant astic
▁go v
▁vot e.
▁saf ety
k ill
▁advert is
▁prom ot
▁pl ot
ank s
▁200 8
▁cut ting
_ S
▁employ ees
▁empt y
▁dri ves
▁part y.
▁S arah
▁origin ally
▁are as
▁chick s
▁L O
_ C
▁regard ing
▁bull et
▁p ound
▁sold iers
▁ ic
▁here :
▁feature s
ces s.
▁j av
▁St r
▁fil ter
on .com/
▁fr ust
_ and
▁slow ly
▁prim ary
▁phot oshop
on der
▁C ount
re et
ud es
▁s ide.
▁st om
i o.
ful ,
▁really ?
▁proper t
▁kick ed
▁Or ,
▁bot hered
al ed
▁Any thing
h ouse
▁h its
▁M ight
/ ).
▁&gt; You
wh ile
▁be ating
▁future .
▁m en.
▁sour ces
- le
▁serv ices
R I
▁con so
cl aim
▁rece ive
ear ch
▁ass ert
▁lead ers
▁class ic
S E
it ute
ab les
▁d irt
▁Face book
▁O '
▁rock et
▁scient ists
f ect
meric an
a ...
▁leg ally
▁rac ism
▁b ust
▁" re
ast ic.
ear s
▁pat tern
oc rit
▁W in
▁C oll
▁st y
▁"W e
▁occ asion
▁Down voted
▁stereot yp
l ink
ew art
- 2
x ic
▁pain t
▁equ ally
▁inf ect
▁dri vers
▁D ON
l og
▁bitch .
▁we ather
▁* "
▁exam ples
▁cloth es
▁cr imes
▁repe ated
▁about ,
▁on ?
▁n ic
▁so le
▁name ,
▁L ol
k ,
c at
7 7
▁fall ing
▁off ensive
▁suff er
▁Naz i
A B
is on.
▁qu ant
▁f ans
▁Hope fully
i ly,
▁const ant
▁bes ides
▁sure ly
er :
▁tr aining
▁no se
▁i 'll
▁ ing
iz e.
▁str ing
▁r ates
▁want ,
▁N et
▁install ed
M A
▁expl o
▁Ge org
▁gay .
▁examp le.
▁R ob
▁high est
▁behav i
▁h itting
ens ive.
▁downvot ing
3 ,
▁B oy
be cause
▁ag end
▁gu itar
as cript
ii ii
▁propagand a
at es,
▁our sel
oll y
▁e ight
▁hang ing
▁fire fox
▁hilari ous.
▁D an
▁much ?
▁= )
ail s
▁1 :
an ing
gg ed
▁downvot es
▁( for
M B
▁and ,
▁gr own
- L
v est
▁em p
▁stand s
ic s,
▁N ote
▁stra w
ro ck
▁And ,
▁two .
▁obs erv
▁for t
▁also ,
▁troll ing
▁sign ed
r ary
▁but ,
▁c ities
et te
▁just ice
▁else where
▁M ust
IS T
▁open ing
▁Wind ow
▁ignor ance
▁gam ing
▁par an
▁p ump
cept ion
▁fail ure
▁squ are
▁G O
▁lead s
▁M in
▁post ,
▁rem ark
p op
▁think ,
▁We 've
C ,
▁re ci
▁F TW
200 8/0
▁chem ical
▁Tr ans
pl ace
3 8
▁f ap
▁sm ile
▁both .
▁oper ating
▁amount s
ro id
e ven
▁ha ll
▁"I f
od ay
▁develop ed
▁every day
-year -old
▁D ay
▁M P
▁class es
er g
▁at e
▁D ead
▁stri p
▁suppor ters
▁U mm
- 1
▁br ings
▁elect ron
▁* b
ar ,
▁[ http://
▁W rong
▁M od
ra z
▁d unn
l= en
▁McD onald
a us
▁up load
% 3
▁cent ral
▁war rant
▁co ke
( )
▁he aven
▁actually ,
▁mot or
ag ger
▁un employ
ist ory
▁once ,
▁rece ived
▁r ange
▁expl os
▁author ity
ad er
▁Exact ly
i ber
m ate
▁S E
▁day s,
▁w estern
▁c ards
▁O R
▁state ment.
u ous
▁but ter
▁&gt; N
▁t ub
▁t ight
▁al right
- F
▁sur f
▁ep ic
▁fr aud
▁h ob
n ame
l ines
- 5
l ist
on s.
wh o
▁cent er
ad em
▁U RL
- j
omet hing
▁p icking
▁E ast
▁ch ocol
▁ru ined
ro vers
- T
ot hing
▁Gu y
▁phys ics
▁hy per
▁le aves
_ P
▁bu ff
ent ion.
▁lar gest
▁aut o
▁j unk
un es
▁societ y.
▁ @
▁crit ical
▁b attle
▁tri es
new s.
▁att itude
▁D ark
▁fact or
▁D en
Q L
- out
▁yet ?
.com/ )
▁nat ur
▁acc ent
▁ref orm
▁circum st
▁big ot
ww ww
ad a
▁" in
/ tt
▁S C
▁now here
▁skill s
▁div or
a q
▁surpr ising
▁band w
I F
os e.
▁You T
▁cl ient
▁fl ow
f m
▁cod e.
y. com/
▁HA VE
▁support ed
ing u
▁g ender
▁J im
ian ce
▁T er
▁let ters
et ch
... ?
▁vag ina
ry pt
- R
ed ing
▁ {
▁M ad
▁German y
▁answ ers
c 0
▁hot .
-sh irt
g ers
asp x
▁develop ers
▁month .
htm )
▁F all
▁M uch
▁terror ists
▁thread s
▁j er
▁movie ,
▁organ ization
amp le
▁H alf
▁corn er
▁Christian ity
▁disc rim
▁bi as
▁t ong
4 /
▁h o
... and
w he
▁2 :
▁cons cious
▁exper iment
▁&gt; T
p res
title /tt
▁eith er,
at ural
▁C re
▁restaur ant
imdb.com/ title/tt
▁A ir
▁B S
▁programm ers
▁Gl enn
▁pr ay
▁contr ad
ri ve
▁mon key
▁intellect ual
▁nut s
▁def ending
▁carry ing
ri g
N ET
▁else ,
5 /
ig er
▁J er
▁deal ing
▁techn ical
f ield
▁* really
▁o h,
▁F A
▁pay s
k er
▁man ip
▁M ont
▁I ce
▁W ITH
▁with ,
▁G OP
▁offic er
▁rob ot
ie ,
▁win ning
3 9
▁check ing
▁Wo W
es !
▁sci ence.
▁$ 20
▁* n
h l=en
▁un able
▁L ink
om ed
▁gen oc
▁to ward
▁B BC
▁PH P
AN D
▁ele ment
▁creep y
▁Li ber
tr l
s *
▁exc ited
▁exp and
▁delic ious
▁pie ces
▁spir it
ce l
ac le
▁aud ience
▁pock et
▁ \*
▁hour s.
st ers
▁univers al
▁ar row
ash ed
y ing.
▁temper ature
▁N one
▁neighbor hood
or se
▁B o
▁trans port
▁Has kell
▁un necess
▁WTF ?
▁belie ved
▁damn ed
-b ased
▁uni que
il .
▁$ 50
ul s
▁fre aking
▁spl it
▁th rew
▁back wards
▁init ial
▁curi os
gor ith
▁b ound
▁light s
▁sur round
▁assum ption
▁[ R
▁cl ock
ous e.
▁St art
▁cl icking
F C
com fort
b es
ay be
▁" r
▁H ad
▁g ross
▁s ink
▁press ure
▁work ers
▁reg ret
▁G reen
▁F ix
▁level s
▁poss ibility
▁B en
▁S ex
he lp
▁dat ab
ag ue
▁200 9
▁p il
▁h mm
ct r
▁par ag
e at
▁lat est
▁C orrect
▁fing ers
/ B
▁account .
oph ob
ve y
▁So ...
ol ar
▁purch ase
▁techn iqu
▁isn't .
▁compet ition
h and
▁explain ed
▁I ll
or ial
▁Sure ly
▁s le
n .
▁art ist
▁doct ors
ire s
▁mo dd
▁bub ble
8 9
▁Palestin ian
▁S am
ES T
▁&gt; D
ur rent
▁che es
k es.
v in
▁p ushing
▁awesome ,
▁for ces
com e.
▁kid s,
▁internet ,
▁w ow,
▁meet ing
▁L ad
▁th re
▁Canad a.
▁Ch rome
▁perspect ive
▁answ ered
▁"H e
▁account s
▁comfort able
▁ex pos
un s
▁off end
▁How ever
▁live .
▁comput er.
▁least .
** **
▁this ...
▁what s
▁ser vers
ri an
all ed
▁j eal
id ering
▁issu es.
I ,
▁hyp ocrit
▁rev olution
land .
▁satis f
▁detail s
▁over all
oo o
▁sus pic
▁opt im
_ M
▁SH IT
▁ri p
ahah ahah
▁What ,
▁mis under
▁impl ies
▁treat ment
▁claim ed
▁Cle arly
▁j esus
aw k
▁stupid ,
A W
D D
▁l esb
ro ph
▁least ,
▁g ent
ev it
▁home less
▁g ra
▁suck .
▁p atch
▁un w
▁buck s
▁fail .
▁S we
▁Person ally,
▁f ox
a .com/
▁custom ers
▁didn't .
▁who ever
▁man 's
▁invol ve
E x
yn am
▁burn ing
▁Da ily
▁Israel is
cl es
es is
▁pro pos
▁includ es
▁gu ilt
c raft
▁a id
am ily
▁tatt oo
▁U h
id th
▁l ess.
▁10 %
▁be ?
▁St ewart
▁subs id
▁descri bed
▁te eth
ack ed
▁c ous
▁sh ap
en omen
- ass
▁In c
▁rel i
on ic
▁surv ive
▁every one.
al ty
▁car ,
ac ed
▁new s,
▁sol ar
▁sport s
▁T urn
et or
ne ck
kn own
▁ar r
re p
▁ins ist
▁sol ut
&amp; q=
▁' b
▁he y
▁lol .
▁Bu y
▁l oop
ct u
▁girl ,
▁home work
▁p eop
iz ed.
▁mur d
▁th in
▁be er.
▁sc roll
▁opp ress
▁des per
▁k itch
▁opt ions
in ation.
▁Ch eney
▁Ne ither
▁independ ent
▁b ul
▁anyway ,
▁pro st
▁univers ity
▁have ,
▁* sh
▁We 'll
▁repe at
▁sur ger
▁Ph ot
▁T R
ed ly
▁B udd
reddit.com/ info/
▁opin ion,
▁L ots
ri p
▁it :
▁he y,
▁Yep .
h ack.
▁disappoint ed
f il
▁( c
▁ab st
▁arrest ed
▁qu iet
o 's
▁ch art
▁g ar
▁accept ed
▁d ut
▁h ipp
ad s
▁know ...
▁A C
est ion
▁influ ence
▁fin e,
▁Ar t
▁dis appe
▁str ict
▁m ic
b ow
r ain
b od
▁Pl us,
▁Anyway ,
▁a ck
▁W all
▁dep ending
▁stol en
i _
▁Gl ad
▁g roc
▁Afric an
▁all ?
os aur
- like
▁plac e,
▁explain ing
▁a x
▁in herent
ch ar
▁scr atch
▁R AM
&amp;feature= related
▁Cong rat
▁* any
▁sh out
▁Dep ends
▁4 5
ing !
▁Still ,
▁&gt; O
▁set tle
▁m ile
e lect
▁polic ies
▁refere nce.
or ter
▁Washing ton
▁l ed
▁M iss
se x
▁R and
▁anyway ?
▁Where 's
▁mach ines
ww w
▁' f
▁f art
▁n orth
▁young er
▁[ the
▁say ing,
el f
▁C our
▁M ag
r an
nt ax
▁Al most
▁cr is
▁U nder
▁garb age
pr int
▁I R
▁L o
▁S ur
▁but ...
▁se es
▁is ...
t in
▁mag az
▁f if
▁today ,
blog spot
▁compan y.
,000 ,000
al king
2 )
▁f ro
▁yourself ,
▁appl ies
▁un b
iz ation.
▁believe .
▁puss y
▁open ed
▁right s.
▁Se e,
▁as ham
▁veh icle
▁around ,
▁fam ily.
▁G ET
▁sense ,
▁C OM
a very
I E
▁friend s,
s m
▁tr oops
▁* p
▁except ion
▁rac ist.
▁" we
▁er r
▁ca using
▁like ?
▁fash ion
▁own er
▁mag n
▁wrong ?
▁irre levant
▁ide al
▁un it
▁off ice.
▁conclus ion
▁cl imate
▁M r
ly ?
ast e
▁ins ight
▁off ered
▁engine er
ub s
es ter
▁cre am
▁w ave
▁comm itted
▁ch ances
▁la wn
▁e ast
▁say s,
▁spell ed
▁typ ically
▁mix ed
S A
▁as ks
▁pl ans
lev ant.
▁C IA
▁I .
ism ?
▁republic ans
▁* The
are .
▁Who 's
▁su e
▁b tw
v ing.
▁L ond
▁pull ing
▁3 2
▁tal ks
at ic.
▁= =
/200 9
▁circum c
▁pregn ant
▁Ind ia
▁st aff
▁back ward
▁Pro f
iction ary.
-C -C
▁*that *
/ 10
▁state ments
s -
▁P M
▁c ert
▁p ix
▁or ang
▁*really *
▁int ent
urb an
O X
▁6 4
▁# 1
▁pass ing
▁t ape
▁$ 4
ost ic
oo b
▁go ,
▁d ed
▁president .
▁G iven
▁Us ually
▁government ,
bel ie
▁what so
▁L ear
?! ?
▁D ar
▁administ ration
▁dig ital
▁parag raph
▁conf using
est ic
an cing
▁spe cies
▁dist ract
▁n u
olut ion.
▁S il
▁com ed
▁per man
h en
ng th
▁ac qu
▁G ree
▁ha bit
▁L uck
▁crim e.
▁K arm
f ast
▁sh oes
he alth
▁cult ural
▁sh ape
clud ing
▁now ...
om s
▁question :
▁candid ates
▁l oose
▁Pr ot
▁vis ual
▁N OW
▁Reddit ors
▁P ak
▁read s
ang el
▁n in
▁( at
pp er
▁conso le
ire .
▁al i
▁So viet
▁sign s
b e.
▁eas y.
▁philosoph y
est ,
▁co inc
flickr.com/ photos
ap se
if ies
▁worry ,
▁T im
▁un ion
▁descri ption
▁mult i
▁fam il
▁ch oos
▁tool s
▁ch ip
k en.
▁po ison
▁bo at
▁care er
▁B us
/ re
▁ac id
no v
il ight
images hack.
▁2 2
_ B
▁jo int
▁&gt; &gt;
▁of ,
▁cry ing
▁D og
▁dis ab
▁replac ed
▁video ,
▁( with
▁ex change
▁world 's
is ed.
▁act ive
▁ped oph
▁leg s
▁war ,
▁s ist
▁ta il
](http://www. m
▁St upid
▁break s
▁H ot
▁Z ion
▁w edd
▁minor ity
▁anal ys
▁H ol
▁i T
▁sh ad
▁do ing.
ab s
▁pir ate
▁p ink
▁matter s
d oc
▁DR M
g ood
▁en light
▁al gorith
▁As ian
▁imp lying
d ot
▁st im
▁Cons idering
- O
▁M ur
▁F unn
▁house ,
upload s/
▁1 ,
▁K ill
.jpg ).
_ A
AR D
▁b um
F L
in form
▁go vern
▁o ce
B S
▁think ing.
ry ,
▁mom ent.
c ott
if e,
▁not e,
ate ly.
n a
e e.
▁friend ,
▁n ice,
n am
▁human ity
▁di et
▁cart oon
d en
▁ar bit
l or
▁HT ML
▁any one.
iv ity
▁Hmm ,
▁They 've
▁re ward
▁E nd
▁C EO
▁though ...
▁ ub
▁emot ional
▁mad e.
ou st
▁happen s.
_ is
▁f le
▁all eg
▁lab or
▁inst ant
-t ime
▁b ik
▁ev ents
▁C L
▁en gin
▁We b
▁cens or
ra wn
▁politic ian
▁off ended
▁ev idence.
▁screw ed
a fe
v ill
▁we igh
▁illeg al.
▁&gt;I f
▁pro ves
▁redu ce
▁batter y
▁M or
ke l
▁rid ing
▁off ense
▁ok .
▁market .
▁pro ced
▁arm ed
.... ..
▁la z
▁F ind
g irl
it arian
ur l
rel ig
▁wor ship
▁all owing
▁up per
i ate
▁food ,
▁social ist
▁h idden
▁apart ment
▁L ou
▁himself .
▁Sh it
▁sh aring
▁left .
▁S orry.
d .
▁done ,
un ning
▁am .
▁real ity.
▁they ?
ly mp
ct or
reddit.com/ comments/
▁al ot
▁set t
▁2 ,
▁r ating
▁el im
ou che
▁are a.
▁so ap
ic ing
▁re verse
▁out s
gen cy
▁val ues
T V
▁is nt
ur day
▁gam es,
▁porn .
▁infin ite
▁G ame
▁bl at
▁Reg ard
▁mind ,
▁level .
▁zomb ie
▁A tt
un te
▁tw ist
▁&gt; P
▁conserv atives
▁Fed eral
▁peop les
oo per
▁De ath
That 's
▁sm ug
▁appe al
▁Comm un
▁through out
▁water ,
▁B ur
▁was ting
bl ing
EE P
play er
7 4
al in
on ent
▁well -
▁warn ing
▁w age
os ed
5 00
▁ack now
▁point s.
ation s,
▁con ce
▁law ,
t here
▁agre ed
e ed
arc raft
▁ri f
▁cap ac
e en
▁D ick
that 's
on 's
▁h ors
▁2 3
▁conc ent
▁incre asing
▁pre -
▁hope fully
▁B at
▁stri ke
▁d ies
▁punish ment
i ?
▁equ ip
! **
▁sal t
▁relig ion,
ch .
▁sex ,
▁be ach
▁phys ically
ul f
▁year s?
▁ble w
r ite
K .
▁se ven
▁te a
▁prep ared
/ ?
on ?
▁i .
▁find s
▁t ur
▁inter act
▁high .
▁room .
▁hyp oth
▁h es
▁fl ip
](http://www. s
▁poor ly
u e,
▁per pet
▁RE ALLY
▁report ed
▁par king
▁vir us
pl an
▁doesn't .
▁W OR
▁book ,
▁Ste ve
▁un re
▁care ful
b re
▁ag e.
▁dom ain
▁graph ics
▁S aud
▁j e
ul ated
▁relig ions
▁guarant ee
%2 F
▁me l
▁custom er
▁W estern
pell ed
▁night ,
▁happ y.
▁a th
▁G M
▁ph enomen
▁civil ians
o )
▁vag in
▁co -
▁bad ly
▁*you *
▁* and
i ent.
▁confus ed.
▁comment s,
▁warm ing
▁nast y
▁hat red
▁show er
▁V ir
▁aud io
A sk
▁weird .
r ink
▁h unt
▁ton ight
HHHH HHHH
▁attack ing
▁sort s
▁act s
▁P ot
ess ed
▁of t
ro b
▁C ra
▁ch ain
▁( n
▁There fore
▁/ s
▁though ?
▁b om
▁be ef
▁t ask
ac s
p arent
m in
▁does ,
▁Th om
ard ,
▁dist ance
iz ations
▁feel ings
r ational
▁Afric a
▁away ,
▁way ?
p- content/
▁evil .
▁h int
i. e.
our se
▁occ as
RR RR
▁child .
▁Qu ick
ing er
▁colleg e.
▁home ,
ograph y
i ation
at s.
▁re nd
▁stom ach
os en
▁E as
bl ack
▁quot es
▁favour ite
▁S k
▁Pl ay
ic .com/
▁A W
▁w ine
▁Defin itely
▁r am
▁N AS
blogspot .com/
▁Oper a
u rop
▁br anch
-to -
▁U gh
▁Sad ly,
▁mind s
▁pat ent
▁Inde ed.
▁kid ,
8 2
▁app s
OU LD
▁women ,
j ud
▁own s
▁NE VER
ers !
▁char ges
▁shot .
▁sy ntax
r ough
▁N ational
▁experience ,
▁outr age
ish ed
▁att ention.
es. com/
▁H um
▁lob by
▁princi ple
▁R ad
i oc
▁comment ing
▁Ph il
▁hyp ocr
▁ch in
▁ey es.
▁song .
uck ing
▁dif f
and on
█ █
olly wood
▁eth nic
▁Al ways
▁fem in
▁point less
▁Bl ue
▁Should n't
D F
a /
▁s ne
▁P oint
o !
▁br ut
▁manag ement
▁wit ness
▁depart ment
▁Us ing
▁Sm ith
▁J o
▁p itch
O B
ug s
▁lawy er
▁Bes ides,
▁ter rif
▁expl icit
▁comp aring
▁din ner
▁F act
search ?q=
▁jew s
▁r ise
▁tri v
▁advert ising
▁K N
▁di am
▁Fr ance
▁morn ing.
b an
n ing.
ie =
▁F org
lo ve
um in
▁rh etor
▁Obv ious
▁p age,
▁l atter
▁exerc ise
▁DON 'T
▁assh ol
osp here
ar g
en -
▁st ating
▁suff ering
a "
▁mistake .
▁pro port
▁decis ions
▁context .
l ay
▁h ill
▁Y ES
▁port ion
ON G
▁bal ance
▁S chool
▁friend ly
w ater
▁sp ace.
▁too ...
uck et
▁F Y
▁p in
▁Obam a,
▁experi enced
▁9 9%
▁Rem inds
al bum
com ing
ail .
▁engine ering
▁H ome
▁capital ism
▁us age
▁impress ed
▁submiss ions
gy pt
▁say ?
▁sp amm
▁long ,
▁C ity
o very
put er
▁H ahah
▁pat ri
▁critic ism
▁at .
▁sent ence.
▁R om
▁less on
▁un cle
▁sm arter
▁honest ,
▁mur dered
▁d ance
▁Afghan istan
▁w et
▁lock ed
▁L ittle
▁mov ies.
▁f rench
ig sl
ell ig
▁in evit
▁ment ally
at ical
▁to ss
pe ach
▁comb ination
▁iP od
▁' c
▁D el
▁mouth .
▁destroy ed
D E
** ,
▁st ress
▁me g
▁cont rovers
v is
▁simple .
fere nt
▁here ...
▁for cing
vie w.
▁them e
▁attack ed
▁tax es.
im age
re .
▁unfortun ately
▁compl icated
▁book s.
gramm ing
▁ke ys
Ask Reddit
▁draw ing
a e
▁controll ed
▁un comfort
an ny
vide o
- 10
▁a h
▁D et
▁com edy
▁prov iding
▁fund ing
▁L ord
▁rem em
▁woman ,
▁o l
ers "
ww .
▁har sh
▁dist ribut
▁M ass
AHAH AHAH
v id
f ather
ist ?
▁question s.
▁ske pt
▁whatso ever
▁respons e.
▁adm itted
st al
we ight
▁r om
▁[ h
▁PS 3
K K
▁dism iss
b e,
▁M art
▁al arm
A G
▁control .
op p
ack ing
gg ing
▁unf air
▁[ E
▁cent ury
▁li e.
▁prom ise
ph as
▁Univers ity
▁P at
▁no ?
▁per hap
▁inform ation.
▁ex cess
land ,
reg ard
▁else 's
▁W ars
man ,
id en
-f or
an ut
▁col our
ild ren
▁" no
or ough
▁list ed
▁+ 1
▁heav ily
s ).
▁tw itter
▁sca re
ig ger
▁g ear
▁pract ical
▁[this ](http://
▁" This
▁lead er
▁encour age
▁bl own
▁adv anced
▁gen ius
ence ,
▁veget arian
▁S af
▁correct ly
he ll
▁emot ion
9 3
▁A R
r ast
a uc
▁Seriously ?
▁stre ngth
um s
▁int end
▁disgust ing
▁th ick
▁it ems
▁Was n't
ish ,
▁fun ct
▁sw ord
▁suggest ion
8 3
▁v an
▁telev ision
▁mo de
▁con duct
▁li ves.
▁1 st
▁otherw ise.
ack s
▁ar rog
▁p ile
▁hell ,
▁for b
▁fall s
▁at m
▁met aph
▁ob ama
▁* l
▁YouT ube
sp ace
▁genuine ly
▁We ird
▁far ,
n ight
▁link ,
](http://en.wikipedia.org/wiki/ S
▁D S
N G
▁gee k
▁( p
r ating
▁life ?
▁S ir
▁associ ated
M S
▁F B
iction ary
▁pack age
▁bod y.
▁( C
p ace
▁democr atic
▁air port
▁up modded
▁Are n't
iz ar
▁ignor ing
% .
▁n ations
▁vers ions
▁A ID
▁S S
▁another .
▁tax p
4 6
▁be g
▁get .
▁ob liv
▁sit e,
▁breat h
▁tri ll
▁store s
whe lm
▁( i.e.
▁thread ,
▁In s
wor ks
▁sl avery
it led
▁protect ion
▁G re
▁mor on.
▁fr uit
▁cl oud
▁educ ated
R .
p m
▁I I
ol er
▁c ere
th en
▁ag n
▁"I t's
▁w /
▁A B
▁v ill
▁scre aming
▁Be at
▁d u
▁ON E
▁cr ush
▁deli ver
▁Bar ack
ac y,
▁do zen
▁ser ious.
▁se a
W H
▁Al ask
▁so ?
▁sour ce.
▁WW II
▁S uch
are n
▁lo an
▁reason ing
▁bow l
= 0
_ l
▁in put
D S
▁hor ror
ered .
gr aph
▁sold ier
▁ ought
▁ign ored
▁G ore
▁H aw
ed uc
▁cons ent
7 2
▁somet imes.
▁3 5
▁inde ed.
ign ed
imageshack. us/
n er.
ag es,
▁L ist
▁oursel ves
is ely
▁mem or
▁P oor
se y
▁disc over
▁fan cy
▁yell ow
▁E U
▁defin ed
Wh at
▁p ipe
▁webs ite.
▁through .
▁dun no
▁li ft
▁P E
f ord
amaz on.com/
▁stop .
org an
▁cor rel
▁struct ure
▁path etic
▁log o
▁vol unte
▁C #
ul u
▁real ise
▁strong ly
▁challen ge
▁m erc
▁dis p
▁mort g
r m
▁reason s.
▁sill y.
el ,
▁pl ants
ther n
▁col on
k ers
n es
9 2
▁W ork
▁Up modded
ik i
hh h
▁pro hib
- de
f in
▁Up vote
st ate
▁serv ice.
▁th ro
▁stop ping
▁B UT
▁remind ed
▁un us
▁lead ing
▁suppor ter
▁vers ion.
▁B ank
p-content/ uploads/
▁upgr ade
▁dec ades
acc ur
▁sus p
▁collect ion
ib ility.
▁tr ait
d ro
▁cr u
▁( B
▁forgot ten
▁w est
or s,
▁inter face
▁asham ed
▁&gt; C
▁ident ify
it es.
▁p oo
](http://www. imdb.com/title/tt
▁dog .
▁dr am
er ved
▁curren cy
▁there ...
▁boo bs
](http://www. c
r id
▁s ung
olog y,
ro ad
r ad
▁fuck s
▁sex y
wh ite
▁vot ers
l ord
f =
▁report ing
7 /0
- E
▁dise ase
h ttp
ER S
sh it.
▁pow ers
▁c ure
▁car bon
res pect
b les
▁C R
i at
▁ed ited
▁would .
▁M iddle
](http:// m
▁J ames
▁dec ade
▁worth less
▁cas ual
edit :
▁well ?
▁regular ly
▁ch ill
▁sound ed
▁par ad
I CK
▁histor ical
▁st age
▁econom ics
▁pract ically
▁l one
▁T ur
ell ,
ah a
ens es
▁Paul .
▁sub tle
/ A
▁chocol ate
et ary
▁" not
▁* P
al u
c il
oun ter
▁support .
▁sub t
-h and
▁shot gun
y es
_ n
m A
▁k ing
▁also .
▁L ong
▁t -shirt
▁to oth
▁needed ]
▁Tw itter
▁t one
# #
▁conv ention
th ,
▁night m
▁res ort
▁M M
b ama
if orm
▁met ric
▁conven ient
▁up !
▁insan e.
le tt
▁d ust
▁inf er
▁kidd ing.
▁coll aps
▁now !
▁produ ced
i ver
▁main ly
▁week ,
enc es.
athe ism
▁H U
RE AK
▁coll apse
_ 0
▁6 .
▁Sp ace
▁org asm
▁c os
imageshack.us/ img
▁teach ers
▁determ ine
▁everywhere .
▁vag ue
av y
U TF
w ing
!!!! !
▁r ail
▁fant asy
▁Get ting
N T
▁po ly
▁i. e.
▁pres um
▁incred ible
▁ter rit
O ,
▁* the
▁shop ping
▁switch ed
al ?
▁Sun day
6 00
_ you
▁L isp
▁J an
s es
▁karm a.
un ction
▁( M
▁fun ,
▁w ipe
a le.
w rit
▁while ,
▁pret ending
OT H
▁fre e,
▁liber als
▁adop t
g er.
as e,
ed ge
▁tri gg
▁D U
▁Jack son
▁R ick
▁qu arter
▁high light
▁prov ides
▁webs ites
... )
▁wait .
▁expl od
▁d uck
▁place ?
▁blood y
ic ien
▁" pro
▁D i
▁exist ing
▁rock ets
▁cr uel
▁r aw
ur y.
▁music ,
▁train ed
ul a
▁oft en.
ri es,
way .
ub m
F A
▁test ing
x kcd
▁deli ber
▁f ict
▁was ted
▁thought ,
▁T alk
▁invest ment
▁sp ray
▁nons ense
I VE
▁g oog
▁B L
▁over ,
▁liqu id
tr ans
▁r um
▁everyone 's
▁THE Y
▁ne o
▁b att
▁d up
▁w ise
AC T
▁apolog ize
▁* H
▁day ?
▁comp ress
▁ok ay,
p an
▁It 'll
▁fast .
▁St ud
▁degre es
▁D ID
▁dial og
u y
▁sleep ing
▁effect ively
▁ref ers
▁appl ied
C A
▁w ip
▁gen i
▁Cl ass
k i
▁t as
itut ion.
▁r ant
▁Ha ven't
▁bill ions
/comments/ 8
▁sa uce
b a
▁aw ard
▁exact ly.
ar ry
rast ruct
▁money ?
▁L E
▁stud ies
5 4
▁the ft
▁paran oid
▁rep ut
▁Canad a,
▁L at
▁Pleas e,
G H
▁t or
▁A lex
es ome.
▁or dered
rist ian
▁manag er
▁Democr atic
ber man
▁rest r
- off
▁no ise
▁t ends
- H
▁att end
▁attract ed
▁* are
▁' d
▁En joy
n ers
▁H i
▁gent le
▁sk ip
▁C op
▁box .
k ind
▁else ?
tm l
▁swe at
▁ad just
v il
▁opt ion.
N ew
▁profess or
orm al
ol t
▁count ries.
▁har ass
▁F ur
▁comp at
▁b ite
▁speak s
e ?
▁individual s
air s
ke ys
▁discuss ion.
▁b rief
est ed
▁interest s
▁lo ving
▁anything ?
_ .
▁trans fer
▁pen is.
▁T op
▁second s.
▁laugh .
p /
▁Every body
▁so ...
▁consum er
▁he ight
▁addit ional
▁AM A
▁way s.
▁Libert arian
wh ich
L C
▁we lf
▁lif et
aa a
▁he ck
▁eat en
▁fr ank
▁gen etic
▁10 .
▁rest rict
▁7 .
▁go at
▁whatever .
▁Ir ish
▁pron ounced
▁"I n
▁matter ,
he art
▁- --
▁part ,
▁Ste am
▁c yn
▁TF 2
▁esc ape
▁When ever
▁ste am
user /
aw are
▁bill s
▁J UST
▁enem y
▁Br own
8 00
▁am endment
▁tr y.
▁&gt; *
▁/ b/
▁dis pro
▁polit ics.
new s
▁m ild
▁hard core
th es
▁Right .
▁Cap tain
stand ing
▁hold s
▁20 12
5 6
▁L ive
▁V er
▁Some body
ob ucket
▁( P
▁Really ,
▁gr asp
▁S N
▁ q
▁* B
▁shock ed
edu /
▁exactly ?
▁Otherw ise
▁prosec ut
▁rough ly
▁E lect
-w ing
▁incre ased
▁Ag ain,
▁des ert
▁Sp anish
▁r ang
s. org/
▁can ,
▁co verage
▁is land
ott a
▁other ,
▁suff icient
▁im per
▁child hood
. *
▁sem i-
▁girl s.
▁( D
am in
▁was t
ct ure
▁downvot ed.
▁P ower
▁&gt; F
▁side ,
▁h iding
▁typ ed
AM N
um ,
▁suggest ed
▁don ate
▁d ynam
8 )
▁Al right
Q u
▁analog y
at a
▁important .
▁bad ass
om p
▁care ,
▁LI KE
▁hous es
b .
b ay
▁an gle
▁man !
▁e lev
a ed
▁camer as
▁ult imate
▁Hah a
▁be ats
▁correct ,
▁th ose.
▁n umer
▁pur s
▁US B
for um
▁http://www. s
▁inf rastruct
▁hurt s
ed *
OW N
▁test s
▁ap ost
▁cont ains
con f
i ac
▁Off ice
▁ins p
▁p ounds
▁attempt ing
▁somewhere .
▁m ood
▁* M
▁Sc ott
▁fant as
ep s
m other
u ild
▁stop s
▁H uman
▁res olution
▁ 're
▁awesome !
▁"N o
▁L A
▁V is
▁Tr ust
v ention
▁obv ious.
▁cy cl
r ot
▁where as
▁Vir gin
▁ne at
▁refere nces
▁gun .
▁utter ly
▁Rich ard
i. imgur.com/
▁win s
▁" ...
▁bit s
▁pun ctu
▁dist inct
▁discuss ing
▁k ern
▁ac adem
▁ch op
▁L OT
ub e.
▁pro s
▁D ub
▁' h
▁L ight
ex pl
p al
el s.
▁rat io
▁Ir on
▁C ut
a j
ul ating
▁your s.
▁[this ](http://www.
▁wal ks
▁start .
▁Val ve
al y
▁D C
▁an cient
▁M AN
▁hon or
▁addit ion
▁ch at
▁*and *
▁as s,
▁athe ist.
▁annoy ing.
▁O' Re
▁co ast
▁ser ved
▁9 11
P R
se ll
▁w ow.
▁ok ay.
▁amaz ed
▁effect .
▁wait ...
if ferent
f w
eff ect
▁d ow
▁J eff
▁statist ics
av ed
f re
pres s.com/
▁offic ially
▁4 00
▁t urt
▁sa v
ard en
▁sung l
▁* C
▁problem ?
▁rep ost
ore .
▁fire .
▁Qu ite
▁[ "
▁invol ves
▁ent ry
▁m all
▁Wh ether
im ages.
▁P op
▁E gypt
▁think ?
▁invol ved.
▁Ye a
▁Cons erv
▁med ium
▁fault .
▁w ww.
ri l
▁F ight
▁groc ery
▁gu ard
▁R oman
▁X box
ust er
▁idiot s.
▁Budd h
▁1 50
▁enjoy ing
▁impress ive
x x
p df
▁mach ine.
▁t un
▁tradition al
ros s.
▁Pol ice
▁C A
▁O UT
▁view point
▁Gr and
▁st ars
▁down ?
▁M ormon
urop e.
▁t in
th read
▁a ver
▁che ating
▁American .
l ine,
▁:- (
▁sa le
▁c aps
▁C ON
il ed
▁What s
o ice
ex cept
▁rac ial
▁pain ful
▁post s.
▁TV .
i os
▁sl ave
▁she l
▁children ,
▁rem ains
▁B ell
ere r
ob s
▁Lear n
▁M ario
▁Naz is
▁P A
▁Th ree
▁state ,
▁ill ust
▁suck ed
▁fail s
▁Th ings
▁bl owing
▁rel ax
ie= UTF
▁why ,
▁teen ag
▁ass ist
▁bac on.
▁res ident
re nd
▁ab andon
▁pure ly
▁l ately
w as
▁l in
▁tong ue
▁end ,
▁Any body
4 )
▁8 .
▁dunn o,
▁in h
ic ation
ak .
▁ir rational
ch ang
▁fore ver.
▁Mexic o
▁large ly
▁frequ ently
▁inst ance
er y.
▁dri ven
▁crap ,
▁budd y
▁offic ers
▁Part y
▁ball s.
f all
▁week s.
▁to y
se ct
▁help ful
▁jump ing
▁O dd
▁Sh it,
▁St reet
▁creat ive
▁Per l
▁Could n't
I t
▁P ri
▁gr ant
▁episod es
▁w is
▁an onymous
▁government s
4 ,
▁S qu
▁r oof
▁shit ?
wh en
▁Sim ps
gre g
▁poss ess
▁Ne ed
▁c am
om y
▁J u
▁jeal ous
▁[ J
TH ING
▁cont ent.
/ D
▁do gg
▁f ab
▁sh ark
▁burn ed
it !
▁Canad ians
▁pron ounce
▁( al
▁bug s
▁mult i-
▁Brit ain
▁kitch en
▁Cap ital
ce ler
▁man ual
▁form s
aw g
et ic.
word press.com/
igh *
▁inst ruct
▁same ,
▁adv ice.
▁mess ages
▁WH Y
OS T
▁NY C
▁lad ies
▁unlike ly
▁n it
▁h ence
oo .
▁as leep
▁death s
ing *
▁st one
▁Up vot
▁funn ier
▁S anta
▁manufact ure
d ed
less ly
▁b in
▁comp rom
Z Z
t ,
▁English .
▁* st
▁natur ally
▁aw h
▁M il
▁IS P
u ge
▁* D
▁dis aster
▁commun ity.
G A
▁4 th
▁play .
ing e
rop he
▁stat es.
▁tw enty
▁bor row
ed ...
▁with ?
▁t ied
b in
▁dev il
▁her ?
▁Sm all
ud ge
et ter
og rap
▁" sh
▁n ipp
▁word ,
ex ist
4 8
▁langu age,
_ st
▁R ED
▁over whelm
▁Chicag o
reddit.com/info/ 6
w ear
re dit
▁Agre ed,
r ument
▁P ir
▁ent itled
▁' n
▁head ,
▁rac e.
W e
res s,
rr rr
▁st er
est s
- on
ing ...
▁fl ood
app ropri
ly *
▁P olit
▁Rub y
▁m ature
](http://en.wikipedia.org/wiki/ M
▁deli very
g am
▁s ight
▁refer red
▁m art
▁c ir
▁set up
▁B uff
▁un iform
ro duct
ical ,
▁2 6
te chn
▁Pl an
▁inv ite
▁sh ared
▁At l
▁" Th
phot obucket
▁ord ers
▁rep rodu
-d own
▁better ?
▁hand s.
▁Austral ian
ic es,
▁red neck
▁wr iter
r t
▁bas h
▁200 7
▁bon us
▁Tre k
▁* every
▁inst rument
photobucket .com/
▁W ater
▁They 'll
▁scre am
▁ded icated
▁base ball
▁H om
▁second .
▁l it
▁sens ational
▁Gaz a
▁Democr at
▁BTW ,
▁inc ent
▁know led
▁ch osen
▁I gn
](http://www. google.com/
▁( but
▁ph ones
▁s ust
▁Y outub
▁man ner
▁Y up,
▁cal m
▁Phot oshop
.co.uk /
op her
▁period .
e h
▁exper im
▁CP U
▁b ars
▁g al
▁ph one.
▁Sec ret
▁bar .
▁[ d
](http://en.wikipedia.org/wiki/ C
an ?
▁( l
ot a
▁administ r
▁for th
▁store .
a ugh
vel ope
▁[c itation
▁Ch ar
um n
▁" un
▁work s,
▁after ward
ul ations
▁off ering
▁stupid ity
▁love .
▁IT 'S
i 's
▁r ush
ia ?
▁tal ent
▁loc ation
▁infl ation
▁contrad ict
▁w ife.
ate gy
▁shot s
▁T yp
▁P ay
▁applic ations
▁tri al
▁miss ion
album s/
▁be ard
▁v en
▁K ey
ot ch
▁add s
▁red und
able ?
▁signific antly
eal and
) ...
▁Bush .
▁L og
▁p ra
▁par all
▁S ource
▁question ?
_ D
▁dumb .
▁Pak istan
▁respond ing
▁anyone ?
ur .
▁ca us
](http://www. b
Edit :
_ g
▁f als
▁cho ices
▁differe nces
▁fake .
▁fail ing
▁she 'll
e 's
▁sp are
▁V iet
▁ter ribly
▁curi ous.
▁tre es
▁"C h
k et
▁* all
▁mess ed
▁Spe aking
▁Ad m
▁be gan
▁R og
▁read ,
▁dec re
OU T
▁r is
▁F ar
▁set s
▁R ush
▁gener al.
▁creat es
▁elect ion.
▁consequ ences
▁mag net
▁employ ee
▁bar rel
▁plan et.
▁Y ay
e in
▁hum or.
7 9
ic ious
](http:// img
▁one !
mo z
▁situ ations
▁ —
I RE
▁interest ing,
▁j oy
▁sup pl
D P
ush room
anc es.
▁sp y
▁law s.
▁random ly
▁exist ed
▁AT &amp;
▁M ind
▁[ f
▁search ing
er ation
N 'T
▁d udes
▁Col bert
▁sy m
▁software .
▁Relig ion
▁fan boy
▁G N
▁b izar
▁smo ked
ri fic
se mb
▁Ch uck
▁pr ime
awk ins
▁sex ually
▁He alth
_ 1
▁econom y.
▁"H ow
▁' m
.html ).
▁Jesus .
ative .
▁&lt; 3
_ on
▁time ...
r ants
▁person 's
▁Saf ari
▁pro cess.
▁comp ens
ake .
▁push ed
▁I re
▁cl othing
▁express ion
▁V ote
▁Some how
ic an
▁mo l
▁prof ile
▁occasion ally
in ction
▁Look ,
▁men u
▁de let
▁shar p
▁sl ap
▁ridiculous ly
▁obsc ure
▁e -m
▁lif est
▁here !
▁adult s
2 1
▁cous in
▁well ...
▁in nov
▁act ively
▁ed ge
▁in accur
](http://en.wikipedia.org/wiki/ A
▁p y
cl ude
▁win ter
▁d ated
▁not ion
▁function al
s he
▁st amp
t v
▁rep lying
▁guy ?
▁pot entially
▁dollar s.
▁pe anut
▁F D
▁now ad
▁dress ed
▁Tot ally
▁sp ons
▁dec ad
▁" th
est ine
▁ch uck
▁w itch
▁[ m
▁build ings
▁few er
▁st ink
al ib
▁n ick
▁se ed
i xt
▁co c
▁ri pped
▁vol ume
▁elabor ate
▁social ism
▁Pro blem
▁reg ister
▁the ory.
▁subst ant
▁KN OW
▁victim s
▁gun s.
an 's
▁g ather
▁( un
▁subm itter
▁appro ve
▁B ook
com .
olog ist
te en
▁W ILL
t w.
▁up s
OU S
Y !
▁W onder
▁polit ically
▁later ,
▁repl ied
▁log ic.
▁part ner
▁Sh ut
▁ri ot
▁Le ft
▁( O
▁3 :
ocr acy
▁ch ap
▁ground .
▁attach ed
▁It 'd
v an
▁O lymp
▁b og
▁r age
▁( t
et ically
▁" K
▁ne ed.
de v
▁develop er
▁al ph
▁smo oth
s ://
▁trans m
▁odd s
int end
▁intern al
▁lol ,
▁F L
▁democr ats
▁V i
▁t empt
/comments/ 7
AY S
▁"Wh y
▁M om
▁tr ut
▁am using
▁di ed.
▁stre ets
▁3 ,
▁bi ased
ber ry
▁stay ed
▁grow th
▁1 /2
▁in ject
. php?
-s pe
P E
▁** I
▁genoc ide
y -
up er
▁inv is
▁w olf
▁An n
▁appro x
▁B ost
▁emer gency
es ...
▁[Here 's
▁cont ribute
▁t ie
▁d ip
▁need ed.
▁l ung
▁cl im
▁article ?
▁mod els
▁blow job
▁str ategy
▁acc us
i ant.
▁Saud i
_ (
ra h
▁remote ly
▁agre ement
▁g ut
▁Y ahoo
▁see k
or ?
▁drink s
-m ind
▁" what
▁per ce
▁ir rit
▁sec ure
▁number .
▁rul es.
▁H appy
▁supposed ly
▁St ay
▁p it
▁f o
tin yp
▁welf are
▁show ,
▁iT unes
▁decl are
▁sc ar
3 )
▁profess ion
▁off ?
P N
▁black .
A CK
▁b icy
▁h ating
▁medic ine
▁V ot
AS T
▁scen ario
▁C ertain
▁st ance
ow se
r ick
▁criminal s
▁dom estic
▁f its
▁F ant
▁triv ial
▁the or
▁c ity.
▁y o
▁D u
▁t its
▁ener g
a ver
▁In ter
im es,
et s.
▁M ike
▁up side
▁report s
▁belong s
▁black s
▁Person ally
▁( H
re ck
▁$ 200
▁Mexic an
▁diam ond
: :
▁civil ian
▁terrible .
▁F ound
pr ot
▁atm osphere
▁hol iday
a )
▁of ?
▁T ax
▁J ones
▁please ?
▁I F
▁bandw idth
▁2 8
▁din osaur
▁egg s
tinyp ic.com/
OO K
▁she 'd
▁ref used
▁bitch ing
▁mount ain
z ,
at ers
▁down -
▁l ord
▁3 )
▁P L
▁F un
▁person ality
▁LO VE
▁plac ed
▁comb at
is y
▁st icking
▁vol unt
▁download ed
▁subscri be
▁incomp et
▁st orm
▁me :
▁E urope.
▁Jesus ,
▁president ial
▁repl ies
▁pup p
▁A ut
y. "
ra vel
▁en velope
w alk
▁jump ed
▁inst ance,
▁hom es
ic orn
▁W ANT
- be
▁bl ast
▁Ar m
ak er
▁hun ting
▁wedd ing
▁sw ing
▁pro ceed
▁v ent
▁act ion.
▁pow er,
▁"O h
▁autom atic
▁experi ences
▁Scient ology
7 8
ount ain
▁bod ies
▁modd ed
▁h ired
▁br idge
▁B ay
▁serious ?
▁f iction
▁anyway s.
▁pleas ure
▁th orough
c er
- W
a ire
▁C ook
▁"f uck
▁M at
iz ard
▁WH O
se ud
▁val ue.
▁term .
▁ens ure
bl ed
▁speech .
▁re in
▁P en
_to _
▁R P
qu al
▁pat ient
▁Ad am
▁F ord
▁lot ,
▁grav ity
at ics
E L
▁clos e.
ch a
▁F R
▁publish ed
▁Aw esome.
▁( "
i =
ri er
▁dro ve
▁g f
▁( F
▁E xt
▁scient ist
▁download ing
▁advoc ate
▁exp ensive.
▁Step hen
▁owners hip
▁*are *
om al
▁count ing
▁mar gin
▁etc ...
▁world ?
▁N ic
photobucket.com/ albums/
▁b ong
▁s am
▁d amm
▁Hu h?
▁room mate
== ==
▁Abs olutely
▁B on
AT ION
B M
_ T
▁idiot ic
▁develop ing
▁sur face
▁pos ition.
▁worth y
▁past .
▁im peach
▁art ists
b ered
▁2 7
▁He h,
▁9 .
▁regist ered
▁dict ator
▁stay ing
▁vac u
ograph ic
▁top .
▁indust rial
▁c ath
- G
▁F ore
▁head line.
▁* N
▁L ess
▁YE AH
B .
▁" ch
▁me al
▁real ,
▁mess age.
H ING
re c
▁O l
▁: p
▁clar ify
ment s.
▁port ray
▁r az
s pe
▁piss es
- gr
int erest
▁esc ap
.com/ w
▁sn ip
▁hand ed
▁mor ality
▁complain t
▁cl own
▁americ ans
▁| .
4 2
▁us ?
l ers
▁h oles
▁N ame
or a
ty pe
▁thanks !
▁H IV
▁D on
▁prefer red
ifi ed.
](http://en.wikipedia.org/wiki/ P
▁Z ealand
▁W AY
AR T
▁Sat urday
▁re ly
▁H istory
pell ing
▁valu able
es "
▁* al
ore t
index. php?
▁sne ak
▁the rap
▁pre ced
▁sol ved
▁bom bs
ick ed
▁annoy ed
IN K
](http://en.wikipedia.org/wiki/ F
▁em phas
id ers
▁sens itive
▁roll ing
▁drug s.
▁W ii
▁the ories
▁load ed
/ her
▁popul ation.
ri gg
▁ab us
▁d rawn
im edia
▁step s
▁conf ident
n ox
us ic
▁http://www. m
▁datab ase
o h,
▁http://www. c
OO D
act ive
▁you :
▁F eel
▁bit ter
▁reach ed
▁G otta
▁reg ulation
belie v
▁rec urs
▁OK .
iz e,
Is rael
o "
▁break fast
▁histor y,
▁sty le.
▁business es
▁e ats
▁screen shot
E M
or por
g b
art icles
▁cop ies
▁condit ions
▁mem e.
▁Florid a
▁80 %
▁" de
▁acc used
v ed,
▁pil ot
▁hol ocaust
▁"I t
lim ited
p ass
- 11
▁don't ,
▁First ,
▁US A.
▁H y
▁A .
cl op
▁fire arm
ab b
/ 12
▁dro pping
▁mor ally
reddit .com
▁R I
▁project s
▁Kore a
▁d ual
▁cons ens
▁fl esh
▁tw ice.
▁argument ,
▁group .
▁activ ity
▁ret ail
m art
▁b ands
▁f at.
▁c ite
▁tr y,
▁American s.
st ory
oll ow
▁boy cott
/2009 /0
▁men ,
▁spo ken
▁enlight en
_ G
▁ste el
▁* F
AM A
ill ed
f ish
▁li king
▁so cially
▁&gt;I t
▁Iraq .
▁Fur ther
▁D utch
and al
so cial
▁pre f
▁bag s
▁vari ety
▁s outhern
▁en for
u il
▁b ond
▁c ave
▁pleas e,
▁O ct
▁Tru e.
- k
▁mon it
▁ex agger
▁R un
▁exist ,
▁back up
▁A D
▁this !
▁P oss
aaaa aaaa
▁he lm
▁Fre edom
▁str ateg
▁sl ut
▁rep res
▁film .
▁disc ount
▁fe e
ate ll
▁very ,
▁b one
▁r ation
▁fuck ,
▁mis er
▁He ad
ag ging
▁No ve
▁atheist ,
_ W
▁ }
▁pen alty
N D
ex per
▁happen ,
▁conc ert
▁public .
▁st ood
](http:// d
▁tr ap
▁listen ed
T C
ograp her
▁such .
▁test ed
▁prec isely
▁troll s
a. org/
▁b are
▁H OW
▁on line.
▁A v
▁b ed.
▁D amm
▁said :
▁car s.
▁g host
ES S
▁anymore ,
▁Tw ilight
▁upvot ing
▁to b
▁card .
our .
▁guess ,
▁DN A
▁stim ul
▁famil ies
▁* a
c o.uk
▁st able
▁ele ph
▁dow nt
es pecially
▁make .
▁bas hing
▁wire less
▁T IM
▁ever ,
▁destro ying
f ly
▁ment ions
P A
il st
▁ins ert
▁bab y.
▁mot ion
▁program .
▁God 's
▁inform ed
▁P et
▁vie w.
▁jav ascript
▁[ b
▁dist ribution
▁polic y.
▁g ym
▁D ie
▁both ers
one *
▁assum pt
▁ph on
0 )
ould *
▁B M
▁ex posed
go ing
▁c rop
▁one ...
▁im pr
▁an ec
▁analys is
▁em bed
▁occur red
▁it. "
▁bo om
▁solut ion.
- v
▁kill er
ER Y
ort ion
▁some one.
▁old s
▁un con
▁vo ice.
6 8
▁mo ves
▁dis k
▁us ed.
c use
▁smell s
▁cond em
o z
▁h ij
es ign
▁k icking
▁ch est
▁fact s.
▁mor ons
▁s ane
▁prom ote
▁impl ied
▁consist ent
▁month s,
▁B acon
er ies
▁d ang
▁priv acy
▁hour .
▁T roll
ig ur
▁pl ate
▁b old
▁sp aces
▁li p
imm ing
▁Y up.
w l
▁d raft
ff ff
3 %
▁scre en.
▁adv ance
I X
e an
▁move .
▁Y o
▁correct ly.
▁DO ES
▁c ub
▁tem por
▁e c
▁link ing
▁Tor ont
wh al
▁A :
____ ____
- se
▁priv ile
_ H
▁Fall out
▁C ivil
▁oth ers,
▁GU I
oc key
▁sole ly
▁v amp
▁fac es
▁American ,
k k
▁descri pt
▁past e
▁disturb ing
xkcd .com/
▁f ought
ir rel
- N
▁G al
▁Funn y,
▁T oday
I m
j ack
us i
▁" be
▁C ub
▁suggest s
▁res c
▁b ump
▁[ Y
▁gr ass
▁Re agan
▁can't .
▁mon ster
▁invol ving
▁Eng ine
▁M ORE
▁T est
▁B R
▁Car l
▁one :
▁pr ice.
▁collect ive
i ence.
▁C ause
▁ret ire
▁quick ly.
▁nar row
▁plan .
d s
up port
▁issu e,
▁drive .
▁broad cast
ll y
▁Israel ,
▁g lo
comm un
▁deb ate.
p a
▁an ger
let s
▁accur ate.
▁will ,
▁light .
v a
ag ain
▁' p
▁intention ally
▁u h,
▁B raz
ag ram
▁20 %
▁V eg
▁wr ites
▁pos itions
7 3
▁* do
pr ise
▁Swed en
▁an c
▁W R
▁M eg
▁lo ans
▁art ific
▁co al
▁r aid
ol ve
li ber
▁e t
▁D ou
▁inf ring
▁from ,
▁Kind a
B A
e z
▁n erv
n't *
resp ons
iv es.
▁bad ?
▁FA IL
▁tw e
h ole
▁che er
▁Interest ing.
oo sh
](http:// f
▁cut e.
▁shit !
▁downmodd ing
▁unnecess ary
▁apparent ly.
U P
▁p uzz
▁edit or
▁D awkins
200 8
r ac
▁E conom
▁z oom
▁p ython
▁have ?
op en
▁so da
▁wh ining
▁D un
▁te et
▁budd y.
▁g ri
▁mist akes
alth ough
▁ch amp
▁entertain ment
▁wr ap
▁UK .
▁control s
=1 &amp;
▁answ ering
h ill
▁gay s
▁AT&amp; T
▁newsp aper
ug gle
in ator
▁You ,
w ed
▁terror ism
▁quot ing
ly )
▁li ed
▁r ow
▁pap er.
▁Abs olute
fere nce.
▁insult ing
▁Ex cellent
▁americ a
▁"g ood
▁Lond on
▁sh ave
▁hair .
▁indust ry.
re te
▁( even
is ion.
▁ear li
i as
ar ge
▁&gt;I 'm
▁dec ides
▁v ul
▁v ap
et he
▁su ic
▁divor ce
▁graph ic
▁Down modded
ap ers
▁C onn
▁cou ch
▁arch ite
▁f ist
ide o
▁e .
▁H ollywood
▁cy cle
▁M ach
▁brain w
▁$5 00
st ick
ci es.
ant s.
act ually
](http://www.reddit.com/r/ AskReddit
▁C ost
▁cris is
▁sign al
_ O
▁i p
as h,
▁M mm
▁brows ing
▁Inde ed,
ver ,
▁brain s
▁F amily
AM E
▁ra ising
▁little .
▁pres ented
▁algorith m
▁do ors
▁sh oe
▁stud ying
▁stat istic
? *
▁3 D
▁o xy
ath ers
▁virt ual
▁inherent ly
