#version: 0.2 - Trained by `huggingface/tokenizers`
Ġ t
Ġ a
Ġt h
i n
r e
o u
Ġ s
Ġ w
Ġth e
o n
e r
a t
i t
Ġ b
i s
Ġ h
Ġ c
Ġ I
Ġ m
in g
e n
o r
a n
Ġ f
Ġ p
Ġ d
e s
Ġt o
l l
Ġ o
e d
Ġa n
Ġ y
Ġ l
o m
Ġy ou
a r
Ġ g
a s
Ġ n
Ġo f
Ġ in
l e
o t
i c
u s
v e
Ġ is
Ġ it
Ġb e
Ġan d
Ġth at
o w
a l
Ġ e
Ġ re
Ġw h
e t
. .
Ġ T
Ġ on
l y
i d
' s
h e
l d
a y
i on
' t
u t
Ġh a
v er
k e
en t
Ġf or
s t
a c
i m
g h
a m
a ll
a d
Ġ A
ou t
o o
Ġs t
r o
u n
ou ld
Ġ W
s e
it h
c h
Ġh e
Ġd o
Ġ S
Ġn ot
Ġl i
o p
i r
Ġa re
r i
Ġw as
c t
Ġw e
Ġha ve
Ġw ith
us t
Ġ j
t h
i f
Ġa s
Ġm e
all y
t t
i ll
u p
Ġ k
c e
Ġth is
om e
gh t
Ġs e
Ġ "
Ġ H
Ġb ut
Ġs h
Ġ Y
Ġm o
.. .
Ġ C
Ġ M
ĠT he
Ġthe y
u r
Ġ B
Ġm y
Ġc an
Ġa b
i l
Ġli ke
Ġn e
c k
in k
is t
er s
a g
Ġyou r
on e
ĠT h
Ġs o
Ġj ust
Ġ N
Ġ D
Ġ r
an t
Ġc om
Ġ or
at e
n d
o l
us e
Ġw ould
Ġ P
an d
u l
es t
Ġd e
es s
i g
Ġg o
Ġ O
at ion
Ġd on
a b
u m
Ġa ll
Ġw or
Ġa t
Ġp ro
t er
Ġg et
Ġe x
a p
ĠI t
Ġab out
e op
Ġc on
a in
w w
' m
eop le
e re
Ġwh at
Ġ up
Ġth ink
Ġ if
Ġ v
Ġa l
Ġf r
e m
č Ċ
Ġs u
Ġp eople
: /
Ġs ome
Ġan y
tt p
en d
:/ /
Ġk n
Ġp o
c om
ĠW h
Ġ F
am e
Ġ out
Ġ G
Ġon e
n t
Ġ R
p e
ĠY ou
ver y
in d
q u
Ġm a
Ġ un
m ent
Ġt r
i e
ar t
ar d
Ġc h
Ġ (
Ġkn ow
ac k
e l
i ve
Ġfr om
Ġwh o
Ġ *
g t
Ġthe re
d d
ou s
Ġ [
p p
' re
oo d
as t
h ttp
oo k
Ġ Ġ
c a
ou r
Ġn o
re s
Ġ us
Ġmo re
Ġl e
id e
or t
Ġ L
Ġ E
e ll
u ck
Ġd id
v en
Ġthe m
on g
ou gh
0 0
it y
Ġp l
a re
Ġa r
Ġs ay
Ġ 1
Ġh as
h ing
Ġdo es
im e
o d
Ġb y
ac t
ca use
Ġwh en
Ġth an
k ing
Ġw ill
ou nd
it e
Ġ &
o re
o s
h er
i ght
Ġin t
Ġa g
i es
in e
Ġ U
ic e
Ġh ow
Ġg u
ow n
e ar
an s
r y
u re
d er
ic k
] (
b le
Ġthe ir
ĠTh at
Ġth ing
r a
p l
g e
Ġ J
o se
Ġp re
c i
f f
ag e
Ġre ally
Ġm an
a h
Ġbe cause
ri ght
e p
u b
Ġ i
Ġw ant
Ġt ime
in t
Ġon ly
' ve
u ally
Ġt a
Ġl o
Ġc l
ww w
Ġa ct
Ġh is
Ġsh ould
Ġs a
s o
Ġ qu
Ġse e
th er
Ġa m
Ġto o
i p
d e
Ġf e
i z
Ġha d
w ay
Ġ -
p t
Ġe very
Ġ en
re e
ic h
i re
Ġcom p
u e
u ch
Ġc ould
Ġwe re
Ġ right
i ous
Ġg ood
ĠI f
dd it
Ġ im
om et
Ġthe n
e ct
Ġ Ċ
k s
b er
Ġof f
Ġma ke
Ġ 2
i a
Ġm uch
Ġo ther
Ġbe en
Ġl ook
Ġd own
it t
is h
Ġw ay
le t
Ġy ear
as s
Ġp r
ac e
ĠWh at
i v
Ġne ed
Ġb l
o g
Ġs omet
as e
Ġf uck
Ġo ver
Ġn ow
Ġs p
re at
Ġe ven
l f
Ġc o
Ġs he
ou nt
Ġh er
' d
at ch
Ġw r
en ce
ab le
Ġbe ing
ĠH e
Ġwh y
Ġgu y
Ġb u
Ġd is
Ġ use
i k
Ġh im
Ġgo ing
am p
ion s
i le
m o
m er
Ġg ot
ĠTh is
Ġhe re
th ing
v ing
Ġsomet hing
! !
Ġg r
' ll
ĠA nd
Ġwor k
ĠN o
Ġne ver
Ġpo int
Ġa c
Ġre ad
Ġst ill
b e
ou ght
Ġp art
t ing
k es
Ġdoes n
en s
an g
Ġint o
ĠThe y
Ġb ack
ad e
c on
u d
Ġ :
p er
Ġmo st
at ed
a il
Ġact ually
s h
ul t
ir st
or y
i an
Ġdid n
Ġcon t
Ġs up
oo l
Ġbe l
ig n
ĠS o
Ġs ame
Ġc r
Ġ '
Ġs pe
d it
T he
ic al
* *
e w
e ah
res s
Ġme an
o b
) .
f ere
Ġf un
re ad
n y
p ort
Ġun der
Ġre s
o y
tt y
Ġpo st
Ġre al
ic t
Ġth ose
w n
Ġ very
ar y
Ġt e
ot e
Ġc all
ĠI s
Ġa d
Ġwh ich
w ik
Ġd ay
Ġwe ll
a k
Ġtr y
Ġb r
Ġsu re
Ġcom ment
Ġha pp
Ġl a
ac h
is s
Ġs c
an ce
Ġsome one
ab ly
tt er
Ġne w
Ġf irst
Ġwh ere
Ġ K
ot her
Ġre ddit
Ġpre tty
f ore
Ġ 3
se lf
Ġbe tter
ĠC h
ĠB ut
Ġt w
Ġp er
a v
f t
on s
Ġbel ie
i gh
f ter
Ġyear s
Ġsa id
ĠH ow
Ġal so
ĠI n
ers on
f e
ĠS t
a ve
Ġl ot
ri end
Ġd if
Ġth ought
i ld
u ll
he re
way s
Ġs er
or m
Ġag ain
Ġw on
Ġsu b
or g
Ġm ay
Ġpl ay
Ġ ro
Ġf ind
Ġb ad
l ess
Ġta ke
Ġ ke
mer ic
Ġth ough
is m
Ġis n
Ġas s
x t
T h
. "
Ġcon s
s s
Ġman y
o c
w e
Ġre l
let ed
Ġse em
b ably
Ġthing s
ĠThe re
Ġa pp
ic s
Ġe ver
c l
Ġp h
Ġo wn
at h
ĠW e
Ġbe fore
Ġsh it
at ing
ar k
Ġp erson
ter n
Ġthe se
Ġst art
Ġl ong
ed ia
Ġf l
u al
Ġit s
ĠA meric
Ġ V
l ic
Ġa fter
Ġ our
Ġfe el
ot h
Ġm ade
or d
ver s
de leted
ĠWh y
Ġc he
g r
ĠD o
e e
Ġc ount
Ġal ways
Ġdif fere
Ġt al
n ing
ĠN ot
one y
v es
Ġany thing
im es
as on
u g
i ble
Ġd r
itt le
Ġo ld
Ġth r
ble m
ĠM y
or s
is e
ow s
Ġt ell
Ġk ind
Ġd es
Ġe l
Ġp ol
Ġac c
Ġa tt
Ġar t
ic ally
Ġpro bably
Ġs m
Ġde f
Ġp ut
Ġo b
od y
Ġg ir
Ġpro blem
Ġar ound
ĠY eah
Ġl ittle
ce pt
v ed
Ġf act
Ġlo ve
Ġm oney
Ġus ed
at es
pe ct
Ġtw o
Ġw om
ĠW ell
i ly
Ġb it
in ce
Ġl et
Ġin st
t he
ĠU S
n e
Ġbelie ve
Ġ ide
ious ly
Ġwr ong
at er
Ġh ard
f ul
ar s
Ġk id
" .
Ġs y
Ġwor ld
Ġ 4
Ġh ttp
ur n
o st
am a
ĠĠ Ċ
i al
Ġa w
Ġ $
Ġg reat
re d
Ġe v
en se
Ġc or
er t
Ġp ay
Ġg en
Ġwor d
Ġre m
Ġen ough
.. ..
Ġf riend
Ġ end
Ġh igh
Ġfuck ing
ist s
ve l
Ġs l
p h
W h
Ġcom m
Ġma kes
o x
i b
Ġn ame
op e
Ġwh ile
Ġs im
ĠB e
Ġb ig
st and
re ddit
a it
Ġre ason
Ġfe w
o ck
Ġ 5
Ġqu est
Ġm ight
Ġm on
Ġk ill
a ke
Ġli fe
ation s
d u
l es
Ġin s
an k
Ġt er
Ġh and
an ge
Ġe m
ĠA l
g et
ub e
n g
Ġr un
iz e
as h
p le
ere st
Ġo p
ith er
Ġany one
ow er
a z
Ġg ive
Ġle ast
ver n
e ly
Ġel se
Ġin f
ar m
ip edia
Ġdo ing
v ie
n ce
Ġre c
Ġhapp en
Ġbe t
ub lic
u ff
id ent
Ġw atch
l p
at her
ic le
Ġ ent
v ot
e ver
ct ion
Ġsay ing
Ġgir l
Ġwith out
Ġunder stand
w h
Ġget ting
Ġgu ess
Ġde c
ĠO b
i x
Ġc ar
le ase
Ġke ep
Ġc are
ĠY es
o ld
us h
vern ment
a ir
Ġc ome
Ġb est
ĠC an
Ġb as
ĠO h
Ġin v
c es
ed dit
ere d
Ġl ast
Ġj o
Ġst op
Ġs ound
Ġh um
e ad
ĠA s
u de
Ġ* *
m an
Ġhe lp
I t
Ġnot hing
Ġl ink
Ġide a
Ġse x
ci al
Ġsh ow
c ess
A A
Ġhe ad
Ġthr ough
Ġc a
Ġg ame
Ġl ess
Ġli ve
p os
ent ion
Ġc le
Ġt ri
Ġm in
Ġs ch
i ke
g g
ĠJ ust
wik i
ul ar
r ist
E R
Ġf ree
or n
d ay
ut ion
Ġex pl
Ġsu ch
Ġdiffere nt
ĠO r
Ġtry ing
ar ch
Ġs ince
Ġgo vernment
Ġag ree
at ive
read y
it ion
Ġint erest
e x
st em
t y
Ġst r
Y ou
tern et
Ġevery one
i ans
Ġus ing
b ody
ol og
Ġ ...
are nt
Ġla w
Ġbu y
ent s
Ġwould n
i ed
Ġquest ion
wik ipedia
- -
Ġse en
re n
Ġj ob
Ġal ready
up id
g le
Ġst ate
ĠR eddit
Ġan other
Ġe as
Ġre p
j ect
an ks
Ġv ide
al s
Ġc our
ag es
ard s
Ġre g
or ry
Ġ: )
Ġb oth
on t
Ġch ild
Ġd ri
m m
act ly
Ġa dd
Ġf ar
Ġas k
Ġs ur
it s
I N
c ed
Ġt y
Ġin c
con d
ĠT H
Ġart icle
am n
o ll
Ġm ust
es ome
Ġsy stem
p r
ĠOb ama
Ġd one
Ġha ving
um b
Ġh ate
00 0
us s
Ġtr ue
a w
out ube
w atch
Ġre f
Ġsch ool
Ġsup port
Ġ 9
am m
Ġle g
Ġseem s
Ġm at
ou se
o ot
I T
at s
Ġguy s
es e
Ġar g
l o
Ġst upid
Ġa way
al th
ĠĠ ĠĠ
y s
Ġa p
ra el
i er
y outube
ment s
Ġwho le
p g
am es
Ġl ist
n ot
Ġe ither
Ġpl ace
Ġwas n
Ġst and
Ġcount ry
e g
Ġw ar
Ġst uff
t m
Ġgen er
Ġun t
ap p
ay be
Ġtal king
a ul
Ġma king
ĠD on
Ġin d
ert ain
Ġrel ig
Ġc re
em ber
u c
od e
Ġm ind
Ġ =
Ġb ook
Ġagain st
ĠWh en
Ġm iss
Ġt imes
Ġfun ny
Ġe le
) ,
Ġare n
g er
b s
? ?
Ġon ce
et s
Ġpo ss
O O
Ġag o
ro ll
Ġwom en
c o
s w
ut e
ĠS h
j pg
in al
E D
ar n
ĠU n
oo gle
Ġex t
Ġvide o
if ic
Ġcomp let
ar ly
re ct
Ġme ans
Ġ1 0
Ġ 6
ut h
ap s
Ġd ou
Ġc op
Ġre t
Ġst ory
Ġw ait
Ġhe ard
p s
Ġunt il
Ġg l
Ġe ff
ĠS he
Ġch ar
Ġm et
Ġse cond
Ġcons id
mo st
h tm
Ġcall ed
Ġwe e
2 00
an y
l ed
Ġc ase
Ġin ternet
Ġy et
Ġt urn
t en
Ġres p
Ġcon f
Ġp op
ate ly
un ch
Ġdef in
ew s
Ġm ar
Ġwon der
if e
Ġh ome
Ġv ot
we en
Ġqu ite
Ġsay s
Ġaw esome
Ġp res
O U
Ġhe ll
Ġy es
ĠP aul
Ġh ope
Ġp ict
Ġn ice
Ġb re
1 1
t e
Ġf ound
â Ģ
iz ed
Ġre st
Ġmay be
Ġim p
Ġmon th
on d
Ġlook s
Ġco ll
Ġex actly
vot ed
Ġs k
u res
ir d
il ity
Ġne xt
ed it
iv es
ĠG od
w here
Ġs it
ĠR e
Ġs ense
ing s
Ġevery thing
Ġbet ween
Ġme m
Ġs et
Ġpl an
ĠIs rael
er n
Ġpro gr
c ri
I f
Ġcour se
Ġget s
Ġs w
in s
ĠF or
Ġex per
ĠCh rist
Ġthink ing
Ġ 8
Ġf ull
c ome
ĠM aybe
ĠA re
c y
Ġta x
er ing
Ġp ower
Ġc ou
Ġlook ing
i o
Ġpol it
Ġle ft
Ġr ather
Ġbl ack
Ġinst ead
al f
Ġmo vie
Ġs ci
Ġan sw
w or
Ġis s
Ġcl ass
ation al
Ġto p
Ġc ur
n a
um ent
Ġsu ck
z y
b l
ĠE x
Ġrem ember
Ġh our
ber t
re nt
ĠBe cause
ĠAmeric an
Ġc ool
Ġin ter
l ine
Ġch ange
Ġm us
A nd
k en
Ġhe ar
um ber
Ġyour self
re ed
n ess
A T
Ġb us
o le
Ġche ck
in ess
Ġkid s
Ġs ign
ot s
Ġf am
Ġp ass
1 0
Ġv ote
ĠTh anks
Ġm or
Ġm ark
a im
Ġpro du
Ġab le
ap h
Ġw ent
Ġgo d
Ġop en
ĠD id
Ġc ertain
Ġnew s
Ġ 7
ac y
Ġcomment s
Ġday s
c c
y ing
ire d
r or
Ġmat ter
Ġe t
re t
2 0
Ġsm all
Ġass um
Ġth read
Ġc ame
ot t
Ġper f
Ġob v
Ġ .
l ish
Ġg un
Ġhum an
Ġf in
Ġm en
Ġex p
en e
Ġde p
ĠS ome
l t
O T
Ġs ing
c r
Ġfriend s
Ġ /
Ġent ire
Ġwor th
Ġjo ke
m s
L L
htm l
v ote
Ġexpl ain
Ġcomp ut
Ġsc re
Th at
ĠĠ Ġ
Ġmy self
Ġto t
Ġcor rect
Ġ id
Ġs ort
it ed
a king
b r
Ġsa w
r ic
ĠA ll
r act
Ġal most
ow ing
Ġet c
ro p
ĠO n
Ġwor ks
Th is
Ġex pect
n er
Ġn on
it ch
il ar
is ed
h h
Ġc ap
Ġy eah
ĠB r
ang u
Ġl ar
R E
Ġf ail
Ġre qu
Ġha ven
Ġw ater
ĠN ow
ĠTh en
T F
ĠWh o
Ġo pp
O N
Ġhe alth
t s
Ġso l
it ies
Ġv al
Ġwom an
Ġf ace
at ure
u gh
v ice
" ,
al ity
A N
Ġp age
Ġf il
end ing
ĠAmeric a
Ġbe h
Wh at
ĠA ny
ur ing
Ġle arn
Ġp ublic
on est
l and
Ġm il
Ġm om
Ġcomplet ely
Ġ1 9
ĠYou r
in es
o ice
E dit
Ġst ud
p ly
Ġ ill
a a
k ed
Ġd ist
ri es
id d
Ġ2 0
i ence
Ġn umber
Ġcl aim
im g
Ġ ir
Ġs ide
Ġ z
Ġf air
ĠA ct
in u
Ġh alf
Ġco st
Ġc ra
Ġe ach
se l
ant s
j or
ap e
Ġfor m
ill ion
at t
Ġw in
Ġ vers
p ed
ro ss
f er
w are
Ġw ish
Ġs ite
lo ad
Ġex ist
IN G
ch n
t o
Ġl angu
a le
Ġf av
u ght
Ġ X
j oy
f or
c he
b t
Ġor ig
Ġe at
ie w
Ġp lease
Ġm ention
it al
Ġid i
Ġspe c
our ce
ci ally
Ġdis c
Ġf ig
Ġ ign
con om
E S
out h
us ed
Ġde al
Ġp ar
Ġsound s
ĠAl so
Ġwee k
Ġab s
pos ed
m e
Ġs ent
Ġbu ll
o ve
! "
Ġl ine
Ġpro f
Ġread ing
an e
Ġf ood
p ro
ĠF r
Ġlo g
Ġe qu
Ġp ri
ĠG ood
amp le
ĠW ow
ĠA t
olog y
ĠM c
Ġneed s
Ġn ight
Ġd amn
Ġpr ot
Ġon es
? "
id ence
ite ly
C K
Ġ2 00
!! !!
ĠA r
Ġh ouse
m y
Ġe y
Ġv iew
o h
Ġp ur
Ġg ay
/ )
s on
Ġad m
r u
Ġsub m
Ġansw er
Ġdr ink
Ġat he
Ġma jor
ĠDo es
5 0
Ġcom es
Ġgo es
un k
Ġwh ite
ro l
Ġinterest ing
? !
Ġf oll
ent ly
Ġstart ed
Ġpict ure
Ġr ac
Ġli ght
b o
Ġg ames
Ġtri ed
un t
Ġtoo k
Ġh ot
Ġh or
Ġa v
b ut
sel ves
at or
Ġan t
Ġ1 00
Ġword s
Ġs mo
ĠT o
on y
Ġ Q
ind ows
ate ver
et y
Ġhappen ed
ĠE very
pt ion
Ġtr ans
n o
Ġ- -
h aps
f ort
Ġdiffere nce
u es
Ġp ast
Ġr id
ap er
ĠF uck
B ut
Ġd et
Ġop in
Ġwor king
Ġse c
y ou
Ġt est
Ġwant ed
Ġmo ve
Ġmus ic
Ġeff ect
Ġw al
Ġc reat
ĠP ro
ĠTH E
er y
Ġ ;
vel op
Ġdo g
sh it
U U
Ġtal k
Ġb ro
Ġd ire
E E
ĠCan ad
ĠH is
er v
Ġo k
ar ing
Ġ es
ĠB ush
ĠA n
th ers
Ġse lf
i pp
Ġm ess
Ġall ow
Ġg i
Ġsing le
Ġde ad
Ġim ag
Ġp en
it ing
ĠAct ually
it le
Ġto ld
Ġla ugh
ic es
Ġim port
ri ed
Ġen joy
Ġen g
as ed
Ġacc ount
a id
I n
ĠS e
ĠD e
Ġmark et
l ing
ut es
Ġele ct
id es
Ġp arent
Ġh u
Ġgr ou
Ġc ut
pe cially
A l
Ġpro v
Ġposs ible
Ġchild ren
Ġsu gg
Ġph ot
Ġsugg est
Ġs orry
it er
* .
Ġus ually
th is
ĠC om
t on
Ġe conom
Ġarg ument
H H
in a
Ġbus iness
w ard
an n
ĠG o
Ġcould n
Ġo thers
o f
ĠY OU
Ġin cl
p ose
itt ing
g y
ĠO ne
un d
es us
Ġm is
Ġf ight
Ġ Z
Ġs ad
Ġde ath
Ġbu ild
at ic
is on
Ġs n
Ġto day
ar c
Ġme ant
Ġle vel
Ġh it
Ġpo s
Ġm ain
Ġcomput er
Ġfig ure
Ġf ire
Ġf ine
um p
Ġex ample
ĠE ng
Ġst e
vie w
b y
com ments
Ġh ist
Ġh old
Ġof ten
oc r
Ġt roll
s ide
i ent
Ġcon st
Ġim m
ri ble
y p
Ġpro per
et her
Ġpo or
Ġ: (
Ġeas y
Ġty pe
or ies
p or
Ġp un
Ġcomm un
iv ing
Ġlike ly
Ġmonth s
Ġv i
1 2
Ġdo ll
g in
ĠB l
ĠP eople
Ġb oy
Ġatt ack
a x
Ġfr ont
O R
Ġp e
re am
Ġsur pr
he ad
Ġrelig ion
ĠA pp
Ġb ab
f ull
Ġfav or
Ġmo d
Ġc ode
Ġcur rent
m ore
A R
o id
Ġth ree
u ro
Ġ ri
Ġprogr am
arent ly
ĠT r
Ġhour s
d o
ĠC l
Ġun i
Ġany way
Ġch ang
Ġa ff
Ġm ed
l ike
ĠR ep
Ġsim ply
Ġp ick
Ġvers ion
" ?
ĠW here
I S
Ġiss ue
are d
Ġlangu age
Ġser iously
Ġcom pl
er iously
Ġre d
Ġperf ect
Ġte chn
Ġ ed
a ult
Ġgirl s
l er
Ġfam ily
Ġcl ose
Ġ čĊ
Ġlar ge
Ġde velop
Ġcomp any
ig g
Ġle ad
om b
Ġdr ug
ur al
h ow
Ġta king
ul ation
Ġsup er
Ġsup posed
Ġcont rol
Ġreal ize
Ġbe come
H e
Ġinf orm
ĠL et
ll ing
as ter
Ġcou ple
Ġh onest
Ġpart y
Ġtot ally
r ow
Ġthem selves
Ġbas ed
Ġthan ks
sh ip
Ġf all
Ġc ol
Ġb ar
Ġs ong
e xt
Ġap pe
Ġkn ew
. ](
ar th
Ġex cept
Ġimport ant
!! !
Ġso cial
os s
Ġa ir
ol ut
ib ly
Ġas sh
O L
S o
el s
Ġam az
t op
Ġ _
Ġw ife
s p
Ġorig inal
r al
inu x
Ġb all
is ion
img ur
Ġwor se
on na
Ġexper ience
n et
Ġty p
N o
ound s
Ġdefin itely
r ing
Ġbre ak
end s
Ġsh ort
u ation
Ġd ie
Ġle ave
Ġhapp ens
o int
ĠM ost
Ġter m
ĠA m
Ġf ore
Ġplay ing
Ġwant s
Ġr u
l im
Ġcra zy
ir t
Ġmin utes
ac es
Ġpol ice
H ow
Ġcomm on
ĠU p
Ġpart ic
ick s
Ġad v
Ġev idence
Ġam ount
idd le
Ġd ude
Ġopin ion
ĠL ook
pl oy
Ġro om
Ġwh atever
f l
ion al
Ġwr ite
AA AA
ĠP al
w ards
Ġcom ing
op h
full y
u ri
Ġrun ning
Ġ ve
ver age
Ġlo c
id ed
re l
9 9
t r
mo dd
Ġp ain
Ġdire ct
Ġli ving
e ge
se arch
ED IT
Ġhapp y
Ġf an
Ġcr ap
o ly
Ġan n
c le
ens ive
Ġleg al
fere nce
g an
c ing
Ġp ie
Ġan im
ĠS orry
em ent
Ġf ix
Ġac cept
Ġb o
Ġcon c
g ot
ol ution
Ġde m
Ġser ious
am er
Ġre pl
Ġpre v
olut ely
i en
em pt
Ġn orm
Ġor der
Ġdri ve
b ook
oo f
O M
wor k
Ġant i
Ġd uring
ĠMc C
Ġp ot
if y
Ġknow s
Ġca use
Ġconsid er
Ġyou ng
Ġs ource
A S
Ġlist en
ĠH ave
Ġg onna
Ġshould n
le v
ĠAmeric ans
. )
Ġlo st
Ġf at
Ġhist ory
Ġhu ge
Ġbr ain
ĠE ven
ĠS p
Ġdis ag
Ġint ell
m od
ver t
oo se
Ġgener al
Ġsim ilar
g o
Ġvi ol
Ġso ft
ast ic
ĠH ere
ĠR o
Ġdes ign
Ġfor get
Ġbit ch
Ġp ull
a ut
W e
i or
s y
th ough
ĠP er
ra w
ĠTh ank
Ġpre fer
Ġso ci
it ive
Ġres ult
Ġm other
ĠP lease
Ġt itle
Ġd i
and s
ĠHe y
arm a
Ġspe ak
ĠP l
Ġf em
Ġsub reddit
Ġbr ing
Ġro ck
Ġte xt
on es
Ġta kes
uro pe
Ġcan not
ĠR on
ĠI nd
Ġgrou p
Ġparent s
Ġm ass
Ġsh ot
ĠO k
Ġsci ence
Ġdisc uss
Ġ +
itt en
Ġst ay
ou d
Ġp orn
U CK
3 0
E N
Ġright s
Ġv is
is ing
Ġgi ven
Ġopp os
Ġ er
Ġf re
Ġidi ot
Ġc ult
ie ld
Ġt ast
Ġb ill
Ġprodu ct
Ġe p
Ġpost ed
Ġd at
ar i
H A
Ġask ed
ic ro
Ġcertain ly
Ġinv ol
Ġke y
Ġobv iously
Ġso on
Ġg re
st er
ĠJ esus
Ġd umb
Ġl im
Ġse arch
w ise
oo oo
ĠN ew
Ġproblem s
ĠI r
eg al
Ġwatch ing
ĠA N
com m
Ġpri v
Ġb ody
Ġimag ine
ou ch
ĠRep ublic
ur b
in ed
Ġkill ed
Ġp iss
Ġcon v
ĠMcC ain
as es
th at
end ed
ill y
6 0
U S
The re
Ġbeh ind
Ġo cc
Ġwork ed
Ġfun d
it es
l i
ĠI S
Ġcoll ege
ver se
Ġm ach
re m
Ġdou bt
Ġqu ick
Ġh ur
Ġde b
ul ous
Ġrelig ious
Ġa ut
ĠIt s
Ġm illion
Ġf ut
ict ion
A M
iv il
le ep
wh at
Ġc ent
ĠM e
ist ic
Ġb ott
Ġm ine
pl ay
Ġph one
Ġact ual
Ġ3 0
Ġm ag
Ġl ater
Ġta ken
Ġun less
Ġ; )
Ġp at
Ġb ox
_ _
Ġsh oot
Ġch ance
Ġign or
Ġl ow
Ġtr uth
ĠEng lish
Ġa uth
ain ing
Ġbull shit
Ġl ack
Ġb unch
Ġl ol
Ġm ist
Ġc amp
Ġdon t
Al so
Ġl uck
Ġre port
lf riend
Ġsim ple
Ġwe bs
ke y
Ġres pect
ore d
ĠG oogle
r aph
ah a
iz ation
Ġto get
Ġm ur
Ġag e
Ġc ir
Ġpres ident
Ġg ave
u h
Ġwh ether
Ġtoget her
Ġd ick
ĠM an
Ġs al
Ġt reat
Ġsomet imes
E T
g ed
and om
Ġamaz ing
Ġo h
Ġl and
ĠL ike
Ġc at
' .
I s
ĠW ould
D o
Ġoff ic
ĠWh ich
Ġlaw s
Ġ 0
Ġit self
Ġdes cri
Ġcl os
Ġpoint s
Ġex c
us ing
Ġm iddle
g ress
Ġsit uation
f ic
a ving
Ġas king
Ġdisag ree
Ġcl ick
Ġch oice
ar ian
as m
it ary
modd ed
Ġfoll ow
S t
Ġ1 2
Ġd a
Ġpr om
Ġst re
I D
Ġd est
Ġ5 0
Ġref er
Ġph ys
Ġsp ace
ĠT V
O W
ra ight
ang er
Ġne cess
l ight
Ġc it
Ġresp ons
ard ed
Ġcle arly
ĠA g
Ġplay ed
O h
Ġp aid
ac on
ĠChrist ian
f orm
ect ion
Ġcount ries
Ġout side
if ied
s c
Ġinst all
g ing
Ġwe b
ĠW ith
a ff
Ġinform ation
in ation
ĠW indows
Ġal ong
Ġwe ird
A s
ain s
Ġn et
Ġm ult
fort un
le ct
f uck
i ally
ĠA h
Ġter ror
Ġfut ure
ĠO f
e ch
1 5
The y
Ġ x
Ġbe at
i i
ur ch
Ġrid ic
it ution
Ġsee ing
r on
Ġde mo
ag ed
Ġill egal
Ġes pecially
Ġfavor ite
Ġabs olutely
Ġassum e
Ġpartic ular
Ġh om
Ġany more
Ġ ?
Ġlong er
Ġsp end
Ġsoft ware
Ġrec ord
Ġpro cess
ri b
ĠCanad a
amm ing
Ġgir lfriend
im ate
ĠN OT
F F
ur y
Ġvot ed
Ġst ick
ĠRo bert
ĠE urope
Ġsci ent
am ed
ch an
Ġc ivil
Ġpr act
ress ed
Ġcle ar
b all
e c
ĠRe ally
r up
8 0
ĠS eriously
Ġli ber
ap an
ĠW as
Ġj ud
so ft
Ġknow n
Ġpolit ical
Ġneed ed
4 0
Ġre mo
us es
Ġsh ows
ut s
Ġs ca
ic ed
Ġstate ment
u u
re st
b ed
ly ing
Ġse ll
Ġr a
Ġs ick
Ġm edia
Ġg iving
Ġincl ud
on se
Ġr ap
ĠD em
Ġab ove
Ġperson al
d id
Ġobv ious
er m
er al
ĠI T
ou n
Ġk arma
Ġdes er
M y
am ing
Ġse ver
Ġal one
itt ed
âĢ Ļ
iss ion
Ġha ir
ĠG et
n ews
f ox
reed om
Ġ1 5
Ġbe er
Ġauth or
Ġne ar
Ġed uc
an ies
Ġus er
Ġstr ong
Ġev il
c ent
itt y
y n
Ġf ast
Ġlook ed
Ġwr itten
Ġst raight
N ot
Ġbelie f
bo ard
Ġpol ic
Ġsuck s
Wh y
Ġsoci ety
Ġ edit
ĠW or
Ġallow ed
Ġbab y
v ies
y le
ail s
ent y
ant ly
ĠOn ly
an a
er man
b it
Ġr andom
Ġbas ically
z e
Ġsm art
E A
Ġa verage
i um
Ġc uri
ĠS ure
Ġsever al
Ġd ue
as ons
Ġcop y
r om
ĠP h
or ing
ac ter
Ġl ab
b ar
Ġridic ulous
Ġrac ist
ĠN or
I C
Ġb ought
Ġeng ine
Ġann oy
Ġey es
Ġresp onse
Ġd en
ra q
Ġs ir
o ff
un g
Ġme et
Ġem ploy
Ġup vote
ĠC on
Ġpop ular
Ġc al
ĠG u
Ġdown voted
Ġr ul
Ġintell ig
Ġmo der
n ow
Ġpost s
Ġcomp anies
iz ing
ĠW ait
Ġsl ow
Ġcall ing
Ġfor got
Ġb i
ic king
Ġb ur
Ġst ates
Ġhow ever
Ġhand s
p ir
Ġbook s
ur ance
im ages
Ġim age
Ġfuck ed
an ces
Ġor gan
ress ion
Ġapp ro
Ġdat a
Ġgl ad
ib ility
ip s
Ġcle an
Ġspe ed
Ġsu c
Ġch ick
ĠPaul son
ĠA f
Ġpr ice
ĠR ight
e v
ol es
L E
Ġs leep
Ġwor st
Ġl ose
Ġmil itary
ĠF UCK
-- --
Ġmajor ity
in y
Ġatt empt
vot es
ar ily
ar l
Ġtell ing
Ġp aper
ĠI raq
et h
m p
Ġcr it
Ġpay ing
ent al
ist er
ĠT w
Ġdown load
Ġpie ce
t ime
ro om
Ġsome where
Ġins ide
ĠQ u
Ġso ld
le x
em s
Ġw ind
Ġsa ve
Ġst at
t ers
Ġs end
ĠF l
ĠM ac
Ġli ves
k y
Ġdemo cr
icro soft
Ġinc re
e a
Ġnorm al
Ġb ene
ct or
ĠBr it
Ġre ference
Ġst ore
Ġ #
Ġs us
w ord
Ġc ard
ph p
d ing
en cy
Ġquest ions
Ġg one
Ġg ives
i res
Ġcor por
h a
Ġmean ing
Ġsurpr ised
Ġoff ice
Ġh op
Ġdoll ars
Ġassh ole
, "
Ġthan k
Ġmo vies
Ġfor ce
Ġconsid ered
- )
en n
Ġinterest ed
Ġs we
Ġbr ows
1 9
Ġc ity
Ġan al
Ġhim self
ur ity
r ation
Ġche ap
Ġwebs ite
qu e
Ġ |
ust om
oh n
c er
ĠO S
ic les
ĠS c
o e
ĠA ust
Ġare a
oo p
Ġbe gin
er o
ive ly
Ġcre dit
il t
Ġr ich
iv id
2 5
Ġcit iz
ĠG r
a kes
Ġval ue
Ġtax es
Ġp ack
Ġus es
Ġatt ention
Ġiss ues
ĠTh ose
Ġb an
Ġwe ap
p ar
j ust
Ġkind a
Ġeas ier
Ġhe art
ent ed
u el
um s
ed i
fortun ately
Ġp ort
ĠR uss
ay s
Ġpen is
Ġspe cial
Ġpict ures
Ġw all
Ġb ank
ir th
og raph
Ġinv est
Ġo per
Ġm ot
Ġeas ily
Ġst ri
u k
et ic
Ġser vice
a f
Ġo il
Ġathe ist
Ġwr iting
Ġev ent
Ġf oot
ĠP C
Ġloc al
Ġwor ry
ĠL inux
ĠD amn
Ġt ouch
Ġthink s
Ġn or
g u
Ġr ad
el t
ĠC he
V E
ak ed
Ġus ers
C h
con t
1 6
Ġn at
V ER
Ġapp arently
Ġs arc
un ny
Ġkill ing
act ion
ĠU K
ĠM us
1 3
Ġmiss ing
ĠJ apan
ĠI m
Ġa f
ri ll
com p
Ġg oogle
Ġrem ind
Ġper haps
Ġd ad
Ġmom ent
Ġbl ood
OO OO
al k
Ġc amer
ord ing
Ġscre en
ĠS omet
Ġwill ing
ail able
as c
ĠO K
Ġbl og
or k
lev ant
Ġwith in
Ġcont ent
Ġth ous
Ġl iter
o ke
us ion
2 2
Ġs qu
Ġext ra
e ed
D on
Ġre asons
Ġins urance
Ġsu ff
am s
Ġcr ime
Ġst ep
ill s
Ġob ject
Ġon line
Ġto ol
Ġcap ital
ĠI N
re g
ou ble
Ġin de
Ġfem ale
b ack
g est
Ġreg ular
Ġsub ject
Ġwee ks
Ġstand ard
Ġnot ice
ure d
Ġcommun ity
Ġcont in
Ġp ress
Ġen c
Ġlot s
Ġac ross
Ġmost ly
ĠW H
Ġmach ine
Ġre search
Ġmet h
ĠM ore
Ġte ac
Ġsh are
at ter
ĠHow ever
Ġvot ing
Ġinf l
Ġpro ject
Ġret arded
Ġtr ust
er ic
ĠP r
er gy
ĠA d
if t
ĠĠ čĊ
Ġind ust
Ġpop ulation
ĠF ire
Ġthe ory
ab ility
Ġwr ote
ĠD own
Ġturn ed
led ge
ain ed
Ġs ize
as p
m b
Ġn umb
Ġm outh
Ġreg ard
Ġsp ent
Ġcomp et
t a
I I
Ġav oid
Ġcomplet e
Ġh y
Ġ1 8
Ġhigh er
Ġde g
o on
Ġgun s
200 9
Ġrel ation
Ġd ied
Ġmiss ed
Ġpriv ate
Ġbl ock
z z
Ġpos ition
Ġcon n
fic ult
1 8
Ġgo ld
Ġpost ing
Ġf our
Ġdou che
Ġacc ess
Ġthat s
og n
1 4
Ġt end
Ġli ked
Ġfeel ing
O S
Ġch oose
ĠA fter
Ġcop s
Ġfil m
O P
Ġl ate
Ġqu ote
Ġno body
Ġwal k
Ġo ption
Ġprot ect
Ġf reedom
Ġwere n
ĠT ry
i et
Ġthr ow
re w
Ġcont ext
Ġro ad
Ġdefin ition
Ġ4 0
. *
Ġb and
t w
h ol
Ġsa fe
ĠApp le
Ġc ustom
Ġc ry
Ġey e
ĠĠĠĠ ĠĠĠĠ
ĠS ee
g oogle
Ġdec ided
l s
Ġb ag
ish ed
Ġreal ity
Ġgr ow
Ġav ailable
Ġbe com
Ġlo ad
Ġgr and
Ġcre ate
Ġrep res
Ġdif ficult
Ġf ake
ĠG e
Ġtr ack
Ġsent ence
1 7
Ġc ars
ĠFr om
d om
Ġlog ic
ren ch
re ci
bl og
Ġk ick
Ġb oo
ĠD r
Ġe ating
Ġway s
Ġt ur
Ġre comm
Ġr is
ĠAny one
ĠW TF
iz z
ĠDem ocr
Ġst ories
Ġf ear
Ġcon vers
r r
rup t
Ġbene f
d own
ir m
Ġter rible
ĠG reat
Ġchar acter
Ġpl aces
Ġdo or
ce ll
Ġcar ry
Ġcuri ous
Ġdest ro
uck s
A L
ĠN ice
in ing
Ġh ang
Ġs at
Ġacc ident
ivid ual
Ġspe ech
ru ct
Ġext rem
ĠI nt
u ly
Ġc atch
m on
Ġbe aut
Ġqu ality
Ġpr oof
1 00
Ġadd ress
Ġsw itch
Ġdrug s
g es
Ġth reat
Ġcreat ed
ĠB y
Ġs um
Ġb orn
Ġre ce
sy ch
y th
Ġf ur
Ġde v
Ġr ape
Ġc ook
Ġsub s
+ +
Ġsuc cess
Ġmess age
Ġma le
al se
Ġprof ess
Ġne g
Ġother wise
ĠIr an
ĠD ude
Ġchang ed
Ġg as
Ġe arth
Ġcon cept
b ers
Ġb acon
Ġatt ract
Ġwe ar
ri age
Ġcons erv
ĠTh ese
ĠPer haps
Ġsh op
Ġep is
ĠP res
A Y
Ġco ver
w ed
Ġrep ly
as k
Ġst ar
Ġcan did
Ġan g
Ġsome body
ĠUS A
Ġsec ret
und red
Ġeconom y
Ġdr unk
il es
p ing
Ġb ed
Ġpre t
Ġen ergy
Ġd ro
Ġuse ful
at ives
B e
Ġv oice
Ġf a
Ġrec ently
f ace
Ġnumb ers
Ġli e
Ġfun ction
ĠC al
R e
av a
our ces
ci ent
ĠIs n
3 3
Ġb irth
it ter
ve red
o es
Ġf ell
Ġgener ally
Ġpro p
om en
os h
Ġo pt
Ġmur der
Ġl ad
Ġput ting
Ġsecond s
m a
Ġbl ame
UU UU
Ġte ach
Ġacc ur
Ġste al
app y
ĠWh ile
ur s
i od
re es
ĠJ ohn
ĠT O
ad es
Ġsup pose
ne y
b ox
Ġrelation ship
Ġf ed
on ic
Ġhas n
Ġf ather
se c
Ġposs ibly
l am
ra id
Ġstop ped
T H
if ul
end er
o or
Ġch urch
Ġinvol ved
Ġam eric
ĠL e
Ġf ing
Ġwait ing
Ġd anger
Ġde ep
Ġr ace
Ġnot e
con s
Ġind ividual
Ġnot iced
Ġim pl
ĠP re
Ġhor rible
Ġrequ ire
v ir
ĠJ ews
ĠIn ternet
Ġlearn ed
Ġc ell
pl es
Ġrul es
Ġbuy ing
Ġdo c
Ġth ird
pos s
Ġperf orm
m en
ĠMus lim
Ġexp ensive
ik ipedia
ent ial
J ust
Ġcom b
Ġf ill
Ġb urn
Ġadm it
ĠF ox
ph ot
ĠPal est
H ere
a ign
Ġsm ell
ĠEx cept
Ġo dd
il i
Ġaw are
ar b
Ġdown vote
Ġok ay
Ġball s
Ġcir c
ĠG erman
Ġf elt
Ġwas te
o ver
Ġwatch ed
av es
Ġpro ve
i j
t le
Ġl os
ĠM icrosoft
200 8
Ġf it
Ġpl enty
Ġmor ning
Ġf ile
2 7
ĠM ar
Ġex act
g n
Ġdec ent
x ual
Ġprogr amming
Ġsol ution
ĠH ell
Ġsmo ke
wh ich
A C
Ġprov ide
ĠM r
Ġinc red
le ar
Ġpur pose
um e
ah ah
pp ed
Ġsl ight
igh b
ĠAN D
Ġar m
est er
Ġre pe
r ap
O r
Ġh undred
ĠS T
ĠN ever
en g
Ġtr ave
Ġsk in
ĠG l
Ġru le
Ġ est
Ġv ir
Ġsome how
rop ri
Ġv ag
Ġhur t
Ġv ol
Ġa ud
s et
Ġret urn
co hol
ro du
p ut
Ġd raw
Ġd ig
Ġp ers
Ġentire ly
Ġro b
at ors
Ġtast e
Ġ ver
Ġdiscuss ion
ĠS ounds
Ġspec ific
Ġs ens
ĠCh ina
Ġd om
Ġtw ice
ac ed
Ġpolit ics
Ġto wn
Ġgr ound
im in
Ġtot al
Ġt ab
Ġe arly
c an
Ġs on
Ġdri ving
Ġapp reci
ĠM S
i ant
Ġr ate
h ip
Ġli ved
d s
ĠH A
Ġmention ed
Ġspe ll
er c
Ġwe aring
Ġad vice
a ks
Ġf ol
Ġfe ed
Ġte am
9 0
Ġme at
Ġf ant
he m
ad ing
ilar ious
Ġh at
Y es
id er
Ġresp ond
m as
amm ar
) ?
w ith
cri pt
gr ound
I G
Ġh yp
ĠF irst
Ġhonest ly
Ġsh ut
Ġbuild ing
ĠK e
ĠAust ral
u dd
P S
os p
ĠJ ew
2 8
ĠW ar
in ese
Ġf ive
Ġaf raid
un e
F or
Ġlink s
Ġv ict
f riend
.. ...
Ġne ighb
ught er
Ġcult ure
Ġconc ern
Ġcr ack
ĠC ould
Ġconf used
2 4
Ġ9 0
ĠS H
Ġco ld
r it
Ġmar ried
id ing
st r
Ġact ion
Ġaff ord
Ġl ap
as ing
Ġbl ow
Ġser ies
ĠR em
ac c
Ġb ase
Ġany where
are ly
Ġstre et
Ġpr ison
Ġcamp aign
yth on
b el
U T
Ġd ate
Ġ ident
ra ft
Ġne arly
Ġc e
s l
ĠO P
Ġuni vers
Ġfin ally
* ,
Ġjob s
Ġmem e
ĠS ame
HA HA
Ġsex ual
a ud
ĠUp voted
I L
ĠH mm
Ġannoy ing
Ġpart s
t ain
Ġs illy
ĠEx actly
Ġb other
ad d
Ġval id
b ag
Ġhum ans
P h
Ġd am
Ġp sych
Ġcontin ue
Ġ ur
ĠW ill
Ġal tern
Ġhead line
Ġperson ally
Ġap art
Ġknow ledge
g en
Ġd ream
Ġy a
ĠSt e
7 0
Ġn ation
S S
Ġf ault
t f
Ġaut om
i est
ĠS ince
iv al
Ġrefer ring
2 9
Ġide as
?? ?
Ġ1 6
Ġperfect ly
ĠAg reed
Ġter ms
Ġm ill
Ġt en
Ġem ail
Ġtr ouble
as ure
Ġpolic y
F W
Wh en
O D
ci ence
Ġn one
im ent
iv ed
ĠSome one
Ġanim als
Ġpr int
Ġup d
Ġrec ogn
o res
ag er
Ġco ck
r ay
Ġrecomm end
Ġst yle
Ġ2 5
Ġob s
Ġb omb
um ents
Ġpolit ic
ĠT oo
Ġdou ble
Ġco ff
Ġl ower
Ġchar ge
Ġ âĢ
Ġl ines
Ġimm edi
ĠSt ates
Ġf ield
uc lear
in ist
ĠD O
Ġd rop
d ered
or rect
Ġch rist
ĠPres ident
u it
ca re
Ġw ow
Ġ ut
poss ible
e f
Ġsh itty
if ically
Ġre v
Ġv s
ĠS up
Ġcamer a
Ġj ail
Ġimp ro
Ġqu ot
ĠT e
ĠUn less
Ġmeth od
I M
Ġbott om
cell ent
Ġrel ated
Ġcost s
Ġpo ll
a ur
Ġreddit ors
ol it
t ed
Ġfair ly
ĠN e
Ġindust ry
or ge
Ġstart ing
Ġgot ten
at ory
Ġdeb ate
ĠNot hing
Ġc ross
v al
R R
Ġnat ural
Ġp ed
r is
Ġper iod
ĠO N
Ġtr uly
N ow
Ġmar riage
Ġt on
Ġeff ort
Ġd iv
Ġgr aph
ĠC ong
Ġto wards
Ġfact s
ĠH oly
vir on
Ġcour t
Ġf ool
as y
Ġh arm
Ġp le
Ġs itting
Ġf alse
n ter
Ġplan et
ĠPro bably
in c
Ġhum or
Ġele ction
Ġsec urity
or row
Ġbut ton
Ġignor ant
att le
Ġup on
Ġinde ed
Ġprot est
h ood
az i
Ġeduc ation
ar ies
Ġp ush
Ġab ility
u ct
HH HH
ĠM on
Ġt ort
Ġextrem ely
Ġsur v
Ġrep ublic
Ġsit es
Ġw arm
Ġphot o
Ġc ute
Ġh ost
ĠTr ue
Ġbrows er
Ġl ay
Ġd ark
in f
Ġ8 0
y ond
Ġreal ized
Ġdis app
Ġcompl ain
Ġgl ass
Ġup voted
2 3
ĠH a
Ġpre d
Ġn er
Ġbro ken
Ġt ar
ropri ate
Ġdec ide
Ġro ll
ĠBrit ish
Ġcitiz ens
al es
K E
Ġcurrent ly
is es
b oy
il os
Ġmin or
re al
Ġbl ue
Ġal b
Ġca ught
Ġal cohol
Ġfa ith
Ġn ames
Ġh ilarious
Ġproper ty
id s
ob al
Ġmin ute
Ġdrink ing
Ġl ic
Ġbeh av
re en
re ly
res h
â ĸ
Ġmist ake
Ġbu ilt
Ġt em
Ġ !
ĠEvery one
Ġliber al
a i
en ces
Ġarg ue
Ġli bert
Ġwe ight
Ġev olution
int on
Ġmoder n
ol ic
er k
Ġin n
ra v
ple ment
6 4
o il
Ġf aster
Ġwe ed
S h
m ark
Ġp ir
ĠH as
Ġdestro y
Ġus ern
ĠL OL
Ġmo ving
Ġhe av
Ġrepres ent
Ġknow ing
Ġph r
Ġs un
Ġab ort
ĠPalest in
Ġw indows
ect ed
Ġpr im
? )
ip le
ĠU s
W ell
ĠN O
es ides
Ġj ump
Ġn ational
Ġfur ther
Ġuni verse
Ġbig ger
Ġcol or
ĠAf ric
Ġcont ract
b ing
Ġidi ots
ĠT ex
ĠS outh
Ġdoll ar
Ġresult s
Ġkid ding
ĠPal in
B C
ĠUn ited
Ġlo ck
A ny
Ġcoff ee
ri but
ĠI M
ci ous
ĠRepublic an
Ġbeaut iful
ĠLook s
re me
Ġs and
Ġswe et
ĠTH AT
Ġconvers ation
and a
Ġvot es
Ġm ix
Ġad s
Ġapp lic
ĠChrist ians
app ed
e es
ater ial
if f
viron ment
Ġt ick
i us
d a
Ġbr other
our n
ou l
Ġold er
ĠN ope
Ġc ash
Ġ1 4
w ell
ĠA M
Ġsign ific
; &
Ġcons um
Ġ1 3
Ġdirect ly
Ġad vert
Ġar rest
aa aa
T W
ic ated
let e
ol f
Ġdis co
Ġin tern
ear s
Ġp an
Ġal though
Ġwonder ing
Ġc ow
Ġcom ic
Ġm ath
Ġoppos ite
ĠSh ould
Ġfoll owing
â Ļ
Ġlap top
at ically
ist an
Ġh ar
L Y
Ġp ic
ar ning
p ng
Ġp ub
Ġintellig ent
ir ty
Ġser ver
Ġad ult
Ġre le
Ġapp l
r ome
Ġp unch
... "
it ude
Ġtechn ology
ĠN ews
Ġ1 1
n ed
ĠL i
Ġpe ace
or der
ĠApp arently
Ġy ell
Ġconsid ering
Ġris k
Ġathe ists
\ *
Ġgr ad
p ic
Ġa head
Ġex ec
Ġprev ent
erest ing
A D
Ġcomp ared
Ġp et
Ġlo ved
ĠSt ill
ĠA w
Ġbl ind
Ġarg u
ĠV ery
ĠRepublic ans
e y
ind ex
ĠH aha
ac he
ĠR ead
U n
ĠS im
N N
Ġke pt
Ġdanger ous
f in
Ġyour s
Ġpr in
Ġsp ending
Ġcre ep
an na
Ġquick ly
Ġcont r
Ġsmo king
Ġstr ange
Ġim possible
Ġbu dd
Ġfore ign
Ġappe ar
Ġteac her
Ġam ong
Ġla zy
e al
Ġneg ative
w r
Ġp ath
iv ity
et ter
O n
Ġfol ks
du ct
ent ially
Ġse m
st itution
Ġfor ced
4 5
Ġgre en
Ġcrit ic
Ġse par
Ġdeg ree
Ġepis ode
ĠC ons
Ġany body
c d
Ġr an
Ġf ac
Ġre ach
Ġusern ame
ide o
Ġcomp ar
if orn
Ġf ish
Ġwind ow
S FW
Ġbe yond
Ġem ot
Ġca res
Ġb illion
Ġe th
Ġdes k
Ġde l
g ar
Ġpres ent
ĠY ep
ific ation
ĠB ill
d y
Ġprof it
Ġc y
or rent
Ġ ess
Ġmem ory
Ġreason able
Ġleg it
Ġc art
Ġwe ak
ann ed
Ġbr ought
Ġli kes
n ces
Ġaccur ate
Ġp ure
Ġb al
it ation
ag ing
u ana
ar ter
Ġn ature
Ġevery body
ĠW est
Ġcom mer
Ġde li
Ġm aterial
Ġt ired
Ġhop ing
Ġsh ame
ist a
Ġ6 0
p et
it ler
the y
Ġb ast
Ġcon dit
un der
Ġmed ical
ĠAr ab
Ġfl ash
Ġspe aking
Ġweap ons
Ġcons pir
3 5
ict ed
en ing
Ġper cent
ĠFire fox
Ġdeser ve
Ġdo ctor
Ġfor ward
a u
le y
Ġex ists
Ġimmedi ately
ony m
ĠJ ava
ĠE arth
ilos oph
Ġnecess ary
r am
Ġliter ally
ĠS m
ĠSt op
Ġhand le
Ġmult iple
ĠS pe
ĠC ol
Ġ ug
in st
Ġbas ic
ex ic
ic ient
m ail
ul ate
Ġvict im
Ġst uck
Ġdown modded
ie ve
Ġstud ent
Ġap olog
o v
Ġ `
Ġto m
Ġcon cl
p y
I R
Ġf oc
oo ps
is hing
Ġne ither
ĠN Y
Ġen vironment
Ġgot ta
Ġplay er
7 5
Ġn amed
Ġn uclear
C H
f act
Ġjo kes
Ġdisapp oint
Ġdoc ument
ĠCh inese
Ġoff er
Ġbig gest
Ġcan cer
ose xual
Ġequ al
Ġins ane
E x
Ġim plement
vot ing
Ġha ck
g ust
Ġtr ick
Ġmod el
Ġgr ammar
Ġrespons ible
Ġpiss ed
ĠD igg
Ġrequ ired
Ġsh all
b and
as ion
Ġevery where
TF Y
Ġli br
Ġtop ic
Ġsh ock
d r
Ġm ac
ĠI E
Ġsus pect
Ġsubm ission
Ġsarc asm
Ġvide os
Ġmem bers
unt u
Ġunderstand ing
Ġh ook
R eddit
Ġfe et
i pe
un ity
it or
so ci
ĠSt ar
Ġre lease
' ,
Ġviol ence
ic ation
Ġfigure d
s pe
ĠH ill
Ġc ases
ic ide
ĠD ep
ĠBl ack
2 6
Ġadd ed
Ġl ying
Ġslight ly
p en
ĠTex as
op s
re nd
Ġtar get
st ood
Ġang ry
I LL
Ġp ants
Ġthous ands
Ġm ast
Ġsp ort
ĠCanad ian
art y
Ġbu g
w in
Ġact ions
Ġfail ed
l ook
A meric
Ġ: -)
Ġinc ome
Ġde cl
Ġexc use
Ġnecess arily
et er
ĠD is
ĠWor ld
Ġinclud ing
i ers
at ures
Ġign ore
ant ed
ĠRuss ia
Ġinter view
I A
Ġm id
Ġdep ends
Ġart icles
Ġqu al
ens ion
Ġspec ifically
g un
Ġpur ch
ĠIsrael i
Ġv ari
Ġassum ing
Ġbro ke
ĠCl inton
Ġm ent
ĠB ar
ep end
Ġpr on
F uck
Ġmill ions
iforn ia
s he
ĠSomet imes
rel ated
Ġd un
Ġex am
Ġal ive
ĠE n
Ġinn oc
Ġsc ri
Ġdem and
Ġm atch
e k
Ġexpl an
Ġre view
ĠA T
ĠE s
ĠO F
/ ?
Ġsp read
Ġbelief s
v iously
Ġfeel s
8 8
Ġent ertain
ch ool
en ed
Ġre levant
Ġcou nter
Ġclaim s
in ary
Ġshow ing
Ġstud y
Ġanim al
p oint
Ġcommer cial
ĠM exic
Ġtr ad
Ġche ese
Ġscri pt
Ġ u
ous ly
ĠF ed
o k
Ġdes p
Ġha ha
Ġj ack
Ġhappen ing
Ġspe lling
ie f
Ġsc ene
ĠUn fortunately
ĠIs lam
Ġappreci ate
Ġevent ually
an ced
Ġcirc um
ĠH ar
Ġd igg
t ube
Ġdec ision
Ġst ock
ĠOk ay
Ġcoll ect
Ġmo ved
Ġincl ude
3 4
i let
C an
ĠB ig
Ġex cl
Ġstud ents
Ġre du
Ġins ult
r s
Ġf ly
Ġfe ature
p ost
Ġsp am
Ġbel ow
ĠH am
y our
Ġrel ative
ro g
Ġ2 4
I ON
oo s
im inal
ĠA b
dd en
olog ical
e ff
ed y
Ġz ero
Ġe h
Ġorig in
w as
Ġcr ash
Ġwe alth
l ig
i vers
A ll
Ġcall s
a el
Ġ1 7
Y eah
w ing
Ġhard er
ĠP S
Ġwe l
Ġoffic ial
Ġs il
y ear
Ġl oud
Ġs ix
Ġfix ed
Ġdis gust
ress ing
id ge
n ew
Ġ ice
Ġsp ot
oth es
rill iant
cont ent
Ġmass ive
Th en
Ġbut t
Ġend ed
Ġr ub
d is
ri f
Ġconspir acy
Ġt ag
ess ion
ĠF rench
Ġr ound
Ġkeep s
Ġacc ording
ĠDoes n
Ġfil es
Ġcr ow
ĠM ich
Ġhigh ly
ag on
Ġuse less
ĠH itler
Ġincred ibly
Ġmor al
Ġp ig
a use
Ġug ly
Ġr ational
Ġn ut
pp ing
ipp ing
ow ers
Ġde bt
Ġcomput ers
wor ld
ĠJew ish
izz a
Ġluck y
/ ).
Ġm ad
ĠO nce
Ġdown mod
all en
Ġmin im
Ġth us
Ġhold ing
! ](
Ġpoint ing
ĠT ell
Ġh ole
p re
Ġseem ed
Ġpos itive
Ġ ..
Ġlim it
Ġread y
Ġqu it
Ġturn s
ĠT ake
Ġher o
6 5
Ġpr ices
ourn al
pect ive
Ġcandid ate
ill a
Ġwal king
ĠC r
it ions
ĠO ther
Ġapp ly
ou nce
ul ations
Ġstart s
Ġfight ing
d es
ĠR ed
Ġphys ical
Ġbe c
ĠN E
Ġfind ing
Ġsu dden
g l
c ast
Ġlaw y
Ġsystem s
Ġapp ropriate
Ġcl ub
Ġprop ag
Ġcomp lex
Ġdog s
Ġjud ge
Ġdef ense
Ġp uss
AAAA AAAA
p ret
F TFY
r ated
Ġun f
Ġeconom ic
ĠU h
Ġs pl
ĠJ ack
Ġsub st
8 4
Y our
Ġfed eral
om an
Ġb le
A re
ĠNor th
l ation
Ġpart ies
ĠAustral ia
Ġd in
Ġcont inu
ĠI D
Ġback ground
Ġlangu ages
Ġconserv ative
Ġtr aff
u ce
Ġrun s
Ġthere fore
Ġphr ase
ĠA LL
d on
il ing
Ġpract ice
se qu
Ġs ister
Ġinf o
Ġchang es
Ġgi ant
i ven
ĠJapan ese
Ġte en
ĠB E
Ġes c
Ġaw ful
f ree
Ġm ir
ate g
Ġon to
Ġfore ver
Ġun s
T o
r d
Ġfull y
Ġhe y
Ġcan t
w ar
Ġbegin ning
Ġassh oles
Ġappe ars
Ġp ics
Ġi Ph
Ġsh irt
9 5
M L
ĠAl though
Ġrad io
Ġe gg
Ġb oring
Ġexpect ed
Ġremo ve
m ing
l a
Ġt iny
0 8
us er
u ke
ĠG en
Ġcheck ed
Ġbecom es
Ġse lling
Ġf asc
il ty
v ent
Ġbehav ior
S he
Ġconv in
Ġlaugh ing
ĠM E
Ġser v
s ome
Ġex cellent
e el
A n
? ](
m ar
m in
d ers
Ġlet ter
Ġyou tube
Ġh ide
Ġin it
Ġscient ific
Ġregard less
Ġmil es
ĠSe ems
Ġm ut
Ġrec ent
Ġto ilet
Ġph ilosoph
Ġhealth care
Ġkey board
Ġb ath
ĠPre tty
Ġb oss
Ġguess ing
Ġb ow
Ġca used
ĠDid n
ann el
Ġpro gress
Ġb on
Ġexper ien
Ġgl obal
ant ic
am ent
Ġnet work
Ġgr ade
amm ers
EE EE
Ġmo on
Ġpre gn
Ġle arning
ipp ed
u y
fort able
ĠC le
Ġalb um
ĠEs pecially
for ce
U R
Ġw est
Ġcont roll
Ġcle ver
Ġh ol
og y
ir ing
od es
Ġbe ar
Ġt ip
Ġfin an
Ġwel come
ic a
Ġoppos ed
Ġdesign ed
Ġexist ence
Ġvis it
k in
Ġse ason
ĠN ah
ab les
Ġexplan ation
Ġcont act
Ġlet s
Ġhelp s
Ġer ror
0 4
ĠInt eresting
Ġli f
O b
ĠY ea
act ers
Ġn aked
Ġra ise
Ġstand ing
ĠB est
Ġrequ est
Ġlad y
Ġhard ly
Ġtraff ic
u x
Ġdemocr acy
ĠCal ifornia
Ġbel ong
3 7
Ġb reat
Ġpl us
0 9
Ġdam age
6 6
Ġproduct s
Ġb oot
Ġmil k
Ġtr ain
app ing
Ġb ail
A P
ress ive
Ġtell s
Ġdef end
Ġplan e
ER E
Ġre action
Ġn uts
Ġsc r
m ind
Ġelect ed
S ome
Ġproper ly
Ġpl ug
Ġta ught
il ities
Ġda ughter
ĠGe orge
Ġl oss
Ġbo ard
ĠTw o
le br
Ġem bar
ar ious
ĠS un
ul ated
Ġkeep ing
Ġc ats
k a
Ġkn ock
dd amn
Ġeffect ive
ĠPl us
p age
Ġdown votes
arl ier
ĠCom p
ce ed
Ġf arm
ĠS y
de f
Ġsc ary
al o
ĠTH IS
Ġpun ish
Ġschool s
ĠBe ing
k n
ili ar
is p
Ġen em
b b
Ġr out
Ġpower ful
Ġt ough
ester day
!!!! !!!!
Ġtyp es
Ġarg uments
Ġ ult
Ġcorrect ly
Ġbec ame
Ġm ouse
ar ant
j ob
ee ee
ĠiPh one
Ġbudd y
Ġconst itution
h and
b ur
Ġparticular ly
Ġprev ious
Ġup votes
osh op
Ġchar acters
Ġpers pective
ap t
Ġpr oud
ĠN SFW
Ġtrave l
ĠThat s
Ġset ting
Ġgrou ps
Ġchick en
Ġbu d
Ġche aper
Ġm ap
al t
ĠB ible
Ġsome what
Ġl ame
ĠC ome
e very
Ġmet al
ed u
Ġjo in
= =
Ġ: -
Ġv ia
Ġde lic
inf o
wh o
Ġsca red
Ġun like
Ġm er
Ġ ~
ĠM Y
8 5
ic it
Ġrequ ires
Ġpass ed
H T
Ġt able
x y
Ġincre ase
Ġst ere
** .
Ġc up
Ġaltern ative
Ġdem on
Ġlic ense
Ġmem ber
Ġle aving
ĠE ver
Ġr ide
Ġw anna
Ġinnoc ent
ĠE VER
S T
Ġstand ards
0 3
ĠChrist mas
Ġtort ure
Ġdis play
Ġb ike
Ġp ages
Ġe arlier
Ġview s
um an
Ġlink ed
Ġopp ort
ath olic
l aw
Ġexpect ing
ĠNo body
Ġathe ism
er ve
ĠH ope
ch ange
r ant
Ġsmall er
in o
Ġcor rupt
Ġfl u
ĠHill ary
Ġprin ci
Ġb ible
ĠU N
Ġbenef it
Ġunder stood
Ġsubs cri
Ġpl at
Ġh osp
v ideo
mm m
Ġgu ilty
Ġbas is
ick r
ĠChe ck
Wh o
S D
ĠC ar
hh hh
oc ol
wh y
! ?
M aybe
p ress
Ġch allen
Ġhyp ocr
ab or
Ġda ily
Ġb anned
Ġneighb or
f r
Ġsa ving
ĠP ython
Ġpost er
Ġ ,
Ġdet erm
Ġhard ware
r ass
Ġdun no
Ġtroll ing
6 7
Ġtri p
es h
iss ions
Ġelect ric
Ġabort ion
O ne
ĠS ad
f ire
Ġim ages
Ġaff ect
im p
g ood
iction ary
ur d
Ġsk ills
ĠTh ink
ĠIn st
ĠThe ir
Ġg ee
Ġfre qu
ir l
a ven
Ġre fere
Ġir ony
ĠV ista
ĠO ff
Ġinfl u
ĠDemocr ats
Ġcorpor ate
ĠW al
ch es
ĠAw esome
Ġcons ist
ru ction
__ __
Ġr h
id ay
Ġz omb
Ġche m
d b
n ers
re ally
** *
Ġwho se
Ġhear ing
onest ly
Ġpre p
Ġpass word
Ġboy friend
Ġpropag anda
Ġsa ke
ro c
Ġr ing
Ġfl ag
Ġa ddit
Ġmast urb
Ġb ra
; "
s m
ĠU m
Ġlisten ing
Ġ7 0
ĠF unny
Ġact ing
EN T
ay er
Ġconcern ed
A LL
Ġw ood
Ġma il
w ich
Ġir re
Ġb ot
Ġtr ade
ij uana
Ġfin ish
ĠPalestin ians
B l
Ġadm inist
phot os
ĠKe ep
Ġli es
Ġlog ical
i qu
Ġbab ies
Ġw ars
Ġd irty
ĠP R
Ġas soci
Ġdevelop ment
ay ing
Ġdouche bag
Ġshoot ing
Ġb atter
Ã ©
ck s
iz es
om s
ĠWh ite
Ġsong s
Ġcl ar
ph one
Ġpot ential
Ġattack s
ĠM any
Ġdef ault
Ġrele ased
ĠK ore
b a
Ġend s
Ġsc en
in ct
an cy
Ġsh ip
art icle
S eriously
ĠH er
Ġh us
Ġprogram s
l ife
ĠT ime
an c
al d
Ġpolitic ians
V D
Ġinf in
Ġattract ive
Ġhe ld
b re
Ġgr ab
ĠP ol
er ry
ĠG ive
Ġl inux
ĠFuck ing
ĠM ake
Ġa ch
at he
Ġmor on
us hing
Ġignor ance
h old
Ġenc our
Ġref use
Ġf ired
Ġcrow d
ĠH ouse
Ġmar ijuana
ĠU P
Ġcr iminal
ĠH E
Ġab use
air s
Ġreddit or
r ict
Ġconf irm
Ġopin ions
ĠC ap
Ġfing er
ro s
Ġd er
Ġsu it
Ġp al
Ġfor mer
Ġintellig ence
idd en
Ġsubm it
Ġw ide
8 6
Ġdri ver
ĠInd eed
erson ally
re h
le ction
Ġpick ed
I P
Ġme asure
Ġphot os
Ġargu ing
Ġterror ist
0 7
Ġt ree
ist ics
Ġw tf
OM E
ĠF OR
Ġa in
U N
Ġp ee
Ġsa f
ĠA p
le g
w ood
y l
Ġp izza
ĠA RE
9 7
* ?
Ġhad n
Ġmed ic
ĠC D
Ġn ar
ĠSh it
ĠR EA
ug s
h ouse
Ġpull ed
Ġlar ger
t here
Ġeffect s
Ġper m
Ġrest aur
Ġboy s
C om
Ġequ ival
C T
4 7
ograph y
i able
Ġgener ation
âĢ Ŀ
ĠO ur
se e
Ġf resh
Ġse at
A t
ĠA the
ĠY ork
Ġdis e
Ġconst antly
ĠW ikipedia
Ġco vered
Ġweap on
Ġar ms
gh an
Ġprodu ce
Ġocc ur
Ġback wards
is ions
Ġse ction
ĠC o
Ġy esterday
Ġint rodu
ĠB oth
Ġh ip
Ġm ental
Ġs ides
ud es
Ġr at
Ġfl aw
Ġind epend
Ġcomm and
Ġhom osexual
Ġb anks
Ġind ic
ĠGerman y
ĠS at
Ġremo ved
0 1
) )
Ġsa ved
ĠCom m
th ink
uc in
Ġend ing
Ġl at
m et
P ro
Ġce lebr
Ġpl ain
Ġsuper ior
st ream
Ġfun n
l in
Ġb at
Ġbr and
Ġadv oc
Ġclos ed
ad a
it ar
com pl
ĠE ither
Th anks
Ġsca le
Ġw ild
uu uu
Ġc ig
E very
ĠFUCK ING
Ġre nt
Ġf lying
Ġinter pret
Ġadv ant
ĠL I
Ġdo ct
ath y
us ive
Ġfl oor
am ental
ĠC or
Ġdelic ious
Ġshow ed
ĠA cc
p olit
Ġcompar ison
Ġwhen ever
ass es
Ġdescri be
ĠM in
Ġcap t
---- ----
ap ers
art ment
L et
P l
Ġcreep y
Ġwor ried
Ġbecom ing
Ġd ying
Ġhu h
ĠSomet hing
Ġserv ices
Ġgreat est
Ġfell ow
Ġv arious
fe ature
8 7
ain e
nd er
Ġscre w
Ġc ast
ĠMuslim s
y r
M e
ĠS O
Ġrac ism
Ġc ards
Ġpo ck
Ġrap ed
ĠYOU R
ĠCong ress
Ġla id
Ġal ien
200 7
Ġv ast
Ġsal es
ĠMich ael
s n
Ġrepl ace
Ġst ation
0 5
eng th
ant a
Ġint ention
g ers
Ġconn ection
m ed
Ġown ers
z en
ĠM ay
b untu
Ġpl astic
ĠOb viously
Ġaccept able
Ġsignific ant
k er
Ġsubm itted
Ġameric an
Ġremind s
Ġlaugh ed
He y
in ter
Ġcal c
Ġappro ach
ĠR es
Ġw ing
Ġbro ad
Ġthous and
Ġmult i
ĠK ing
D id
Ġsu icide
ĠI P
Ġhundred s
G E
0 6
Ġe arn
Ġh ous
Ġown ed
Ġstere ot
Ġsum mer
Ġfam iliar
Ġch o
Ġlab el
Ġthought s
T A
Ġto w
n ight
ĠR el
R A
Ġb rilliant
Ġthr owing
Ġtom orrow
Ġheav y
Ġhor se
n s
here d
ĠBe ck
Ġlibert arian
R L
Ġterror ists
al ing
Ġbott le
Ġkn ife
u z
Ġimpro ve
il s
C E
Ġrec all
Ġvag ina
A r
Ġbenef its
Ġme rely
Ġ9 9
Ġlim ited
L D
Ġgr owing
Ġint ended
P lease
j a
Ġmag ic
Ġinst ance
is c
Ġ2 000
Ġdire ction
oth ers
Ġir onic
Ġjust ice
ĠHam as
Ġfe atures
Ġc ens
Ġthread s
y y
z er
Ġar my
Ġmat ters
Ġcomp are
oc al
Ġsu gar
O f
d em
Ġres ources
Ġare as
ĠS U
ot ic
Ġre act
se m
Ġpret end
Ġhead s
Ġs ources
Ġve get
ab lish
Ġgo al
3 6
Ġhealth y
Ġpuss y
ĠW r
ĠD a
ĠĠ ĠĊ
Ġf et
Ġintell ect
Ġsup ply
ĠB etter
up load
Ġcr imes
Ġsurpr ise
ain t
G o
Ġembar rass
Ġcre ation
av id
ash ion
Ġcl othes
Be cause
Ġplay ers
Ġlo ves
Ġv ac
Ġn om
Ġsol id
st ate
! )
Ġfl at
Ġclass es
Ġfant astic
Ġpri or
Ġgre w
Ġdet ails
Ġdesk top
Ġchang ing
Ġdesp ite
hing ton
Ġcon dom
ĠB el
Ġres ist
ar ians
ĠS er
Ġg e
Ġup gr
Ġgu arant
Ġs en
Ġse qu
Ġla unch
ĠK ind
Ġautom atically
y e
Ġ2 1
Ġlevel s
Ġdisgust ing
Ġpre m
T ER
ag o
u ine
Ġsk y
Ġperform ance
Ġform at
Ġfr ame
Ġsarc astic
Ġlibr ary
Ġequival ent
ĠW ay
here nt
as er
Ġsand wich
Ġexec ut
ad s
Ġsn ow
an ish
um ped
x im
we b
ĠE v
Ġbre aking
Ġplat form
Ġrespons ibility
Ġtur ning
Ġc red
i ents
b ig
ĠO ut
h ost
ĠC all
Ġlos ing
Ġaccount s
Ġp ark
P G
Ġar ch
Ġsepar ate
R M
Ġinc orrect
Ġ um
Ġfinan cial
f rom
Ġclos er
Ġhus band
y m
Ġbus y
Ġwant ing
Ġn ons
Ġman aged
Ġinclud ed
0 2
5 00
Ġstr uct
Ġaccident ally
ag ine
G ood
Ġs outh
Ġp up
ire ct
Ġno vel
Ġte eth
ĠW W
ou p
ad ed
e gr
Ġfoc us
ill ing
ĠP ut
Ġve h
Ġch icks
Ġdri vers
ĠRem ember
Ġup set
Ġqu e
ĠF in
h ib
Ġn a
Ġphys ics
; /
Ġsw ear
ĠAfric a
Ġc able
Ġem pt
9 4
Ġf uel
Ġra ised
ĠâĢ ľ
Ġg ift
Ġr are
Ġsuccess ful
Ġde vice
v i
ĠAn other
Y Y
ĠAm az
Ġb ird
ag ement
ĠH igh
Ġj ournal
id a
Ġhuman ity
. **
Ġoffic er
ĠH D
h ack
Ġleg s
Ġt ap
ord s
el come
Ġtick et
end ment
Ġtyp ical
Ġhelp ed
ĠD VD
ast y
Ġmove ment
az is
art s
Ġcorpor ations
Ġr ain
ĠW o
S orry
Ġsupport ing
Ġt ill
ĠP e
Ġfre ak
is f
or al
Ġsh oes
n n
Ġtr ash
ĠX P
Do es
Ġsp ir
Ġex erc
k ward
Ġsteal ing
Ġt v
p op
ĠL ast
Ġfin ished
r an
ã ģ
ĠF ree
ĠChristian ity
Ġemploy ees
ĠW E
Ġexam ples
G od
Ġenjoy ed
h am
Ġf inal
Ġbl ah
Ġimm ig
el ess
Ġfl o
Ġjo king
Ġviol ent
ĠP ar
Ġent er
ĠU buntu
Ġsudden ly
Ġassum ed
ĠW atch
l ock
Ġal t
Ġmarket ing
Ġr ough
oun ced
up s
Ġdro pped
Ġ â
ON E
ke ll
ak en
ĠCon stitution
on ed
Ġsh own
Ġopt ions
ab out
ĠS l
Ġme chan
arb age
cl es
Ġtrans l
Ġa st
on ly
Ġc ake
un es
ĠO M
Ġs ke
ĠWould n
Ġre ven
ĠSh ow
fl ickr
Ġ )
Ġser vers
Ġr ange
Ġopport unity
Ġstat us
9 8
rib ute
Ġsp in
Ġcondit ion
Ġcl ue
Ġmar ry
Ġw ire
Ġb arely
\ _
ĠS cient
Ġbre ast
Ġm ount
Ġshe ep
Ġas ide
s up
Ġkind s
Ġfund amental
Ġdisappoint ed
Ġbast ard
ac hing
Ġput s
u fact
Ġhelp ing
ĠS wed
Ġcr appy
ad er
Ġansw ers
ĠR ock
Ġtechn ically
ĠS w
Ġcomm it
Ġauthor ity
ĠAf ghan
Ġb ucks
st ers
Ġh on
Ġlet ters
l ist
Ġbr own
Ġcompl aining
Ġca uses
ar ah
ĠE d
Ġh un
S e
ĠEurope an
Ġfill ed
Ġdeser ves
ar io
Ġtr aining
Ġstand s
i h
Ġirre levant
Ġatt itude
ĠL aw
Ġcor ner
Ġreg ist
amm it
Ġb ub
Ġ; -)
ep t
Ġup mod
Ġgo ddamn
Ġpre c
" ...
Ġt orrent
Ġj u
Ġse lect
Ġpro ven
Ġpolic ies
Ġtr uck
.... ....
az a
g if
rib ly
ĠO per
Ġout r
che ck
Ġdist urb
Ġv irt
Ġmus lim
are tt
d f
cept ion
Ġsy mb
Ġj erk
ĠP ost
Ġd ish
ĠP H
Ġinv ented
et te
ach ed
9 6
Ġsy n
u ous
Ġcir cle
v y
t itle
ĠC ont
Ġhosp ital
ĠH onestly
c ore
Ġag reed
Ġconf l
b on
Ġoff ensive
G B
Ġf ans
Ġg ender
ĠS en
' ?
Ġfail ure
ct ions
Ġlet ting
ĠC ool
r ate
Ġgen ius
FF FF
ene y
Ġg ross
as hing
Ġupd ate
T r
Ġcon sequ
Ġpoint ed
Ġtrad ition
2 1
Ġb read
Ġprofess ional
Ġhe at
p aper
ĠC AN
Ġth umb
Ġd ry
Ġinvest ig
Ġall ows
Ġbath room
l ines
y es
ĠB S
Ġser ve
Ġcitiz en
Ġro le
ĠC H
Ġut ter
5 5
f it
Ġprogram mer
P eople
Ġw ake
ĠFr ank
Ġgen uine
Ġd ress
Ġdr ag
Ġacc ent
Ġro ot
How ever
Ġcustom ers
. '
P L
Ġsold iers
ind s
Ġsaf ety
Ġsol ve
u le
an ch
ug g
Ġ uh
Ġrecogn ize
ab s
ĠY up
Ġsh ower
Ġinstall ed
Ġdid nt
" )
Ġspec ies
Ġno se
Ġwonder ful
Ġcent ury
ĠC S
Ġfav our
Ġpl ant
ĠG ot
Ġsl a
ab y
Ġmy th
Ġun fortunately
ĠTh ough
Ġr ates
et t
c at
Ġdis s
onym ous
pe ll
ĠD es
Ġmot iv
Ġbelie ves
Ġest ablish
Ġ200 8
o om
ĠSe c
Ġbut ter
ĠN ext
Ġconn ect
Ġocc up
Ġcon gress
ĠA L
at ri
Ġweek end
Ġimp ression
Ġdet ail
ucin ich
r ound
in ated
ink s
Ġphilosoph y
rib ution
Ġlawy er
ĠSe cond
Ġsuggest ing
Ġor ange
Ġ5 00
C D
ĠInd ia
Ġ! =
Ġj ew
Ġess entially
4 4
ag an
Ġr arely
y pe
?! ?!
Ġh ung
ĠU se
US T
m ate
Ġhist or
A ct
Ġcent er
Ġempt y
Ġte ch
n ic
Ġleg is
Ġt all
Ġcap able
em ploy
ĠSt ate
Ġnorm ally
ix ed
and er
Ġmach ines
Ġpregn ant
Ġh ates
Ġarrest ed
Ġprodu ction
Ġm ort
Ġg aming
z on
Ġabs ol
L ook
Ġg ain
p eople
h ave
I m
Ġf ag
Ġrepublic an
Ġconvin ced
d i
go v
all ow
ĠM en
Ġgreat er
! *
ĠEng land
Ġscient ists
Ġadvant age
Ġbud get
. ,
al ed
Ġfing ers
Ġclass ic
) :
wh ile
Ġsupport ers
Ġrem ote
W here
ĠL ove
at o
oooo oooo
Ġaud ience
I V
Ġr ot
ol en
Ġcor n
ic he
ĠA S
ĠSt ep
Ġac compl
wor ks
Ġan arch
ber g
Ġtool s
% .
h ot
Ġjust ify
k cd
ĠEvery thing
Americ an
ĠUn ivers
hh h
ah oo
C l
00 00
Ġwar ning
Ġ3 60
Ġt it
Ġman ufact
Ġext reme
S E
OOOO OOOO
Ġclick ed
A KE
uck et
Ġkill s
Ġw it
pl ace
Ġslow ly
ag ue
ub s
Ġmo b
Ġg rav
ĠG old
fuck ing
it ute
do es
bl ock
ĠL ife
Ġtyp ing
Ġk iss
Ġwork ers
Ġsurpr ising
u zz
Ġm aster
d en
a q
ĠR E
Ġh oly
ĠF ace
Ġg arbage
Ġton ight
c ies
Ġminim um
3 2
st ory
Ġde leted
Ġsm ile
Ġl ength
ac s
Ġp ool
Ġcare er
b i
ĠO ld
Ġden y
ic ago
ri v
Ġlead ers
Ġass ault
Ġw ikipedia
Ġman age
Ġep ic
Ġb ored
Ġclaim ing
Ġact iv
Ġb right
Ġlo b
U L
al ty
Ġsk ill
ul ting
um er
Ġlight s
Ġst ated
Ġexp ress
Ġre b
Ġad op
Ġapplic ation
Ġre ject
Ġbe g
ĠJ oe
Ġcreat ing
Ġapp le
ĠWH AT
fin itely
Ġf ashion
Ġte lev
Ġs in
Ġg ang
out s
ag n
Ġor g
A K
Ġto ler
Ġh its
3 8
Ġf old
Ġdisco vered
Ġw ins
n ame
o ca
Ġt our
Ġtreat ed
ĠC atholic
Ġd ies
ĠG OD
oo g
Ġunivers ity
al y
Ġli qu
Ġaw kward
ĠT re
so le
ur ally
Ġplay s
Ġha m
A m
k ins
Ġown er
Ġdevelop ers
ac ing
re et
omet hing
od ay
Ġev ents
Ġlegit imate
Ġh ated
Ġcapital ism
ed s
Ġscre ens
Ġ :/
Ġint ent
arc asm
abor ate
Ġminor ity
Ġchar ged
Ġl ately
ĠH aving
Ġcopy right
os ity
Ġcompet ition
ĠN azi
Ġwas h
Ġte a
Ġg ig
Ġprogr ammers
AN T
M M
ic y
Ġintern ational
g or
Ġt im
ĠA nt
Ġtast es
Ġd ict
ĠM et
Ġsurv ive
Ġtreat ment
Ġfam ous
ĠInd ian
Ġboo bs
E O
ren cy
Ġint egr
Ġd ating
Ġcl ip
ĠAN Y
Ġteac hing
Ġc ateg
ig er
Ġn ative
ĠE r
Ġb ang
or ida
ĠB ack
Ġfl ight
ĠT om
ocol ate
ĠAs k
Ġre ve
Ġyoung er
Ġsport s
ĠB as
Ġs oul
Ġ- &
r ors
Ġch ose
Ġleg ally
Ġtr ail
ret ch
Ġ3 00
Ġc ities
Ġru in
Ġbill s
Ġo m
Ġt act
ĠD ear
Ġplan ning
Ġpub lish
Ġgrad u
ĠA bs
Ġstate ments
ub y
Ġabs urd
Ġconv ince
Ġb attle
ĠĠ ĠĠĊ
r ary
Ġ ^
Ġdec ades
Ġp ill
Ġfollow ed
D IT
ĠHe h
Ġdri ves
Ġaut o
Ġnons ense
b es
Ġt ons
Ġd ump
Ġval ues
Ġrelig ions
Ġdet ect
Ġc as
Ġdep end
Ġm al
Ġ1 000
M an
d oc
s er
if ying
pro duct
ĠM o
Ġfact or
ĠR ich
ĠB oy
Ġt rend
C C
ĠF F
Ġm and
Ġd ed
Ġcig arett
res p
Ġsim pl
Ġ200 9
Ġcon ven
ash ed
ĠP ersonally
ĠJ ud
Ġdef ine
Ġart ist
Ġwarm ing
ĠO pen
Ġcomp reh
Ġa im
W TF
st e
ap pe
f ast
S p
Ġocc asion
Ġdoct ors
ĠS P
Ġadminist ration
AT E
Is rael
Ġcont ain
Ġconcl usion
Ġbo at
le ading
Ġeconom ics
ĠH T
Ġcont ribut
Ġeng lish
ĠM a
Ġprim ary
Ġbirth day
Ġprov ided
Ġas h
im db
M A
Ġany ways
Ġsy mp
Ġadd ing
Ġret ard
b ased
un s
an ing
Ob ama
c all
Ġwho re
Ġimp act
N A
ĠY et
Ġl unch
Ġsat isf
ig ion
ir ts
Ġwon t
Ġpred ict
Ġdise ase
ĠA ss
ĠD ay
Ġd ial
ri al
?? ??
ĠF re
Ġdown voting
Ġexist ed
Ġsh ape
ĠFr ance
Ġob sc
Ġc od
ist ory
Ġd are
Ġcivil ians
Ġtal ked
ac le
Ġpath etic
Ġfoot ball
Ġs ending
ĠV al
Ġc ore
O RE
Ġdemon str
Ġfil ter
ĠH ard
Ġchrist ian
a wn
Ġb esides
Ġdec isions
Ġorigin ally
ĠEVER Y
Ġsc ore
ĠRuss ian
ĠAfghan istan
r at
Ġwin ning
ĠMexic o
Ġpunish ment
oca ust
b ian
Ġb order
pos es
Ġequ ally
UUUU UUUU
w ater
Ġpress ure
IG HT
Ġrelative ly
we et
Ġpartic ip
Ġmo ck
sp ot
w p
re ction
Ġver b
h l
ĠC O
Ġj ews
Ġb tw
Ġinc ident
Ġmain stream
Ġjud g
Ġscre wed
Ġpie ces
** **
Ġdin ner
a res
Ġcandid ates
Ġpercent age
7 7
Ġpoint less
9 3
Ġdis m
Ġimp ressive
ĠE m
Wh ich
s ource
ĠC A
ĠSup er
ne cess
gg ed
Ġpl ot
pp er
W W
sh ow
i que
Ġorgan ization
Ġle aves
Ġdis like
ĠL ets
Ġface book
ian ce
Ġch annel
Ġconf using
ah aha
Ġ ....
Ġfeel ings
be cause
Ġis rael
Ġimp ressed
Ġsh ar
Ġde lete
ur t
ĠC ent
i am
k now
Ġexc ited
Ġb ush
Ġmon itor
Ġus ual
ack s
o ken
Ġfall ing
ĠR eg
v in
Ġt att
Ġas pect
Ġkick ed
od ies
ĠS ch
Ġst ab
ger y
Ġfl av
Ġbad ly
Ġin comp
l iv
ĠC ity
âĸ Ī
Ġgu itar
ut ch
Ġr ab
ee z
Ġg ri
Ġdec ade
Ġsign s
ĠW in
ens es
Ġwon dered
ĠSad ly
ĠT or
Ġexper t
f iles
k ers
Ġmo de
Ġha h
ĠAcc ording
Ġexper iment
ast e
Ġen force
ĠRe al
ak er
n am
Ġeff icient
Ġtr oops
Ġoff ended
at a
Ġar r
ĠFl ash
Ġuni que
Ġcre am
Ġst olen
in ate
Ġpurch ase
te xt
Ġdevelop ed
p res
Ġadvert ising
ve re
Ġcon vert
Ġapp s
Ġsymb ol
ĠB ad
Ġsex y
Ġrece ive
nt il
Ġob lig
Ġv acc
Ġcry ing
ic ing
Ġe mer
ĠE ast
Ġinterest s
Ġsubm issions
I E
Ġabsol ute
ĠT F
Ġin j
Ġfor ces
Ġrece ived
ĠK ucinich
Ġt ape
Ġlab or
her n
u ations
w he
sp ace
Ġsupport s
Ġher self
tern al
B y
m ber
Ġsuck ed
Ġw ine
Ġ2 2
: **
ĠDown voted
Ġach ieve
Ġwh eel
Ġb ri
se y
Ġth in
Ġm ate
ot ing
Ġdescri ption
om ed
Ġtem per
Ġpro b
um ing
Ġquot es
Ġreason ing
Ġf ont
an cing
ĠEx pl
ĠP ort
Ġg all
R I
ĠA P
ĠOM G
Ġconfl ict
Ġte le
Ġwal ked
Ġne ut
s es
Ġcomp il
ud ing
ĠG U
Ġexplain s
ĠCh eney
in em
ĠD avid
c re
Ġbe ating
ri ve
IT H
iz ations
ĠInst ead
M ost
Ġstupid ity
ut y
Ġev ol
Ġchar ges
a fe
S A
ĠSt r
Ġdi et
Ġcom fortable
Ġ \
ost ic
Ġmat hem
Ġst ream
Ġgraph ics
Ġru ined
Ġbelie ving
ĠC P
Ġne ck
Ġposs ibility
Ġcare ful
Ġanal ogy
Ġrestaur ant
ĠS ub
S ee
G G
ĠIsrael is
Ġw ed
oll y
4 8
Ġst ole
Ġm icro
ĠOper a
Ġbe ll
Ġst ores
Ġpock et
i ation
ik es
Ġtelev ision
er g
n es
ĠO ver
Ġexcept ion
Ġrev olution
Ġaccept ed
Ġus age
id th
orm on
our se
ĠS an
polit ics
Ġamount s
Ġsure ly
ĠP ark
z illa
imin als
Ġmon op
ĠW AS
Ġapart ment
ed ing
ic on
ĠH i
end a
Ġmir ror
Ġbring ing
Ġen s
Ġel aborate
ack ed
ĠC are
Ġke ys
Ġw age
ĠSo cial
Ġthr own
Ġimp ly
ĠS arah
ir ls
Ġsupport ed
B S
Ġbre aks
ĠB ull
Ġdamn ed
em on
ing ly
Ġhang ing
Ġme as
ro id
Ġlead er
Ġcut ting
ĠCh rome
Ġt ight
Ġrepublic ans
Ġn u
Ġopen ing
ĠGo vernment
ĠE l
Ġdoes nt
c ol
Ġopt im
Ġp air
om y
T ube
he lp
ĠCle arly
v iet
ed ly
am b
ĠS cience
Ġag gress
Ġsign ed
ĠT ot
Ġs ac
AN D
p al
Ġbi as
ol ar
ĠCh urch
Ġwh om
ĠAg ain
Ġbatter y
Ġdist ance
Ġbl ank
ch a
W ith
k i
Ġpro sec
Ġworth less
ĠIm agine
e ven
wh en
Ġcustom er
eal ous
Ġrepe ated
Ġcheck ing
ter m
Ġstri p
ĠH el
... ?
at ural
ot ed
v est
ĠQ ue
Ġst raw
play er
Ġgo v
Ġpl ans
Ġsp oil
ve y
Ġsocial ist
Ġdescri bed
Ġy ea
Ġun ion
ĠI Q
Ġhome less
â Ķ
ĠPH P
Ġlead s
F C
m art
Ġstr ing
Ġb ark
Ġman ner
ond on
i ens
r ug
th en
Ġregard ing
l ink
7 6
b est
Ġe ight
s ub
I F
Ġfr ust
Ġsh aring
ĠS n
ap se
ĠF air
Ġne o
Ġ2 3
Ġexplain ed
Act ually
Ġbot hered
Ġst om
un n
Ġh ire
Ġlog o
ĠM ark
ys is
re ason
ĠL a
Ġpain t
ĠE X
IS T
mm mm
ĠA ng
Ġso le
s cience
ĠO H
Ġunivers al
on der
Ġprot ection
ĠL O
ot a
f m
ĠH uh
th y
Ġcon sole
b ad
ĠW omen
ĠC NN
Ġspir it
ul a
Ġcons cious
Ġhigh est
Ġcur rency
ĠWh atever
Ġdestroy ed
ĠCh icago
Ġh itting
Ġc unt
Ġb ust
ic an
Ġpat tern
Ġf ap
v a
Ġass ert
Ġrepe at
Ġenem y
ill e
Ġengine ering
Ġshe ll
Ġbur ning
ĠReddit ors
Ġl es
Ġtest s
Ġat e
Ġri p
Ġst retch
u ed
in ating
M B
k ill
Ġwe ather
av as
re ement
ĠB ob
Ġn ic
Ġmot or
Ġit ems
Ġmind s
Ġpl ants
ear ch
As k
u ild
Ġe ast
M S
Ġqu ant
Ġcom edy
Ġn asty
Ġrem ain
ĠL A
ew art
ĠFl orida
Ch rist
ii ii
Ġun d
f ield
Ġb um
Ġn ations
Ġ ing
Ġner d
oc ide
Ġfriend ly
Ġexpl o
ag ic
Ġbad ass
Ġchem ical
t in
Ġcent ral
ĠFace book
Ġinflu ence
ĠM ine
Ġhur ts
Ġcrit ical
Ġbreat h
Ġbr ings
Ġour selves
oo o
Ġtri es
Ġfor um
Ġmain tain
in form
Ġp oop
ĠD E
at ers
Ġexerc ise
Ġconserv atives
Q u
ĠW ere
Ġgr own
Ġfire fox
Ġoper ating
ĠWas hington
Ġphot oshop
Ġbull et
avas cript
ĠW elcome
Ġac id
Ġsit uations
s chool
H ave
ĠHope fully
ĠW ars
ĠG aza
est ion
ar ge
Ġelse where
az ine
Ġpay s
e h
ab led
Ġdep artment
Ġcho ices
Ġindividual s
Ġqu iet
ĠOther wise
à ²
Ġs an
i ber
Ġpar an
Ġmeet ing
Ġtroll s
ĠMc Don
ĠA dd
ĠS C
Ġregular ly
bl ing
b ow
ac ity
Ġt ank
Ġt rees
Ġre ci
Ġem p
Ġbelie ved
Ġpolitic ian
Ġhelp ful
Ġspl it
ĠC ount
ĠM P
Ġwebs ites
Ġevery day
Ġn ail
Ġha ll
Ġsw im
Ġpack age
3 9
Ġa h
book s
ĠDep ends
( )
Ġoff ense
Ġcritic ism
e b
or ter
ĠC oll
est s
Ġsuff ering
Ġman ager
ĠF TW
Ġb om
Ġup load
Ġse a
Ġassum ption
Ġco ke
amm ed
Ġhe aven
ĠN et
Ġno ise
Ġrock s
ĠLi bert
ĠP arty
Ġe ar
ke ys
Ġexpl os
L ike
Ġun employ
Ġcarry ing
Ġcompl icated
ise ly
ag ger
Ġst age
Ġwest ern
Ġcons ent
Ġedit or
ĠS ay
ĠR ob
Ġp owers
Ġh ob
3 00
itch en
a us
ad em
le e
Ġfr aud
ro vers
Ġinfl ation
Ġhy per
Ġp icking
ĠWith out
ign ed
ut ions
Ġtechn ical
Ġvir gin
Ġal right
c ut
h i
Ġmon key
ri an
ĠUnivers ity
Ġex change
Ġvot ers
ad y
g i
Ġbu ff
O k
ĠKore a
Ġ= )
ĠTe chn
Ġt its
Ġcr iminals
ur l
Ġfor t
ĠU RL
Ġappl ies
Ġlar gest
out hern
ĠAbs olutely
Ġcomm itted
sh ot
Ġindepend ent
Ġthem e
Ġless on
! **
Q L
Ġread s
ĠD RM
Ġins ight
ĠD ON
Ġdef ending
Ġmis leading
ĠI I
Ġcircum st
sh irt
Ġsocial ism
ul ating
Ġpir ate
s igh
Ġref orm
ak istan
modd ing
Ġj unk
Ġband w
Ġimpl ies
Ġ4 5
Ġfund ing
Ġdiv or
D D
G et
ĠJ im
Ġnow here
ĠG O
cl aim
am ily
Ġclaim ed
Ġsol ved
Ġdes ire
Ġbal ance
c raft
asp x
e en
Ġdeal ing
Ġph ones
ĠS am
ĠHA VE
c ar
Ġconst ruct
ĠD ead
Ġd ance
Ġelect ron
ing u
Ġdis cr
Ġh o
Ġsh ift
ĠBe fore
ĠGu y
il ight
h ome
Ġt ong
Ġb ars
Ġinter face
ĠM akes
h as
8 9
Ġtrans port
Ġm ile
Ġact s
or se
ĠN one
Ġpoor ly
Ġas ks
id en
Ġapolog ize
Ġopen ed
N ET
Ġfant asy
ag ers
Ġcontr ad
Ġfor g
ro ck
Ġg ra
Ġintellect ual
Ġmother fuck
ES T
ct r
Ġloc ation
Ġact ive
Ġtal ks
Ġsuff er
olog ist
Ġun able
ĠJ on
Ġsu e
ĠA c
Ġman ip
LL Y
Ġdom ain
Ġsol ar
Ġch ances
b an
P er
Ġincred ible
ĠYou Tube
Ġcr is
Ġarm ed
Ġzomb ie
Ġpass ing
ĠGu ess
Ġp in
Ġrepl aced
p a
Ġobs erv
Ġexplain ing
c s
ĠĠĠĠ ĠĠĠ
Ġhous es
ard less
ag raph
Ġadult s
Ġdeg rees
ĠD en
ĠD an
p es
ĠG reen
he alth
ĠW ITH
ĠG OP
ĠAny thing
ĠLi ber
Ġterror ism
Ġfuck in
Ġsh ots
ĠL ol
Ġvers ions
Ġlat est
Ġneighbor hood
ĠI ce
Ġag enda
Ġun necess
Ġp ounds
Ġth rew
Ġcl ient
Ġchallen ge
Ġengine er
ĠD ark
bel ie
ce an
Ġso ap
f ect
Ġw et
ĠGl enn
ut ed
Ġreport ed
ĠM il
un ning
ĠB BC
ĠA ir
gor ith
Ġl oose
f ish
Ġfre aking
Ġinit ial
r ants
ĠC IA
W ow
r ational
Ġm ic
ĠWo W
A B
Ġc ab
Ġcl imate
Ġcl icking
Ġsal t
Ġstat istics
Ġreg ret
Ġ* **
Ġcl ock
Ġsur round
Ġref lect
im ately
Ġcoll ection
E ven
Ġele ment
ĠIM O
Ġch ocolate
ĠJ er
Ġ3 2
ĠT er
ent le
se x
tr l
Ġdat ab
Ġeduc ated
land s
ĠM ad
Ġexp and
ic ate
Ġinternet s
p m
Ġmist akes
Ġdisturb ing
Ġst ars
Ġins ist
Ġcomment ing
Ġegg s
l ive
ER S
ur rent
id ering
ĠNY C
ion ist
c ap
Ġprom ise
Ġinv ent
uck y
gr amming
Ġam using
Ġcuri osity
os ed
ĠB uy
Ġaud io
ĠDe finitely
Ġrock et
Ġfail s
Ġinclud es
Ġbub ble
Ġman agement
eop les
Ġp ushing
g reat
Ġa id
Ġmo dd
D E
are n
t es
p art
Ġconsequ ences
ce l
Re ally
v able
ĠM ight
Ġansw ered
Ġp il
4 6
ik i
Ġwar rant
Ġmedic ine
# #
Ġimp lying
stand ing
n on
r ating
ing er
Ġtest ing
s arcasm
Ġh idden
pr int
Ġp oo
ĠE h
w est
gg er
ĠHas kell
Ġadd ict
T V
Ġpur poses
Ġsus pic
ub es
Ġmis under
Ġliber als
ĠAfric an
Ġover all
Ġsa uce
ĠAs ian
Ġapplic ations
ĠM od
Ġwho ever
Ġpain ful
Ġ6 4
Ġinvol ve
ĠAb out
Ġ Â
h igh
ĠA C
Ġpo ison
ne ver
Ġp atch
ĠTr ans
ĠU ntil
Ġ @
Ġre verse
Ġto ward
?! ?
Ġf irm
W ait
ev it
ĠDa ily
i ate
Ġmist aken
ĠF A
Ġch ain
Ġco verage
Ġc ous
Ġf ox
urb an
h en
al b
Ġse es
Ġameric a
ĠF all
à² ł
ĠSH IT
ro ph
yn am
et or
Ġb ite
we ight
Ġoutr age
f ly
Ġconst ant
m us
ĠS E
Ġj ealous
w ill
Ġsuggest ion
Ġset tle
Ġspell ed
um ps
Ġne at
ĠGe org
ng th
b les
Ġri f
d ot
Ġr ise
f s
ĠM ed
Ġdifferent ly
ĠM ust
kn own
Ġbug s
Ġha bit
Ġteach ers
Ġf if
ĠM or
Ġr am
Ġwhat s
Ġsort s
m it
W H
Ġmor ons
Ġattack ed
Ġupgr ade
Ġmix ed
en omen
il ies
ink ing
Ġpar agraph
og s
p arent
Ġde fe
at ics
Ġhome work
D e
is y
Ġdevelop er
Ġstre ets
Ġdes per
ĠB ur
Ġsubs id
Ġr ating
AR D
Ġstr ict
Ġb ul
Ġlist ed
ess ed
ĠB en
Ġinfin ite
Ġal ot
if ies
Ġj esus
ĠSt ewart
Ġlad ies
Ġdep ending
re f
Ġg ar
Ġsc roll
Ġa x
ri g
Ġl ed
ĠB ra
Ġh ipp
al king
Ġtri al
? *
Ġdis appe
av y
Ġepis odes
Ġt ear
Ġsa le
Ġ {
al in
Ġpun s
ul us
ang ers
Ġdig ital
p ass
Ġbit s
Ġin herent
ĠI ll
ĠT R
Ġa ck
it arian
Ġab st
Ġv an
ĠH alf
Ġwr iter
ry pt
Ġpr ay
ĠSure ly
Ġroad s
Ġproject s
Ġact ivity
Ġf iction
Ġam endment
port s
or a
athe ism
nt ax
Ġshock ed
8 3
ĠB udd
s omething
ang el
Ġnor th
b ay
op ath
Ġtw ist
Ġ3 5
A pp
Ġcamer as
Ġreport ing
ul s
ate gy
l or
Ġta il
blog spot
Ġglass es
ĠR AM
u ary
Ġscr atch
Ġtyp ically
Ġca using
Ġdeath s
Ġide al
Ġag es
Ġpull ing
ig ious
ĠG ame
ĠAM A
F rom
ĠW all
Ġemot ional
ion ally
Ġsqu are
Ġentertain ing
Ġfavour ite
Ġvir us
C on
ic ial
o ons
Ġch air
Ġrid ing
Ġash amed
ĠK n
Ġcl im
Ġdrink s
ID S
ĠPh ot
ĠN azis
Ġdumb ass
d ro
et ch
ĠC EO
Ġveh icle
ĠBrit ain
ĠR and
so ever
Ġcondit ions
Ġfuck s
C A
Ġcult ural
l ong
p ower
Ġrock ets
Ġcoll apse
Ġbag s
Ġup modded
Ġoff ered
Ġhope fully
Ġhom es
Ġstud ies
al m
Ġla wn
ĠWr ong
a fter
Ġw ave
ĠP M
Ġrefere nces
Ġir on
th es
Ġdep ressing
Ġvictim s
ap ed
Ġunlike ly
al so
oph ob
ĠF ort
F L
im age
Ġg am
Ġmess ages
v ious
ĠO R
ĠPalestin ian
g ame
r m
Ġp eoples
O X
c ott
Ġst aff
ĠM uch
Ġsleep ing
Ġshop ping
Ġp ix
Ġb ound
Ġg reed
our s
-- -
Ġcircum c
ĠC ra
Ġc ert
Ġor ders
id ers
Ġscre aming
upload s
ĠC OM
Ġdist ract
pell ed
Ġn in
Ġc aps
Ġper man
Ġk ing
let s
Ġac qu
Ġcount s
ĠL eg
Ġbuild ings
Ġr ude
ocr acy
Ġincre asing
Ġkill er
Ġwhat soever
Ġgod s
Ġgovernment s
os en
F A
ama zon
p ics
Ġsm arter
Ġcart oon
ww ww
Ġvis ual
ĠD ar
ĠD ick
Ġhe l
Ġ= =
Ġbail out
Ġbi ased
ĠD C
Ġk itchen
ĠL ondon
ĠJack son
Ġexperien ced
im m
ograph ic
ack ing
images hack
m ade
Ġstr ategy
lo ve
Ġstereot yp
ĠI R
l ol
Ġch oos
Ġob ama
Ġjo int
ĠM iss
ĠG ree
Ġco inc
ĠNe ither
Ġb odies
ĠF e
cl ass
Ġ Ì
ĠL o
ach es
vel ope
ob s
st op
g ency
Ġj er
Ġped oph
est ic
ĠS ex
Ġsubreddit s
Ġrob ot
Ġwin ter
P R
Ġtong ue
r ain
Ġphys ically
Y I
Ġlob by
Ġguarant ee
Ġst im
Ġal gorith
ĠSwed en
4 3
Ġpro ves
ke l
Ġfil ms
Ġmod els
Ġfor th
L C
less ly
r ot
Ġmem es
Ġfem in
Ġcontroll ed
Ġbrain s
ust er
Ġen light
Ġp ink
Ġinvest ment
Ġsh out
Ġf ro
f ather
Ġdis p
Ġfr uit
gg ing
Ġsem i
ph a
Ġw ise
Ġrepl ies
.... ..
u ge
Ġmag n
n ostic
G r
ou st
ĠOff ice
Ġcomb ination
ig ger
Ġyell ow
ask a
Ġd im
Ġlock ed
Ġpract ical
Ġrep rodu
Ġappe al
ĠS il
Ġi T
um or
Ġun it
Ġattack ing
ĠL ots
ĠN OW
S H
Ġsur gery
Ġwit ness
Ġown s
Ġredu ce
Ġblack s
ud ge
us ions
por ter
Ġwas ted
Ġhe h
ĠH ad
ĠG ET
Ġp ipe
Ġall owing
ĠAr t
Ġstruct ure
Ġwas ting
ĠH ot
wh ite
ou che
Ġt one
Ġwe igh
ĠSte am
ĠD S
ĠH ol
Ġfan cy
Ġall eg
Ġup per
Ġfind s
Ġsub tle
Ġar bit
Ġpro ced
Ġd udes
ĠN eed
ri er
EE P
Ġscient ist
... )
P od
Ġcan dy
ly mp
Ġwor ship
Ġcens or
ĠT ur
ul u
Ġit em
Ġtyp o
Ġ ub
Ġdefin ed
Ġe ars
F irst
j o
ĠSte ve
Ġ* "
ĠU nder
Ġbast ards
Ġar row
; *
ad io
Ġfrequ ently
ur day
ĠHT ML
Ġsur face
Ġheav ily
Ġgay s
Ġre nd
ost on
ul f
Ġbl at
Ġconsum er
Ġfe e
Ġfall s
Ġgrav ity
Ġble w
un te
W ould
Ġpro pos
Ġaddit ion
Ġat m
Ġthrough out
B I
ĠG M
ĠR uby
Ġ9 5
is er
Ġis nt
Ġexpl icit
Ġcris is
Ġvag ue
ĠSo viet
Ġfunn ier
sh ould
Ġc ure
ĠS ur
Ġgo at
as ant
Ġadv anced
ĠWe b
Ġfam ilies
Ġack now
Ġent ry
Ġd icks
l ers
ĠP art
m edia
arc raft
Ġsomet ime
Ġforgot ten
Ġport ion
K K
ĠC L
Ġun cle
ĠMe h
s k
g irl
Ġoffic ers
Ġple asure
no v
f un
liv ion
z ing
T w
m other
Ġco ast
Ġconc ent
Ġlo an
Ġpen alty
m aybe
Ġl oop
im al
com ing
ĠD aw
Ġr age
ĠM ur
Ġeth nic
ip ment
Th ank
ĠĠĠĠ Ġ
Ġstri ke
Ġprodu ced
r ough
Ġgen ocide
g od
Ġrat io
Ġth ick
Ġdraw ing
ĠHmm m
f i
Ġbank rupt
Ġf aces
ĠFed eral
mark et
Ġprep ared
Ġprofess or
ing e
ĠBl ue
Ġcol ors
Ġ200 7
Ġse ven
ĠL ou
Ġcon ce
ĠW ord
m or
Ġper pet
us iness
Ġpar king
Ġbom bs
U p
ĠY a
Ġh es
Ġpart ner
et ime
c itation
HAHA HAHA
rel ation
Ġso da
O B
p an
Ġfor ms
h ard
l og
Ġsm ug
ot hing
is ible
w ide
ow ered
ĠW OR
Ġed ge
Ġhon or
Ġobject s
Ġph enomen
room s
Th ese
Ġdep ression
ĠREA LLY
Ġr ant
ĠP akistan
Ġgrow th
Ġhat red
c il
HHHH HHHH
Ġche ating
f y
Ġcateg ory
T S
ĠH aw
Ġment ally
ĠL isp
er ved
Ġp ile
u its
ĠC our
g a
Ġeffect ively
Ġar rog
Ġmo l
ĠAl most
ĠAl ways
ĠS anta
OU LD
4 00
Ġfl ip
Ġun com
Ġinf r
Ġtatt oo
Ġset up
ĠC arl
f all
ĠS aud
ct ure
Ġste am
ĠB at
Ġcreat ive
Ġy o
ĠON E
ĠIr ish
RR RR
Ġcar bon
Ġa th
ED DIT
at ical
Ġbe ef
act ive
c ode
head s
it led
ĠCanad ians
Ġen velope
Ġanal ysis
ad o
Ġesc ape
ĠWest ern
Ġstom ach
Ġfig ures
Ġstre ngth
u able
bl ack
Ġclar ify
Ġpos itions
ul es
est ed
ĠĠĠĠĠĠĠĠ ĠĠĠĠĠĠĠĠ
F UCK
get s
Ġstop s
Ask Reddit
t oo
Ġex cess
Ġdemocr atic
ri l
Ġre ward
et c
Ġprinci ple
Ġoccasion ally
ep s
Ġcomp aring
Ġscen ario
ĠV ir
âĸĪ âĸĪ
Ġentertain ment
ĠGl ad
olly wood
Ġsy ntax
i os
ĠP ot
ĠAmaz on
Ġh int
il ed
Ġexist ing
Ġs ne
ĠiT unes
ra wn
Ġch at
Ġbitch es
av ed
Ġp itch
Ġexp ression
rat ulations
Ġgood s
i ently
Ġmark ets
4 2
inst all
Ġadm itted
f unny
ĠIn c
Ġeat en
Ġdi am
Ġst ating
Ġs ight
ĠN AS
Ġbusiness es
d ate
Ġcircumst ances
Ġthe ories
ĠPh il
Ġto ss
Ġtri v
Ġrh etor
D S
Ġunnecess ary
on ent
Ġc ents
Ġl atter
Ġnat urally
or ough
Ġex pos
d p
ĠTh om
ĠSm ith
Ġpoll s
ber man
Ġpro port
el f
Ġmet ric
Ġbr ut
Ġdiffere nces
Ġart ists
ON G
ĠK N
Ġprov iding
Ġdatab ase
4 9
D F
Ġbow l
Ġh oles
ic ious
Ġlo ans
Ġelect ions
ir c
Ġemploy ee
Ġold s
Ġelectric ity
gy pt
b in
ĠR om
at in
ĠSt art
ĠNE VER
W or
Ġb ands
Ġfor cing
ell ig
fere nt
Ġp ound
Ġhung ry
ĠTre k
et ary
Ġrem em
ĠUp modded
Ġma xim
h uman
Ġstrong ly
ĠA W
Ġdo zen
ĠSt reet
sl ist
Ġmur dered
Ġpat ri
ĠPr ot
Ġhe ight
j ud
e lect
Ġin evit
org an
ĠSp anish
Ġth ro
Ġsay in
Ġcr uel
ĠUs ually
Ġf rench
ĠM ass
Ġdism iss
i as
p ublic
Ġstop ping
f w
Ġcont rovers
p ace
ĠP A
ĠJ ones
Ġrem ark
Ġi Pod
Ġequ ipment
Ġh unt
ig slist
Ġinst ant
um in
Ġn azi
Ġsuggest ed
yp ic
Ġsh o
Ġch est
Ġsad ly
Ġrepl ied
_ .
it ers
Ġp ump
Ġreport s
ct uation
Ġter rif
t imes
Ġappl ied
oo per
pt ions
Ġst ance
Ġbeing s
ĠDe ath
osp here
um m
Ġbill ions
aa a
Ġsent ences
b its
ĠCons idering
ild ren
ac ement
Ġhar sh
Ġencour age
Ġmot ion
Ġexperien ces
Ġske pt
Ġvol ume
Ġg oog
** ,
Ġmeaning less
he y
Ġrest rict
Ġdeli ver
ro ad
Ġal arm
ĠE dit
ph as
Ġ2 6
Ġunf air
v ention
Ġlim its
Ġtr ained
Ġignor ing
Ġaccompl ish
ĠN ational
D A
orm al
al ian
Ġgenuine ly
ĠB esides
c al
Ġbr idge
ĠUp vote
ard en
en ch
Ġcom ed
Ġsca re
L A
ĠS chool
Ġwed ding
Ġperson ality
Ġna ive
end o
ruct ure
Ġreal ise
5 6
Ġburn ed
G A
Ġbit ter
ĠS weet
Ġmiss ion
Ġbl own
8 2
ĠN ote
gr aph
ĠSp ace
Ġres olution
u ries
Ġh iding
Ġassoci ated
er ation
ĠA tt
Ġrem ains
Ġbox es
Ġir rational
ĠL ive
Ġr om
Ġsound ed
ĠJ ames
Ġt ips
st al
Ġst able
Ġpriv acy
Ġr ow
Ġmet aph
Ġidiot ic
: :
p erson
pl an
em ents
Ġtrans fer
Ġconv ention
Ġprov ides
Ġfor b
Ġtw itter
) ...
Ġpl ate
aw are
iz ar
Ġdon ate
whe l
w ait
Ġsc he
Ġlead ing
C he
Ġbe ars
Ġrelationship s
Ġcol on
ĠG iven
ĠF ind
Ġd irt
a uc
se mb
Ġel imin
w ould
or ial
Ġspe aks
Ġtax p
ĠAustral ian
he ll
Ġcr ush
Ġdream s
Ġreven ue
Ġser ved
re c
ĠT im
oun ter
Ġtri ll
f ord
Ġmon ster
Ġmen u
3 1
Ġst one
cl ick
Ġsla very
Ġstep s
in ction
Ġtemper ature
Ġdemocr ats
Ġcl oud
Ġident ify
Ġprof its
Ġedit ed
ĠP at
Ġc ere
p df
ol er
ĠDe f
Ġbe ard
Ġty ped
in i
st atic
Ġr aw
Ġcom ics
Ġjust ified
Ġfail ing
ed uc
Ġmain ly
N OT
Ġs ets
ĠB re
ĠL ear
ond s
ĠD el
It s
Ġswitch ed
b ies
Ġremind ed
l asses
Ġpe an
Ġswe at
Ġbandw idth
Ġliber ty
Ġis land
Ġsc an
Ġrespons es
Ġgee k
w ear
Ġ ought
Ġphot ograph
cl uding
Ġfan boy
Ġign ored
Ġg if
ĠD et
5 7
N ew
af ari
Ġsold ier
Ġd uty
Ġincre ased
ĠSt upid
ĠH ome
Ġliqu id
N ever
ath ers
9 2
Ġreg ion
it als
Ġgo vern
Ġnews paper
r un
M O
Ġpro s
Ġdisco ver
v ille
N G
ĠT urn
ĠScient ology
O H
ĠQu ick
d ed
it ors
Ġuncom fortable
ĠA ren
Ġodd s
Ġqu arter
Ġvol unte
Ġmort g
Ġv ill
ĠE U
Ġbreak fast
Ġamaz ed
Ġw ipe
Ġj oy
Ġhold s
Ġpro hib
Ġdo ors
Ġcondom s
Ġsec ure
acc ur
Ġan onymous
Ġwh ining
ĠC re
ag s
un ts
Ġprof ile
h y
Ġsus p
t v
Ġpract ically
th read
Ġtr ait
ĠWW II
Ġpron ounced
ĠY ES
T C
Ġblood y
Ġdev il
Ġsp y
Ġp apers
v il
Ġlegis lation
ad ays
Ġatt ached
ĠBe at
Ġbig ot
Ġpret ending
Ġhistor ical
Ġadv ance
Ġmethod s
r ac
Ġs ung
Ġo xy
ĠBar ack
ĠK ill
Ġhor ror
t ion
b orn
Ġg entle
ul ator
Ġass es
Ġfun ctions
ĠC R
B A
ĠG ore
Ġdeterm ine
Ġshot gun
Ġl one
ĠM ars
Ġan ger
Ġli ft
Ġtal ent
tr ans
Ġcas ual
it a
ĠShould n
c ase
ĠWho a
Ġdiscuss ing
Ġwealth y
I CK
Ġde ar
Ġact or
olog ies
b c
i ver
ĠM ont
Ġag reement
M ore
Ġinf er
Ġreg ister
Ġinv ite
um mer
ot ch
Ġplan es
word press
U M
Ġbe ats
Ġmor ality
ĠP oint
v id
ĠBas ically
Ġnot es
Ġun us
ĠRem inds
Ġto oth
Ġpro st
Ġadvoc ate
Ġres ort
Ġinform ed
p arty
ĠS ir
if orm
Ġste el
ĠY ay
S ure
st ar
1 000
ic ations
ĠL ittle
Ġpo ly
ĠA B
og ue
Ġext ent
Ġcomb at
Ġobsc ure
ĠU gh
Ġsc ar
Ġlo ving
Ġsent iment
U TF
ĠL ink
RE AK
ĠM iddle
k ind
Ġins ulting
tm l
G H
7 2
Ġcount ing
R ight
ad ow
al ds
Ġattract ed
Ġc os
Ġse lection
Ġsp aces
Ġter rit
f ile
Ġval uable
Ġappro ve
ĠPl ay
ber ry
Ġsuggest ions
Ġt ie
Ġsur f
H ell
Ġload ed
ther n
ern el
Ġcorpor ation
at oes
S ince
ĠMar io
ott a
ĠArab s
Ġj e
Ġpublish ed
B R
Ġbon us
Ġli ed
Ġameric ans
x x
Ġcy cle
f ight
ĠPer l
Ġcell s
D P
Ġrespond ing
Ġmonop oly
ra h
ro b
im ents
Ġworth y
Ġneighb ors
Ġhigh light
ĠDemocr atic
ĠB ay
p ie
roc ery
T e
Ġd ust
Ġo cean
Ġme al
x kcd
Ġsc am
Ġfe es
Ġdeli ber
ĠSun day
k et
h ole
ĠB o
ĠWas n
!!!! !
Ġcommercial s
Ġan cient
Ġref ers
ĠR ick
Ġcorrect ed
Ġwal ks
Ġemer gency
Ġtest ed
Ġgen etic
r id
ig an
Ġwh e
Ġupd ates
Ġrough ly
ĠGeorg ia
ĠVal ve
Ġhar ass
ord ers
ex cept
ed ge
om er
Ġli ar
x ic
J esus
ĠJ an
pr ise
ar r
OU S
Ġveget arian
Ġbreast s
Ġpr ime
Ġbl owing
Ġt ask
en cies
ĠTw itter
Ġvari ety
c ount
Ġp ython
i at
ic ien
Ġcomb ined
8 00
s im
res pect
ob ucket
Ġcan n
Ġroom mate
Ġch osen
Ġtrail er
b ac
Ġst ress
Ġal iens
Ġthe ft
D R
Ġwin ner
Ġd up
ĠL ord
ĠPol ice
Ġparan oid
Ġor dered
Ġh ug
ĠI d
Ġt ends
Ġ200 4
nd rome
ĠD ID
Ġju ice
ĠIS P
Ġrel iable
Ġtradition al
Ġpat ent
Ġg ym
z il
Ġcomp at
Ġsp r
Ġrep lying
Ġcont ains
N T
d et
ahah ahah
Ġt or
Ġn umer
Ġse g
Ġad just
Ġrandom ly
he art
Ġbitch ing
ĠD i
Ġfl esh
ol a
ĠUs ing
Ġsearch ing
Ġcon duct
Ġbl ast
200 6
Ġab and
Ġch op
ĠL ist
Ġtick ets
Ġjump ing
P A
ĠF org
t ies
Ġv ision
Ġh ence
Ġb ash
iven ess
ick ed
Ġwe lf
Ġhand ed
Ġbri ef
Ġcont ribute
M art
Ġsp ray
h appy
Ġs le
if i
6 8
iz on
ĠFr iday
Ġcontrol s
Ġzomb ies
/ /
Ġsex ist
Ġcont est
ast ructure
Ġdes ert
Ġsche me
er a
Ġbutt ons
Ġc yn
U s
Ġs ane
rr rr
Ġrep ut
Ġdis pro
Ġsk ip
Ġwelf are
Ġm ild
Ġcop ies
Ġsmo ked
Ġt as
T ry
ĠP ower
w s
Ġsignific antly
Ġutter ly
Ġhard core
re y
Ġfl ow
ock s
Ġch art
Ġr ail
Ġfr ank
AC T
Ġd ated
Ġmo ves
Ġun w
c or
Ġset t
Ġlawy ers
ĠA IDS
Ġhe ck
an ny
ar ks
ĠF act
ĠWe ird
Ġg ear
ĠEx cellent
ens ions
Ġ20 12
Ġexcl usive
om a
ed a
op es
ont o
Ġcous in
Ġchild hood
Ġer rors
Ġattempt ing
Ġbeaut y
ar g
em an
Ġsup porter
Ġgr asp
Ġnot ion
Ġaddit ional
Ġim per
Ġm erc
A d
ĠTHE Y
p ot
ĠTot ally
AM N
Ġl yr
Any way
Ġv o
Ġd ynam
ist ically
Ġcom fort
ĠLI KE
ook s
Ġan gle
op y
Ġmem ories
Ġwhere as
is co
Ġim pe
OW N
Ġbe gan
âĢ ª
Ġpast e
Ġent itled
ang ed
ĠA lex
ĠDemocr at
AY S
Ġw ip
ĠJ UST
Ġass ist
ĠD NA
Ġins p
Ġap ost
Ġm ood
ex pl
Ġfuck er
ES S
Ġenem ies
ud ed
Ġs ink
re land
Ġm aps
Ġgr ass
ĠSim ps
ar ry
Ġdownload ing
st ill
p ict
Ġ7 5
: )
7 8
S P
Ġsl aves
Ġem ails
ĠB ell
Ġf its
ĠBr own
if ferent
Ġg rocery
Ġ" ...
Ġdist ribut
Ġcook ing
Ġt ied
ph ones
ĠP E
ĠUS B
Ġinvol ves
AM A
Ġd ictionary
Ġac adem
ĠIn s
Ġtw enty
/ ~
te en
or able
Ġmanufact ure
R em
Ġenjoy ing
Ġfund s
iqu ette
ing ing
Ġinv asion
Ġbe ach
ĠRe agan
Ġm ales
I VE
P C
7 9
ĠA hh
OT H
Ġhead lines
ĠSaud i
ĠL OT
Ġclos et
Ġter ribly
Ġhun ting
Ġd ow
Ġbas ement
st ick
Ġro lling
Ġinst antly
ere r
ĠP oor
Ġpur s
ĠM art
fortun ate
Re illy
Ġadd s
Ġ200 6
d og
Ġoffic ially
Ġimpl ied
I nd
Ġw itty
b al
ort ion
Ġsp oken
ĠB UT
Ġcap acity
ĠComm un
Ġrecord s
Ġpron ounce
eff ect
Ġbelong s
6 9
ac ies
Ġcr u
ĠB et
Ġself ish
ĠRich ard
ĠB acon
p o
Ġf art
ĠS N
ex ist
Ġchar ity
Ġcal m
gg ie
ĠT imes
ĠY EA
Ġrep ost
_ (
Ġlarge ly
Ġpar ad
Ġm all
um ably
Ġconsist ent
Ġreal istic
IM E
ĠF YI
Ġview point
ag ging
te chn
ĠW ii
Ġ4 00
ĠM AN
Ġstrong er
Ġblock ed
ĠBull shit
Ġtab s
Ġinfr astructure
Ġbet a
Ġsuc ceed
c ould
Ġmy st
Ġdivor ce
p ack
Ġrest r
ĠSc ott
Ġrac ial
Ġd ressed
it ic
ĠT op
Ġmed ium
Ġsl ave
St ill
et ically
fere nces
Ġele v
ĠCap tain
ch ar
ĠSt ud
Ġ200 1
Ġ9 11
Ġsung lasses
Ġpure ly
Ġill ust
Ġcut s
Ġ1 50
Ġref used
ĠE nd
ĠMexic an
h ab
ĠHa ven
Ġres ident
Ġatt end
Ġ q
Ġin put
con f
Ġr ush
r im
Ġsubst ance
l ast
Ġd uck
ĠE gypt
ĠL ight
ud os
r ich
ĠD A
Ġannoy ed
H O
Ġrel ax
Ġdri ven
ĠR ush
ane ously
ĠPl an
Ġmodd ed
end ers
ĠX box
ĠTw ilight
Ġo l
blog s
Ġsens itive
Ġsens ational
ĠE as
c oll
h ile
Ġcontr ary
Ġhand y
Ġbe ers
ĠO UT
TH ING
ell y
Ġocc as
on ents
op en
ĠD U
Ġfall acy
Ġproduct ive
Ġnice ly
Ġ \*
Ġr oof
a way
ot es
Ġ2 8
job s
w all
Ġme lt
ce ler
Ġb one
Ġman ual
Z Z
oo b
oc key
Ġmil it
ĠV P
On ly
Ġt ears
Ġas leep
Ġ2 7
Ġident ity
ĠL im
ĠBat man
Ġgu ard
Ġcomp rom
g ay
alb ums
ĠJ eff
Al though
Ġn it
Ġremote ly
est yle
rop he
O K
Ġdis k
Ġadvert is
ur ther
Ġsp are
Ġsing ing
all el
Ġover whel
Ġaw hile
B M
Ġvac ation
Ġsaving s
Ġperm ission
Ġcreat es
OS T
ĠDaw kins
Ġso ck
C ont
ol t
ĠK arma
Ġult imate
Ġn ipp
Ġrepeated ly
Ġpush ed
Ġsa v
Ġdownload ed
ĠM ormon
OU T
Ġimplement ation
ĠHell o
ll y
Ġst er
Ġdev ices
Ġmur d
Ġsal ary
phot obucket
R ep
Ġg al
Ġor ang
7 4
ĠB TW
Ġfl ood
ĠGr and
f re
Ġdist ribution
Ġrefer red
B TW
Ġun iform
Ġsuggest s
Ġdeli very
Ġlyr ics
Ġinst r
ĠL ong
Ġform ed
ter y
or age
um my
Ġins an
Ġam b
ĠC ON
ĠThere fore
Un less
Ġprec isely
Ġsh ared
Ġded icated
ĠTechn ically
ow se
Ġlibert arians
ĠSat an
st yle
1 99
Ġpolit ically
ip er
Ġtr ap
Ġred ne
Ġch ips
iz ard
f ess
Ġsh oe
Ġaw ard
Ġst icks
Ġbase ball
m pt
Ġwall s
Ġco al
Ġri pped
Ġf le
Ġch ap
t ra
Ġfew er
Ġinc ent
Ġpol ite
Ġemploy er
ill ed
ĠGet ting
and al
Ġag nostic
Ġbrows ing
Ġch ip
Ġill eg
Ġin ches
5 4
c ue
Ġs ust
Ġcra z
ount ain
ad en
Ġsl ap
h is
Ġj ury
ĠP ri
Ġconven ient
ch o
Ġconf ig
ĠS uch
Ġjudg ment
Ġfem ales
Ġb orrow
Ġyou th
A fter
c ool
G u
ag ain
Ġles bian
1 50
oo h
Ġt re
Ġp ant
ari j
M E
Ġdown modding
ĠVir gin
f u
ri fic
ĠAr my
Ġdeser ved
Ġex posed
ĠR oman
Ġlif etime
art icles
Ġreach ed
or ig
Ġch uck
Ġembarrass ing
Ġmess ed
Ġmuslim s
icien cy
U P
d raw
ĠF ight
ĠAt l
Ġreview s
so cial
Ġdest ruction
Ġbeat en
m ake
ĠY o
Ġsubscri be
Ġinterpret ation
ĠS qu
Ġv en
Ġp ra
Ġbrows ers
Ġn ick
und ant
lim ited
ĠB uff
ĠT oday
Ġcool er
Ġdict ator
Ġyell ing
ot ion
w alk
Ġsupposed ly
v is
Ġshar p
ĠEn joy
ult ure
Ġmass es
OO D
Ġup voting
Ġinst ruct
s r
ĠTh ree
Ġsum m
L e
ic orn
Ġg lo
omed ay
Ġpl aced
ĠPhot oshop
I nt
Ġcigarett es
is ons
Ġdec re
ak ers
Ġmag azine
b ered
Ġth o
Ġsh r
Ġengine ers
Ġact ively
Ġco vers
Ġridiculous ly
Ġbar rel
Th ose
Ġstay ed
g all
ist ry
Ġf ist
Ġsup pl
im ination
Ġmar ks
eal and
Ġy ard
ĠCl ass
m em
Ġdr am
... *
arij uana
Ġsex ually
ĠV iet
âĢ Ķ
Ġb izar
ĠV is
Ġdis abled
Ġbull ets
Ġafter wards
ĠCong ratulations
ĠS afari
Ġregist ered
ĠSome body
Ġsmell s
Ġcomp ens
ĠAl right
Ġreg ulation
Ġcl othing
ud o
Ġfunction al
M c
Ġh ating
Ġin ch
ĠSec ret
Ġf ab
Ġautom atic
Ġsymp athy
Ġj umped
Ġclose ly
Ġsat ire
l if
Ġread er
ĠW ater
ty pe
en ess
Ġbott les
Ġintention ally
ar a
ĠP ir
Ġclass y
iz er
Ġin accur
fire fox
Ġp a
Ġintern al
ĠH istory
Ġmag net
Ġin nov
Ġst amp
Ġdevelop ing
ĠWhen ever
Ġpro ceed
6 00
Ġl ists
Ġpot entially
AS T
Ġsp ons
aw g
Ġdep ressed
Ġair port
g ate
Ġw itch
ĠF ar
ĠP en
olog ists
Ġ:- (
r ad
f irst
pr ot
Ġmotherfuck er
y a
cc er
ĠT alk
erv ative
Ġer a
E n
ĠS S
Ġsubst ant
Ġsee k
Ġnow adays
ĠLibert arian
ĠCour t
Ġover l
ĠKN OW
m ates
ĠRel igion
go ing
Ġskin ny
Ġdownmod s
Ġg ather
um n
Ġ[ "
i xt
Ġp y
ĠEvery body
Ġwire less
os a
Ġrout ine
ĠQu ite
r ats
ĠAl aska
5 8
g b
L ist
pe lling
6 3
b ab
ĠG N
ac o
ĠW ILL
Ġpres ented
ĠH ah
ĠI reland
/ ),
Ġlibr aries
Ġc ite
m il
ĠH uman
Ġt empt
op her
Ġun fortunate
Ġacc used
OO K
ĠY outube
Ġup side
Ġstay ing
Ġret ail
Ġobject ive
= &
Ġst oned
ro it
Ġsmo oth
Ġsl ower
tin ypic
Ġposs ess
St ep
Ġdro pping
Ġin ject
ĠB ank
Ġansw ering
Ġp it
Ġrob ots
Ġe ats
Ġwr ites
ĠUn ion
ĠS ky
Ġv ent
Ġorgan ized
Ġh ill
ĠO lymp
arm s
Ġpublic ly
act ually
l ib
Ġz one
ĠS A
ĠSm all
Ġw olf
Ġimmig rants
ĠOn ion
ĠC orrect
en ced
Ġide ology
ĠCol bert
aw s
Ġcou ch
Ġl ung
ĠF un
Ġto y
... ](
Ġw ww
ĠF BI
Ġlos er
az z
ĠGU I
E G
Ġper ce
Ġir rit
C ons
Ġ Ã
Ġhor ribly
Ġco c
Ġcomplain t
Ġmod s
H ING
Ġstereot ype
Ġoff ering
Ġmor ally
Ġb icy
Ġwor ries
de v
G oogle
Ġstud ying
Ġner ds
Ġk ernel
AM E
Ġtriv ial
== ==
am in
Ġbel t
Ġquot ing
u ate
Ġext ension
U D
i ac
it ical
re te
Ġ3 4
Ġlisten ed
Ġs am
S c
Ġsub t
IN K
com ics
Ġrespond ed
ĠWH Y
is dom
Ġsubm itter
Ġblock s
Ġcy cl
ol ine
mon th
ET A
Ġclean ing
Ġarbit rary
Ġalb ums
Ġd ip
Ġrif le
Ġbr anch
Ġme l
v ide
e qu
Ġoper ation
h op
ative ly
Ġindust rial
Ġpig s
Ġinter act
Ġm ush
Ġst icking
Ġincomp et
le vel
az or
Ġmat ure
Ġoff ers
Ġst orm
Ġsa fer
Ġflaw ed
ĠCh uck
Ġcommun ist
Ġvol unt
Ġment ions
IN E
Ġpres ence
ĠDown modded
ĠR P
Ġpresident ial
Ġexc iting
h us
os is
Ġdocument ary
Ġpun ctuation
Ġche at
oll ow
ĠTh ings
f a
st art
ĠB oston
Ġhol iday
Ġf o
Ġcon d
alth ough
pro gramming
Ġdro ve
ĠCould n
ĠY ahoo
ĠL SD
ib l
Ġlink ing
Ġmin i
e in
ĠLO VE
Ġpr ick
Ġfet ish
ĠW ANT
Ġplan ned
ĠTr ust
c est
ut ing
Ġsign al
ĠCap ital
Ġens ure
Ġth orough
Ġm as
Ġh ired
Ġbl ows
ĠM oon
Ġdom estic
y eah
Ġbehav i
7 3
ee ze
Ġfor ums
Ġe urope
D amn
ĠJ o
Ġsh irts
Ġconn ected
ĠWhat s
Ġh i
u um
ĠD ie
Ġkn ee
ver ty
Y P
Ġthe ater
Ġdep th
Ġident ical
og rap
Ġprotect ed
ĠH alo
ĠV er
Ġfund ed
Ġowners hip
ĠF PS
ĠNAS A
r ick
Ġmand atory
Ġcompet e
AT ION
ĠStep hen
Ġh ors
Ġpri ze
ertain ly
ing le
F l
Ġb ong
es pecially
Ġre in
Ġpiss es
it zer
Ġment ality
wor king
Ġatm osphere
it utes
Ġcit ation
li ber
Ġsw ord
j ack
ans ion
h r
Ġpo verty
Ġfact ory
e ous
Ġrec ession
t alk
Ġtrans lation
ĠU mm
Ġre ly
Ġconf idence
it z
Ġcompil er
sp am
u il
Ġprofess ion
ĠâĢ Ķ
ĠJer sey
Ġcl own
s orry
ie l
Ġfood s
Ġprefer red
Ġl ane
et ies
Ġtrill ion
ĠFin ally
v ol
Ġthe rap
h ill
Ġpre ced
IC E
n ox
ĠWh ether
ĠD un
ĠP ay
ore t
def ine
T P
* !
D r
v an
ĠM ike
arch ive
ĠF R
Ġintrodu ced
ĠN on
Ġalgorith m
% ,
Ġqual ified
Ġh oney
Ġgraph ic
al ib
im edia
Ġadd iction
Ġd rawn
Ġma x
ĠBudd h
un less
Ġprom ote
Ġcontrad ict
Ġconf ident
Ġdestro ying
O ther
ĠHe alth
Ġinv ade
Ġvis ible
ound ed
Ġsuck ing
Ġte ams
id ency
ĠP olit
Ġban ana
Ġdist inction
b ra
ĠH IV
Ġflav or
ĠM at
m ission
Ġrec urs
Ġhero in
Ġem phas
Ġcred ibility
r ont
op py
Ġor d
ĠM ary
d ep
Ġb in
Ġhol ocaust
a ver
Ġspeak er
Ġwh is
mo zilla
Ġun ions
Ġcook ies
D own
Ġshould er
ĠWH O
Ġarrog ant
ĠW AY
g ent
Ġg f
Ġboy cott
Ġb og
ĠLe ft
Ġl it
vers ion
arch y
Ġb uck
Ġcons ens
AS E
aaaa aaaa
ĠZ ealand
Ġret ire
es y
ĠC SS
Ġcoc aine
Ġd ual
Ġdist inct
Per haps
Ġpro ved
tw o
ĠViet nam
es is
da ily
N S
P P
ĠDis ney
Ġli king
Ġsil ver
Ġso cially
Ġvis ited
Ġconsum ption
itt o
Ġl ands
ĠO dd
ex per
ĠYEA H
E ng
Ġconvin cing
ĠSat urday
Ġden ied
Ġinde x
Ġbroad cast
Ġ( "
Ġc ave
Ġex agger
ĠCom put
____ ____
Ġneut ral
Ġint ense
AR T
Ġdisc ount
Ġun int
Ġdif fer
Ġy e
Ġadm in
um ble
cl op
ath etic
w l
Ġmention ing
Ġconc ert
el ine
Ġattempt s
ĠC ook
5 9
Ġcoinc idence
Ġst ood
Ġwr iters
ab is
Ġboth ers
ĠD utch
omet imes
ate ll
cons cious
ĠL og
ĠA ut
Ġche er
de ad
ĠAny body
Ġmount ain
Ġw iki
Wh ile
L ife
Ġcollect ive
Ġdow nt
Ġestablish ed
Ġbas hing
Ġlos es
Ġem bed
ĠSe attle
ĠB iden
E L
Ġele ph
il st
enn is
Ġso cks
p od
be at
con n
Ġmom ents
Ġstri kes
ĠP L
Ġobserv ation
ant i
ĠE lect
Ġsole ly
Ġpain ting
ball s
Ġsubm itting
Ġcheck s
ff ff
ib ilities
Ġedit ing
Ġgu ilt
Ġtast y
um es
ĠNo ve
Ġtit les
N D
Ġdec ides
ĠN ic
ob ama
Ġins ert
ĠAn n
Ġsh ipping
Ġthro at
ĠF ail
Ġim pr
Ġpr ide
Ġcorrupt ion
on line
ab et
ĠH ero
ĠO ct
Ġupd ated
5 3
Ġun related
Ġaggress ive
Ġfasc ist
Ġh ij
Ġqual ify
A h
I X
ĠAthe ism
Ġcontinu es
Ġcare fully
Se cond
ĠDar win
Ġan ec
Ġk icking
Ġcon dem
r ical
z a
Ġd raft
Ġwr ap
ĠV ote
call ed
Ġnu kes
Ġh mm
Ġoccur red
f il
Ġas ian
fr ont
âĢ ½
f oot
Ġhypocr isy
2 50
RE E
ĠF ant
ĠSh ut
ĠF ord
Ġjack ass
Any one
Ġsh ake
R ead
ĠNor way
ug gle
al a
Ġpass ion
Ġg host
ĠF ut
ĠI di
Ġb old
ir rel
Ġlif estyle
Ġinv isible
H is
pr ing
erm ans
B ush
ore r
Ġpriv ile
Ġtem por
ER Y
s ur
Ġmon keys
Ġchoos ing
Ġham mer
ĠI gn
Ġwide ly
Ġv amp
Ġen for
Ġacc us
Ġret ards
Ġult imately
Ġf ought
sc reen
ĠR un
ĠP op
ĠT ax
Ġcommun ism
Ġfield s
Ġs ample
ĠPalest ine
s ite
Ġra ising
) !
Ġrap ing
Ġinvol ving
ĠF amily
Ġob livion
Ġcamp us
Ġsell s
ĠEng ine
Ġprogress ive
Ġun its
Ġmis er
ri a
Ġmetaph or
bo ards
Ġrefere n
Ġenforce ment
az e
Ġstr anger
Ġcol our
) ;
od ing
u a
ĠI F
Ġd ancing
Ġun c
Ġgener ic
Ġsad d
B O
ĠA R
s qu
Ġread ers
ĠOh io
est in
Ġcoll aps
Ġwall et
al ia
ĠH appy
Ġevol ved
Ġpil ot
ĠLou is
app ropriate
in ator
Ġjud ging
oo re
ust ers
S M
Ġdeep ly
c use
ĠCh ar
Ġn ine
Ġr aid
Ġinf ring
inform ed
m itted
s a
ĠM om
Ġart ific
p uts
Ġt une
re ck
ĠR adio
inst ein
Ġp ity
ĠSen ate
X X
en ger
oo sh
ĠM ORE
Ġp uzz
ĠIr on
pl us
Ġquot ed
st ore
Ġun con
Ġmag ical
ĠDO ES
Ġscreens hot
Ġfuck ers
Ġhot el
Ġinherent ly
p apers
Ġnar row
do be
tr ack
Ġremem bered
ĠCh ris
resp ons
ĠT est
Ġch amp
Ġrepres ents
ĠF ound
Ġd awg
ol ics
mind ed
Ġdis aster
Ġf iring
: (
ĠAmaz ing
Ġflo ating
ow a
Ġcor relation
Ġcigarett e
Ġto bac
r ator
Ġsh ave
Ġpan el
ĠD ub
Ġg ut
ap ple
ĠU I
let ely
Ġinv al
Ġrequire ments
Ġsetting s
cy cle
Ġl aser
Ġv ul
ĠH y
Ġconf usion
ĠG irls
ĠR A
we ek
S up
Ġb are
Ġback ed
Ġbizar re
, ,
ĠC ut
j erk
I d
e ep
Ġtechn ique
Ġfol k
g ian
Ġf ries
Ġst ack
Ġlegis l
any thing
Ġtrack s
Ġarch ite
Ġg ro
reg on
Ġf ond
et he
in er
og en
Ġorg asm
nox ious
Ġbas ket
s is
Ġnumer ous
Ġgener ate
and y
gu y
com ment
Ġdou b
Ġimm oral
Ġtouch ing
Ġvirt ual
Ġexpos ure
ident ally
Ġprinci ples
ĠV eg
Ġcou n
ĠF L
int endo
Ġshe l
m ain
ke ep
ĠR I
Ġbre ed
Ġo we
Ġviol ation
ab lo
ĠF ore
ach ment
ĠE xt
ĠW il
Ġbird s
Ġgu ide
Ġvis iting
Ġme g
word s
ĠV i
ĠD og
Ġchrist ians
Ġve gan
Ġscre am
ĠW onder
ĠH ollywood
Ġbu ried
ĠCP U
9 1
f arm
Ġhum our
ple ase
Ġr uss
Ġsurv ival
t ake
Ġcommon ly
Ġste ak
Ġremo ving
ĠW R
Ġindic ate
Christ ian
Ġtobac co
k k
inc ol
Ġgener ations
Ġrepresent ative
Ġass ass
Ġfold er
off icial
um ans
Ġv oc
Ġex ternal
ĠĠĠĠ ĠĠ
Ġearn ed
ĠFall out
ograp her
Ġpay ment
Ġanal y
Ġt in
ĠG al
Ġpar ody
Ġhonest y
se ct
ĠIn ter
Ġprem ise
c gi
Ġrout e
Ġmob ile
ĠHe ad
Ġwork er
ĠON LY
ĠE mp
Ġa pt
Ġac celer
Ġrad ical
ick en
Ġb acter
ĠAng el
Ġj avascript
EEP LE
ĠC ry
Ġcivil ization
M P
orm ons
Ġhop es
ap es
p ies
ĠSpe aking
ne ed
Ġact ors
Ġmortg age
ĠP eter
ĠM ach
ang le
Ġhapp iness
Ġoper ate
Ġmasturb ate
p ite
Ġl ord
ĠT yp
ĠG ay
P re
Ġden ial
Ġimag ination
bre ak
Ġabst ract
ĠIslam ic
b rew
Ġr amp
Ġx kcd
Ġin con
Ġdo d
Ġchild ish
OM G
al ways
ink y
own ed
I RE
W as
ĠC ivil
on ing
Ġbr ush
Ġcult ures
er ally
Ġmeaning ful
ch er
Ġprotect ing
Ġprint ed
Ġoverwhel ming
d ri
t ry
Ġgr amm
or ious
ap or
Ġgr anted
h al
ĠL ess
ID E
Ġfunn iest
ĠIs land
se ll
Ġhob by
pop ular
Ġcow ard
Ġsh ield
ĠM A
ĠF at
ĠA v
ĠO p
H S
vert ed
Ġr ice
ans as
Ġsl ip
Ġadd icted
Ġcock s
Ġsy mpt
T M
Ġconf use
Ġdi agn
Ġexplicit ly
P r
Ġofficial s
Ġany time
Ġpol ar
Ġpean ut
h o
ĠZ e
Ġorgan ic
Ġrecogn ized
ĠM eg
Ġprev iously
Ġz oom
Ġ %
ĠWor ks
ALL Y
EEEE EEEE
T R
Ġcl in
Ġsh ips
Ġport ray
is ation
Ġj et
ism s
Ġsuspic ious
N SFW
m ph
Ġban king
Y OU
v o
Ġd ammit
pos it
Ġclos est
ĠH U
ĠS ept
Ġser ial
Ġoppos ition
ba ugh
Ġar ri
ut er
ĠM ind
Ġfrank ly
Ġconst ruction
ĠBra zil
Ġimag inary
Ġsoon er
ĠO l
Ġ urban
ĠD ou
Ġincre ases
Ġover ly
Ġopp ose
ol ves
Ġjew ish
ĠSy stem
ĠTor onto
Ġn ope
ĠCl ub
Ġenvironment al
ĠA D
eop ard
Ġmain t
ath olics
Ġchurch es
Ġequ ality
Ġ| âĻ
th rop
Ġprom pt
g ames
be ing
ES OME
ĠB on
Ġsp oke
uth or
the ir
Ġswitch ing
Ġcritic ize
ã Ĥ
et ics
g ins
Ġspeak ers
ĠH ann
Ġtrave ling
Ġhous ing
od ka
ĠM ax
ĠR PG
iss ue
ĠSome how
US E
Ġsubject ive
Ġtab les
Ġsheep le
be c
ĠS ource
Ġconv icted
Ġsp erm
N ice
og ether
Ġmic row
l ay
Ġsp ider
Ġden ying
Ġjo ined
Ġbur den
Ġforg ive
Ġaff ected
ĠG L
Ġ âĻ
Ġfoll ows
Ġp s
ĠT roll
ĠD ad
ĠTH ERE
ific ations
ĠS k
F ixed
g ur
ic ip
Ġv ice
Ġchar ging
gg y
Ġdecl are
Ġch ill
ĠE conom
Ġcivil ian
Ġcook ie
a gh
Ġb inary
ĠA dobe
Ġvers us
ĠAust in
Ġlow est
ell er
IR C
Ġs outhern
Ġc ows
Ex cept
ĠH or
B est
Ġpar allel
t ab
Ġto ys
f ed
Ġscen es
gr ad
ĠH OW
ang ing
Ġcompreh ension
c ough
Ġback up
Ġunus ual
ld er
Ġbeg ins
arm ing
Ġd ates
Ġce ase
incol n
Ġdesign er
ĠG ee
Ġsp it
ak y
ĠB L
Ġapp oint
itt ens
t iny
] .
Ġst ats
ĠR og
Ġprom ised
ĠD ream
ĠS ol
ĠSU V
b etter
Ġan cest
ĠM ag
Ġthreat ening
Ġcensor ship
m are
Ġgold en
Ġst orage
Ġrub ber
W S
ĠT ri
ĠH ence
Ġint ro
Ġpat ient
ie ved
Ġassert ion
Ġvac uum
ur ation
Ġel it
Ġterrit ory
ind ing
http s
IT E
Ġvi able
Ġrecord ing
Ġhas h
Ġh ood
is her
ĠP oss
Ġt un
Ġint oler
ĠÂ £
Ġv om
S top
Ġt ube
Ġbl ur
ub a
Ġcommun ication
comm on
Ġtag s
Ġgrand father
Ġsequ el
ĠC ost
ĠP DF
Ġlove ly
Ġimplement ed
ĠKind a
ĠPro blem
Ġamong st
Ġag ent
ĠN ame
se xual
Ġgradu ate
99 99
ĠC at
pro bably
ĠAthe ist
pr oof
Ġunemploy ment
ĠF reedom
Ġele ments
a ire
t al
ĠB A
st ud
Ġpro pose
* "
Ġp ills
anc ou
Ġtr a
Not hing
Ġembarrass ed
Ġse ed
ĠG otta
Ġrece iving
ĠR oll
Ġcl ients
Ġthreat ened
Ġl ens
Ġsac rif
Ġob ese
OR Y
Ġs ou
Ġse ats
ĠFr anc
Ġfix ing
Ġc um
Ġpregn ancy
Ġob noxious
Ġem b
Ġsn ap
Ġp se
not hing
Ġr ural
Ġload s
Ġinst itution
or th
ans w
cri ption
Ġ200 3
Ġw oke
Ġdescri bing
ĠFA IL
G l
ĠAny way
Ġhom inem
ĠK en
Ġgen re
4 1
Ġpiss ing
Ġstick er
Ġcour ts
th ese
Ġsim ult
mus ic
N O
ĠB R
Ġout come
Ġun lock
-------- --------
Ġill usion
Ġcon gr
Ġhomosexual ity
Ġdo ggie
it ate
Ġconsist ently
Ġinsult s
Ġveh icles
orm ous
atri x
ist ol
Ġinaccur ate
Ġrepl acement
c ra
m ag
Ġappear ance
Ġpurch ased
Ġthere s
Ġhigh way
wh al
Ġm ug
** :
ĠIran ian
Ġdesper ate
N e
ĠAd am
com ic
Ġfoot age
Ġtw e
Ġc ro
every thing
Ġstr angers
Ġto ast
Ġme re
Ġper ception
ĠB M
Ġgrand mother
bb c
Ġassum ptions
bur ger
Pl us
Ġhalf way
ro ke
Ġcow ork
z ens
v olution
ĠH ERE
Ġban ning
Ġperman ent
Ġf right
ĠIt alian
Ġover d
pl ane
Ġres ource
Ġreason ably
be fore
ĠSH EEPLE
Ġproced ure
v s
w ant
Ġlo gged
ool s
Ġdist rict
Ġdom in
Ġpro ving
Ġcost ume
Ġfeed back
Ġconscious ness
E AR
p ad
Ġsu ed
ĠV ERY
Ġ200 5
m aps
ys ics
Ġcal ories
2 000
Ġw ages
Ġunder wear
Ġwh ites
Ġfr idge
ir k
Ġco in
is an
tr ue
uel ess
Ġfeed ing
Ġrestaur ants
Ġhip ster
Ġinv aded
f ac
Ġ| .
ĠP et
Ġcomm a
Ġeven ing
. _
Ġpun ished
L OL
ancou ver
ĠW olf
Ġpre ference
Ġcre w
Ġview ing
ĠSup reme
c ape
ip es
Ġpir ates
y an
us ively
ol ve
Ġkid n
riv ate
A b
S cript
ĠC oke
ab e
erv atives
ĠThom as
ĠP an
arch ives
Ġapp les
Ġpeace ful
Ġw isdom
Ġru ining
Ġt ent
Ġsw allow
Ġbatter ies
ind er
ĠReg ardless
Ġsec ular
Ġconfirm ed
ĠW ood
Ġaltern atives
f are
ĠNove mber
c orn
ent ious
Ġgov t
ĠLear n
ay ers
ĠC ause
Ġsp ring
ĠGree k
Ġreven ge
Ġcar ried
ol ice
A g
b ird
Ġabort ions
Ġsuff icient
ĠSec urity
l iter
ĠB REAK
Ġkn ives
Ġp ork
ĠTh us
Ġsl ut
Ġx box
b ows
Ġdoc uments
* ...
ĠEurope ans
AN K
T ake
Ġe c
ĠC ame
h ate
ĠDet roit
ic ism
ĠW he
Ġtheir s
J ohn
ĠIce land
ĠL atin
M ENT
F r
ur se
Ġmotiv ation
ĠN ight
Ġp aul
Ġd uh
Ġpl ural
ĠBl ood
ex pect
Ġass ure
ĠAs ia
Ġteen age
ĠHar ry
Ġapp arent
Ġfight s
Ġur ge
Ġg ap
Americ a
S ounds
al i
Ġgood ness
every one
ject ive
Ġn erv
Ġlone ly
at ism
6 2
ass ion
ĠSt ay
Ġless er
M on
Ġexp ense
re dd
ĠMcDon ald
Ġsy rup
aw esome
Ġpre jud
co ver
on er
iqu es
Ġgall on
Ġp unk
ĠR O
top ic
Ġser ves
Ġmaterial s
Ġj ar
n ut
dro gen
Ġ19 90
uri ous
Ġrhetor ic
1 20
Ġad block
i verse
Ġ }
Ġass ign
ce mber
mb ur
ĠIM HO
re dit
Ġrap id
Ġgreat ly
Ġnet works
Ġcor p
olog ically
Ġorgan izations
Ġdiscr imin
Ġt ang
im er
ĠG PL
EA D
Ġphenomen on
Ġinsp ired
Ġser ving
we bs
ax y
Ġfore st
ing o
Ġcur s
Ġcod ing
Ġnot ed
ĠMcDon alds
ĠB i
Ġbu zz
ĠF eel
R on
Ġing red
Ġreddit s
M us
G reat
pro ject
ĠCh ange
Ġtr ou
Ġch inese
Ġtransl ate
tern ational
Ġsn ark
Ġbur st
is k
g reg
Ġbur ger
Ġdif f
ĠM oney
od ed
Ġpir acy
ĠREA L
g s
Ġde als
Ġinval id
Ġlack ing
Ġtact ics
Ġte x
cl os
Ġs omeday
Ġso ccer
aus ible
ĠO regon
educ ated
Ġactiv ities
H C
e z
Ġte h
Ġrec y
I K
reason able
Ġun belie
ĠTr uth
ĠMon day
eeee eeee
ĠR IGHT
B L
reg ard
E LL
Ġbl o
omb ie
Ġimportant ly
Ġcircumc ision
Ġinstall ing
Ġresist ance
hus i
ĠD ammit
Th ough
Ġpopular ity
ĠAthe ists
Ġse vere
Ġres erve
apan ese
Ġmind ed
Ġtouch ed
Ġj un
Ġoxy gen
Ġtri gger
OP LE
N ews
sp ir
Ġmulti player
wh atever
ĠRep ort
Ġb att
Ġvict ory
look ing
Ġsh iny
ĠRead ing
Ġp or
Ġe go
Ġbr others
Ġliter al
Ġappl aud
ep alm
p orn
b ear
ĠS mo
ĠSt and
ĠE V
ĠMed ic
n ormal
Ġri ver
Ġmaxim um
m l
Ġfasc inating
Ġo ven
Ġi phone
Ġr ick
m ad
any e
gr am
Ġcreat or
Ġast ron
Ġredu ced
Ġconstitution al
Ġpix els
Ġha mbur
Ġ1 20
c up
id el
ĠF OX
Ġcomment ary
Ġor ient
ell ow
Ġdirect ed
ĠPar is
ĠM other
Ġins pir
Ġconvers ations
Ġst y
ro y
Ġwish es
II II
semb ly
ĠH P
Ġv ib
Ġcover ing
Ġn oun
Ġsuccess fully
Ġrepresent ation
Ġfro zen
Ġal ert
Ġincent ive
d el
ic iently
arm an
o z
ens ity
angu age
Ġmus cle
ĠG ra
Ġspread ing
l ang
ĠT IME
Ġpass es
Ġin ner
j ac
Ġg n
c ats
Ġup s
Ġst aring
ĠP enn
Ġcontroll er
ĠI owa
Ġen h
ĠKore an
Ġom n
un ately
Ġreg ards
Ġc uz
Ġ4 2
Ġy ep
oun cing
in ternet
Ġill ness
in ations
ĠM em
o ch
Ġadv ent
ĠH old
/ #
Ġsw ing
ĠA I
Ġde af
Ġext ract
Ġconc ur
Ġn ah
an king
ĠM ove
Ġexecut ive
ues day
wr ong
N C
Ġf ried
Ġm art
Ġis ol
Ġf el
Ã ¶
Ġh ats
Ġexcept ions
Ġstay s
Ġteen agers
Ġf ence
Ġlabel ed
Ġbomb ing
des c
ust ral
Ġam big
read ing
W ar
ĠAnt i
S pe
Ġ vel
rel igious
er r
L inux
a j
f ix
end ar
Ġgo als
ĠMS M
Ġstr uck
ab ilities
Ġsp oon
Ġwh ilst
ĠH ahaha
il arly
em ale
Ġprim arily
ĠT W
Ġst atic
ant o
an o
ĠOS X
ĠST OP
ĠK ids
Ġd ub
ĠE asy
Ġattempt ed
vi ol
Ġbl aming
et ing
Ġhypocr itical
ĠB U
ingu ish
ethe less
u ing
Ġab used
Ġimpro ved
in ent
Ġappro val
Ġs ized
Ġun known
ard on
N ote
ĠS OME
Ġstar ving
Ġstereotyp es
ĠD OWN
ĠG ermans
Ġcar ing
Ġ icon
Ġg olf
ch rist
ĠG W
no on
Ġs oph
b ase
Ġjust ification
th rough
fic ial
Ġrepe ating
- &
S QL
ul z
Ġout put
Ġsurprising ly
Ġbrut al
Ġ2 9
= -
ric an
D s
5 2
B esides
Ġt orn
oid s
_ %
Ġpup py
Ġde er
Ġreci pe
ĠR ay
b ug
Ġmar gin
ann els
ĠArab ia
t urn
ĠGo ing
Ġshall ow
ĠRI AA
Ġfour th
Every one
Ġexplo it
ĠL ie
in n
el ve
ug ust
Ġgame play
ĠD AMN
Ġje ans
if iable
" ](
am an
Ġvirt ually
Ġshit s
Ġdiscr imination
uck ily
Ġbo om
Ġcontinu ed
Ġtow er
Ġgreed y
st one
ĠS al
IN D
Ġsol utions
ĠMar x
Ġappreci ated
ĠZ ion
ĠRight s
. âĢĿ
b ull
Ġint end
Ġdis order
fe ld
ĠR EDDIT
Ġev al
Ġver ify
Ġenlight en
Ġdo zens
Ġred undant
Ġparticip ate
lic op
a e
ĠGu ys
Ġdis respect
ob ile
Ġca us
Ġconf ront
ant ics
il ia
Ġenc ount
Ġp c
Ġhand ful
Ġb orders
sh op
Ġcompet itive
Ġconcl usions
G en
Ġst ations
Ġcl ap
Ġs oup
Ġg erman
Ġbr it
yn ch
Ġmasturb ation
Ġext ended
ĠAW ESOME
ĠP ed
Ġac r
er ate
Ġle ague
Ġ= /
h om
ĠLim baugh
te ch
Ġaccur acy
Ġsk ull
ĠM oore
Ġconc rete
w ow
Ġun limited
Ġbuy s
Ġreput ation
ĠRuss ians
pr om
Ġemot ion
ĠA ge
re port
in cluding
it an
ost er
z ed
y stem
Ġsound ing
B r
d ictionary
with out
id al
du c
ix on
Ġd ent
Ġeng age
qu is
Ġsil ent
Ġv it
ell ing
os aur
ĠCh arl
Ġbi ology
ch ild
Ġme h
Ġgen es
Is n
f at
Ġre ck
ob ody
Ġabs or
c ourse
ill er
Ġri ot
am as
Ġshop s
Ġfac ing
m A
ĠS om
Ġex it
Ġag rees
ĠPE OPLE
E Y
Ġbe ans
ĠB er
Ġforget ting
Ġstud io
Ġnerv ous
Ġr azor
Ġ= (
Ġdeterm ined
M ac
Ġinst inct
Ġmoder ate
Ġbl ess
ophob ic
ĠA K
Ġprotest ers
ab ee
Ġal ter
ut her
Ġpo ke
Ġinevit able
ĠR et
ĠB all
Ġr ation
Ġsh ark
Ġout law
ĠDe velop
Ġaltern ate
Ġbe ast
ound ing
h ad
ĠW ant
ĠM U
Ġsens ible
Ġteen ager
Ġdr ank
i w
Ġover weight
Ġbed room
Ġf tw
Ġn av
ĠSt arb
cri be
ĠV ol
o qu
p ers
Ġse eds
Ġgr ant
ĠHol ocaust
Tw o
Ġin appropriate
Ġreg ime
Ã ¡
Ġsh orter
Ġcra ft
th an
Ġemot ions
uuuu uuuu
ĠC ertainly
Ġstud ied
Ġk icks
ĠO FF
Ġswim ming
Ġin sec
A w
r ase
ir lfriend
i ot
all ey
ĠAss uming
Ġcomplain ts
Ġbehavi our
Ġn uke
Ġdisappe ar
Ġeth ical
Ġshe er
re ens
oc y
ac cept
Ġw ings
Ġfl ame
Ġinc ap
Ġblat ant
n atural
Ġ" *
Ġent husi
A H
ĠOr ange
Ġt ubes
ps y
v ation
Ġl un
Ġj ava
OTH ER
ĠSt alin
Ġacknow ledge
wik imedia
ĠMost ly
Ġeffort s
ic ting
Ġsc um
Ġconcept s
AAAAAAAA AAAAAAAA
p ick
em pl
| âĻ
st upid
ĠS and
C ould
ĠB C
aged y
Ġcrash es
C ome
Ġappro xim
Ġintrodu ce
Ġunderstand s
Ġann ounce
ĠStr ange
Ġw a
Ġguarant eed
ĠSil ver
Ġbacter ia
Ġsen ior
Ġreal izing
any one
Ġl emon
Ġbreat hing
ĠH m
Ġsust ain
ff ect
Ġent ity
Ġlaws uit
B LE
ĠB ook
Ġmer it
ĠQue en
p aste
cc ain
down load
c m
r ust
Ġcl ueless
Ġc ried
ĠA ww
ter ror
W ill
Ġopen ly
Ġsl ide
Ġpsych ological
Ġr um
ĠAp ril
T T
Ġtop ics
Ġphys ic
ĠCor por
Ġconsum ers
ĠEmp ire
d am
Ġthe oret
Ġb ass
il ton
ĠBel ieve
Ġpart ners
Ġcon ver
ĠM aking
Ġaw es
ĠColl ege
Ġour s
uck er
Ġworld s
/ _
ĠG irl
Ġsimult aneously
b usiness
ive red
YY YY
Ġb ure
ĠF ine
ĠF riend
ĠVirgin ia
7 1
ig ans
Ġcomment ed
Ġmasturb ating
8 1
itt ee
Ġmor als
Ġpur ple
ĠInt el
Ġp our
ĠSim ple
Ġagree ing
Ġwith draw
Ġel ite
Ġbal anced
7 00
Ġcare d
g reen
Ġha z
Ġen ormous
Ġaddress es
am ous
fl ash
Ġout s
atri ot
o be
Ġdead ly
ĠJan uary
O ff
Ġanal og
Ġcompl iment
Ġbi ological
ĠI IRC
Ġch annels
pl ess
Ġ ie
ow der
Ġg est
Ġass ets
Ġrecord ed
Ġh ive
Ġprofit able
le ft
Ġenjoy able
oc ation
C R
Ġt unn
Ġhe licop
Ġmo le
by e
ĠM al
et ical
ĠA st
ĠS ony
wr ite
Ġwould nt
pl ed
Ġb ucket
ugg ling
Ġdiscuss ed
in ity
ĠMS N
ĠD ave
Ġag ency
Ġrel ate
Ġdr un
Ġnight mare
Ġgas oline
Ġs atell
ĠR am
' '
ĠS et
ĠCent ral
Ġburn s
ĠH ind
Ġrecomm ended
Ġcompar able
ĠSimps ons
Ġdro ps
ĠL incoln
D is
Ġle an
ĠComput er
Ġg arden
f ood
Ġinstruct ions
ĠC trl
Ġmed i
U h
ian o
Ġquestion ing
Ġexpl ode
ĠW AKE
Ġcapital ist
Ġin her
ĠE ach
Sh ould
Ġunemploy ed
Ġinfer ior
Ġm p
T oo
Ġ3 1
h or
H oly
u ition
Ġnic er
h s
Ġcontract s
Ġpro posed
Ġun aware
Ġhapp ily
ĠS QL
ist ent
s ort
Ġfair y
Ġr ank
ĠIt aly
pro fit
ĠD M
Ġgr ain
the m
Ġmus ical
Ġplug in
ĠT ra
Ġhook ed
D ER
ĠO s
Ġcou p
wr iting
P al
th anks
Ġcon desc
Ġcitizens hip
Ġim o
m uch
!!!!!!!! !!!!!!!!
Ġrequire ment
F ile
ge on
Ġpract ices
ĠF ood
itch es
Ġpan ic
ste in
us ers
Ġhur ting
Ġgirlfriend s
Ġl bs
ri p
Ġharm ful
Ġpret entious
Ġcontrovers ial
gr ade
Ġinvestig ation
Ġterm inal
Fuck ing
Ġt anks
Ġporn ography
ron ic
Ġimprove ment
Ġh orn
h n
Ġop ens
Ġfool s
Ġreve al
R Y
Ġgradu ated
Ġdes c
pos ition
Ġpock ets
Ġdel ay
ĠSecond ed
Ġkn ees
Ġg h
im ated
ĠP ic
Ġapolog ies
Ġcert ific
6 1
s en
Ġsqu irrel
Ġapost rophe
ate ur
Ġf ri
r as
ĠAm endment
as ers
Ġt ack
Ġthumb n
orig inal
Ġb ik
ĠK now
ĠExpl ain
phot o
Ġhah aha
ĠH ate
ca ke
Ġprotest ing
t ard
fl ix
Ġdynam ic
Ġ2 50
Ġm ask
ĠP ublic
Ġur l
R el
Ġb ench
Ġfool ish
Ġdefe at
Ġphot ographer
Ġpenis es
Ġgr ounds
Ġne got
Ġde ploy
ev in
Ġcount ed
Ġdiscuss ions
Ġexec ution
ri pp
Ġa ster
ten ance
Ġafter noon
Ġwho res
ak a
g aming
ĠH uck
Ġdeliber ately
ĠM el
Ġcred ible
Ġnin ja
Ġl ick
Ġb ones
Ġwe ars
Ġ" [
Ġhyper b
ĠE instein
w tf
qu est
ear ly
G I
Ġstr ings
ĠMich igan
Ġro y
Ġlay out
Ġun icorn
Ġwhe els
Ġh iring
ri e
work er
r ous
Ġtr icks
Ġcl one
Ġtal ented
Ġn ude
ad ian
ĠGen eral
ur ama
Ġr ings
ĠB ear
Ġcom bo
ĠBe en
r owing
use um
Ġover rated
Ġoccup ation
ĠBeat les
Ġtreat ing
Ġw ack
Ġm others
Ġ ???
mar ks
ĠU t
Ġfant as
ĠB illy
Ġcommun ities
o ber
cl ip
OL Y
add y
Ġwr apped
Ġhost ing
Ġrem aining
Ġinv ited
ex p
Ġt ut
ĠP ETA
Ġsu its
Ġpop ul
Ġchemical s
ĠTer ror
Ġfor k
e conom
ul ed
Ġp istol
F E
Ġpr ote
Ġexcl usively
Ġgrand ma
Ġintegr ity
ĠN orm
Ġde leg
Ġ20 10
ĠQu estion
ĠSc rew
ens ible
Ġwait ed
it i
Ġcr iter
Ġprom ises
Ġli p
ur a
Ġfunction ality
ĠC ast
ĠG ates
Ġtr ading
O ur
ĠV ancouver
Ġcan s
Ġknock ed
ne g
Ġsn ake
ĠAr ch
Ġtransport ation
Ġspe ct
Ġan x
w ere
ĠA SS
Ġk il
Ġh ockey
Ġsl ang
Ġform al
angel ical
Ġnight s
ĠLook ing
Ġcyn ical
A cc
Ġspe ctr
arm ed
ĠM er
Ġpre cious
cl ient
Ġanim ated
ash dot
Ġcrack ed
Some one
Ġprodu cing
ellig ent
Ġbra ve
ĠGN U
tiny url
de ath
Ġchick ens
T ime
C OM
Ġfr ag
IT Y
ins ert
Ġminim al
Ġdescri bes
Ġimmedi ate
Ġsacrif ice
a eda
d ig
Ġc am
Ġimmig ration
Ġpost ers
Ġped antic
Ġrestrict ions
Ġfab ric
osa urs
E ither
ac her
Ġsp ends
Ġcommun icate
st uff
Ġad apt
Ġor al
Ġout right
con text
ĠF ull
Ġtorrent s
Ġfreedom s
ĠEas tern
b usters
ĠL os
old s
Ġimp ress
ĠS igh
Ġfact ors
ĠCom mon
G e
ag ram
Ġobs essed
Ġjournal ism
Ġple asant
c uss
s cript
Ġimm une
b at
ĠL uc
IC S
K CD
O V
an as
ĠReddit or
Ġhel met
ist ical
ĠFor ce
ing ton
Ġpro xy
Ġn igger
Ġin k
Ġpsych ology
Ġfair ness
b et
Ġre vers
Ġfl ush
Rem ember
Ġde let
ĠB ox
Ġli ps
Ġrating s
m ight
ĠK at
Ġeng ines
Ġrap ist
alib an
ĠSept ember
Ġdeb ates
ĠH AS
ĠC amp
Ġblock ing
Ġsumm ary
it iz
ĠM ail
Ġhell o
Ġcross ed
ĠEv il
Ġl ur
Ġ9 8
Ġrul ing
l inux
Ġboo ze
Ġdish onest
Ġd ild
ĠDo ctor
Ġadvoc ating
E M
ur ning
c fm
ĠT ed
Ġsle pt
Ġcamp s
em ic
Ġprob ability
Ġ ic
ĠO ops
Ġc trl
Ġ6 5
Ġshock ing
Ġfet us
Ġrec ru
iter ate
Ġsecret ly
Ġpatri ot
Ġform ula
Ġlo y
Ġcreat ures
Ġboo st
ĠID F
ĠR ule
Ġmut ually
s ay
Ġch unk
Ġche ated
Ġexpect ations
Ġprocess or
umin um
Ġess ential
Ġint im
in ci
Ġst airs
11 0
us ional
tt ing
Ġpen ny
ol ved
Ġgen e
Ġthorough ly
Ġcan ce
Ar t
re nce
Ġworth while
Ġfavor ites
; ...
Ġat om
ĠK enn
ĠList en
Ġind o
D em
Ġwood s
br id
Ġcontr ast
arman aut
i ar
Ġw rest
Ġexecut ed
d amn
R eg
Ġf ert
f ound
Ġfr action
Ġent ered
) "
Ġdr ama
Ġs ession
ult s
Ġbeh alf
ott ed
on de
Ġpers ons
IA mA
Ġdepend ent
Ġtact ic
qu al
ĠB u
Ġinform ative
Ġatt ribut
se cond
Ġwh ine
Ġprem ium
s mo
F O
S R
Ġhapp ier
Ġyou re
rav o
Ġgee ks
Ok ay
Ġmake up
ian a
Ġnovel ty
Ġsil ence
Ġcur ve
ĠJ uly
Ġf ict
Ġprotest s
Ġoppos ing
W r
a ism
Ġd u
Ġfarm ers
u ity
ll a
Ġv odka
Ġleg end
; )
U E
ac ist
Ġble eding
Ġvacc ine
Ġem br
f o
ĠE at
I OUS
Ġcount y
id o
Ġcan cel
ĠNot ice
Ġ4 8
Ġland ing
Ġsafe ly
ĠTh ought
Ġtax ed
ether lands
Ġhy pe
Ġmechan ism
Ġadop t
Ġquant um
OT E
Ġaccept ing
ĠN intendo
Ġhyp othes
ĠBr uce
ĠMac s
ett i
t ax
w ild
es la
Ġst em
ĠM id
Ġcons ume
e ks
ĠE nter
Ġfac ial
ĠSen ator
Ġdefin itions
ĠE p
Ġthreat s
udd er
Ġst alk
Ġcab in
Ġcir cles
ĠNor ris
ĠL and
r ition
b ell
Ġreg ulations
Ġprin ter
Ġeff iciency
Ġfrust rating
ĠA ri
Ġcivil ized
Ġc ogn
atic a
ha ust
Ġaspect s
Ġaccur ately
edu le
Ġelectron ic
b ot
ĠB ow
ĠP sych
a ii
ĠB ang
200 5
m ys
LE ASE
Ġdel ivered
ff e
ced e
Ġh eter
con st
Ġposs ession
Ġpe er
Ġcelebr ate
m ac
Ġreturn ed
Ġbat shit
t ered
Ġf lex
; .
Ġown ing
Ġpres idency
Ġimm ature
board ing
Ġ8 00
Ġdad dy
ĠW ild
Ġinstr ument
$ $
ĠF our
Ġwh ale
Ġpunch line
Ġmiser able
m aster
ve rely
Ġc ables
Ġdecl ared
Ġv ocal
ms n
d le
est y
Ġp and
ĠF inal
Ġdr own
Ġfundamental ist
id ays
Ġp ets
itt ers
S m
Ġloc ated
sup port
an ke
Ġend orse
Ġmin us
TF U
sh tml
Ġview ed
Ġf ulf
Ġl ux
ĠC old
ang o
Ġer r
Ġpat ients
Ġs lic
Ġarr ows
t or
Ġm arch
Ġincl ined
Ġpop ped
spe c
Ġem acs
Ġn ull
Ġult ra
Ġdi pl
ĠPe ace
Ġcomprom ise
Ġboot s
Ġhomosexual s
roll ed
s ince
Ġrep air
F ree
Ġt ires
ĠO B
iv a
ĠFire fly
" ).
Ġhook ers
Ġreject ed
ĠM os
Ġref lection
Ġlaptop s
ord an
ĠWal mart
omen ess
R ed
for ums
Ġsexual ity
ih il
c reat
Ġhe he
Ġr ally
TF A
izz ard
p at
Ġlay ing
Ġg rill
Ġ3 3
stitution al
ĠT oy
Ġfr act
Ġlic ens
t ot
b ro
o ad
en o
Ġm ans
Ġhors es
w ind
Ġair craft
ri gu
Ġinsight ful
Ġexp ansion
Ġaffect s
Ġproport ion
Ġdemocr at
M r
ch ed
ĠF urther
ĠCl ick
Ġund erest
Ġembed ded
; _
Ġspectr um
Ġsa ves
Ġres ume
Ġcapt ure
ĠG B
Ġnom ination
Ġgr ows
Ġv ary
ĠS W
Ġlight er
ĠAn sw
Ġcor rection
Ġ6 00
Ġhypocr ite
re r
Ġd ot
Ġtoler ance
F S
Ġcompreh end
Ġan ime
Ġdouchebag s
C P
w an
om atic
Ġch a
Ġelimin ate
Ġam mo
Ġdecl ine
ĠMart in
ĠB an
r ality
Ġcour age
FC S
re view
st at
Ġph arm
Ġcomp os
Ġmem or
Ġir respons
Ġsearch ed
Ġlibert ies
Ġf est
Ġball oon
Ġhyp oth
ĠL ee
Ġw ore
Ġsp ite
health y
Ġblog s
le ment
Ġdirect or
Ġret ired
Ġmicrow ave
Ġthe rm
Ġbr ick
Ġbure auc
Ġso ber
S earch
nt ario
ĠB B
O ut
ĠC atholics
ian i
ĠGr anted
Ġreturn s
ĠD ell
Ġk ittens
p ages
ĠY ah
Ġnear by
ĠCol or
Ġrom antic
ĠW A
ĠB oo
Ġrac es
or por
ons anto
Ġdisag rees
ĠS F
Ġco at
Ġf ishing
Ġacadem ic
ĠStarb ucks
Ġed ition
Ġbudd ies
Bl ack
Ġnew er
Ġbrain w
Ġpre ferences
og ical
Ġlay er
Ġsp awn
Ġpedoph ile
t est
In st
Ġframe work
ĠFranc isco
up us
Ġpuss ies
Ġshe et
Ġhor rif
Ġimag ined
l m
Ġch ief
Ġincap able
qu er
ĠHann ity
B E
W N
Ġse asons
sh ine
parent s
Th ink
Ġfrequ ent
Ġf ores
it ual
Ġfin ance
b u
Ġpart ially
Ġclos ing
oust on
Ġdem ographic
Ġst ead
ĠNo bel
ĠSee ing
v d
ast ically
man y
ĠRe c
Ġb ikes
ĠB rilliant
ĠX ML
Ġord inary
Ġsy ndrome
Ġstrict ly
be it
Ġsl im
Ġilleg ally
Ġre sem
Ġperiod s
se ction
es th
Ġpres ume
Ġliter ature
c ers
Ġharm less
ĠS UCK
Ġsort a
Ġrele ases
= "
f ail
Ġw reck
Ġfall en
Ġfl owers
Ġdec iding
B ook
ĠN ar
Ġhand ling
Ġvolunte er
Ġtarget s
Ġadm itting
ĠDen mark
Ġthe or
Ġc ough
Ġtrans form
Ġdet er
fl ow
Ġchrist mas
Ġm icrosoft
Ġint r
d ated
Ġb art
Ġg ained
Ġwhere ver
Americ ans
Ġfag got
Ġprevent ing
Ġinit ially
n ote
Ġsh y
ĠDub ai
urrent ly
Ġclub s
ort al
ĠCh annel
Ġcons oles
m aking
Ġm ig
br ows
Ġconnect ions
ĠD ouble
gall ery
ĠC y
b ly
Ġwatch es
Ġstr uggle
ĠVis ual
Ġdis ci
Ġhand led
ught ers
ĠT aliban
Ġma j
Ġs oooo
Ġprocess ing
Ġn igg
ĠP erson
ov ich
ft en
s ight
Ġc d
ĠNE ED
ĠS add
eps i
Ġskept ical
ad v
ip h
Ġrac ists
en an
Ġent ering
Ġpri est
Ġfasc ism
ĠG OOD
Ġprop ri
Ġroll ed
ĠDe cember
A the
ĠG i
ĠK night
ĠCol umb
Ġforb id
Ġload ing
Ġs ends
Ġk itten
Ġse verely
T O
ĠV ideo
ard ian
ft ware
Ġgre y
Ġprint ing
Ġesc al
ou red
OU R
Ġtaxp ayer
Ġar se
Ġtort ured
Ġexcess ive
ĠAl bert
o kes
Ġpl ausible
de c
ĠIN S
Ġflaw s
od a
ĠCh ildren
Ġcomm itting
Ġappe ared
W AYS
Ġc atholic
Ġg it
Ġargu ed
App arently
Wor ld
L S
Ġf rog
Ġinf ant
s cient
al most
wor thy
ul p
tt e
qu estion
Ġm amm
Ġmiss iles
m ir
Ġemp ire
S em
ĠF U
Ġrec over
Ġconcern s
ĠL ost
ist ers
Ġblank et
b uild
Ġst are
ĠV M
Ġhead ing
Ġrep et
Ġcrash ed
Ġwon ders
Ġhouse hold
Ġdeep er
R es
Ġimport ance
Che ck
L U
Ġre ct
Ġcelebr ity
Ġun reasonable
Ġdis able
Ġhy ster
ĠVeg as
Ġpe pper
ĠÌ ģ
for um
ad el
Ġtow el
f ap
Ġappro ved
Ġb es
Ġinst it
Ġd itch
Ġfight er
Ġs its
Ġpublic ity
Ġnon etheless
Ġincon ven
Ġimpr ison
re p
Ġcl ips
OOOOOOOO OOOOOOOO
Ġd il
Ġtr agedy
Ġdisc ourse
Ġenc ounter
I ES
ĠOlymp ics
Ġcount less
Ġd ense
aut iful
Ġback ing
Ġfund ament
ĠMus ic
ĠD uh
EN CE
li ament
some one
r ine
Ġin cons
in as
Ġboo b
ĠâĢ ĵ
Ġtur d
ag le
Ġsp ark
ĠX KCD
Ġfoc used
Ġsurround ed
ĠS aying
Ġexp enses
ĠCar ol
Ġbicy cle
Ġre n
Ġmag ically
Ġaccompl ished
Ġgar age
V M
Ġo ct
âĢ ľ
Ġw ides
b or
ĠM ir
ĠE A
Ġcra igslist
Ġvo ices
Eng lish
ent er
un ting
ĠDo ll
b as
ĠK DE
fun ction
Ġ ive
if er
ĠM ormons
Ġex ceed
Ġref uses
Ġsem antics
t les
ĠD om
AS S
ĠCra zy
TH E
amer ican
Ġr on
F ire
n ity
ĠDr agon
Ġeth ics
ch oice
Ġart s
yp se
u itive
Ġdel usional
Ġr ack
Ġmagn itude
Ġdup lic
Ġb ay
ĠW OW
ĠH all
w olf
Ġsh adow
ens itive
Ġmurd erer
product s
Ġinterview s
5 1
Ġdeal ers
e gg
Ġpan els
claim er
Ġwho a
Ġelement ary
Ġmet a
Ġvir uses
ĠV an
ph et
Ġeas iest
orge ous
Ġadop ted
Ġpass ive
Ġs ack
ir ms
ber y
Ġsoci eties
Ġ Ð
ĠD ist
Ġsequ ence
m eg
st m
Ġemploy ment
Ġgra ve
Mc C
O G
Ġsca res
ĠU lt
Ġinter vention
ĠC ru
ĠM atrix
Ġ9 000
Ġg ate
Ġartific ial
Ġex haust
Ġv id
Ġpat ents
ic ular
ort ed
Ġrul ed
u j
ĠH FCS
ĠK anye
Ġr ats
ash es
Ġmatch es
Ġre dd
Ġgener ated
Ġoper ations
ĠLe ave
ĠS M
Ġdeal er
ĠI V
Ġrad iation
f ive
Ġcomp ile
Ġaccident s
w omen
ap ing
ond a
" *
ny times
ĠS EE
Ġtechn iques
ĠEv olution
Ġblow job
Ġc ub
ĠH app
Ġperform ed
p aid
wh als
ĠAB OUT
Ġeleph ant
ĠH om
ĠWor k
Ġstim ulus
ĠG TA
." *
o en
Ġfound ed
c am
m ic
Ġmoder ator
Ġhigh school
Ġvast ly
go vernment
os i
ĠAl an
A f
l ah
Ġd orm
Ġpub l
Ġindic ates
re ference
ĠPoss ibly
ro val
g iving
ĠM edia
Ġre ar
ĠN ader
/ .
he id
ĠG DP
Ġcol umn
Ġanim ation
ĠH ulu
ĠSp ain
un ci
Ġdri ll
Ġfill ing
_ ^
n ice
Ġim gur
h our
O AD
Ġf athers
ĠK ILL
p un
Ġcriter ia
or ney
bel ief
yy yy
h ope
k it
Ġsl ice
_ -
Ġsoci opath
at on
ĠAnd roid
N et
Ġbeh ave
Ġpant ies
ĠBr its
ĠB aby
Ġincompet ent
Ġb ump
Ġalt ogether
n or
ob ear
Ġt ub
b omb
ĠI mm
++ ++
Ġsh itting
OS S
Ġmotor cycle
Ġfree ze
ĠIraq i
pe l
Ġpack ages
ar ound
Ġsimpl er
Ġprodu ces
ĠOb vious
Ġ5 5
Ġsubscri bed
ne xt
Ġend less
ĠP ick
ĠCom ment
ĠM B
av age
ĠL ib
Ġexper ts
Ġsign ing
Ġanarch ist
Ġint rigu
ĠSh ame
Ġdiv ide
ĠR ather
Ġcou ples
Ġte ens
spe ed
Ġcop ied
Ġpres umably
Ġelev ator
ĠD umb
k r
Ġdeb ating
ĠGr ammar
Ġprep are
Ġbigot ry
Ġcondesc ending
Ġpo le
ev il
Ġgr ay
Ġob t
Ġdo l
Ġsee king
Ġhard est
ĠTHE N
it o
ĠM iche
Ġdon ations
Ġ- --
Ġpop s
ĠZ ionist
P ersonally
IN T
c ard
Ġbust ed
Ġgam ers
g am
Ġt el
b urn
Ġcal endar
ĠB and
ca le
Ġdifficult y
bur g
Ġas sembly
Ġap ology
le ast
th ose
Ġgu est
) *
Ġwas nt
Ġdownt own
Ġl ion
ĠT uesday
~ ~
Ġball ot
ge ek
Ġvir al
allow een
i ety
ĠD uring
Ġsa il
Ġfif th
b ait
ĠB ern
av or
ĠO O
C ong
ab ama
ĠMy th
Ġinf ected
Ġbell y
ĠMU CH
s ad
st ep
ul se
Ġcomp assion
Ġintention al
oc re
Ġexc uses
ĠHU GE
Ġfl ies
Ġpet ty
ĠHar per
w oman
ac ular
Ġtra um
!!!! !!
l ow
ĠI ve
Ġl ulz
ĠS L
Ġestablish ment
m ap
h at
m oney
Ġw ives
en et
H i
att ered
Ġmod ified
Ġpr ank
ĠN etherlands
Ġcompat ible
d igg
ĠO ntario
ĠKenn edy
Ġath let
ĠUS D
tr uth
Ġin du
K eep
Ġfollow ers
ĠSc ot
Ġpoll ution
Ġt l
des ign
t z
L ove
zon a
ĠSwed ish
ĠS outhern
Ġdocument ation
Ġmisunder stood
Ġterrif ying
Ġencount ered
Ġy up
ĠT SA
TF O
Ġelit ist
ĠNe o
Ġw izard
ig s
ĠK evin
Ġmark ed
wr itten
D ef
Ġexp ressed
Ġrepl acing
Ġr ated
FFFF FFFF
Ġtow ers
H er
q l
ru ly
D ude
m ath
ĠM agic
Ġhip sters
Ġvari able
sup er
O nce
r ative
look s
Ġnail ed
E C
w d
ĠW ish
att an
s ized
Ġis lam
Ġdef ensive
Ġroll s
Ġc ripp
Ġext end
Ġ19 84
Ġavoid ing
ĠM ade
Ġcon vey
Ġpup pet
Ġjudg ement
roll ing
Ġshort ly
P aul
im a
Ġpen et
Ġcent uries
Ġnipp les
Ġpe ak
b oth
ĠP ope
Ġlack s
ĠOl berman
G S
ĠJ une
l ate
Ġst ored
Ġar c
Ġsup reme
Ġmight y
ĠL uckily
ĠJ ose
AN S
ship s
Ġsa us
B ig
Ġan us
Ġy ield
Ġover se
ĠIN TER
is ode
ry ption
Ġbr ack
ĠFR OM
C r
ĠTHE M
Ġn ap
il er
ĠN PR
Ġrep orter
Ġs our
ĠTe am
Ġag ents
ne ath
Ġins pect
Ġor bit
Ġlot tery
Ġmonth ly
Ġbank ers
Ġg amer
enan igans
s eriously
Ġconsens us
ĠN ative
ere rs
E X
Ġfem inist
Ġv ig
pr iced
Ġspirit ual
im s
h u
uz zy
v ia
ic ulous
nes ota
Ġsh aped
**** ****
Ġchem istry
in ence
Ġn azis
vide os
Ġheter osexual
Ġbuff alo
99 9
Ġfree ly
ĠPro fit
i ams
Ġmurder ing
ĠB Y
Ġd ys
le tter
ib et
Ġroom s
Ġcatch ing
Ġmol est
Ġcertific ate
as a
H as
Ġun expect
? **
Ġshel ter
Ġlog in
we gian
Ġmiss pelled
Ġg mail
ahah aha
Ġdise ases
Ġmet er
ĠE uro
Ġcann abis
ch ing
ĠH YP
Ġch ina
Ġcook ed
Ġre but
Ġsub way
Ġinj ured
m ay
Ġun popular
Ġworld wide
Ġmock ing
Ġjournal ist
? '
Ġv end
an while
ep ing
ĠPort land
l ot
Ġpot ato
Ġevery time
Ġpresident s
ĠJ obs
Ġdis gu
ĠHuck abee
Ġat roc
Ġprison ers
Ġdo omed
Ġhumor ous
Ġur ine
ĠRes erve
Ġch rome
gg in
Ġvot er
Ġview ers
does n
b p
ex actly
ane ous
D O
Ġeduc ate
Ġconcent ration
Ġdef icit
T Y
ĠS now
Ġdr um
Ġwas hing
sh are
e em
ĠH ATE
ĠPer fect
ĠPh D
Ġscript s
ri x
ĠC ross
kel back
G ive
Ġadm ire
ĠA ugust
ER IC
rig inal
Ġacknow led
Ġvel oc
Ġjud ges
Ġcontroll ing
Ġdol ph
B as
s afe
ĠS ort
gr oup
Com p
et ry
ĠMod ern
ĠD itto
are st
ĠV ict
ĠAL WAYS
Ġorg ans
re pres
de velop
Ġb ond
Ġr ising
ps on
n i
g irls
Ġc ust
ĠB ah
itzer land
res hing
Ġbon er
is a
Ġso il
ich ael
ĠEx cuse
ri ers
Ġch ains
ocal ypse
Ġs igh
ĠH ER
Ġocc urs
Ġbar bar
Ġax e
Ġnav ig
ĠP ff
Ġweak ness
y et
Ġs ums
Ġph ase
Ġact ed
Ġres cue
Ġgoog led
Ġawes omeness
r ue
ã ĥ
ĠH and
Ġmind less
Ġflu id
p ark
Ġprot ocol
ĠP OL
Ġde ce
Ġcl iff
rr r
ĠCong rats
Ġoccas ional
sh irts
am ation
Ġequ ation
ass ing
W indows
ĠC arter
Ġunder ground
op t
ĠE ve
ĠUn like
urs day
Un fortunately
ĠEd wards
Ġda ughters
Ġsurv ived
Ġprev ents
Ġprocess es
Ġtim ing
Ġsymp ath
Ġspeed s
Ġsandwich es
Ġshout ing
ĠM eth
Ġdemand ing
ate ful
Ġapp lying
j ournal
Ġmind set
li est
Ġcere al
Ġhead ed
ĠS TFU
Ġper sec
Ġsk etch
Ġtr ucks
ĠP ink
Ġri g
Ġprom oting
AC E
Ġhook er
Ġevolution ary
b ish
Ġthr ows
Ġrequest s
ĠL aden
m ill
p in
Ġnews papers
Ġ ĉ
Ã Ń
ic ity
Ġsing ular
Ġmeas ures
Ġsnark y
m al
ĠM W
p aul
Ġrend ering
Ġpse udo
ĠCons ider
Ġe arning
ri or
OL D
Ġrab bit
B ar
Ġe mo
Ġext ensive
P rodu
u v
ĠE vent
IS H
mo b
Ġcons ult
ĠNor thern
Ġcontinu ing
Ġtherap y
Ġli ver
ĠKe y
ĠSer vice
Ġintim id
E s
Ġidi ocy
Ġmut il
Ġanec dot
Ġso vere
a ft
w ire
Ġmis con
cap ital
Ġth ief
Ġmotiv ated
Ġmathem atics
on ies
ĠW TC
Ġinit i
Ġdon ated
ĠD ri
Ġemot ionally
eff icient
R O
ĠP ics
Ġpull s
Ġpassword s
Ġt ens
ĠSt ory
ĠB ased
do or
d est
ir able
H ope
ĠW on
Ġpres ents
Ġtr ains
Ġtempt ed
es c
Ġto e
ĠM MO
b acon
Ġp owered
ĠG RE
Ġdrun ken
Ġab ol
OR T
Ġemploy ed
ĠSt at
Ġann ounced
v ard
Ġassoci ate
ĠDem s
Ġspeed ing
accept able
Ġinv ention
OL E
Ġtur key
ĠD irect
IT CH
) ](
Ġopport un
Ġair plane
Ġfanboy s
ĠP ent
ign ific
Ġtwist ed
ĠM arch
? ...
m ond
n ie
it ure
Ġsc ores
Ġadd ressed
Ġmain tenance
C al
in ja
et to
Ġsp out
Ġjo ining
Ġan onym
ist or
er ies
Ġj ur
Ġtrust ed
Ġdesp ise
Ġconvert ed
T ell
z one
Ġon ion
Ġub untu
AAAA AA
S te
ĠI II
Ġoutrage ous
Ġtaxp ayers
Ġi pod
ri ke
Ġsubst itute
ĠHel en
ĠOct ober
A ss
ĠYou ng
Ġman kind
Ġtw in
Ġhair y
V ery
an ium
Ġp ad
ĠQu it
Ġto xic
Ġcontin ent
Ġt aser
str ong
Ġinterpret ed
Ġflo at
Ġsch edule
ĠSh ort
ur g
b us
ĠWor st
ĠC ow
ĠP ac
Ġref resh
B B
C ap
Ġso lo
pp ers
Ġab ilities
ĠJohn ny
Ġintent ions
Ġb ait
Ġst unt
Ġse al
Ġslight est
B ox
u icide
rel igion
Ġunder neath
; **
sh oot
Ġaff ili
ĠForg et
he w
r ons
Ġfact ual
Ġtunn el
ch air
Ġsh if
Ġpay check
Ġ19 80
Ġavoid ed
Ġrel atives
Ġest ate
ĠInd ians
Ġliqu or
Ġcomed ian
Ġin ability
ĠN at
ub by
ĠO il
Ġcritic izing
inform ation
h attan
Ġass ess
Ġauth ors
ĠST ILL
Ġsurround ing
m el
Ġm asc
Ġoper ator
Ġmyst ery
Ġpra ise
Ġb ots
Ġinf ection
.... ...
Rep ublic
all ing
en ny
Ġv oid
ĠG ar
Ġla ughter
off ice
C S
Ġdr ain
Ġspec ulation
ĠH umans
il ant
Ġcont ained
c orrect
Ã ³
Ġf ires
ca kes
Ġinj ury
e an
Ġde ck
ĠAd ams
ruct ive
iv ism
Ġc ache
ĠO VER
Ġc ord
ast ers
ĠL arry
ac ious
ĠP el
Ġ3 6
Ġdisc our
Ġcreat ure
A X
ĠE ffect
Ġsn iper
Ġdial ogue
Ġf oil
Ġtr apped
Ġcont aining
ss ss
Ġd rew
ĠH ob
Ġrecogn ition
C le
ick er
Ġca ffe
ĠDes pite
b led
Ġro pe
Ġprec ise
Ġassum es
Ġsuppl ies
Ġlab els
N ext
im port
Ġoff end
Ġner ve
Ġdin osaurs
Ġall erg
ik a
Ġdisappoint ing
ĠR oy
S ource
c nn
Ġe lder
Ġdetect or
r ape
Ġse ctor
ĠB urn
Ġneo cons
Ġprote in
ong ering
Ġpain ted
oms ky
ĠPir ate
Ġfict ional
b ul
Ġadm ins
Ġhambur ger
Ġdirect ions
Un ited
Ġgif ts
ĠR ain
qu ate
Ġreprodu ce
ult ural
Ġpattern s
F i
Ġad orable
Ġmiss ile
S ometimes
ĠG OT
Ġinv ading
uss y
Ġ200 2
Ġcool est
Ġpen n
Ġpropri etary
ĠM aster
be y
ĠW AR
ear ing
Ġprof ound
urb and
? ".
ĠD ont
Ġpr ayer
bre aking
s fw
Ġw aves
es ity
Ġredne ck
ĠH itch
Ġsp an
Ġdis regard
ĠHe he
Ġd ull
ĠM D
ie ves
Ġblog spam
Ġn urs
Ġme als
U RE
McC ain
Ġag ed
Ġide als
Ġblat antly
b ians
ĠN ixon
Ġleaders hip
ĠM att
Ġveget ables
Ġopp onent
fl ation
Ġphilosoph ical
Ġhosp itals
ĠPol and
Ġce iling
D B
ĠAm en
Ġt il
Ġless ons
Ġp ause
z ip
ĠSh ar
n ode
Ġb end
Ġgen ital
Ġ10 1
ĠJim my
Ġb und
Ġcontribut ing
Ġbum per
ĠF ive
Ġw ound
Ġp ars
ick y
Ġguess ed
Ġm ud
Ġp aren
Ġdemonstr ate
G L
Ġman ually
Ġbr owse
l ab
ĠA ud
Ġlight ing
Ġs ed
ĠM IT
Ġpay er
na kes
Ġconsider ation
r um
Ġref using
h ots
Ġsal ad
w ife
Ġg orgeous
Ġwar ned
Ġdetail ed
Ġtr im
ĠWR ONG
Ġre new
Ġoutr aged
ĠS end
ock ing
Ġdist ro
ĠA F
Ġperman ently
Ġhypothes is
Ġa de
Ġco ins
Ġlegal ization
Ġdig its
uc cess
comm un
Ġmild ly
ic ode
em por
ĠEm acs
agh etti
Ġar ab
urband ictionary
Ġsince rely
head ed
ĠB ud
Ġr ounds
Ġlast ed
liber al
ĠE pic
ale m
ĠPot ter
ĠP RE
sec ret
sm all
an es
Ġbreat he
d ata
M o
y ahoo
Ġw ank
Ġhas s
Ġhum ili
ĠWo ah
Ġterrif ied
Ġal uminum
Ġpr isons
Ġreal ised
Ġcart oons
m inist
ĠH ouston
Ġal ike
ĠG R
Ġpar as
Ġle ather
Ġshoot s
F ox
Ġe tern
ld a
\ \
ass ed
ĠDep artment
Ġworry ing
Ġa ka
Ġg ag
ĠT esla
ad ers
Ġref reshing
Ġsh ove
Ġquick er
Ġtrack ing
Ġsmo kers
Ġmechan ics
doc id
S im
ack ers
Ġun educated
Ġhot ter
ĠHE LL
f b
ĠS ix
Ġorang ered
Ġf itting
Ġe ase
pie ce
Ġc odes
bi ased
M any
Ġelectron ics
Ġbasket ball
Ġm ph
ĠW ed
ĠS ays
az y
st orm
Ġauthor ities
ack er
St ar
rug man
Ġreferen cing
« âĢª
Í ¡
Ġdo se
Ġterm in
«âĢª âĢª
E W
S ame
ĠD ane
Ġsympt oms
mo vie
Ġglad ly
Ġf u
Ġle cture
Ġal ph
Ġenc rypt
m ust
Ġh over
ĠI Am
Ġ7 00
IS A
Ġ vert
Ġbal d
Ġsuff ered
ĠSte ven
ĠEX ACT
ĠG TFO
Ġgoat se
Ġgu ll
9 11
Ġbl onde
war f
Ġner dy
Ġdiam ond
Ġmedi ocre
j an
all as
ĠG host
Look s
ĠHaw aii
ĠC a
Ġm ice
Ġpo se
Ġdish es
! ".
Ã ¤
Ġappe aling
Ġsp amming
olut ions
Ġstick y
S O
Ġha bits
comp uter
Ġthreat en
ĠP atriot
ĠD one
Ġheart s
ĠUn ix
ĠF il
ell ect
comm ons
Ġtur tles
Ġut il
ĠLibert arians
Ġsearch es
Ġtr agic
act ic
oun ces
Ġrh y
GA IN
l ittle
Ġoccup ied
Ġle ap
m es
n ational
ci a
ĠJud aism
Ġamazing ly
Ġapproxim ately
m g
ĠD R
ĠIndian a
Ġrel ations
ĠC ode
Ġv im
Ġsup ern
p ool
Ġlegal ized
face book
Ġvul ner
ĠComp letely
ĠP LEASE
ĠMon o
An other
W atch
Ġhand ic
Ġmonop ol
i ah
Ġoverse as
J ew
Ġn ud
ik ed
Ġ ounce
ĠR os
vid eop
n z
ĠGo ddamn
Ġdem ands
Ġhypoth etical
ĠT erm
Ġmy ster
em ed
Ġpir ated
Ġfe at
Ġbre w
ĠAT M
ĠVer izon
Ġreb oot
Ġscre wing
Ġl oo
Ġant is
H a
j oke
Ġs izes
ĠB ro
Ġbl u
Ġstat istic
y o
Ġt iger
Ġp iano
Ġdisc redit
Ġaddict ive
Ġelect rical
p ets
ac les
og yn
Ġfre aked
WW WW
n umber
it ism
Ġb id
ĠT OO
Ġsch olar
oph ren
ĠJ r
on ion
ĠG n
ĠE DIT
ĠAs ians
Ġcop ying
Ġpot atoes
m iss
pict ure
Ġdirect ory
f air
F T
ĠI de
ĠL ET
Ġstick ers
CA USE
Ġg igg
ĠS elf
Ġpart ial
Ġpresent ation
âĶ ¼
Ġaband oned
B ack
che me
ĠNOT HING
Ġrepres ented
" !
Ġple as
Ġdistribut ed
p ay
ĠBr ing
Ġris ks
ĠP itt
Ġacr onym
Ġlog ically
ĠCapital ism
B ay
ĠO oh
ĠWill iam
ĠSadd am
Ġsh ares
/) ?
Ġblind ly
Ġgentle man
ĠUt ah
Q U
Ġfil thy
ĠArab ic
? ).
Ġe g
ect ive
Ġmess ing
Ġque en
Ġgovern or
ic o
k top
Ġg ren
Ġpro stitution
Ġ: :
Ġeas tern
y ard
ĠC am
fac epalm
Ġmole c
ĠM arijuana
Ġirrespons ible
f ar
ĠS earch
Ġbrit ish
Ġex port
Ġsp ots
ĠCharl ie
Ġdis pos
Ġfun eral
hand ed
ĠPer iod
Ġimper ial
Ġple ased
Ġincorrect ly
oen ix
' ...
Ġrecy cl
Ġo ath
ĠTh ird
Ġf oss
Ġcongr at
ut ter
rest ed
Ġphotoshop ped
ibl ical
se en
Ġtext s
techn ology
Ġproper ties
Ġmanufact uring
oooooooo oooooooo
ow ed
n ation
Ġcap tain
Ġformat ting
D es
Ġp ac
Ġdi vers
Ġfemin ists
ĠAri zona
C o
if ier
Ġbl unt
Ġnever mind
Ġpo d
ĠK im
Ġword ing
11 11
l bs
Ġlaugh s
gress ive
Ġlos ers
Ġviol ate
Ġsatisf ied
Ġth irty
ct ors
Ġmast ers
Ġt ies
at able
Ġar ray
Ġtw elve
alk ovich
adel ph
c ity
Ġtw at
c amp
ur able
Ġserious ness
ĠExpl orer
Ġ à²ł
th ought
Ġstr ateg
Ġdisci pl
ĠAP I
ph y
Ġmet ers
f und
Ġw aking
un ks
art ed
Ġreg ulated
ĠDe c
mys pace
3 60
Sh it
ĠT ouch
Ġcogn itive
Produ ct
b aby
al og
ĠD uke
Ġphot ography
Se ems
videop lay
Ġch ase
Ġred irect
ĠM onsanto
iz ophren
Ġsub sequ
Ġve g
âĢ «âĢªâĢª
ĠH alloween
Hell o
r ates
ĠI BM
Ġsatisf ying
nes day
ĠCarol ina
* )
Ġher d
d ie
P B
ver ts
ur f
ag g
bag s
am i
br ain
ĠE N
Ġpunch ed
im als
soft ware
o ah
Ġ19 99
ĠDVD s
P H
Ġlung s
y ears
Ġgr am
Ġjack et
ac re
Ġacc use
bel ieve
M ar
ache l
Ġl ump
ĠGen erally
Ġum m
an other
Ġf urn
Ġ3 7
Ġneed ing
AN G
Ġtempor ary
Ġhyperb ole
Ġch am
Ġun real
ĠL ucky
Sp ace
ĠQue bec
L ink
b ie
mm a
rav ity
Ġhack ed
ĠM and
Ġfac et
ĠS D
SS SS
Ġinsec ure
are r
Ġsim ilarly
Ġsne ak
Ġb ent
Ġder iv
S tr
Ġt rem
TH IS
Ġminor ities
ress es
Ġmerc ury
om es
Ġla ke
Ġevol ve
Ġvom it
ĠFrank en
Ġdram atic
Ġru ins
! '
F K
ous es
Ġsound track
HH H
Ġbook mark
ocr atic
ĠPr ince
FA IK
oc ate
Ġfire arms
ĠH L
ĠJ avascript
Ġz eal
ino is
g one
k o
Ġmathem atic
Ġvamp ire
p c
Ġj am
Ġmy space
ĠJ ordan
ĠCD s
at i
ĠA GAIN
Ġtown s
Ġconven ience
f est
ĠW OULD
Ġbas es
ĠBr others
N obody
ĠRo ad
M ake
ut f
ĠPC s
aut s
Ġretire ment
Ġbul k
Ġb or
ĠM ountain
art ers
ĠL ab
Ġcompet ent
Ġdiv ision
ĠF ixed
ĠMet al
Ġst ake
Ġdeal t
sy stem
f ol
er ves
Ġhand gun
Ġconv ict
Ġcr otch
Ġsubject s
Ġdeb ug
Ġh ott
ĠI AMA
Ġcom pelling
he ard
Ġfrequ ency
Ġ[ *
c os
Ġp ale
Ġcle ans
ĠWho ever
Ġest imate
Ġexp ressing
ch arge
OS E
y er
Ġd ressing
Ġme mo
oor ay
Ġn oob
Ġdist inguish
Ġbrainw ashed
Ġinstit utions
ĠA uss
p read
ĠAl abama
gle ct
ĠIR C
b uy
Ġclar ification
it able
ĠS on
Ġare nt
Ġsem ester
Ġfle w
Ġam used
Ġdigg ing
ag m
ĠGl obal
Ġant icip
ip ot
eth ical
r ls
Ġn aming
Ġe jac
act s
Ġho ax
Ġuncon stitutional
ract ive
ĠG row
Ġmeas ured
Ġenc ryption
Ġvacc ines
d irect
ĠA IG
ĠSo ci
Ġw ifi
Ġab usive
Ġtoler ate
d ist
h an
Ġwh ip
oy d
cri bed
Ġhipp ies
lah oma
Ġp ier
Ġg um
ĠR TFA
Ġwh iny
Ġremind ing
u f
... ]
ĠPro fess
Ġrecurs ion
Ġtrans ition
Ġra ises
off s
Ġdisgust ed
ĠDi ablo
Ġinsan ely
Ġmart ial
ĠP y
Ġfre aks
Ġrout er
Pro bably
P M
ĠF asc
Ġam ateur
h istory
Ġe uro
Ġres ulting
Ġsatell ite
m d
Ġinst ances
Ġcomput ing
en ry
Ġfool ed
Ġb aked
Ġpe ers
pt ic
for ward
Ġrac ing
Ġvolunt ary
ree k
Ġaccount able
Ġmush rooms
P res
ĠGL ORY
ĠN avy
Ġmed ication
Ġspin ning
m ine
ĠB ab
umb ers
ĠCon f
qu ality
Ġkiss ing
ĠW arcraft
our ney
ĠPro ject
ag en
Ġyour selves
ess ions
Ġcontain er
p ub
Ġabs ence
r ics
Ġle ak
Ġemphas is
NN NN
Ġdamn it
Ġcontrovers y
Ġk it
ĠC uba
ric a
light s
Ġperm it
Ġlobby ists
Ġassoci ation
ĠBas ic
Ġh orm
Ġun healthy
Ġbo ards
Ġpres cription
Does n
g inal
c ow
v as
ĠK erry
Ġsch ed
ĠCA PS
Ġre aching
Ġme ets
ab ul
Ġem pir
Ġcompet ing
Ġd ime
ll e
Ġv apor
t l
ĠB uild
ĠTur key
Ġprost itute
unci ation
Ġcl ause
D ub
ĠAll ah
ar ation
Ġst alking
Ġmis read
om p
Ġhost ile
on z
ri ages
Ġcaffe ine
ĠM M
Ġdial og
Ġcour ses
Ġman agers
az ing
her o
ub untu
Ġreact ions
Ġinsan ity
Ġw ax
ee e
Ġwor n
Ġg y
Ġbe es
ast ed
Ġpay ments
Ġdiss ent
v g
AT H
Ġche w
Ġreve aled
def ense
W ikipedia
Ġe cho
Ġfrust rated
ass uming
etch up
ĠSw itzerland
Ġbes ide
s ch
Ġn sfw
Ġend ors
ĠSm art
Ġmisunder standing
Ġbe e
g irlfriend
ĠM UST
ig e
Ġv ista
Ġad ap
O CK
Ġpre ach
Ġeng aged
Ġh mmm
ĠA CT
ĠU r
Ġcomm od
ĠTry ing
Ġdisplay ed
Ġf er
Ġconf orm
ĠAr m
ĠCh ild
Ġdild o
Ġc ooper
Ġtast ed
Ġpers u
ĠCount y
Ġw id
Ġsw ine
ipp er
ĠSocial ism
Ġsoph istic
Ġcon ference
!! !"
Ġdocument ed
EN D
Ġperform ing
adelph ia
ĠMon ster
Ġmembers hip
Ġt ed
ĠT aking
bre vi
Ġ:- /
t ards
Ġmon itors
B oth
ĠW M
Ġmon etary
Ġb out
Ġacc ents
Ġhor ny
Ġf isc
Ġcar ries
Ġind ication
hhhh hhhh
d rop
Ġwar n
ĠA yn
Ġqu ad
OR N
sm art
l at
m ass
Ġ ]
Ġla und
Ġc iv
ĠB SD
b ill
Ġsh ed
ĠSt arcraft
is n
Ġ( *
ang es
ĠSe an
( "
v ision
ĠS ci
ĠM TV
ĠP un
ĠG un
ook ed
per or
back s
Ġl isp
ĠT en
ĠIn ternational
ĠRom ney
ĠMin nesota
Ġbart ender
ĠPel osi
ĠW ire
ot o
Ġsh ipped
Ġspec ify
Ġexplos ion
ĠN umber
Ġsing er
Ġsocial ized
ĠJud ging
H igh
or ph
ĠW ind
Ġadv ise
resp ond
ĠJust ice
Ġcorrect ing
Ġimag ining
Ġteach es
ĠSer ious
ĠTot al
Acc ording
ĠD ennis
stand ard
Ġalcohol ic
Ġsc rap
Ġsen ator
' )
A W
ĠF SM
I W
Ġin sect
Ġch ess
Ġ^ _^
ĠC T
Ġom g
Ġoff s
Ġperce ived
ĠG F
ĠB attle
boy s
Ġfreak in
ĠT y
pre tty
ĠCom cast
ĠAg ree
Ġprior ity
Ġle af
l ocal
Ġgr id
Ġc rop
ĠS ave
ĠM ath
Ġhate ful
ĠUn iverse
Ġannoy s
t orrent
c op
Ġbe gging
Ġsm iling
Ġarri ved
Re al
ĠEVERY THING
ĠH ur
ok er
ĠCent er
ĠOlberman n
f amily
Ġc age
Ġwarrant y
A G
Ġl ube
clos ure
Ġp ressed
ul iani
Ġp i
ilosoph y
h in
do ing
ĠDemocr acy
stal g
ave z
friend ly
ĠH OLY
I Z
Ġaw ake
Ġmathem atical
did n
Ġfr anch
ĠB IG
ĠP OW
o ked
ook ie
ĠP izza
Ġthumb s
ĠFre eman
Ġob tain
Ġref uge
Ġsubsid ies
pict ures
is cons
ĠM mm
Ġbull y
Ġsl og
lig atory
ĠMa jor
ut ers
Ġvari ables
Ġh oo
Ġsur vey
, '
Ġr ug
Ġb en
ly n
Ġsur ve
Ġfat al
Ġmis ogyn
Ġclean er
Ġseg ment
Ġindo ctr
9 00
Ġb io
Ġh ilar
bert arian
ĠS ide
Ġgr at
Ġnet book
ĠLe ban
ĠBE CAUSE
ĠK ent
Ġold est
l iness
iscons in
eng lish
Ġhelicop ter
ĠWill iams
ĠNY T
Ġbe tting
ull y
Ġemploy ers
Ġachieve ment
dd ie
ath an
Ġwhis key
amp s
OO M
j ad
Ġauth ent
ov a
Ġback s
Ġt ire
Ġc ube
Ġhy drogen
Ġthe at
. ?
op in
ub ble
Ġpill ow
n c
] ,
ĠZ ombie
k b
ip t
Be ing
Ġbon uses
ĠN H
Ġlight ning
C ol
Ġper l
Ġbur gers
ĠV LC
200 4
Ġto ll
Ġin h
Ġp ew
ĠN a
Ġcomm ittee
B rit
sc ar
hold ers
Ġtri ps
bl ue
ĠY ear
Ġfort une
ĠMSN BC
ĠM ult
Ġshort s
inst ant
ĠN C
Ġloc ations
z es
Ġcar pet
Ġplan ets
mod ern
S omething
ĠS cr
ast ing
Ġpsych o
Ġgoog ling
Ġ8 5
ul ent
oc us
ĠHel p
ĠĠĠĠ ĠĊ
O ver
Ġf uzzy
Ġsex ism
Ġg oof
Ġpack s
f ers
J PG
Ġc ott
st able
ophob ia
Ġw and
Ġ3 000
Ġfound ation
Ġstar ve
Ġmusic ian
ĠM ain
Ġhar vest
ĠL OOK
ĠS aw
Ġsla ughter
ĠRadio head
edit ed
h oly
r age
Ġcircumc ised
Y S
ĠD ifferent
Ġstab bed
ail ing
Ġqual ifies
Ġd ing
ĠA A
ĠBe er
f ut
Ġb ob
ĠH IS
or ation
iv able
ĠSh oot
ĠFut urama
Ġl end
ĠL ew
Ġlo bb
Ġuns ubs
Ġse men
ĠM organ
Ġsc ope
Ġc inem
Ġg imm
ĠT iger
Ġle aning
Ġinf ect
Ġtom ato
leg al
ĠTyp ical
Ġsty les
Ġadvert ise
epend ent
Ob viously
ĠCall ing
Ġdisp ute
m ale
Ġfif ty
ĠTest ament
ĠAM ERIC
Ġn arc
Ġtut orial
Ġshe lf
Ġthought ful
Ġneut rality
S ad
ĠU mmm
Ġpreced ent
m ur
if est
Ġfore head
Ġsm ack
P ost
Ġeduc ational
ĠW ake
Ġcan ada
Ġcont ribution
ĠCh ap
ĠPr ime
ignific ant
h ar
Ġ: ).
UR N
Ġf aced
e u
Ġch in
Ġcont ents
Ġpress ing
Ġrele asing
ĠEVERY ONE
Ġwides pread
ellect ual
l b
r andom
Ġport able
ran ny
Ġfundament ally
am o
ĠP ict
Ġun common
Ġche ek
Every thing
ĠM OTHER
ĠLiber al
Ġenfor ced
Ġingred ients
C ON
Ġut ility
Ġg ains
ĠL ady
Ġpredict able
Ġchuck le
pe g
ĠV B
Ġland ed
Ġboo bies
Ġcapt ion
Ġse w
s ky
ĠD est
Ġsqu eeze
tw itter
Ġinfin ity
conn ect
world news
Ġp ipes
Ġtur tle
ĠP ers
Ġlast s
ĠQ U
ĠZ ero
eng ers
Ġaccess ible
Ġover priced
ĠIraq is
Ġlux ury
uck ing
Ġsw ap
Ġimm unity
Ġ_ _
Ġhat ers
Ġgrab bed
Ġmagnet ic
viol ent
ĠN A
ig ma
Ġt an
Ġst all
pl ain
so lete
Ġpick s
Ġde light
ord on
Ġa er
Ġnor thern
ĠD IS
Ġgl ory
Ġencour aging
it udes
Ġsaus age
ĠC ard
Ġconst it
ĠIAm A
Ġl amb
Ġgen etically
Ġambig uous
u ated
Ġlong est
ush i
ĠW alk
ĠG P
ep ad
ĠK udos
a ug
Ġconsequ ence
Ġn urse
ĠC orn
ĠZ im
Ġtend ency
friend s
L ast
s ame
Ġar rive
air y
Mus lim
Ġsp iders
Ġdumb est
Ġmeet ings
Ġst ones
ĠP epsi
Ġunderstand able
Ġwip ed
Ġve ter
Ġnovel s
ĠFort unately
Ġc ited
Ġbl ade
Ġn ails
Ġcomp ression
Ġart ic
asp he
Ġsc umb
ĠCh omsky
Ġun acceptable
Ġd arn
Ġover night
again st
ĠT ibet
ĠMedic are
Ġrequ iring
Ġphr ases
l arge
ust y
Ġredne cks
Ġz ip
Ġmur ders
OD Y
Ġmount ains
ar get
Ġhead phones
Ġaware ness
Ġoblig ation
Ġclim b
ĠMy SQL
Ġinvestig ate
ĠN iger
asm a
f ag
Ġgu ards
Ġsuper st
emon key
Ġfight ers
lev ance
ĠNor wegian
Ġpred icted
Ġdisco very
Ġanx iety
ĠN AT
M en
t aking
Ġs ab
ĠC op
Ġab brevi
Ġne glect
ĠG ames
Ġri pping
Ġsuperior ity
ĠTurn s
Ġcaus ation
ot or
he a
Ġaff airs
alt ies
at ar
st ation
ĠRe volution
m outh
fe el
Ġpass enger
iiii iiii
O F
p ants
ut ive
Ġind ie
the onion
Ġo w
Ġunder grad
âĸĪâĸĪ âĸĪâĸĪ
ri ger
ĠC reat
Ġbig oted
cd n
Ġpenn ies
ĠP orn
Ġsmo kes
s uch
Ġoccas ions
Ġfri ggin
E m
ĠA OL
ig o
ĠCal vin
S J
Ġres ent
Ġgener ous
Ġf ate
âĸ Ħ
j un
Ġun att
it ated
Ġinv ites
Ġpurch asing
Ġmo ld
Ġoff ender
Ġdisagree ing
Ġsubscri ption
ĠBl u
Ġneg lig
ĠNe il
U m
sy l
ĠS oul
Ġst umb
av is
cl ose
ĠDown vote
Ġpropos al
ĠT ook
ĠB AD
ĠJ ay
Ġrel ief
P alin
ĠI mp
ĠG PS
Ġir aq
Ġstock s
en er
Ġport s
ĠNic kelback
Ġmo ot
Ġrap ists
ise xual
zz zz
ci le
ĠSo ftware
idd ing
ĠEvent ually
V ote
in cess
ul ators
ĠJ eez
Ġmut ual
Ġequ ate
Ġdesign ers
ma res
ag a
ency clop
Ġess ay
Ġgeneral ization
Ġarchite cture
Ġco herent
Ġcr ashing
Ġinter action
ĠWOR K
ĠDun no
ĠS ing
^ ^
Ġwh ist
ĠO cc
Ġprofess ors
Ġcorp se
u an
Ġnot icing
ĠHe aven
Ġdis l
Ġcomp onent
Ġinfin itely
Ġfont s
Ġsou ls
Ġkind ly
ĠAl ien
Ġcredit s
Ġd ough
Ġpen gu
Ġcens ored
Ġseem ingly
pr ising
Ġsubs et
Ġhipp ie
Ġref ute
Ġrab id
Ġspoil ed
Ġsh es
Ġfunction ing
Ġdam aged
Ġl ingu
Ġvill age
Ġsu ic
ass ic
Ġ-- &
Ġf iber
com es
Ġbr icks
Ġill iterate
z ero
Ġcar rier
Ġn ood
Ġwr ist
bl ind
Ġd ign
Ġex hib
Ġclass ical
pl ug
Ġher pes
Ġder ived
Ġprivile ge
C itation
ĠLie berman
an ol
ene z
Ġcol ored
ug al
v n
Ġblo ated
ĠM is
Ġpl ates
ĠK ansas
ĠBuff alo
Ġshe ets
Ġplatform s
Ġstruct ures
ĠL CD
Ġpart isan
ĠCl ose
Ġb aff
Ġre nder
ĠF REE
F G
ĠS illy
Ġfarm ing
Ġpup pies
Ġl ou
Ġd umped
Ġcomplex ity
Ġvague ly
Ġag encies
Ġequ als
Im agine
q id
ĠC C
Ġpr aying
Ġtechn ologies
Ġus able
ĠC amer
Ġqu o
Ġimpl ication
can o
Ġev angelical
EE E
ĠS her
Ġnick name
Ġlegal ize
; (
p x
ĠD I
ĠP rop
Ġatt orney
Ġpar am
king s
ĠSt one
Ġfl oppy
Ġfar mer
ĠPlan et
Ġopportun ities
in v
iv or
Ġpopul ace
Ġst ir
Ġp owder
Ġinvest ed
Ġrif les
f c
ir cle
Ġtax ation
Ġdig it
Ġdep art
Ġdesper ately
ĠK id
irt ual
ch ildren
az ines
Ġreg ulate
ĠMexic ans
Ġbad ger
Ġsl ipp
Ġsuit able
at ts
ol is
ĠSo ld
Ġcompat ibility
Ġhol idays
Ġvirgin ity
r ations
Ç Ŀ
ad or
Ġpass age
Ġst ink
Ġk itty
Ġright eous
Ġmus cles
Ġinfring ement
p u
Ġgl ance
help s
Ġmin ister
ĠDevelop ment
ĠE R
ident ly
Ġanarch y
Ġche esy
Ġorgan ize
B SD
Ġgr ades
bl er
Ġk m
Ġno stalg
Ġviol ating
Ġsuspect ed
Ġach ieved
Ġb ury
Ġunder age
Ġancest ors
id ges
Ġz oo
Ġredu cing
Ġh al
N Y
Ġtransl ated
B etter
Ġr itual
Ġhy brid
Ġes p
irc um
ur bs
van ia
ox ide
Ġaim ed
Ġpl ag
Ġtrans parent
W omen
Ì ²
ĠS em
Ġoption al
Ġ/ /
Ġdiv ided
m icrosoft
Ġbo il
Ġgig antic
Ġcl o
Ġchallen ged
ple x
Ġposs ibilities
Ġrob bed
cra zy
Ġmon it
ĠIR S
ĠF alse
ĠG and
Ġcra w
Ġdecre ase
Ġne arest
ĠR ove
M icrosoft
Ġpo lling
Ġcomm ands
Ġdon ation
Ġsp ammers
ĠMan hattan
Ġunexpect ed
ot omy
ĠP oke
Ġprim aries
........ ........
n uts
Ġout dated
Ġta le
Ġoper a
Ġobs ession
Ġcont empt
in us
OO L
Is lam
Ġsen ate
ĠFin land
t c
Ġme x
Ġrespect ed
IM P
Ġdemonstr ated
Ġsurf ing
ĠA hhh
ĠC ops
Ġchap ter
a ith
Ġbl amed
ĠTH ING
Ġmir acle
1 30
t roll
Ġetern ity
H D
ear l
Ġcl uster
Ġextra ord
clip se
Ġt amp
Ġha w
pe ace
Ġmother fucking
Ġimpl ications
Ġlaunch ed
IT ICS
Ġe ternal
Ġsymbol s
" :
N ope
h alf
ĠN ick
Ġlet hal
Ġaff air
Ġinc est
Ġselect ed
â ķ
Ġj apanese
Ġsh enanigans
Ġt ipping
__ _
Ġrub y
Ġl em
Ġtri ple
ie ving
Ġs ons
E r
Ġj aw
ĠF ry
oop ers
Ġmot ive
im ental
Ġun just
Ġindepend ence
H mm
ĠHe ck
Ġexec ute
ĠN OM
12 5
Ġch asing
od ox
Ġirrit ating
Ġan ts
Ġbe aring
pl ate
answ ers
] [
Ġmor onic
Ġtest icles
Ġtatt oos
ĠSom alia
l ar
om ination
ĠSt an
Ġbuild s
f an
ĠM ess
ĠBA CK
Ġunderest imate
b id
ĠO uch
Ġfr ames
Ġcust ody
on ce
ĠH R
ĠM add
athe ist
ĠMach ine
er ver
Ġhun ter
N E
Ġa pe
ĠR a
ĠFant asy
ĠTh ursday
ĠANY THING
ic ating
Ġwh ack
H onestly
Ġa unt
ĠToy ota
Ġj umps
aw a
Ġmac ro
Ġth rill
th ree
th umb
ĠC iv
Ġsepar ation
Ġthumbn ail
re search
pl ant
Pre tty
ph rase
b oo
Ġdr agon
ex ter
Ġcross ing
Ġnar whal
ĠW ine
Ġob st
ĠPut in
Ġan throp
Ġla z
Ġinvest ing
Ġjournal ists
Ġhack ing
m illion
ĠL es
ĠTH ANK
ster dam
ĠB rian
Ġob esity
L F
en a
omet er
W elcome
Ġbur rit
Ġy ay
ĠH IM
ud y
Tr ue
ĠB in
ĠK rugman
Ġshit load
br owse
Ġcrush ed
\* \*
Ġprost itutes
ong s
Ġfinan cially
Ġunbelie vable
B ad
ĠS pl
k m
is rael
ĠAr c
Ġcreation ist
F unny
on om
Ġ: |
most ly
Ġsuck er
Ġve t
Ġrequest ed
c ache
ĠE duc
Ġregist ration
ĠEn ough
V I
Ġinsult ed
Ġprosec uted
ad ies
Ġvir gins
Ġpet ition
ater al
Ġprov ider
Ġsm ash
Ġsk im
Ġelder ly
Ġto ps
f reedom
Ġside walk
Ġobs erved
Ġrev ol
ĠRob in
Ġimpe achment
Ġsensational ist
t own
Ġrec re
he it
ĠA FAIK
Ġout ta
Ġrepresent atives
Ġgri p
us alem
Ġsusp ended
ick et
ĠM AD
ĠTH INK
p i
Ġext ensions
Ġmar ginal
Ġbene ficial
abul ary
Ġro ots
ĠV oted
Ġevil s
int o
Ġfl aming
Ġupmod s
ĠJohn son
Ġmyster ious
l an
Ġadvant ages
in os
Ġ ??
Ġacc using
12 3
s at
Ġwh oring
Ġcr unch
Ġreal izes
Ġencour aged
Ġdoct rine
Ġloss es
Ġinevit ably
f ixed
ER T
Ġin ane
Ġintoler ant
Ġfl ipping
n G
es se
ur an
Ġgr ace
Ġatt ribute
Ġob solete
us ually
ĠK illing
j as
on a
uff y
Ġquestion able
Ġparad ox
s ize
oth s
Ġhost s
ĠCarl in
Ġth ugs
Ġexp ose
Ġped est
in ine
Ġenjoy s
Ġair line
Ġt ad
ile y
ĠN Z
Ġforeign ers
ĠIll inois
Ġoverl ords
Ġalph abet
Ġj elly
light ly
Ġrub bing
Ġtas ks
Ġmex ican
f ind
Ġun ethical
Ġveloc ity
Ġr ic
let on
Ġstuff ed
ĠChe ese
Ġexpress ions
ĠBre ak
estin ians
Ġpo inter
ch est
Ġaw fully
Ġmusic ians
ĠCon n
Ġinnov ation
Ġsh ill
Ġsn iff
Ġmid night
Ġcomp uls
ĠDamn it
ĠG it
qu ire
Ġfig uring
Ġnut rition
Ġmeasure ment
Ġharass ment
ĠA BC
Ġres erved
Ġsmo ker
s cr
ver b
Ġmin s
cy clop
c uts
Ġam use
Ġsubstant ial
D ear
Ġpl edge
Ġmon sters
ĠScott ish
Ġtit led
Ġd ensity
ĠL iving
Ġremo val
Ġmir rors
in feld
ĠR est
Ġgrand parents
act ed
Ġen vy
Wh ite
br ush
ĠR ome
Ġsch izophren
Ġy r
ĠThe ory
ĠD ig
ear th
Ġ3 8
Ġsum mar
Ġe up
Ġrem ake
Ġexper iments
Ġcontribut ed
enez uel
l ord
Ġun happy
ĠChar les
ĠY ears
ĠK ong
ner gy
Ġm um
Ġprev al
Ġl ag
Ġe bay
Ġpre view
ert y
Ġinter course
M ay
ch annel
ĠJeff erson
Ġen able
Ġcirc ular
Ġcowork ers
Ġch erry
A nt
Ġcur se
Ġcell phone
Ġrecommend ation
ĠRe ason
d ad
Ġha vent
Ġaccus ations
ĠH yp
Ġdis gr
Ġbo iling
ĠM oh
ĠSH OULD
Ġunivers ities
Im age
m ult
as emonkey
est ine
Ġsett led
Ġmanufacture rs
ustral ia
c our
pl ing
ig m
de b
The ir
spe cial
UUUUUUUU UUUUUUUU
h z
Ġint eg
Ġill ogical
Ġpartic les
Ġproduct ivity
ĠB usiness
Ġinter rupt
Ġdownload s
point s
sn opes
ple asant
ĠJava Script
all ica
Ġcom pelled
Ġaddress ing
ĠSim ply
U K
Ġc unts
Ġyell ed
ellig ence
p oor
Ġg aining
ĠH us
m un
ine jad
Ġrec o
ĠAr k
Ġgull ible
o ia
Ġtrick y
NOT OAD
T L
ĠC os
oooo oo
Ġrhetor ical
ĠG ene
ĠBl izzard
Be fore
Ġarm or
er ning
ĠB AM
Ġfil ters
G O
d rive
ĠW anna
Ġcomment er
Ġmix ing
Ġbail outs
Ġe rection
ĠCh icken
sh ire
ĠC ond
Ġret ro
al pha
ught y
Ġdem ol
Ġcollaps ed
ĠBM W
S n
ut o
Ġlo ver
Ġfin ite
Ġbott led
ĠFrank ly
a uthor
w it
Ġab road
ĠD allas
ĠDo ing
Ġs nakes
00 1
Ġsy ll
Ġdeb un
ĠB ravo
Ġ** [
ĠNet flix
Ġapp end
Ġo s
Ġele g
s al
in av
Ġd read
im ony
Ġfoc using
bur gh
Ġrapid ly
et ta
arn er
ĠDr ugs
Ġcalc ulator
em p
ĠOk lahoma
Ġth y
p oll
Ġty ranny
ev olution
Ġrestr icted
m n
gu ided
Ġtrad em
Ġassh at
d ont
Ġ7 2
Ġgal axy
Ġcompens ation
Ġdeleg ates
Ġto es
Ġsome ones
Ġstr uggling
oil er
Ġdo om
ĠG uns
!! "
aw ful
un ter
EN S
rem ely
Ġm mm
Ġwhat not
Ġunder lying
uff ington
Ġa we
Ġin box
Ġhe al
Ġfe as
Ġher oes
ĠWatch ing
z s
Ġcr inge
Ġf oo
Ġout let
Ġcl icks
Ġhop ed
Ġc ul
Ġbatt les
Ġbar g
Ġma kers
ik u
Ġjoint s
Ġ1 80
Ġconsid ers
Ġvolunt arily
RE AD
pop ulation
Ġimm ense
ĠPl enty
ĠF DA
Ġshop ped
er ving
ĠW IN
Ġreal m
Ġelect ro
ĠW isconsin
Ġunt rue
ic eless
Ġjun ior
ĠWed nesday
ĠGod win
inter pret
Ġlaund ry
br uary
estin ian
Ġhass le
Ġd ash
our ne
Ġconsum ing
Ġadvent ure
b oot
Ġt uition
Ġv ow
ĠG ear
iz able
c ulture
Ġ( $
Ag ain
ort s
pro file
Ġgoddamn ed
Aw esome
ĠA sh
Ġman ly
Ġstrange ly
ĠH it
Ġf t
11 1
Ġfarm s
Ġwor m
ĠL iter
Ġles bians
Ġno ble
ĠC rap
Ġsp okes
ys ical
C L
m c
ĠDo om
Ġbre eding
a o
Ġno ises
Ġodd ly
Ġmechan ical
ĠAl tern
Ġgl orious
Ġdefin ing
Ġcheap est
Ġd umber
ĠV en
Ġneo con
ĠR ose
St ates
ĠL ed
Ġpart ly
ram atica
la ughter
Ġun ited
Ġhost ed
ot he
th ank
Ġ5 1
Ġpop corn
ĠPat rick
am ine
ul ance
Ġdiam onds
Ġaband on
l ie
OU ND
Ġstat istical
Ġs ixt
pe are
Ġbl ink
do ch
edi ad
ĠP rivate
right s
Ġsince re
Ġsh aving
Ġgr ind
Ġab using
Ġen abled
Ġmust ache
Ġhom ophobic
eng ine
Ġgramm atical
" ;
r h
er ting
ĠG mail
ĠR ails
OO O
10 1
Ġsol ving
Ġri ots
ĠHind u
Ġw ager
al ism
ĠF TA
Ġhom o
iam i
Ġgar lic
rim shot
is d
Ġd ich
ĠHar vard
f old
oooo o
Ġident ified
ĠSpe c
Ġb unk
Ġun pro
pr act
Ġconstruct ive
Ġcr ank
ia lect
Ġcreation ists
ĠColor ado
Ġvoc abulary
h umor
Ġ umb
ans on
Ġo bey
le in
ach us
Ġcollect ing
ĠSqu are
and inav
Ġgrand pa
ediad ramatica
Ġcomp onents
Ġsupern atural
Ġso d
ĠSt all
reg ardless
ĠGold en
B ill
H aving
Ġp udd
Ġg or
for ge
Ġexpand ing
Ġshould ers
Ġbankrupt cy
Ġdelet ing
ct ic
Ġchallen ging
Ġskill ed
Ġte ab
Ġtrans mission
ĠDe ep
Ġsignific ance
m iddle
ĠM s
Ġrel at
cont rol
bab we
Ġh tml
Ġl oos
Ġoff ices
ad ium
Ġsn ob
ul um
Ġgen itals
Ġt issue
Ġa esth
Ġdown hill
Ġimpl icit
Tr ans
amm ad
ĠC lo
ard ing
Ġco ord
AS H
ropri ately
m is
Ġf ame
Ġan ch
was hington
Ġn ause
N ame
ĠAtl anta
Ġfright ening
Ġtrem end
Ġin efficient
ĠF W
ĠOr der
Ġcompl ained
Ġmilit ant
S l
S w
Ġste pped
Ġalgorith ms
Ġdispro ve
Ġleg acy
Ġremind er
ĠCh avez
t ure
Ġopp ression
IS S
Ġedit ors
op athy
ĠIn v
Ġfar ther
Ġhack er
Ġmile age
: *
Ġde ity
Ġmaj ors
C I
right eous
ys on
t ail
ĠN ES
ĠF ISA
ĠCom ing
fl u
Ġpros per
Ġp ace
Ġfl ick
Ġz ionist
Ġorder ing
Ġnet working
Ġ âĸ
pl aced
Ġprov iders
Ġsophistic ated
as ury
c urrent
p her
Ġd imin
et ers
be er
iss ues
Ġjer ks
Ġwar fare
G N
L a
k ids
Ġe rect
Ġhead ache
day s
ĠCount ry
Ġcoll ar
ain ts
c art
Ġtest ament
ĠPro ve
N azi
j s
| .
Ġr ag
Ġ19 98
b ush
work ers
HAHA HA
ag ree
Ġsl ope
Ġspam mer
ell a
Ġ: \
ĠD J
Ġro les
Ġhor rific
ĠAC LU
ĠSup erman
Ġt read
ĠD ogs
Ġsc andal
ĠOn line
oul ter
ĠID E
ra ham
ĠMo vie
Ġexplos ives
g ive
Ġtarget ed
Ġmove ments
Ġlim b
ĠOs ama
\ ))
ĠN J
ey e
ĠEXACT LY
Ġbad ge
K ind
| _
se in
ĠMil itary
Ġal pha
Ġsu cc
ĠJ erry
Ġviol ated
st ories
Ġfree zing
Ġcelebr ities
App le
Ġfores kin
Ġa kin
ar ate
ĠAs sh
Ġamaz on
ĠCS I
ĠT ext
Ġover th
Ġstr ain
Ġcup s
Ġcoun sel
ĠOp rah
r ams
Ġst roke
con spir
ĠJ S
arb on
ns fw
ĠW right
ĠH onda
Ġrain bow
Ġcro ps
Ġst ap
Ġun biased
Ġfac ility
ĠLiber ty
ĠM AKE
ĠD oc
Ġclean ed
o a
op ia
syl vania
s un
Ġart istic
pir ate
Ġath iest
Ġspons ored
ci vil
vel and
US A
ĠCons ervatives
fact s
ĠDS L
Ġm useum
ĠC ats
Ġsuff iciently
ĠS AY
Ġkill ers
AM M
Ġtem p
lib rary
c ost
g al
le tt
ĠG T
Ġref und
oph ile
Ġcampaign s
Ġvari ation
Ġchoos es
f ig
i ro
Ġsw orn
Ġtrans p
Ġhur ry
Ġpack ed
ĠSN L
ĠBREAK ER
Ġparen thes
l u
Ġfr y
ĠK eller
ex e
ĠHYP NOTOAD
g old
as ian
Ġx en
Ġmotherfuck ers
Ġfil ed
! ?!
ĠN SA
encyclop ediadramatica
Ġth ou
Ġpres um
ĠUS SR
apt ist
% ?
ĠL E
ĠDe al
ĠINTER NET
Ġt ense
ol i
Ġfin ishing
ĠL eopard
Ġpr one
Ġinc orpor
AL K
Ġreach es
Ġtrou bles
Ġsu ing
ĠE nt
Ġpract icing
Ġcalc ulus
Ã ¼
ĠP ress
Ġvalid ity
Ġm r
Ġcomp leted
Ġdivor ced
Ġatroc ities
ĠA V
itt ies
Ġclass ified
ĠSH E
c opy
Ġcomb ine
Ġic ons
Ġw aters
ĠL ot
gr and
Ġmag azines
Ġp ony
Ġover come
Ġdest ructive
Ġconvers ion
Ġpunch ing
ĠB ITCH
Ġflag s
Ġwood en
A ir
Ġs way
Ġcap ita
Ġlimit ations
Ġs ins
ĠH im
Ġde posit
Ġconv iction
Ġafford able
ĠAsk Reddit
S ex
Ġl upus
Ġinter pre
Ġcard board
Ġfur ry
IL D
Ġmar riages
Ġfound ing
Ġfire arm
Ġshoot er
Ġcapt ured
Ġf oul
ĠChe ers
ĠE ll
Ġsup erv
* :
S ub
at ible
Ġbomb ed
Ġsl ot
M I
ĠC ase
Ġro se
Ġret urning
Ġpop ulated
Ġsuper market
Ġconcl ude
Ġstream ing
c ock
ĠTh row
ĠP ix
Ġpro ps
ĠR h
et al
B el
Ġo ops
ik er
ĠIT S
ĠFort ress
_ ,
ĠSo on
Ġp ine
ĠC ore
ĠM ill
Ġpres erve
Ġmod ify
AR P
Ġt reason
ak i
Ġc u
Ġd uct
ĠN eg
Ġadop tion
E CT
n m
ĠD am
Ġch oke
Ġhand ing
Ġcra wl
Ġmaint aining
Ġy ahoo
Ġtoilet s
Ġaim ing
j ure
ĠT ony
ĠR ab
Ġtr unk
Ġredu ction
et ts
Ġcor respond
b ang
ag ues
Ġneighb our
Ġ Î
Ġdin osaur
Ġdip shit
ĠBr ain
ĠT ech
fe ed
Ġcome back
pos ing
Ġarchite ct
ĠGi uliani
' (
c ur
Ġrest art
ĠDep ression
effect ive
Ġvent ure
Ġf iance
ĠS ound
ĠJ un
co very
Ġappro aching
import ant
ĠG ib
ĠOb livion
Ġobs ess
Ġtour ist
un a
Ġcomm ute
Ġenh ance
b old
.. ?
Ġun pleasant
per fect
oc ent
Bas ically
w al
ĠM erc
ĠR ac
just ice
Ġcance led
f its
Ġrub bish
Ġprohib ition
Ġantis em
d oll
he he
ĠF ake
ã Ģ
ĠREA D
E d
et o
Ġstart up
ĠMon key
p olice
Ġfast est
Ġmand ate
B oy
Ġ[ /
ĠK KK
Ġmult ip
Ġar ous
Ġenlight ened
Ġp imp
Ġd ice
Ġbother ing
H appy
ol ph
Ġbreak er
g ium
ocr ats
Ġapart heid
Ġexperien cing
ĠPe pper
Ġaggress ion
fil m
Ġs isters
or ient
Ġtreat s
Ġcru ise
* ](
ĠC ash
Ġem issions
Ġit al
wor th
Ġnight mares
Ġsubscri bers
Ġsu do
Ġinter f
Ġknock ing
ĠNet work
ĠMont real
ĠP O
vot ers
Ġpen cil
Ġunf unny
ĠClass ic
Ġroutine ly
ĠB J
Ġcor ners
Ġsign ature
f emale
Ġgh etto
Ġthe ists
ĠU FO
Ġmeet up
s ign
Ð °
Ġso y
Ġpron unciation
Ġbet ray
Ġethnic ity
ĠPoke mon
ĠS uck
Ġdon key
Ġbu ggy
Ġstand point
Ġeng aging
Ġdim ension
Ġpop ping
bt nG
b h
ĠSe a
. ]
Ġvag inas
Ġmurd erers
en cing
Ġfl our
ĠMe anwhile
Ġhistor ically
doc ument
B ull
Ġweek ends
Ġ ugh
if ty
Ġk etchup
Ġban anas
st on
Ġparan oia
b ible
Ġmess y
ĠNever mind
ĠBuddh ism
ĠS olar
Ġcons cience
Ġexp on
ĠPr incess
ĠLiber als
f aq
ing ers
et e
ĠWil son
Ġcon not
, âĢĿ
R o
Ġpart ition
Ġ4 4
ĠSw iss
Ġgri ef
gt fy
Ġjo hn
Ġfert il
EA L
Ġl uc
Ġgeneral izations
oll and
Ġrevers ed
A p
Ġargu ably
ĠS AT
Ġg em
ot ype
ĠO ri
Ġsign als
ĠJose ph
bo at
Ġbang ing
( (
ĠD exter
ul ates
Ġcon cede
Ġaw ait
Ġspoil er
Ġpar aph
I r
Ġadv is
Ġch imp
Ġsecond ary
ĠM J
We b
Ġincreasing ly
ĠNorm ally
Ġrebut tal
!!!! !!!
Ġextrem ists
Ab out
E l
ber ries
Ġinstall ation
aff e
Bl ock
Ġso re
Ġr ay
Ġbelie vers
cl ock
i ary
w indows
ĠChrist opher
ĠAn onymous
ĠL ake
Ġfundamental ists
Ġpurs ue
Ġnipp le
Ġaut ism
mad inejad
asphe my
ĠF ather
Ġfin est
Ġaff irm
Ġd y
Ġbl ond
AA A
Ġiss ued
Ġmass ively
reg n
r ance
um ph
Ġexpect s
ĠST D
ain ted
Ġro d
Ġdestro ys
ĠOdd ly
j i
ĠC z
Can ada
ĠAngel es
asc ar
Ġassist ance
r us
ĠC and
Ġbl iss
a verage
Ġcl iche
ĠC itation
Ġind irect
Ġpar ade
Ġweek ly
Ġfantas ies
Ġeconom ists
Ġwilling ly
Ġfresh man
ĠCont rol
Ġoblig ated
Ġtex ting
Ġstead y
w ired
Ġl amp
Ġcomm ission
BR EDDIT
k ia
ĠL AN
Ġcommit ment
ĠScot land
Ġinvolve ment
Ġwitness ed
Ġreco very
al ph
Ġdist ribute
ĠHard ly
Ġh ier
Ġsk ipped
e at
Ġrad ar
Ġsecret s
Inst ead
Ġkey boards
Ġdisappoint ment
Ġm alkovich
Ġfree zer
Ġfemin ism
Ġcabin et
o ved
ent ation
ĠF ear
Ġatt ach
Ġvers a
ĠNE W
ĠNeed s
ac ept
Ġtrans it
ĠPhil adelphia
Ġtheoret ical
d n
ĠM ouse
ony ms
Ġintellect ually
Ġgest ure
Ġre hab
ud ic
cl osed
Ġent itle
ĠRel igious
P age
Ġprev ented
me aning
Ġhair s
IP AC
ĠGRE AT
i em
ĠH enry
ĠB ond
Ġint uitive
Ġel oqu
C O
Y ep
Ġg uts
ĠS ug
Ġperce ive
Ġfe ces
Ġread ily
cess ion
Ġinj uries
Ġbul b
an ity
ap id
ĠCommun ist
gl obal
Ġdies el
Ġwhe at
z b
ĠU C
ge bra
Ġm ash
the less
Ġgl ue
ĠSU BREDDIT
Ġdisp ens
/ ](
pro ve
akes peare
Ġpo ker
n old
Ġref riger
bl ood
k g
ĠAl cohol
ĠZe lda
Ġcha os
O IL
ens ional
oll ah
Ġaccept ance
Ġexecut ives
Ġruss ian
r t
Ġsh aking
Ġthr u
e asy
Ġc udd
ĠAl t
Ġcreat ivity
iny l
Ġsan ity
Ge orge
think ing
Ġparagraph s
ĠN uke
Ġpass port
Ġbureauc r
Ġth ieves
Ġover look
Ġmanip ulate
ous y
ĠBe autiful
Ġpass engers
Ġridic ule
Ġgr ams
j ango
s ave
Ġinter fere
Ġpedoph iles
Ġorient ation
t oday
Ġf usion
mo ve
B ODY
h im
t ight
ĠF und
Ġword ed
Ġforb idden
Ġdesc end
o king
Ġsk i
;_ &
p up
ĠW AT
ug en
Ġinflu enced
n el
ĠB ILL
Ġsp anish
Ġcreation ism
Ġpuzz le
at hing
Ġ[ ...]
Ġhack s
Ġprinci pal
Ġconfirm ation
C ause
Ġc ured
Ġch arm
Ġdis par
ump ing
Ġprob able
Ġman ages
ast s
Ġprom ising
Ġproced ures
mor on
U se
Ġ 00
Ġfear s
g ie
or an
Ġhor iz
Ġtour ists
Ġgo dd
Ġindic ator
achus etts
ĠD NS
ĠV iew
Ġcop per
Ġpsych iat
ĠU hh
Ġreg ional
ĠQ aeda
ĠSer ver
Ġst unning
Ġwall paper
Ġapplic able
it ating
ĠR ape
Ġres et
Ġisol ated
ĠB a
Ġmouth s
Ġdeliber ate
S W
EE N
ĠGo v
E ver
Ġp int
Ġelect oral
was hing
Ġprior ities
ĠDes ign
Ġinspir ation
Ġsh aft
Ġindust ries
det ail
r ise
ĠO riginal
qu ery
ever al
for mer
ĠSpe cial
Ġque ue
Ġf uss
ĠQu ake
Ġrepet itive
ĠO C
Ġby tes
Ġpick up
Ġobs erve
Ġnud ity
Ġfranch ise
% %
P T
d in
ep y
ĠVict or
; [
Ġsur rend
Ġdog ma
Ġtext book
ĠVi ol
u ction
ĠT enn
Ġris ky
Ġconcept ion
ĠP ure
Ġstamp s
Ġph p
cons ervative
Ġmanip ulation
Ġm ormon
pen is
` .
ĠJ OB
Ġdev ast
Ġconstit u
Ġp ope
int erest
Ġsc out
Ġstupid est
++ .
il a
ab ortion
get ting
ĠStud io
! ).
ĠCons ervative
Ĥ ¬
Ġtort uring
ĠBur ger
ic ians
form ers
ircum c
h it
Ġafter ward
Ġhum ble
Ġpat ience
polit ical
Ġsatisf action
Ġret ract
b irth
ĠS ign
or ance
Ġgo ats
ell o
Ġcontribut ions
ĠCra igslist
Ġglo ves
Ġramp ant
) **
Ġthe sis
iss ors
Ġub er
re le
ĠP age
Ġdam ages
Ġfacet ious
ĠV enezuel
ĠBr other
Ġb isexual
ĠCre ation
Ð ¾
ven ile
ib les
Ġexpl ore
Ġpsych opath
t ri
Ġy er
Ġpr iceless
ĠSt ick
Ġcons ists
wor st
ĠWay ne
elect ed
Ê ĩ
ĠN uclear
Ġr umor
Ġb unny
Ġp df
Ġd ialect
ĠW tf
dr ug
H ome
â ĺ
Ġre install
Ġa int
it age
ĠM L
Ġcl oth
port ed
Ġthe ist
im ps
Ġinvest ments
Ġimpro ving
Ġpix el
Ġre de
Ġfeas ible
y ers
Ġm ant
t xt
ĠN ap
Ġbelie ver
gy h
H z
t ub
ĠA www
ĠS ucks
Ġf lee
ĠY EAR
Ġfl ipped
lo om
ĠDe vil
Ġanecdot al
O C
Ġthere of
mo on
ĠAs ide
ĠOr well
ĠPr oof
Ġfurn iture
ĠJ am
ĠFriend s
ĠC uil
Ġdictator ship
Ġprejud ice
ĠPff t
Ġh ers
ĠB att
Ġpre aching
ĠHow ard
the w
S ay
l est
ĠAd minist
Ġscreens hots
Ġwash ed
p owered
ĠT uring
ĠF oot
ĠG ary
Ġw olves
Ġbefore hand
Ġins ensitive
Ġfeed s
m ach
Ġma ker
Ġsp ouse
So cial
0000 0000
Ä ±
ĠB irth
ast urb
pro du
Ġsl ack
ĠUp mod
reg ular
Ġpoison ing
o vers
Ġret al
Ġcrack ing
ion ed
Ġfr inge
Ġmoder ators
Ġins inu
Ġconvention al
Ġref lex
Ġbur nt
r ows
Ġmom s
Ġcamp ing
US H
Ġmad ness
ĠJer usalem
g ary
Ġw aving
Ġp m
un ned
ĠP ass
aff le
Ġresident s
Ġdomin ant
Ġv ine
Ġhand les
Ġstraw man
Ġpatch es
Ġfel ony
ĠE th
Ġco erc
ĠRog ers
L i
gl as
p it
ĠO UR
Ġgener ator
b d
st y
Ġtr ace
ĠProt ip
ĠMont ana
Ġprofession als
Ġoffs pring
Ġl itter
A dd
or us
Ġattract ion
Ġlegit im
Ġpark ed
Ġp wn
ĠM aine
ĠG re
Ġunw illing
P ut
ĠC OD
ay ed
Ġsp ine
Ġlic enses
Ġinher it
P olice
ĠG ordon
ĠBr ad
Ġm ccain
ast a
mob ile
ĠD LC
Ex actly
G ET
In ternet
Ġble ed
Ġbub bles
plan es
ĠL ead
Ġdivers ity
Ġs lee
Ġun stable
Ġwrest ling
empor ary
Ġfoss il
- $
m ans
ĠH onest
ad get
ĠS ans
cept ive
ĠPh ysics
Ġclar ity
ot ine
Ġ| âĢ«âĢªâĢª
w a
ĠTh ing
ĠL ock
Ġremember ing
Ġcertain ty
Ġe ll
Ġadvertis ement
ĠO tt
Ġteaching s
Ġsac red
Ġcourt esy
Ġsam ples
Ġwa ist
Ġb ake
ic er
ath om
Ġ5 6
ĠTW O
Ġn iche
Ġav ail
Ġextrem ist
ĠMr s
Ġâ Ķ
Ġw icked
ĠY O
ĠB anks
qu ote
Ġign ores
Ġdi verse
Ġar abs
Ġdef ence
ari os
ĠFant astic
ill ance
ĠC opy
s ure
le arn
reddit s
arth y
Ġtom atoes
l on
Ġmed s
Ġre levance
ĠT itan
Ġgr ateful
Ġsustain able
att ed
ĠPro gramming
ul ative
Ġlog s
Ġcrowd ed
Ġcalc ulate
m om
Ġtarget ing
Ġtele phone
ay lor
ĠG IF
ĠL HC
** ?
Ġoblig atory
Ġdig est
l ength
ĠT ower
ĠE ric
Ġauthor itarian
P IC
rac ist
icular ly
O pen
thing s
Ġass ured
Ġtall er
p n
ĠC oulter
og g
Ġdistract ed
Ġsh aved
II I
Ġrepresent ing
ĠDown load
ĠPol ish
Ġslipp ery
ĠAn imal
ĠH o
Ġspect acular
Y o
m id
P ar
Ġse ctions
Ġdesign s
ĠH ilarious
pe at
ort on
Ġcle ared
ĠGo vern
atter ing
Ġdream ing
Ġcontr acept
Ġpig e
Ġquant ity
Ġemp athy
ĠWr ite
Ġorang es
Ġtradem ark
P e
Ġha mm
ol as
Ġmisunder stand
Ġembr ace
r ators
an al
ang ered
Ġhome page
ĠAust rian
Ġs ooo
ĠP helps
= _
Ġe ager
ep le
Ġtroll ed
ih ad
Ġabst inence
Ġwork place
uff le
erv ation
pres ident
Ġafter life
ĠĠĠĠĠĠĠĠ ĠĠĠ
ĠCo ast
p ur
Ì ¡
on or
Ġresult ed
Ġporn o
ĠUs er
ĠBoy s
Ġe Bay
ĠS cheme
ou bt
ĠT ruly
Ġv icious
be e
HT ML
Ġjew el
Ġintegr ated
ct ive
og ging
Ġatt ended
Ġpy ram
Ġcowork er
Ġg oo
ro gen
ĠG ri
Ġcr ude
Ġw ishing
ĠP ull
ĠEx per
ĠO T
Ġconsider ably
Ġdiv ine
Ġy ards
ra it
ĠAm sterdam
Ġst iff
ĠTH C
Ġwish ed
sl ow
Ġbra kes
r idge
Ġpick y
Ġback ward
Ġbar rier
Ġdisappe ared
ĠH ear
asc al
ĠGn ome
S cient
Ġunt o
Ġprim itive
M ain
u ating
ĠI RL
ĠM ON
Ġac comp
Ġspec s
Ġweigh s
ĠPh oenix
Ġfilm ed
ĠWH ERE
Ġlock s
Ġsho vel
ĠIdi ot
b f
J ews
ing en
Ġp ing
ĠN FL
Ġag ric
ens ical
ĠCh ron
ĠKe ith
ĠH ilton
wr iter
Ġmer ch
Ġs ans
Ġcle aring
Ġaccus ation
Ġun informed
ĠLI VE
et tle
ort ure
Ġopp onents
Ġdrag ged
ĠDef ine
b ash
c n
Ġl ynch
Ġ1 10
Ġlaws uits
Ġenter prise
Ġback yard
ym es
th s
opin ion
ĠE rr
Ġrem arks
S igh
ĠSimps on
Ġcondem n
ĠDe bian
b ard
Ġj azz
Ġcan cell
Ġscre ams
ĠGr ay
)) ))
Ġgig s
Ġbog us
am iliar
Ġann ual
Ġspeech es
F R
ri am
Ġlibertarian ism
Ġinstr uments
ĠPri ze
ĠPOL ITICS
Ġallerg ic
j ohn
Ġest im
act ions
Ġover head
Ġtw ins
p d
or ant
ath on
Ġsm ear
Ġcoll ected
Ġshort age
Ġprocess ed
R ay
s ic
ĠPolit ics
ĠS pr
Ġmiss es
br and
Ġess ence
Ġintrigu ed
Ġrhy me
Ġha il
atic an
t uce
Ġse ct
Ġdis rupt
Ġsatisf y
Ġportray ed
Ġp pl
Ġk armanaut
Ġshut tle
show thread
Ġwip ing
â Ĺ
av i
cript s
Ġ3 9
ĠMur doch
p ix
Ġse iz
ĠB O
cl ub
ĠBet ween
ĠGand hi
b itch
Ġsp ont
esh it
Ġto pless
Ġbr ag
Ġrece ipt
Ġmarry ing
H E
it ivity
ĠO CD
Ġmoment um
Ġacqu ire
h aha
OU GH
Ġscient ifically
Ġmodd ing
b ars
Ġsal aries
au ge
ĠINS IDE
j esus
in is
Ġal beit
Ġeth anol
w on
eg a
a ired
ĠC row
ĠArt icle
Ġdod ge
2 64
an i
Ġbe gun
he ld
ĠC art
inf oil
m i
Int eresting
N R
ĠM uh
Ġquiet ly
h app
en h
ĠJ O
Ġmoder ation
Ġme ga
lm gtfy
Ġassess ment
Ġcham ber
f ake
â Ī
Ġg er
bt w
ĠCom edy
ĠDep ending
Ġtrait s
d ies
Ġ19 96
A c
Ġp u
Ġp ent
ed e
ĠT aco
U nder
m etic
co vered
l anguage
Ġdown s
Ġdefin es
Ġpack aging
Ġjud ged
ĠB it
ial ity
Ġap ocalypse
Ġfrust ration
Ġrein for
d ouble
udd en
ĠA x
em en
fe atures
pro blem
Ġsn ip
F ORE
N ING
ĠM mmm
AR K
ĠIran ians
Ġintrodu ction
it les
Ġroom mates
Ġpredict ions
Ġgentle men
Ġmanufacture r
E urope
ar ity
Ġsc al
, -
an ches
Ġarr ang
Ġencrypt ed
Ġ4 9
Ġsk ate
Ġcap abilities
pro per
Ġpat ron
ry ing
Ġreb uild
Ġgre ase
ateg ory
ĠE ye
Ġstereotyp ical
h aving
Ġj an
Ġas sem
Ġex empt
Ġadvoc ates
Ð µ
Ġout fit
Ġlist ing
Ġdign ity
ĠS ears
ĠAl pha
S L
Ġdri ed
ĠCon st
add ons
ĠA IPAC
ge x
Ġen sl
ĠFl oyd
Ġcontin ually
Ġtoler ant
Ġgen etics
Ġant ib
ĠMin ister
omb ies
cle an
Ġtool bar
Ġrecommend ations
Ġmal icious
Ġc av
Ġy ah
app s
Ġadm its
re tt
ro ve
ĠB ird
ĠZim babwe
W E
Ġsocial ists
Ġsuspic ion
Ġglo be
ĠV ent
Ġpast a
Ġpre y
Ġsl apped
Ġblow jobs
Ġ4 7
Ġret ort
Ġdiagn osed
Ġdo ck
ĠMac Book
Ġf aked
es que
Ġat oms
1 40
s ometimes
Ġcan dle
ant an
li hood
ĠGree ce
cept ions
conspir acy
d ar
ad vert
pl at
unk y
ĠâĢ ĺ
ĠJ ar
ĠV A
Ġ= &
OR D
Ġquot ation
us c
Ġne ur
Ġv ile
Ġsur ge
Ġconst itutes
ĠPort al
WH AT
3 50
ĠA DD
Ġexpl oded
Ġstat istically
reh ensible
Y R
Y et
c ot
om as
ott o
1 80
Ġins ignificant
Ġdist ant
Ġparticip ating
heart edly
Ġc ater
Ġmis guided
Ġsmart est
ĠPenn sylvania
th odox
Ġpl ague
Ġsh ady
Ġun conscious
Ġdent ist
U G
Ġread able
f ur
Ġcan ned
in cl
ĠFurther more
Ġdisag reement
ĠR ub
c u
f org
Ġre con
Ġre vel
Ġst ability
Ġli ars
ir ting
ĠH ay
Ġdisplay s
Ġsyn c
d ick
Ġm uff
ĠBr ook
Ġcoll e
pir acy
Ġs anta
ri ans
ĠM AC
De ath
ĠCru ise
Ġv andal
Ġpe el
Ġnecess ity
Ġclim bing
Ġpop ulations
ĠSp art
Ġpee ing
Ġcott on
ll ll
int ellectual
Ġpr iced
ĠFr ont
RRRR RRRR
ĠRom ans
Ġpart icle
Ġabs ent
ĠNew ton
ĠLuc as
Ġtri gg
ott le
ĠAr rested
Ġbog g
Ġm int
ic ol
Ġthr ust
Ġb ol
Ġpain fully
Ġcapital ize
ĠEd ward
Ġrid es
S cience
c ens
aaaa a
pan ic
S how
Ġd ots
ust rial
Ġfr uits
Ġstr ap
Ġreport ers
Gu ess
ĠEngine ering
i y
ĠK irk
Ġsat an
ĠIron ically
or ous
els ius
f our
Ġcoll eg
Ġca uc
app ers
b one
Ġprom inent
TH ER
Other wise
sh rug
H itler
p ython
Ġr aging
Ġsens es
n ar
im um
ĠC urrently
ĠF ish
Ġ1 40
Ġmatch ing
Ġhall ucin
Ġeurope an
Ġloo ph
Ġfuck tard
Ġconf isc
cor por
g ue
Ġmer its
Ġaddict s
it em
ĠTh under
ĠLet ter
Ġout lets
ĠG eez
ĠSe infeld
ĠMet allica
âĶ Ģ
Ġconce aled
ĠTHE IR
comm unity
exist ing
ĠCom ic
liter ally
Ġdich otomy
Ġf arts
Ġtechn ological
Ġprom otion
Ġman ifest
Ġimm ortal
abet es
m ess
Ġcould nt
Ġsup rem
ĠEx press
Ġpriv at
Ġhit ler
ĠB EST
ES E
Ġb s
fr ame
ĠFe bruary
e ast
Ġmat t
ĠAr gent
ĠQu est
r ained
ou ps
Ġc iting
Ġcap ability
Ġri val
sh ort
Ġfl ower
Ġin hab
ĠO ooh
Ġsqu ad
Ġrob bery
christ ian
T B
c ong
h ips
ĠP arent
ĠR SS
Ġri gged
Ġang el
Sup er
ĠT ai
ĠHA PP
ĠCommun ism
Ġdisrespect ful
mil itary
ĠT ob
ĠJ ul
ĠR andom
Ġ5 000
Ġlim iting
Ġw ink
Ġanarch ists
Ġisrael i
Ġcycl ists
Ġbas ics
ĠSy ndrome
M od
d umb
Ġprin cess
Ġunicorn s
ĠR IP
ddit ionally
ĠAl ready
ĠAd v
Israel i
Ġd oo
ĠN BC
ĠP and
Ġover t
Ġ4 3
ĠOb ject
unt il
Ġdisturb ed
MM MM
Ġpubl ishing
âĶ¼ âĶ¼
, *
osh ock
n l
Th ats
Ġ19 70
Ġover load
Ġcont empl
Ġdes ired
Ġgather ing
Ġjur isd
: -
Ġcraz ies
ĠT E
ab ol
ĠL arge
Ġmeas uring
ĠMark et
Ġric her
Ġdam aging
Ġmer cy
Ġreck on
ig ible
Ġfail ures
rup ting
Ġgall ons
Ġa qu
Ġthank ful
ĠComp any
def ined
ĠAp art
Ġcloud s
AN CE
all ed
Ġst ro
ĠD rive
Ġenjoy ment
Ġhandic apped
W A
Ġa ids
Ġd ivid
Ġbandw agon
cyclop edia
R uss
k u
Ġch arts
ĠL egal
Ġover sight
Ġupgr aded
aren cy
we igh
Ġid ol
Ġcy cles
Ġwild ly
Ġtransl ates
Ġs ushi
ĠO wn
yn es
Ġade quate
P ER
ĠSh akespeare
Ġrespect ful
ĠRog er
Ġdis son
Ġsl ur
Ġvamp ires
ĠGW B
Ġb od
Ġcrack s
Ġp as
le graph
ĠJ FK
comp et
Ġupload ed
Ġcoun cil
r l
er os
ons ense
Ġcons ol
Ġins ure
Ġpred iction
Ġad jective
En joy
Ġw are
Ġso dom
Ġmis ery
ĠAd block
Pl ay
O ld
t age
it is
Ġl asers
Ġfl ames
ĠGod s
Ġcompil ed
w o
Ġg ib
Ġhealth ier
Ġmid get
Ġun ders
per ial
Ġdiscipl ine
Ġsh itt
Ġstart ers
Ġdec r
Ġtri l
Ġpreval ent
re lla
ĠB ee
Ġrecurs ive
Ġvig ilant
I ran
Ġap es
Ġlaugh able
Ġ verse
ĠShe esh
ipp ers
ĠPh illy
Ġobject ion
ĠC oc
ĠD ouche
200 80
gu ardian
Ġvirt ue
v ict
Ġl udic
Ġmo squ
ĠP o
Ġpro claim
Ġur anium
Ġclin ic
ĠT ea
ĠPr ison
Ġfisc al
os ph
Ġprogr ammed
me an
ĠPut ting
ĠSc andinav
Ġexcl amation
Ġpl asma
cr ime
add on
Ġlegit imately
y i
th ats
Ġacc um
the ory
Ġvis its
Ġqual ities
Ġle ct
Ġbr ands
ody nam
ii i
own ers
Ġscen arios
doc s
- .
H el
Ġwh ales
Ġext inct
ĠL ow
ĠCor rection
Ġeditor ial
ĠAnsw er
G ot
J ack
Ġy og
ĠTh or
Ġv ic
Ġch rom
ĠK os
T ot
ĠS us
il k
Ġpil ots
ĠKent ucky
re esome
ĠB itch
ĠR od
ĠMass achusetts
M ark
Ġdown side
Ġstat ue
Ġtax ing
Ġwater boarding
f g
ater nity
Edit ed
Ġmis repres
Ġrevolution ary
Ġalleg ed
ĠHaw king
C II
ĠMon ty
ĠLouis iana
e ating
Ġpar liament
pro cess
t ell
Ġst aged
ĠE sc
ĠAr ound
antan amo
ĠF red
ĠF CC
col or
Ġvulner able
ĠA G
ne ys
Ġhaz ard
il bert
Ġsepar ated
ĠGen esis
f em
Ġli b
Ġmed al
N P
Ġas inine
Ġany how
Ġmiscon ception
Ġcry stal
Ġexplos ive
im ag
Ġnews letter
Ġat least
Ġun cont
Ġred ist
ĠWor king
ugg age
D C
et ris
Ġst ub
erv ices
;. &
Ġcontrad iction
ĠThom pson
it ant
ĠM O
Ġimp ose
AR S
Ġve to
Ġhypocr ites
Ġreferen ced
ĠH ang
ky o
ĠGl en
uct ose
Ġsla ught
K n
it os
Ġl ousy
he ast
im me
Ġall ey
Ġag greg
Ġadvert ised
Ġg oose
Ġflex ible
Ġth under
Ġm s
mo vies
Ġsc ored
Ġautom ated
Ġexplan ations
Ġfif teen
an im
Ġas pir
ĠK arl
Ġfre el
ION S
Ġimmig rant
le ans
Ġ5 2
Ġdefin itive
ĠX en
Ġloud ly
ser ious
Ġprosec ut
h ind
Ġclass room
Ġunivers ally
Ġdecr iminal
Ġl am
port ion
ed on
Ġpri ests
Ġtrave led
Ġprosec ute
H ard
ĠAs soci
Ġcr ab
Ġtend er
ĠUs ed
Ġcontact s
ĠKn owing
ĠC itiz
Ġcit ations
ĠAuss ie
ĠSoci ety
Ġh ose
ĠE gg
Ġneed le
Ġfat ty
IG G
d c
ĠB ing
ĠF ollow
Ġ( [
ah ren
Ġtrend s
ĠN ev
Ġcomp ressed
Ġtal es
ins ide
ĠSp ir
Ġju venile
Ġeup hem
z o
se a
Ġli z
ĠN ut
Ġcharacter istics
Ġtap es
Ġmanufact ured
+ %
ar on
ĠD u
ĠL ED
aph one
Ġconc erning
Ġprosec ution
Ġrend ered
Ġpropos ition
\ )
r ade
ist ed
Ġwor ms
it ness
Ġfault y
Ġsequ els
Ġcond one
Ġpassion ate
Ġsovere ign
d ling
ĠD OS
comp lete
arb or
kill ed
Ġdefe ated
Ġdiscrimin ate
ĠAut o
Ġgro cer
Ġb onds
op ping
Ġdepart ments
Ġpros pect
project s
ĠCont ext
Ġloy al
l ost
ĠMo zilla
Ġsh ith
Ġr anks
Ġup modding
Ġentire ty
oint ed
ĠThank fully
Ġstalk er
ĠO ften
ĠF lying
int eresting
Ġpoint ers
Ġcor ps
ĠT ool
ff iti
Ġfront page
amp shire
Ġinf uri
che m
Ġbra ke
sn c
mag azine
ĠCle ver
Ġmonopol ies
Ġcan e
Ġbarbar ic
Ġs q
ess ica
play ing
b ound
ĠD EA
ann ers
Ġhop eless
poss ibly
Ġse per
Ġloc ally
Ġfund ies
Ġdest ination
Ġcirc uit
spe ak
Ġprep aring
ĠElect ric
S ec
Ġw ired
Ġbe am
Ġpay pal
man n
m ony
s pl
Did n
Ġsett lers
= %
ĠE M
Ġke en
Ġfa ux
iz ers
in ers
Ġst oner
ir a
iv ist
Ġ6 9
OM ET
en c
as ms
res ent
ĠBrit ney
D ep
Ġcomm as
Ġbas eless
Ġhair cut
gen eral
ĠP NG
ab l
Y ES
Ġf ib
ĠCare ful
Ġredd iquette
O bl
c ube
Ġun armed
ĠV on
Ġsl am
Ġuncle ar
psy ch
W est
b ath
m akes
r ised
s burgh
33 33
v m
Ġmat rix
ĠUn cle
yl an
E VER
ad ows
te am
Ġtrack er
Ġbroad band
ĠTerm inator
G old
r ace
ĠN er
10 4
Ġassign ment
ĠR iver
Ġcapital ization
ĠLeban on
Ġst ing
Ġthem es
Ġ6 000
ĠWor se
Ġfac ilities
Ġsen ators
ĠFre ud
Ġtermin ology
in ch
Ġp ap
ĠS agan
Ġno one
we ed
Ġmiss ions
Ġrest ore
Ġform ats
H uh
ou ri
Ġrel i
Ġsmall est
++ ,
instant rimshot
w ave
Ġl ions
ĠH ooray
ĠR unning
Ġcat ast
Ġsun light
ĠP red
200 1
i ated
l r
ĠN atural
Ġover r
Ġarrog ance
d ouche
em ing
ĠU PS
Ġbr idges
Ġview er
ĠV ader
Ġfix es
==== ====
Ġempir ical
Ġco ach
act ing
ĠBar r
ĠCle veland
Ġâ ĺ
Ġcous ins
ĠS pring
Ġro de
Ġgrab bing
ĠBel gium
Ġphotograph s
d one
ĠT itle
st airs
ul k
Ġres olve
ĠKing dom
l os
ĠF orm
law s
Ġlobb ying
I LE
Ġt ant
ĠF DR
ĠR ad
arg ument
Ġhoriz ont
r ar
Ġqu ery
ĠK FC
yl on
Ġbe an
ĠT A
Ġcar n
Ġeconom ically
ĠAh madinejad
Ġpean uts
Ġph il
rop y
Ġdismiss ed
F in
Ġres ur
Ġreci p
idel ines
ri ved
In ter
ĠLe ague
j u
Ġbomb ers
aze era
Ġg at
Ġsh red
Ġdown right
ob viously
Ġprem ature
Ġpo etry
Ġ19 95
ĠFuck in
ment ed
Ġste pping
ĠLe on
Ġhack ers
o q
Ġdisson ance
r ina
v v
Ġm edit
Ġcleans ing
T orrent
ot iv
Ġ40 4
Ġpron oun
Ġtri als
ĠNE WS
Ġna ughty
Ġslog an
w i
ĠCh ief
Ġmust ard
Ġste als
Ġoptim istic
Ġartic ulate
Ġpr icks
ĠAnd erson
Ġcrit ics
Ġdev s
Ġconsum ed
Ġ^ ^
M Y
ag ina
ab ling
Ġstri ps
d ote
Ġd ang
itt orrent
Ġgl or
ract ion
Ġstri pper
be en
Ġaccount ing
coll ege
ĠEduc ation
is se
ign ant
ES US
Ġsens ation
arr hea
Jew ish
Ġm un
Ġro be
umb ling
ĠBuddh ist
Ġtun a
T om
th ra
Ġoff enders
CT V
h aw
ĠM iller
Ġvert ical
, _
Ġpast or
ĠWH EN
best of
Ġp es
Ġaccording ly
Ġnons ensical
IS E
Ġchristian ity
sim pl
d k
Ġdo in
Ġli ability
ĠThe res
wwww wwww
Ġl uggage
Ġn y
ĠRE P
Ġmal ware
Brit ish
Ġbab by
Ġfirm ly
f oo
Ġc attle
ore an
br idge
F urther
Ġd ar
Ġcasual ties
ĠZion ists
or thy
Ġon ions
Ġdec or
Ġt ac
ĠM illion
In s
Ġver ified
ĠUnivers al
et ed
d ict
es see
Ġart if
au ce
ĠFore ver
Ġt urb
ĠN ancy
Ġout er
Ġplace bo
Ġinvest ors
Ġbrief ly
ĠFut ure
| |
ĠAn arch
th ood
ĠAnd rew
gr ounds
uff s
Ġprodu cers
Ġpriv ately
ĠHus sein
L P
Ġhe ars
Ġtotal itarian
Ġvan illa
W ay
Ġre ception
ĠR yan
Ġpol itely
Ġsettle ments
Ġamb ulance
L ets
r c
dd y
Ġdi agram
Ġp uke
ĠN ation
ĠF resh
ort ing
ther net
ĠH O
ĠB ET
Ġline ar
Ġfeature d
Ġcruel ty
he l
ĠSup port
ahren heit
Ġb atch
Ġconflict s
Ġa hh
ll ed
ig ers
ain able
?!?! ?
Ġanarch ism
g f
Â ®
ĠM ale
Ġbelie vable
Ġcle arer
fess ional
ĠPac ific
Ġconfig uration
Pres ident
Ġgu ests
Ġste ep
Ġpurch ases
Ġfreak y
ĠGold man
Ġassault ed
bro ken
ĠB or
ĠJ edi
ner y
yn man
ugen ics
h oles
ĠL uke
Ġflight s
Ġsurve illance
re qu
om n
Ġme xic
Ġappreci ation
Ġded uct
Ġacqu ired
Ġf apping
ag gers
ĠRe ality
Ġadm ission
Ġ# ##
f ant
Ġ[ **
Ġpol ish
uu u
Ġencour ages
ĠAlbert a
ĠT em
ĠO oo
Ġcopyright ed
h p
ad der
Ġall ies
Ġcorrect ness
ĠHE Y
Ġannounce ment
Ø §
Ġch airs
Ġfilm ing
ĠMin i
Ġcateg ories
Ġdram atically
200 3
Ġverb al
ĠISP s
ĠG ate
ĠCan on
Ġmath s
Ġder og
b ury
ĠB ros
Ġmac book
plan et
Ġunreal istic
Ġlou der
m and
Ġv ital
ĠL as
Wh atever
Ġpal m
Ġiron ically
Ġdoub ts
lin er
product ive
Ġth ier
ĠC ant
Ġun install
Ġdisapp roval
Ġgee ky
A V
ine e
Ġback pack
or p
Ġf i
ĠC ock
Ġlo vers
Ġlight ly
Ġamaz es
Ġnar whals
nn nn
Ġast on
ĠMil k
Ġs ap
ĠT el
op oly
Ġreview ed
ent oo
Ġby pass
." )
Ġdri ft
Ġcol ours
Ġinflu ential
Ġconsens ual
Ġth resh
Ġm ute
Ġsw ed
Ġnotice able
Ġdump ing
j ew
Ġbus es
ĠIS O
k id
p ol
ĠN ik
ĠP OS
ĠF ark
Ġpar ks
Ġsimpl istic
liv ious
ĠMur der
adv ant
1 60
Ġp awn
Ġdeser ving
Ġscript ing
G M
w ash
Ġw ires
ĠS ummer
Ġj ourney
ĠF TFY
Ġcomp osed
ch ester
Ġv ar
Ġscroll ing
Ġv inyl
amm y
Ġban ner
ĠHob bes
st asy
Ġblog ger
Ġw oah
Ġm pg
Ġcere mony
m edi
Ġw ield
am us
Ġhe ating
ĠF ried
it ement
ĠT PB
ĠS V
co on
af ety
Ġrh ymes
n u
Ġp ans
es sel
ut ral
Ġpro phet
Ġtrans action
Ġfish y
Wr ong
d iv
post s
Ġobserv ations
ĠMOTHER FUCK
ers ion
Ġanec dote
g re
un ivers
Ġtr ump
ĠDown mod
ĠA verage
Ġcatch y
ic ian
Ġkn uck
ile mma
Ġadvertis ements
er ated
ĠAr nold
G uy
Ġre posit
ĠC atch
Ġthe e
in put
od ge
off ee
sec urity
ĠUh m
Ġcann ib
Ġviewpoint s
ĠN ature
Ġcompet itors
Ġlay ers
person al
b out
Ġb ip
Ġopp ressed
Ġeleg ant
Ġb ounce
Ġabsor b
U C
Ġ19 50
ĠDan iel
ĠH ampshire
Ġcl ich
we ird
Ġz ion
Ġtrad ed
ep pe
ĠSt ore
T oday
o i
Ġh ub
Ġshe lt
Ġve ctor
Ġlab our
Ġmean ings
sh ots
det ails
Ġgr ape
ĠSt uff
AN GE
Ġpir ating
Ġf ad
ĠS arcasm
oc ke
Ġsl ander
Ġappe als
Ġmo ist
Ġlike lihood
ang ar
Ġac com
ĠOb ligatory
Ġdri vel
Ġunlock ed
Ġgimm ick
Ġatt ending
Ġm it
Ġdet ected
at se
rist ol
ĠS afe
wik ia
form ation
Ġth irst
ĠS HA
ach t
ON S
Ġshell s
Cle arly
" -
D avid
Ġto dd
Ġ1 60
ick le
Ġbur gl
() ;
t ouch
re ements
ĠC e
Ġcool ing
ĠPro per
Ġapolog ist
WH ERE
em ail
Ġthere by
Ġres ign
Ġside ways
M AN
e lection
Ġan k
st icks
Ġdis ability
p red
Ġbas ing
Ġinter ven
Ġfag s
ve t
Ġdr ums
Ġsl oppy
Ġpar se
ĠR ow
ĠUS E
Ġfire wall
ĠSocial ist
Ġ 000
Ġf iat
Ġbl ades
ang s
ham mer
Ġal as
Ġtril ogy
* (
Ġc roc
ag ra
ĠF al
Ġhun ger
S F
Ġ19 97
Ġredu ces
iche ver
Ġtoss ed
Ġle ech
Ġmay or
Ġcar riers
Ġsur plus
cons ider
west ern
Ġhorrif ying
\ (
m at
ke ley
Ġgo ver
ĠJ ob
Ġlet tuce
Ġbo ats
Ġbene ath
ĠJud ge
Ġfilter ing
eppe lin
d ark
Ġal ign
Ġstar vation
Ġconcent rate
Ġreput able
Ġon going
Ġda wn
ĠMar riage
h uge
ott om
ĠDem on
l ier
ĠS everal
ĠC ub
UL T
Ġruss ia
Ġd vd
ver ages
ĠBE FORE
redd iquette
ĠD ata
def ault
C are
ĠD in
ĠD B
ĠAl b
Ġsk irt
epend ence
Ġgn ome
ĠH ARD
conn ected
Ġj ab
gg ies
GG GG
Ġl anes
; -
P art
ipp y
Ġcommod ity
ĠW oo
Ġup coming
Ġfr at
Z Y
ĠAustral ians
ĠA ff
ast ard
ĠJ ason
ĠX D
Ġsent iments
ĠStall man
Ñ Ĥ
Ġb ans
ĠF IRE
Ġshare holders
Ġreb ell
Ġlicens ed
Ġextraord inary
Ġde emed
Ġstumb led
udden ly
ag les
ĠP ants
Ġpo king
Ġsup p
Ġrespect able
ĠY e
Ġsl ipped
Ġlicens ing
Ġl id
ĠGu ide
ma jor
Ġpropos ing
Ġoct op
Ġh ind
le m
Ġex ch
Ġv aries
Ġmom my
** ](
Ġsc issors
av ailable
Ġreg arded
Ġesc aped
Ġdict ate
Ġhott est
D AMN
Ġby e
ĠChe m
Ġpatri otic
Ġw ider
ig en
Ġmark up
Ġconstruct ed
Ġre ass
ink le
atch ed
Ġpicture d
yth m
cre ate
j p
Ġtreat y
Ġmasc ul
L ear
v or
IC H
ĠSpe ed
D et
Ġo z
ĠP ur
ul pt
Ġret ain
ĠAS CII
Ġshr ink
ĠNAT O
ĠC ute
ĠThanks giving
Ġmod em
Ġcalc ulations
Ġtemper atures
ĠDef ense
Ġatom ic
I di
b ands
v ar
Ġhe mp
Ġdes cent
Ġgl itch
ĠTR Y
Ġgl oss
2 10
h t
CK S
ĠDie go
ĠW ords
old er
Ġcra ve
Ġped ant
Ġdim ensions
vid ia
Ġvine gar
ĠS OMET
Ġcan adian
Ġscient ology
Ġang les
ĠCre dit
ĠMiche lle
T er
ĠG rey
ort ality
Ġdis ingen
Ġcr us
Ġdeb ts
Ġuns ure
re k
ĠI C
Ġdo pe
ĠR us
ĠV alley
AT ED
ĠZ une
ĠInc red
count ry
ĠEconom ics
B Y
Ġo d
ĠR C
Ġunder rated
Ġwal mart
ential s
Ġtex as
ĠBB Q
am ples
ft fy
Ġent ities
Ġform ing
Ġsecret ary
Ġopt ical
ĠSpe ak
C ar
ood le
Ġsub urbs
Ġ4 6
Ġadv ances
16 8
ĠAdminist ration
ĠH int
Ġrel ies
ĠHitch ens
m os
le an
ĠT X
Ġbl end
ĠLeg end
ĠCost co
Ġt infoil
ĠP OST
Ġsal ute
ĠH S
Ġde voted
ĠG as
ight s
own s
Ġfriend ship
gg it
ĠRe f
ĠWOR LD
d ney
ep ic
Ġtri pping
dom in
IR ST
Ġscrew s
Ġphysic ist
Ġnigg ers
s outh
Ġs om
Ġv ouch
ĠL anguage
eg o
ĠConn ect
ut ical
ul hu
ins on
Ġdrag ging
ĠNo v
Ġbr anches
Ġche f
Ġsuck ers
H uman
ĠL inus
ĠE aster
ric ane
ĠHA HA
Ġhide ous
ĠProt est
v ably
Ġle aked
Ġprodu cer
AR Y
amer ic
ĠĠĠĠĠĠĠĠ Ġ
Ġswitch es
Ġtheoret ically
Ġentitle ment
Ġtem ple
Ġattribut ed
Ġsqu at
Ġachieve ments
conf ig
W R
e i
exp ensive
ir ite
ant um
ĠF AR
msn bc
Ġgoof y
U ntil
ven ge
ĠL ame
Ġsp here
aby tes
Es pecially
Ġm ates
Ġprom oted
Ġderog atory
Ġ !!
ĠGO ING
ĠF ig
de ep
hhhh h
Ġstri king
Ġradio active
ĠCz ech
in able
Ġch ronic
Ġtab oo
Ġtherap ist
ĠB le
ĠR MS
ss et
ner d
ĠGr oup
Ġfoot print
ache lor
Ġmonit oring
o ft
Ġc el
ĠL en
ĠJ oke
gr ow
AT S
Ġveget able
Ġjer king
bul b
Ġw oo
Ġj est
up iter
Ġch alk
Ġinsect s
D ay
W HA
it ious
Ġover re
Ġ: '(
Ġh og
Ì ¶
ig a
ĠWh oops
att ies
Ġexplos ions
P olit
Ġb ind
Ġp ond
Ġinter section
Ġburrit o
d im
st ring
st ration
au x
F OR
sh ield
Ġsadd est
Ġ .....
ic us
id ate
ĠSmall talk
* -
P rot
Ġsh at
ĠF aith
IC T
Ġgam bling
ĠS ingle
uls ive
Ġunatt ractive
Ġr idd
Ġmet e
dis play
Ġsubst ances
v l
ĠD D
Ġsp aghetti
Ġdr astically
oun cil
Ġreve aling
H istory
ill egal
il ver
Ġexerc ising
d ue
r anted
ie val
Ġopp ressive
ru ctor
Ġomn ipot
T E
Ġs que
ĠSe ason
i ating
ent ing
Ġve in
state ment
Ġshar ks
Ġsched uled
Ġt aco
ĠS leep
Ġint el
Ġcr uc
Ġunder water
tot ally
and o
ĠBe ach
Ġboss es
am l
Ġ: ]
Ġf og
Ġske wed
Ġmel ting
A tt
ĠH omer
Ġdon ating
ĠL at
Ġrab bits
Ġgrocer ies
h um
Ġst igma
ĠB alt
ĠF ast
ĠL em
office worker
S C
Ġre write
ĠB AB
ĠN inja
ĠEp isode
ĠM ic
Ġde gr
Ġqu itting
per haps
Ġfire fight
Ġplug ged
umm ary
OU NT
ĠCH R
Ġrum ors
Ġdolph ins
ĠP BS
ĠG oog
olic y
Ġdisgu ise
g as
ĠN aw
ol k
ol ver
Ġusern ames
Ġcig ar
ĠS ER
ĠW oman
Ġfr iction
Ġch ubby
ĠComp ared
we alth
Ġworld view
udd y
É Ĳ
Ġth reesome
ĠW i
ĠO LD
ĠHe brew
Ġduplic ate
Ġli able
ĠLog ic
d ream
s f
re levant
al ien
ĠF er
art en
Ġed ges
roph y
Ġster il
c ross
und ancy
With out
ĠC her
Ġgr in
Ġdec imal
Ġmulti pl
r f
Ġto ken
ĠEx ec
ĠSte el
source forge
ĠD iv
ĠF ro
app arently
Ġspec ified
Ġdebun ked
ĠC ounter
Ġincomp atible
ĠS onic
Ġout weigh
ĠK urt
Ġtalk in
ĠAfric ans
Ġconven iently
f alse
UU U
Ġapproach es
ĠSome where
Ġrap es
ĠAb raham
V OTE
ĠD ew
ry s
Ġad ul
Ġamuse ment
T ING
Ġse vent
Ġshit head
ipp i
ro se
ĠF IN
ĠL EG
Ġgu id
Ġpre fers
Ġcent re
Ġunf amiliar
whe el
ĠLeg o
N one
du de
Ġborrow ed
Ġexagger ated
c id
Ġde pos
Ġcy ber
ĠAnt ar
Rel igion
mel on
f ew
Ġb rill
Ġgrav y
bows ki
Ġingred ient
Ġanonym ity
ĠC irc
Ġconf uses
Ġimpro per
Ġselect ive
aud io
Ġumb rella
d ifferent
Ġre gex
if ics
ĠY ellow
ĠJ P
Ġcomp ute
ĠS ick
Ġir an
Ġcatch es
Ġmortg ages
wolf ram
H g
Ġs sh
Ġo x
ap top
Ġmat urity
Ġtab lo
âĸĦ âĸĦ
sh udder
Ġnew ly
Ġbit es
ĠOr gan
Ġearth qu
ĠMa her
con ce
Ġdef ect
Ġbreak down
Ġcancell ed
ro e
ob by
Ġass igned
att ers
Ġcrit ique
c isely
ĠL isa
ev idence
Ġstere o
Ġpod cast
Ġeconom ies
Ġlock ing
ĠANY ONE
Ġcateg or
Z ING
ul ing
Ġathlet es
? !!
Ġfl ickr
Ġswe eping
t om
ĠT arget
ĠB omb
ilos opher
ell e
ĠSim ilar
Ġrant ing
ĠProfess or
D N
F ull
Ġpl acing
Ġqu iz
Ġtheat re
orient ed
R ich
Ġm oose
un ate
ĠL ater
act or
net ic
post er
Fr ank
= /
ct ica
ĠP aint
pe ak
s ing
Ġg inger
Ġsent ient
ien ced
Ġviol ations
Ġconsist ency
Ġlaz iness
ĠA th
ĠC as
ual ity
AB LE
12 4
ĠEr m
tra vel
Off ice
prising ly
Ġgot o
Ġlad der
ahah ahaha
ĠTe en
web ster
Ġarch ive
M or
Ġth igh
Ġpe as
Ġpaper work
Im ages
Ġre wards
ĠD IE
ĠF iction
ĠJ ane
bl ah
ĠPl aying
ĠWor th
ĠKn ock
Ġcheer le
Ġderiv ative
V ideo
ĠH OT
Ġlun atic
Ġwithdraw al
Ġm ars
ĠC ou
Ġvis a
Ġ0 8
Ġmaint ained
Ġthresh old
m ax
me at
ĠInteresting ly
Ġ xt
ot yp
ĠH olland
Ġcow ards
Ġveget arians
Ġp izz
ent ertain
Ġcan non
gr ammar
ĠPA UL
ĠId ol
plat form
el and
Ġparent ing
Ġaf rican
Ġcontract ors
Ġunw anted
ĠC ars
Ġi p
Ġwr it
ats on
\_ \_
Ġparad ise
ibl ings
r uns
s ound
ĠS a
ĠRem ind
Ġhorm ones
Ġludic rous
t rend
an z
th ur
Ġint act
de al
ace utical
ail and
Ġa is
Ġapp ropriately
Ġleft ist
ĠCon an
Ġcens oring
Ġremem bers
Ġintoler ance
b ps
Ġair planes
Ġwitness es
C at
J ava
Ġn an
ĠP ast
Bl ue
G erman
Ġse aled
Ġdou ch
Ġconst itute
ĠMcC arthy
Ġprefer ably
ĠCEO s
Ġhilar ity
Ġp ardon
Ġto aster
Ġsu ited
Ġmac s
Ġtheor ists
Ġdifferent iate
Ġdark ness
Ġsac rific
ĠTrans lation
Ġacceler ation
ĠTai wan
in ism
Ġb ounds
ĠH ung
Ġman aging
Ġdis ks
tm nd
Ġpurpose ly
Ġbow ling
us a
Ġpedoph ilia
Ġq gyh
od er
Ġsc ales
Ġmis interpret
ĠIns urance
C all
à ¤
Ġb iblical
ĠAl ong
Ġsur geon
roll s
Ġden om
? ),
h yp
ĠB ald
Ġrun time
Ġcorrupt ed
Ġb aking
id i
Ġtouch es
Ġdisingen uous
um ns
ĠG iving
ug ly
Ġdoc s
fin ite
N on
Ġch unks
Ġpos it
Ġcompl ains
Ġvill ain
lif ting
s d
ĠA le
Ġ8 8
Ġmush room
d ain
ĠA k
Ġag g
ne x
ĠMyth busters
amp h
ogy ny
Ġadvertis ers
ĠHero es
g ots
p are
ĠB uck
ĠO ak
Ġremark able
C ool
r ays
re ll
Ġch lor
Ġsucceed ed
Ġincompet ence
Ġeleph ants
ar ia
ĠH al
ĠM I
Ġres ub
Ġdr ool
ĠZion ism
: -)
W in
w ars
al ready
Ġsc hem
Ġsch ol
k ish
im ov
ĠM ount
ĠM iami
ĠDe an
5 000
at ile
pr on
HHHHHHHH HHHHHHHH
H y
as ive
ĠM ays
we e
Ġ4 1
cr u
Ġcommun ists
Ġproport ional
out ine
roph es
ant is
um per
ell ar
ĠV atican
Ġbig ots
ĠAn al
Ġdel uded
Ġcast le
ĠSh ock
Ġappro x
Ġres erves
Ġfact ories
Ġspl ash
72 15
F reedom
p id
Ġg ears
ĠB ase
Ġconf ess
Ġinter webs
ĠMar ines
sup posed
Te chn
Ġdrown ing
Ġc uil
ĠE D
Ġreg ions
ĠSc ots
ĠPent agon
Ġo lymp
Ġsh rooms
tr ust
ĠSN ES
ĠG a
ĠDist rict
Ġshith ole
L iber
âĢ ¢
rac ial
Ġnarc iss
as ia
Ġle ar
Ġsp otted
ĠK iss
Ġvol cano
ĠSy ria
Ġcolleg es
ĠB art
Ġdel usion
m ont
as el
ĠD iam
verse ly
Ġwack y
Ġmutil ation
ĠP ow
Ġexpect ation
Ġinnov ative
ad ition
ĠO WN
ob ject
Ġpur se
Ġoccup ying
cre dit
ĠD ylan
Ġlo gging
Ġcomment ers
Ġapp et
Ġlif ting
ĠJ esse
Ġdis put
There fore
ĠHT TP
Ġsim ulation
IS M
t ip
Ġthe aters
ro cious
mer riam
ach s
Ġdes ires
Ġmed ian
Ġhyster ical
% )
r ots
ĠD anish
ĠV ice
Ġrot ten
Ġ ????
Ġj ets
ĠSt orm
ĠKe ynes
ĠCo ca
Ġinsist ed
ĠIgn ore
Ġpl anted
Ġdemonstr ates
un ion
Ġdi abetes
Ġcent ers
Ġwaste ful
Ġfemin ine
ĠEnter prise
er als
UP ID
ĠDou glas
ĠU g
Ġmin es
Ġcur b
pic able
Ġpy ro
ĠC V
ĠP ER
Ġmis use
Ġgren ade
D a
ĠW el
Ġfr iday
ne ck
Ġmechan ic
Athe ism
s ol
at io
Ġm ama
Ġf athom
Ġtempor arily
Ġplag iar
1 200
b ank
Ġst adium
Ġvide og
Ġdress es
Ġre per
Ġfr uctose
Â °
Ġp airs
ĠT ried
ĠJ ournal
Ġmin ing
A bs
Ġste alth
ĠSilver light
Ġconver ting
T op
c reen
Ġin effective
Ġsh am
Ġ4 000
Ġroll er
ĠThink ing
Ġsymp athetic
Ġhe aling
Ġen list
ĠSt raight
St upid
Ġf are
Ġsur real
Ġinter rog
ĠMe aning
Ġinject ion
Ġnot ing
ĠWh ole
act ical
G irl
ĠH OR
ĠC ur
rib es
Ġflo ors
Ġcompens ate
I AN
J A
it ur
ak ota
ĠSt ock
reg ulation
Ġdraw s
Ġgrad ually
Ġtrend y
ĠStand ard
Ġm im
ĠB I
Ġsubm ar
mod el
Ġcapital ized
Ġ25 6
Ġprompt ly
spec ific
D AY
ĠTrans formers
R ock
g p
bl ance
e er
ĠH op
ĠD or
Ġr ails
Ġweight s
Ġremark ably
l ash
Â ·
Ġcustom s
Ġinspir ing
s ug
Ġhe ath
Ġhe els
Ġsub conscious
Ġfort unate
mitted ly
2 20
P oint
ac us
ĠG h
ĠDr ink
âĻ Ł
Ġindepend ently
ĠIP A
Ġtransp arency
ĠNev ada
' !
v ana
or ange
X T
Ġt ro
ĠF ile
ĠF ool
Ġlol cats
ĠSC I
Ġf ills
ĠH an
ivers ary
Ġsubsid ized
as so
ĠC RA
ĠD AY
It em
Ġest eem
st s
st reet
Ġr oo
end y
Ġeff iciently
Ġsol ves
ĠCor p
Ġspons or
Ġsuic idal
p icking
ĠS FW
ass y
Ġstri pped
Ġsubsequ ent
3 20
ed el
ĠP ack
IN S
cr ow
Ġcol ony
!!! **
Ġinterview ed
Ġreact or
Ġbrack et
ĠTenn essee
f iction
Ġin b
Ġsh er
ks h
Ġsl ick
Ġdeb it
ĠGu itar
gun s
Ġround ed
MA O
Ġhij acked
Ġassass ination
ar in
ĠR U
igh th
ĠAgain st
________ ________
ĠWA IT
Ġw ard
ĠR udy
ff ic
Ġborder line
t ic
Ġre lying
ĠD uck
Ġcon qu
Ġli l
ĠH ugh
ĠM itch
ere my
Ġbeg s
J o
Ġa ired
ĠB al
ĠTh rough
Ġrem ix
C ode
b uster
Ġd ive
Ġhor rend
ĠGen ius
ĠCOM MENT
Ġdys lex
or ate
ĠM icro
ĠO THER
cr ast
Ġcash ier
Ġkidn apped
Ġm ixt
ĠA RM
gg les
Ġgl ow
Ġcompet itor
ĠDr ug
apt or
Ġloy alty
et a
ĠC up
ĠC GI
Ġne uro
Ġsn ack
ĠForg ive
ĠCamer on
Ġrespect ing
ĠWar ren
Ġmanip ulated
omp ous
ĠOB AMA
ĠHe art
NN Y
Ġplug ins
ĠBre aking
ZZ ZZ
ĠâĻ «
ĠAst ley
Ġveg ans
e as
ĠA qu
ur assic
od s
Ġres c
ĠSl ow
T hing
on ers
em ption
ĠOr leans
Ġz e
ill as
umb ing
IT S
Ġtechn o
ĠCry sis
ĠLew is
ĠP oll
Ġun ins
ish es
amp oo
ĠChurch ill
N or
p ig
in vest
ent ions
Ġob livious
ĠAM D
Ġtear ing
Ġtre k
mem e
i q
Ġit unes
In c
ĠMat hem
? !"
Ġel igible
ĠPl ayer
Ġdom inated
Ġsmile y
O s
Ġpl z
ĠAll ow
Ġfu els
W ere
Ġw idth
ĠT reat
Ġab uses
Ġgo re
Ġimplement ations
script s
! ",
s ays
Ġth ri
it ol
ar se
am y
ĠC elsius
ens ed
Ġmay o
Ġunc ertain
Ġcr ust
Ġsl ides
Ġreason ed
Ġaccident al
ĠWar ning
Ġcelebr ating
ur ai
lo ving
ĠRe qu
Ġep id
ĠGovern or
m arijuana
n ish
ĠS ong
ĠC CTV
go es
Ġincident s
F ed
s ix
ĠH ans
Ġcan on
ah h
Ġ19 92
Ġvend or
l en
ĠS ud
mar riage
ĠHy per
k arma
Ġcompar isons
R ec
ĠL ine
Ġher itage
Ġfact o
ph en
Ġnit pick
ĠN HS
ĠP i
Obl ig
fuck er
ĠGu antanamo
Ġdemon stration
Ġghost s
n k
Ġb f
Ġpr icing
Ġgramm atically
S outh
us able
if ully
iss ippi
Ġcommun ications
ĠSp ot
Ġsav vy
Ġinfl ated
Ġweak er
Ġsat ir
ĠMar ine
Ġsyn th
an cer
ill ary
Ġspec ifics
ĠPl ace
Ġmot ives
OP E
ros pect
quis ition
t im
ĠJ e
Ġpr agm
ĠMac book
ĠST Ds
Ġimplement ing
Ġexam ine
Ġcheese burger
ok ay
Ġreve als
Ġal gebra
ĠMe et
b ourne
Ġd ental
Ġappe aring
ĠCal iforn
Ġdecl aring
S er
ĠH ip
Ġtri bes
Ġremo ves
ĠFrank lin
Ġrank ed
Ġno d
Ġcomp ly
St art
ĠHA D
Ġrein force
Ġby te
Ġoff line
Ġem ulator
Ġl icking
st an
oo bs
Ġstr ang
Ġdi arrhea
equ ality
Ġdipl om
s id
s ent
in ue
Ġf ier
ment ioned
ĠBl ock
t ick
ĠS SD
up date
Ġbr u
du le
Ġlat in
Ġoverwhelming ly
Q Q
h ug
Ġb a
Ġsurpr ises
Ġration ale
ge oc
Ġgener ating
ĠComp lete
bet ween
Ġhe x
Ġresearch ing
ĠP UT
ĠG I
ĠBl ow
sp oken
onic a
Ġrev ision
Ġbound aries
Ġdispro portion
Ġd um
Ġsl ash
ĠBE L
b anned
j ail
z he
ĠT alking
ch art
ĠF err
Ġaut istic
Ġdick head
Ġactiv ists
avor ite
ed berg
Ġdec ency
RE N
Ġsuff ice
Ġprotect s
Any ways
ĠBudd ha
Ġsho ved
Ġnostalg ia
Ġl ub
Ġdis belief
ba um
Ġnom inate
Ġgig gle
ĠSmo king
Ġ ×
Ġh ay
Ġl ust
Ġair lines
Ġknowledge able
ad gets
mer cial
per form
Ġnew est
Ġcal ifornia
ĠCr ash
Ġlaunch ing
ĠD er
Ġall y
Ġsup press
Ind eed
ut ies
ac cess
ĠA uthor
Ġsympt om
st eal
âĢ ĵ
Ġenfor cing
r ison
pe e
Ġquestion ed
cr ap
Ġliter ary
ĠVenezuel a
B o
Ġent rance
Ġpresent ing
Ġintrodu cing
ĠPict ure
f aced
Ġfav ors
Ġoutlaw ed
ĠSUCK S
C AR
om g
Ġend e
ĠRe place
P s
Ġst ew
ck ing
Ġbit ing
ĠQ uran
ĠRes earch
Ġwheel chair
cre ation
fm t
zs che
Ġor chest
Ġcalc ulated
Ġpoke mon
Ġlear nt
ome ver
ĠB illion
Ġimp erson
Ġcoll abor
Ġorig ins
Ġflo ats
Ġcoward ly
Ġb isc
Ġj izz
th ulhu
ĠY eh
ĠR ES
ĠR achel
Ġmon oc
16 00
Ġspell s
Ġâ Ī
ĠRand all
g age
ĠT NG
Ġ* [
Ġsne aky
ĠDU I
in ness
ut en
Ġmor bid
ĠWood s
Ġdub ious
h ating
Ġne p
Ġpo em
Ġprohib ited
Reg ardless
Ġf als
le ph
ĠD ang
ĠG A
ĠAll en
iet zsche
Ġcow boy
Ġcongress man
s ong
ed ience
ĠC ab
ĠV S
Ġ~ $
" &
F ace
M s
M ad
Ġw ii
Ġd ug
ĠP s
Ġde ms
ĠLa ugh
h ands
Ġs iblings
ĠM obile
Ġqu ir
Ġdown voters
Ġsp ying
Ġmet ro
Ġfut ile
Ġretal iation
Ġre ign
Ġcra ving
Ġrespect ive
Ġcrack er
st raight
ĠW ERE
ter min
Ġbr agging
t ag
ĠY anke
** !
Ġ19 94
ĠP ract
Ġthing y
Ġfin es
br own
Ġlength s
Ġbuff er
Ġouts our
ĠB ale
Ġm m
Ġl ending
Ġhand writing
Ġ10 80
OT US
Ġcru cial
Ġmas ks
ĠSpec ifically
ĠC OULD
Ġkid ney
ĠPresident ial
M ichael
b ri
ro le
ĠR ing
Ġpos ing
Ġdark er
h m
Ġinst ruction
Ġwhole heartedly
Ġsyn onymous
Ġappoint ed
ess im
ĠO cean
el se
Ġfl op
Ġ9 00
ĠRon ald
ĠBi oshock
Art icle
g on
s izes
qu otes
ĠE qu
uff alo
Ġcritic ized
Ġadjust ed
n um
ograph ics
Ġpoly gam
F e
R ob
j k
j ug
es ar
.. "
Ġk ettle
Ġcr ushing
oll ocks
Ġd or
cr imin
Ġ15 00
L o
O per
Ġk udos
ĠGib son
Ġeuphem ism
ĠW OO
Ġind ul
ivid ually
viron ments
ĠSpe ars
char acter
Ġanch or
Ġsurrend er
ĠSOMET HING
s kin
Ġel bow
urn s
bl own
Ġwin ners
t able
Ġc ries
ust ry
Ġpr ince
Ġwait er
Ġinter ference
ĠInternet s
Any thing
Ġreflect s
Fire fox
t ree
ĠC AP
Ġhead er
Ġseg reg
c aps
ft y
Ġrent al
ĠN U
Ġv alley
COM BO
Bull shit
Ġf ps
ĠT ype
ĠT aylor
ĠP oe
Ġ* (
Ġdes irable
ĠOr acle
Ġver ification
Ġw rench
Ġh itch
Ġo v
Ġpay ed
az ed
Ġstraight forward
Ġcho ir
Ġbathroom s
Ġun rel
Ġ5 3
exist ent
L aw
ĠW ON
ĠP ap
Ġdet ract
Ġmod est
Ġrecogn izing
prot ected
qual ified
; âĢľ
X P
p ath
Ġh edge
ĠR TS
ĠE ating
me al
Ġdisgr ace
Ġ ](
Ġclass ify
Ġcry pt
ser ver
m agic
Ġfor ty
Ġne c
Ġup wards
Ġche ers
ier d
Ġhome made
do ors
ĠKore ans
Ġtas ers
Ġt ame
Ġt ennis
ĠN W
Ġph osph
Ġdisplay ing
Ġimprove ments
Ġye ast
th reat
ĠB aptist
ong er
ree ze
ĠV oting
Ġsuper ficial
Ġpsych otic
Ġpl acement
ĠST UPID
Ġlif es
kn owing
Ġembarrass ment
Ġupgr ades
Ġadmitted ly
p ain
ĠH ands
Ġun natural
ĠU T
Ġcomp ound
ĠV irtual
Ġcult urally
Ġest imated
Ġreprodu ction
Ġspout ing
ĠN AR
ap pl
em o
Ġun ix
Ġman eu
Ġeconom ist
Ġhuge ly
Ġchallen ges
Ġunint ention
h mm
ĠF ew
Ġweb page
Af rican
l ucky
Ġin ept
ro ot
Ġv as
!! **
gr ammers
E nd
in als
Ġun do
ie ce
oy ager
Ġtremend ous
Ġb er
ĠS K
ove red
Ġtruth s
Ġprint ers
RR R
ĠCra ig
b ud
Ġrot ation
at omy
Ġnot ch
op ic
Ġnom inee
ĠSl ashdot
ir vana
Ġat rocious
ĠWe ek
Ġrot ate
ĠPen is
j sp
k ick
p rivate
at us
ell ed
Ġpre tt
oc ated
Ġrel ating
ĠGU Y
Ġexpand ed
ĠFe ynman
2 40
Ġinvestig ating
ĠBREAK ING
Ġresem ble
Ġbureaucr acy
Ġno es
Ġsit com
Ġmis informed
Ġexcl ude
Ġt id
Ġch arming
Ġ19 20
ĠBlack water
neg ut
C oll
m eth
fer ably
Ġweird est
Ġprocess ors
Ġshame ful
Ġmer ge
Ġgrill ed
Ġcongrat ulations
ish ment
Ġpub ic
Ġgang s
call ing
V iew
ab c
Ġz ones
Ġinfl amm
Ġuns afe
ĠD X
ven ue
ump y
Ġmyth s
Ġmo dule
Ġgr an
Ġintegr ation
Ġl enses
Ġ1 30
ĠAnd y
Ġpublic ation
Ġup hold
Ġchop ped
Ġclown s
Ġwhist le
Ġg ur
ĠN ations
ĠF an
Ġfl ashing
ĠUN IX
Ġwire t
educ ation
F TA
S y
st a
ĠH EAD
res ults
cuss ions
act ual
Ġdis connect
Ġdef lation
Ġball oons
Ġped obear
ĠSpe lling
Ġreci pes
Ġfulf ill
uccess ful
zb ollah
Ġpract iced
Ġang els
Ġsimpl est
Ġstab bing
mus lim
l iving
Ġbest of
ĠSh adow
Ġloc als
sc reens
Ġexpert ise
Ġconfront ed
u i
ro d
ab ble
ĠF ahrenheit
ĠJ essica
Ġbl and
Ġsp ike
ost ics
Ġpast ed
Ġden ies
B uy
Ġcreat ors
Ġexc itement
sn iff
Ġast ounding
rug ged
Ġ=/ =
G ee
f ashion
r in
Ġre phrase
ĠG reg
Ġsp ill
Ġbo ils
Ġdescri pt
O LL
g mail
q q
ĠS ab
arm y
Ġref rain
Ġdisc s
Ġjurisd iction
Ġwrong s
Ġtest imony
net work
Ġconc ise
cent er
Ġpositive ly
Ġl y
ĠH at
ĠC ell
ĠD une
nt y
Ġmon o
0 11
Ġdev al
Ġsem icol
Ġrational ity
Ġwh im
Ġrec ount
Ġopp ress
Ġoccur ring
ĠP earl
Ġma iling
Ġn est
Ġwho lly
pt on
Ġri gor
erg arten
Ġartific ially
I raq
ĠNo kia
Ġfall out
ĠBon us
m pg
ĠB ach
Ġsp ice
Ġatt itudes
Ġshut ting
Sad ly
Ġve ggies
Ġâ ī
K ing
j e
Oblig atory
M ust
h ance
t il
Ġen vironments
Ġprint s
ĠNuke m
! ),
B acon
S ch
Ġ9 3
rem ember
Ġdistract ion
a un
ĠR alph
Ġaw ards
Ġrespond s
Ġmedic are
** "
gu ide
terror ist
d l
qu ite
ĠSam uel
Ġster oids
Ġdispos able
ĠT I
ĠC reed
Ġtr umps
omet own
Ġacc ord
Ġhuman e
aut y
Ġmid west
Ġdeliver ing
) '
S k
Ġval ve
Ġcost ing
Ġport al
Christian ity
Ġdiscour age
V C
un ction
Ġplay ground
Ġche ering
Ġviol ently
Ġhe li
ĠP U
so ld
uff er
Ġtri be
ex ec
onna ise
ĠPres umably
ser ies
ĠIdi ocracy
P erson
s ci
wh ats
ĠSH UT
Ġmathematic ian
d ogs
Ġwh it
Ġim ho
ex as
Ġlist ens
l ined
Ġit ch
Ġor ph
ĠAre a
ĠCl aus
St ay
ĠEr lang
Ġven ge
omet ry
sh all
Ġsub urb
Ġtext ure
vi ets
Ġflav ored
bay img
Ġration ally
Ġincons istent
p ast
y tmnd
Ġ ll
ir us
ce ans
Ġro gue
Ġide ological
comp letely
ĠCT RL
ĠD rop
ĠK oran
ph il
Ġwait ress
Ġdom inate
Ġassist ant
he e
Ġsw ords
Ġsort ing
TH AT
Ġcoerc ion
p ull
Ġsl apping
Ġsurv iving
ĠPitt sburgh
pirate bay
c f
Ġr aining
ast ika
ĠBl og
Ġfrag ile
Ġst ale
sh ift
Ġsub urban
ov o
Ġt ension
Ġh ills
Ġn anny
ĠC rit
Ġsp itting
Ġsm ashed
Ġk inky
Ġprivile ges
Ġtel esc
H ot
M in
st ock
Ġorg asms
Ġcontradict ory
Ġslic es
act ica
.... "
Ġexp end
Ġrespect s
ĠChe ap
Ġorigin ated
Ġassert ions
E arth
ong ol
Ġshow ers
Ġsens itivity
Ġf irms
Ġg auge
Ġand roid
C or
P ict
g asp
ĠC OME
Ġmeant ime
Ġpub erty
Ġsettle ment
f ting
f illed
ĠO w
Ġcor rel
yr us
J oe
st ab
ĠD uty
Every body
ONE Y
ĠO x
ĠJ ESUS
Ġoff set
ĠAd Block
ĠSE X
trans late
Ġbarg ain
ĠP unk
Ġdon uts
int ers
iant art
Ġdolph in
it imate
ĠH unter
ĠF arm
ah m
Ġb inding
ĠT own
ĠC offee
Ġcl utch
ĠBl ame
ĠRO FL
ĠFW IW
Ġo ve
Ġv est
Ġmans laughter
Ġgat hered
l as
m ode
Ġle ver
br is
Ġexpos ing
Ġvag inal
Ġmock ed
ĠS avage
Ġam end
raw l
ĠAS AP
Ġpatriot ism
Ġre read
ap olis
ĠF E
Ġint ake
ĠCom ments
enn ifer
Ġcy l
Ġnut jobs
it ous
Ġnut job
ĠAS P
Ġslic ed
ĠArgent ina
Ġent ropy
Ġtast ing
Ġsmell ed
ĠRead er
Ġcompos ition
S ur
Ġsoci etal
Ġdis advant
Ġreward ing
c ry
r ange
s aid
Ġhe ated
ĠM AY
ĠB order
ĠO z
Ġgood bye
Ġresearch ers
ĠPolit ical
p owers
Ġh ater
if ference
ap ore
try ing
washington post
Ġd ur
Ġnot ation
ĠCh ocolate
ĠIn cluding
Ġfalse ly
ĠSoul ja
N ah
n one
Ġm und
ĠT ER
Ġoff ending
Ġsc ulpt
unt ed
ĠCl int
Ġtrave lling
Hope fully
Ġgo sh
ĠMe at
Ġphenomen a
ĠPri us
Ġproceed ed
ĠBM I
Ġaccom mod
Ġ !!!
ĠC ro
Ġus ability
Ġca fe
Ġsort ed
Ġlift ed
ĠB ol
ĠB oom
Th ree
Ġche wing
Ġind is
Ġattack er
Ġted ious
ay a
ĠD ow
Ġpro se
Ġint ensive
cont inu
Ġeye brows
Ġswear ing
it as
Ġsent enced
Ġdraw ings
Ð ¸
Ġsc ram
ma o
la ugh
H ouse
Ġh alo
Ġsh ine
ant ing
Ġv ain
ĠE ss
vel t
Ġprefer able
ĠBS G
Ġdistract ing
ĠEV EN
Y E
Ġre name
el ed
Ġbo oth
Ġ18 00
Can adian
Ġmagn ets
ĠT AKE
ĠM oss
ig nty
Ġtr uther
Ġvari ant
Ġvari ations
Ġtrad itions
Ġcontact ed
Ġinconven ient
cot ting
B aby
ow l
gr oups
Ġpun dit
atter y
ĠLe bowski
rap ol
Ġpee ve
Ġreject ion
Ġrom ance
Ġorient ed
lest ar
s ounds
ist ing
Ġsh apes
Ġv essel
ook y
Ġlob ster
Ġeng agement
ĠAMERIC A
i ors
l ift
Ġfire works
ĠSol id
Ġaster oid
ĠAF TER
fol io
mur der
Ġpengu in
H mmm
c ute
k os
ar o
ĠM IL
Ġar mp
Ġfashion ed
Ġgall ery
ĠFound ation
L ET
Ġh ollow
Ġab omination
ĠO thers
Ġmass age
Ġsymb olic
. ).
Ġp ompous
RE SS
Ġweb cam
ĠLaw s
Ġregist ry
Ġow es
l ose
pro gram
Ġtrans m
ĠACT U
eto oth
Ġmete or
c x
Ġs essions
Ġhold er
Ġident ifying
MB ER
Ġnin jas
Ġbrack ets
Ġshould nt
Ġph ilosopher
ĠApp les
ĠLike wise
Ġenthusi asm
ĠCHR IST
st ates
ĠC unt
Ġent ries
Ġind ividually
Ġl ime
Ġre semb
ap edia
ge o
ĠWH OLE
Ġobsc ene
fa ith
ĠLiter ally
a ires
Ġh ulu
Ġst oring
ĠG iant
Ġmiss pelling
ĠTe ach
Qu ery
entertain ment
I B
j j
Ġm arty
Ġch ron
Ġtw ent
Ġexper imental
ĠInst all
Ġreward ed
Ġâĸ ²
Ġan ten
Ġbe ams
Ġtw ilight
Ġnote book
Ġvisit ors
Ġl est
ĠG E
Ġart work
Ġspl itting
Ġrecycl ing
/ -
M om
V ES
p ayer
Ġn ug
ag u
el a
Ġpal estinians
B re
ĠM un
ah o
rop es
Ġmess enger
aff les
Ġmoder ately
Ġfo am
D ead
z i
Ġor b
Ġpoo rer
scient ific
ĠGray son
ĠD arth
ens on
Ġn ihil
Ġdes picable
ĠSy dney
Ġmicro phone
Ġintr ins
Ġinteg er
( '
m t
in flation
Ġm otto
unt ary
Ġhands ome
E lect
N orth
Ġind ian
ĠEx p
Ġmis information
Ġentertain ed
Ġtim eline
smo king
ĠV e
ĠPr ice
ĠRA ID
Ġvit amin
fb cdn
Ġli bel
Ġdefin ite
Ġvi be
Ġtem plate
Ġge ography
s and
ĠT on
Ġha iku
Ġsci ences
but t
enn on
dri ver
a hem
qu id
av oid
Ġwar rants
Ġpump ing
Ġnavig ate
G R
ant om
Ġ3 50
Ġexpl odes
Ġpes ky
ĠW iki
ĠO pp
Ġsl ashdot
x on
Ġsmart ass
ĠDou bt
ĠO sset
Ġsens or
C ount
k illing
Ġcomp an
cript ions
ĠHD R
G reen
ere nity
ĠG C
ĠWor ked
ĠPh ilosophy
Ġindirect ly
E xt
re public
Ġj apan
Ġ19 60
? ",
th al
Ġher b
Ġrun ner
Ġinc arc
ĠFl u
Ġprogress ion
Ġpoison ous
Ġcomed ians
Ġo oh
ĠR ice
ĠJ ac
Ġcert ified
ĠIgn orance
odynam ics
a ic
c p
ch urch
Ġbut ts
Ġun check
you ng
li bertarian
Ġsuff ers
ĠPre cisely
Ġnational ity
Ġhel pless
ĠGal axy
ĠBrook lyn
d rah
ĠA ye
ĠB arb
200 2
acc ording
Ġreal ization
Ġcame l
ĠRob ot
pm wiki
ĠS AME
Ġout standing
el son
Ġhas kell
pr ime
expl ain
Ġparad igm
Ġn avy
Ġemail ed
em y
Ġle ase
ĠWill is
Ġinher ited
Ġh atch
or ity
bar a
ĠAT I
kr aine
h og
al an
ac er
com edy
Ġen vision
ĠYour s
Ġf wd
Ġg ates
Ġst ems
Ġgo ggles
Ġact ress
Ġran king
ĠCle an
Cl ick
ĠTh ailand
ĠCan n
VE L
val ue
Ġalt ered
ĠOlymp ic
ustral ian
M a
Ġexcept ional
turn ed
E conom
ĠH ong
Ġaff ection
ĠCast le
Ġb un
Ġpun ishing
Ñ ģ
ĠTh read
S ir
f ru
op er
ĠF em
12 8
oop ing
Ġhang s
Ġded ication
Ġtraum a
Ġarrang ement
Ġcontinu ous
Ġindic ating
ĠEdit ion
Ġd ucks
uck ed
ĠTo kyo
sem itic
s vg
Ġd utch
25 6
Ġvolunte ers
Ġillust rate
Ġdelay ed
? ..
as i
Ġbet s
Ġexpl oding
ru le
Ġaud it
UT E
Ġum mm
ĠSE C
M akes
Ġg el
Ġaccept s
Ġp add
Ġo le
Ġexpect ancy
Ġri bb
Ġdi ver
Ġrespect fully
Ġsepar ately
hold er
Ġconduct ed
ĠJ osh
Ġ9 7
Ġrespons ibilities
Ġscr ut
Ġunnecess arily
Ġpen alties
Ġflav ors
A ng
r adio
Ġd airy
ĠT ab
ĠD avis
Ġsc otch
Ġped o
Ġcontroll ers
Ġw ig
Ġh ometown
wolfram alpha
ĠE nergy
ĠSub way
ĠD jango
Ġch ased
Ġport ions
ĠCL ICK
Ġimpe ached
! ...
' "
t b
ĠT a
st ery
ĠS u
Ġbut cher
ĠB F
ore m
Ġpos ed
Ġgre p
Ġpack ing
ĠArk ansas
OIL ER
S U
ĠThe m
Ġwarning s
ogen ic
Ġjewel ry
H int
` ,
ess ert
ĠJ u
Ġunsubs cribe
2 80
l ack
Ġcl itor
Ġconnect ing
ĠAntar ctica
B ob
Ġs ill
ag ged
em bed
Ġvol umes
l oo
Ġwh ipped
ent ry
ĠC ouncil
Ġrob ber
Ġharm ed
Ġcolon ial
iot ics
Ġpyram id
int elligent
Ġrich est
IG H
IG N
Ġheav ier
ĠSim on
Ġflu ids
Ġsup plement
aa ah
Ġbat man
ĠCH ILD
l inks
Ġo lig
Ġjust ifies
br ow
Ġshoot ers
ĠTw in
Ġfest ival
g ender
Ġgu idelines
vir us
Ġsun shine
Ġsem antic
V A
ĠS ep
ag ons
qu ick
Ġsp oof
ced es
ĠAd vent
Ġunbelie vably
ac ent
ĠJ VM
Ġsimilar ities
brows er
Ġb olt
ĠP u
Ġcomm ie
ĠCl ar
ĠSp y
Ġ# #
OOOO OO
dr ink
list en
Ġcomed ic
e ur
ĠI RA
Ġbl ues
He alth
Ġpurs uit
Ġhorizont al
G U
at ner
ol ith
11 5
Ġdesign ing
ĠAT T
Ġfasc inated
ĠA IM
iz zy
ĠRo om
c as
Ġst ain
Ġdo s
les h
wh ore
ĠCo D
Ġchamp ion
ĠNar whal
Ġcraw ling
LL LL
Ġmolec ules
H aha
ĠH ut
Ġdef ended
aa ay
Cl inton
sub mitted
Ġquant ities
gone wild
se xy
ĠB AC
ĠG reens
ris py
Ġgra ffiti
Ġeth n
Ġster ile
Ġcycl ist
Republic ans
Ġoverth row
ĠTh an
ĠR ace
ĠJ oker
Ġrational ize
ab st
Ġshort cuts
ĠIm perial
ĠCar ry
Up voted
ke pt
Ġcont emporary
Ġble ach
Ġ|âĻ Ļ
Ġgor illa
i antly
ĠT erry
ĠD V
ig ator
Ġout look
Ġun des
ĠK ate
spe aking
Ġax i
Ġhipp y
Ġp essim
Ġlight bulb
Ġcrack ers
Ġbor rowing
3 000
c ustom
Ġf yi
ol ol
ies el
ĠIn f
ĠAn imals
ĠSte in
Ġa ww
in se
Ġw ander
id gin
Ġinstall s
Ġsimpl icity
Ġcongr ats
P ython
s ense
Ġl as
ĠH icks
ater n
Ġhome land
Ġtrans actions
Ġimpl ants
ĠGl ass
Ġsubt itles
en ergy
ĠT ED
ĠT ALK
im ore
Ġoff ence
oose velt
Ġcollect ively
Ġd ilemma
aul ting
ĠIm age
bur gers
bow l
ĠCOM P
ĠPix ar
Ġmo an
Ġm unch
ĠL ay
Ġsk it
ĠGra vel
p arts
Ġl oops
ick in
ip her
ĠV in
Ġty pos
ĠEx pect
Ġresearch ed
âĸ ĵ
Ġhel m
hope fully
Ġiniti ative
Ġpre domin
ĠHe ath
Ġsell er
Ġexagger ation
Ġnegot iate
Ġman ners
Ġgr ants
Ġwom b
ert o
ĠPic ard
Ġdeploy ed
Ġimprison ed
own er
ĠMy Space
Ġ5 7
Ġfac il
Ġmyth ology
Ġor gy
ĠJ upiter
ĠQ t
Ġperm itted
Ġoxy moron
Ġmisogyn istic
G T
ĠC ustom
ĠM ist
ist ance
ĠP ascal
ĠL adies
ĠIn vest
Ġtrave ls
Ġner ves
ĠBob by
L ong
m otion
ĠG onna
ind y
Ġco res
Ġper vert
ĠCr us
Ġconsent ing
2 60
E v
ĠL uther
Ġtruth ers
Ġdom est
Ġendorse ment
Ġveter an
ĠT B
ĠA z
ib ri
Ġemb ry
uffington post
Ġthe ology
Ġcomp ress
Ġdr ones
Al ways
OL OL
o ven
Ġsh ampoo
Ġv ind
ĠF emale
ĠBe yond
she et
c ook
e ither
he res
Ġsp ies
Ġdis dain
Ġtor ch
ĠC age
Ġexpl oration
me et
Ġpand ering
B U
Ġk ool
ĠCh ick
Ġpe ed
gi ene
KK KK
ĠPerson al
ĠA er
Ġag ing
ĠU ran
Ne ither
n uclear
ig ation
Ġqu arters
Ġcred entials
A E
c ult
ĠN T
ĠF FFFF
ĠF ACT
Ġmark down
Ġdism ant
Ġais le
re lease
ĠC ALL
ĠAl iens
Ġdefin ately
reg ulated
inds ight
Ġmultip ly
ĠOri gin
v als
y on
Ġabsurd ity
l ide
re x
ĠG ravity
ĠL ack
os ing
ĠAl as
uri al
Ġfan atic
ourn als
ĠTom orrow
7 60
H ead
Y ea
b reat
Ġeach other
Ġtreat ments
Ġsum med
ĠAssh ole
i ates
Ġp uff
Ġun bear
Ġaw arded
Ġtrans c
Ġdisag reed
ĠIr ony
Would n
Ġproport ions
oubt edly
M ight
N eed
Ġhe m
Ġpre fix
Ġcinem a
Ġp sy
St ate
ĠCo inc
Ġconce ived
Ġcripp led
Ġbod ily
ĠF IRST
ĠG am
ĠG all
oot er
for k
Ġpharm aceutical
Ġsummar ize
" ),
S un
Ġa uction
Ġg room
Ġsh adows
ĠE SP
Ġback ups
ĠEx cel
SH IT
I O
n at
ĠSc ary
ĠDis covery
mmmm mmmm
Ġsquirrel s
al one
Ġap athy
Ġdemand ed
Ġthumbn ails
Ġstub born
\ ]
c b
Ġjo e
Ġap athetic
?? !
modd ers
Ġgraph s
Ġcease fire
b elt
ell ers
oy s
was her
Ġmap le
ĠMuh ammad
ĠL ion
ib s
Ġ19 30
Ġlim bs
ĠHor rible
Ġnurs es
s ingle
t p
om bs
ĠE clipse
Ġsick ening
ĠConstitution al
Christ ians
Ġking dom
ĠYEAR S
ĠN onsense
ĠR ED
ous ands
Ġins ists
Ġelimin ated
3 65
; =
t k
th ird
il tr
HH A
hell o
Y up
h int
ĠT IL
Ġad oles
Ġtradition ally
ĠColumb ia
ĠR en
Ġwater melon
Ch ina
ĠBar ry
Ġexcl uded
ĠWr iting
Ġâ Ĩ
Ġcircumst ance
olver ine
w ad
y g
ff in
Ġequ ations
Ġfan atics
Ġmelt ed
Ġmamm als
om orph
ic ut
ĠW endy
Ġex ams
Ġ6 6
Ġthrow away
33 7
Ġconspir acies
ĠLI FE
oster one
H ar
f usc
o dd
and ed
ge e
ĠAust ria
zz le
Ġapolog ists
Ġfiles ystem
Ġmixt ure
Ġy rs
if th
ĠB ears
ip ed
Ġpar ach
Ġprov ince
ĠRep resent
Ġfall acies
Ġac ne
Ġschool ing
Ġfil ib
Ġdet on
Ġstretch ing
Ġshr imp
Ì² Í¡
Ġlo ot
ak u
Ġdet ain
Ġpan cakes
ĠHD D
Ġsweat y
f ia
ĠT ough
Ġro ast
Ġneighb ours
ĠDOES N
Ġrehab il
we iser
uff icient
Ġ9 6
Ġce ases
Ġoccur rence
Ġincomp lete
ĠJo el
L ive
d ub
ĠM ission
ĠAs imov
AS IC
Mus ic
ĠD ays
Ġ19 93
Ġnational ism
Ġlur king
b ots
c ircle
x s
ĠT OT
ĠR ings
Ġsup ers
Any body
Ġdel usions
ĠBar ney
Ġbath tub
H ad
V al
w orm
Ġb apt
an an
Ġ" **
ra ise
Ġrem ained
aur us
ĠComm ander
Ġmaster piece
Ġw at
Ġm ull
ĠT ELL
Ġsh ining
ol ute
Ġcompil ers
Ġscumb ag
ĠPand ora
- "
w ink
Ġg ently
Ġpre empt
Ġinde finitely
ĠSecret ary
D el
u va
Ġs or
Ġm alf
st ri
ĠW es
ast ics
law ful
Ġgenital ia
ĠGene va
c in
» ¿
ĠG ah
Ġpa ed
Ġlo af
Ġse as
app a
L ittle
op per
ation ally
Ġchar ism
itch ing
Ġconserv atism
Ġbom ber
Ġinteract ions
Ġin justice
ĠH AL
ĠO m
Ġ:( .
orrow ind
Ġrh ythm
Ġupgr ading
Ġtrail ers
Ġhob bies
j ames
ï »¿
ĠF AT
ĠG IR
cl imate
Ġupload ing
ĠSur v
Ġd well
ĠJ en
ren cies
ĠDe us
Ġcod ed
Ġw ann
ĠAl ice
Ġnic kel
Ġfirm ware
Ġst ash
ĠC AR
Ġch ili
Ġhere by
Ġdecl aration
t one
Ġun ite
Ġover simpl
Ġtri b
Ġele ven
Ġcoll oqu
pro v
Ġmis ogyny
Ġaccomplish ment
Ġk g
ik h
pr ison
Ġdisc ern
Ġri b
Ġcal or
ĠMir ror
Ġhorrend ous
Ġb our
Ġcar go
ru ed
ĠPS P
ĠRes pect
Ġtrill ions
Ġnurs ing
M ed
Ġf aking
Ġo live
ĠC ob
ul atory
Ġmillion aire
Ġproject ing
Ġcommand er
Ġax is
Ġcolle agues
H alf
ĠSh aw
Ġg ems
il ter
ood oo
Ġtext books
Ġknowing ly
ey ed
Ġd warf
Ġus b
Ġper t
ash a
cent ral
Ġrev olt
Ġapproach ed
Ġomnipot ent
m ins
Ġrel uct
Ġatt est
Ġdeterm ining
Ġpin ch
ĠKat rina
Ġimmense ly
ĠA mer
ĠE ddie
Ġcl aws
Ġbr aces
R oll
r ising
in h
Ġst unned
Ġhigh ways
10 5
j on
be an
ĠK el
Ġind icated
Ġrad ius
Ġprec ision
has kell
it ative
ent h
Ġph on
Ġelect ing
LE CT
ĠVon negut
G iven
k ay
Ġtast eless
Ġarm ies
Ġpige on
ĠR id
Ġpl umber
Ġelect rons
Ġoper ates
inst ead
Ġmilit ia
ĠMoh ammed
ĠM ut
ab i
Ġlast ing
Ġsqu eez
HAHAHAHA HAHAHAHA
Ġreck less
Ġsympath ize
ĠT M
ĠO scar
Ġad am
cl ing
Ġlow ered
Go vernment
ĠKind le
ĠCarl os
Ġd iving
Ġre bel
Ġas ians
Ġso viet
ĠD addy
Ġ5 4
Ġfree way
Ġperpet ual
Ġs inking
Ġl b
ĠSt ri
IT T
Ġdev oid
Ġpump kin
ĠGit mo
W G
b able
Ġr im
Ġext rapol
!" )
ke e
Ġca f
Ġtattoo ed
Ġpurs uing
Ġde ed
Ġex otic
wor ked
Ġstrong est
ourn ament
Ġzeal ot
ĠP ain
ĠP ret
ĠScient ologists
ĠT akes
ĠO pt
Ġlegal izing
ĠHar ris
Ġrelax ed
W ater
b iz
en vironment
Ġg enders
ĠH um
ĠM MA
ĠB us
Ġam irite
Ġshort cut
Ġbund le
L ESS
ire ctor
Ġaccount ability
Ġoverd raft
tot al
Ã ±
Ġp umped
Ġd ummy
ur ities
Ġrel ates
Ġdom ains
Ġcontract ion
Ġskept icism
Ġcl ones
Ġcap ac
ĠInt elligent
ĠCal c
Ġran ch
Ġnic otine
ĠTer rible
; :
B T
b ob
Ġtr ay
function al
ĠB uzz
Ġbl asphemy
ĠHe in
ĠS SH
Ġlot ion
wh ole
co res
Ġbrain washing
Ġkidn apping
b ike
ĠR ap
Ġtr aps
Ġreal istically
Ġthank fully
An sw
Ġalleg edly
answ er
Ġpor ch
A v
c ream
Ġh id
Ġspe w
Ġing en
ĠDID N
ĠFU NNY
ĠA rist
ĠN early
ĠD ES
Ġde pt
ĠJ urassic
Ġconf irms
ĠZ eppelin
Ġri bs
17 0
- ]
ĠT ree
ĠB ug
ag anda
Ġspe wing
oy ing
Ġrel oad
Ġinter active
Ġsmell y
F act
r ans
Ġst ove
ĠMy space
Ġsupport ive
ole on
Ġlower ing
Ġcreep s
Ġmount ed
Ġs unny
gr own
Ġgrab s
ĠExt ra
Ġarous ed
c ro
o ise
Ġp onder
sh ore
ĠTH OSE
gl ass
Ġshield s
Ġconvict ions
Ġst fu
Ġme ats
is ure
ĠF le
dev iantart
Ġrefuge es
l h
ĠW ing
ĠP iss
ĠAl ert
Ġcare ers
ĠPro v
Ġvis ually
ĠTw ain
Ġscratch ing
Ġw ounds
Ġwe ep
sh aped
oth y
Ġones elf
Ġfed s
Ġcas ually
Ġcon quer
Ġev ident
arn ation
Ġmar vel
12 6
ĠTw ice
Ġoper ators
Ġkiss ed
Ġstream s
ĠH end
ĠE L
uri ously
ĠCorpor ations
: "
S at
ir s
ail ed
cr ack
Ġgroup think
Ex ample
s cale
el ing
ĠWe ed
Ġcur ric
Ġplug s
ĠMa o
Ġb ats
om ing
ĠM otor
Ġcl am
ĠCh ances
Ġsk ipping
Ġcomb ust
Ġinnoc ence
Ġdatab ases
I ll
Ġal oud
Ġmet abol
view s
Ġwilling ness
Ġdraw er
âĻ ª
Ġsport ing
ĠFA Q
Ġfro st
Ġscan ning
Ġimpe ach
l it
r and
Ġb ittorrent
Ġdeb atable
ĠMiss issippi
Ġcollaps es
b esides
ĠV im
Ġexpl orer
lo v
Ġtrans plant
Ġann iversary
Ġscan ner
ĠFight er
Ġoverl ap
ĠAnsw ers
ĠW ent
Ġcomp ares
ĠSe ven
ĠDe cl
Ġgate way
an cial
Ġp anda
all s
Ġsh ite
ĠD anger
Pl an
Ġnot orious
Ġnot hin
Ġfact ually
ĠUS PS
Ġchar ities
oph obe
ĠZe us
ĠB LA
ĠL ex
Ġendors ed
ank ed
Ġcur rencies
Ġfaith ful
iff s
Ġsaf ari
Ġelectro ly
Ġwh ichever
ĠN ietzsche
Ġle verage
ting u
Ġsl iding
ĠPir ates
Ġinterpre ter
n om
Ġexpl oring
Ġrepl ay
Ġtrick ed
mar ried
ĠCR T
b illion
m v
in th
Ġcl erk
Ġsc ifi
Ġ$ $$
ĠNe at
l ies
Ġwh omever
int osh
ĠInt elligence
gust ing
Ġinvestig ated
âĢ½ âĢ½
K ill
ous ing
Ġyear ly
Ġmet als
Ġchamp ions
ĠMadd ow
Ġmund ane
Ġth ug
ab ab
qu ir
ĠV oice
ĠRich ards
Ġmatt ress
s uicide
he h
Ġsh ore
ob vious
ug u
app ro
pro c
Ġprison er
Ġrecy cle
l oc
ĠM ap
Ġen velop
Ġ40 1
ĠOM FG
Ġprob ation
Ġhij ack
Ġinconven ience
Ġobt use
- *
F U
W OR
Ñ Ģ
is ive
ci i
Ġviol ates
Ġabort ed
Ġdiam eter
Ġpremium s
ĠFoot ball
ĠM OST
est eem
Ġheart less
Ġsmell ing
Ġhive mind
ab eth
reddit or
US S
ĠSc ar
Ġintegr ate
rob ang
ĠSmo ke
Cong ress
l ists
al ians
qu arters
Ġspecial ized
ĠCal m
Ġcompreh ensive
Ġpour ing
Ġtheor ist
Ġarc ade
Cap ital
4 80
s us
ry an
ĠBl ah
ĠComm and
Ġt ilt
Ġin coming
im on
Ġcur ves
Ġmeasure ments
an u
Ġk os
Ġdist ros
par ation
m r
Ġe ject
ist ence
ag ascar
Ġpro long
ber ish
sh ut
cy cles
Ġneighborhood s
Ġmathematic ians
ant e
ĠZ one
Ġrespect ively
mon key
Ġpubl isher
ĠC able
Ġres olved
Ġsuper power
Ġmother board
m ongering
roll er
ĠTre asury
ĠAc id
Ġsusp ension
H illary
Ġto pp
Ġy ork
ĠW ave
Ġv ids
ret ion
bo ing
ĠGu inness
Ġindic ative
happy officeworker
Us ing
: \
al ie
Ġtri bal
Ġhor rid
ĠBlood y
Ġisol ation
ĠTy ler
he ar
Ġv apid
ret s
ĠCl ark
ĠScient ists
ĠEm peror
dd er
ĠDen ver
ĠDoll ar
n azi
s ql
Ġ ounces
ĠAtt ack
Ġdiscover ing
D ick
Ġhy d
Ġmail box
ĠĠĠĠĠĠĠĠĠĠĠĠĠĠĠĠ ĠĠĠĠĠĠĠĠĠĠĠĠĠĠĠĠ
Ġc pu
Ġam put
ple ments
ĠAny ways
ĠFl ickr
Ġdemocr atically
Ġaud i
Ġur inal
Second ly
ĠCry stal
ap ons
Ġbook marks
ĠVietnam ese
c itiz
11 3
Ġdep ict
Ġconv entions
Ġpack ets
Ġcirc us
Ġreprodu ctive
Ġsubstant ially
stat us
h es
Ġad here
Ġpay roll
ĠCan cer
Ġwar p
ern ess
Ġbab ys
Ġarrest ing
Ġuniform s
build ing
= )
p ire
s um
Ġt itties
ĠT am
irm ed
Ġguarant ees
ĠBra ve
Ġven ue
Ġsyll ables
Ġparaph rase
it us
ĠA AA
ĠU kraine
ĠHe avy
con dit
ev al
Ġphr ased
Ġdemonstr ating
equ al
ĠTitan ic
Ġliz ard
in ous
Ġsu ite
Ġfl owing
ĠTr ade
ĠWar fare
HHHH H
Ġtow els
9999 9999
ĠParent s
" ..
P op
c unt
p ush
ly rics
ĠP AT
Ġdist orted
Ġgre asy
ĠME AN
b read
ĠY ikes
ĠC ube
ĠF UD
ĠG IVE
Ġsp at
ys cr
Ġrest room
Ġpurpose fully
Ġdeter rent
2 99
Ġinf iltr
Ġinc o
Ġdescri ptions
ĠComp are
ĠPet e
M at
a is
ick ers
ĠInc orrect
Ġlect ures
x ml
ĠP BR
Ġstr apped
Ġinter change
ĠMc K
Ġdem os
Ġer ase
Ġpsych edel
Ġgrad uation
ĠK ay
ĠRe v
ĠZ ombies
set t
Ġbomb ings
Ġsun day
Ġconcl uded
b ucks
Ġgr inding
Ġcurs or
ĠDri ving
Ġprosper ity
m ology
Ġt f
Ġsw inging
Ġsn eeze
Ġexplo itation
tal ks
Ġseiz ure
f x
i uses
Ġdis claimer
Ġrece ives
Ġtun ed
ĠNAR WHA
F re
f lo
ĠOb jective
Ġep it
Ġtrack ed
ĠCr amer
Ġw ah
ĠC auc
Ġpro ph
Ġcelebr ation
ĠMiss ouri
ĠSUV s
Ġjun gle
Ġnep hew
Ġc ush
ĠR up
ĠSh op
me h
rom ag
ĠSch iff
ĠClo jure
role um
Ġsl uts
Ġpersonal ities
inst on
Ġmand ated
Ġbri g
en is
Ġl ining
ect or
Ġcondition ing
mach ine
Ġb ending
ĠT OS
Ġj aded
ĠM erry
ĠCh amp
lic ting
Ġcost umes
Ġpred ator
F ight
M obile
Ġg reek
ĠA dditionally
Ġr m
Ġpersec ution
Ġzeal ots
Ġrefriger ator
Ġwrit ings
Ġmaneu ver
m atic
Ġfound ers
Ġcommun icating
Ġshif ts
k h
in ates
Ġm ens
umb o
Ġt at
Ġtrust ing
Ġhang over
dem ocracy
Ġabol ish
ĠArm strong
ãĢ Ĥ
Ġg in
am ong
all ic
Ġbail ed
Ġub iqu
ĠQuick time
Ġcontradict s
Ġintrigu ing
Bar ack
Ġc ope
se lling
Ġnot able
ĠC BS
ĠM orrowind
ĠB oot
Ġun born
orm an
ER N
igg est
Ġbill board
66 6
Ġpal in
Ġtri umph
Ġdeli vers
ghan istan
Ġhorrif ied
en joy
Ġdo ses
Ġmar ine
Ġfin ances
Ġhor izon
lev ision
Ġland lord
Ch ange
Ġshut down
Ġrent ing
Ġbrut ality
Ġ- _-
Ġcomp act
gr ams
10 9
ĠTV s
Ġnat ives
Ġpred icting
DD DD
Ġtrait or
fut ure
r arily
ĠE nder
ĠU R
Ġwar mer
Ġbull ies
ĠColumb us
É ¹
ĠR acist
Ġbl essed
Ġ19 91
Ġfasc ists
Ġalleg ations
Ġhighlight s
ĠFore ign
Ġabbrevi ation
" ....
ä ¸
Ġw ary
Ġin ade
ĠL ies
Ġmor ph
Ġhy giene
Further more
G ame
L I
M ur
c ars
f ing
p rop
Ġsh redd
ment al
Ġtr av
Ġsp icy
ĠDe v
ĠHA HAHA
Ġpup pets
Ġshel ves
Ġdiff ering
R et
b en
d ear
h uh
Ġdet ection
cle ar
IC AL
Ġminim ize
gate way
ĠWolf ram
Ġpudd ing
ĠS uddenly
ĠH ummer
omet ers
Ġpush es
; --
Ù Ħ
Ġnot epad
il ot
Ġimp art
Ġboy cotting
Ġactiv ist
Ġfold ers
ĠP aper
ĠR ON
Ġag reements
Ġco er
Ġverb ose
Ġlegisl ature
N ational
ĠA hem
ĠP AY
Ġstory line
FF F
ask et
Ġsix th
|_ |_
id erman
ĠS in
Ġaf rica
Ġmaxim ize
Ġterrit ories
Cong ratulations
Ġb ir
ĠD ue
ĠE AT
ĠRel ax
ĠBet a
it ational
ĠP ardon
ame l
iv an
Ch ar
Ġcrow ds
G Y
st rike
ĠF light
ĠDo ctors
Ġcar p
Ġharass ing
ĠAtl antic
Ġgerman y
Ġantib iotics
s u
ĠR F
ĠR AP
ĠV amp
Ġsm ashing
Ġsw ift
amer ica
ari um
ĠLetter man
ĠA in
Ġass et
Ġpack et
rill ion
ĠNAS CAR
Ġtransfer red
Le ft
Ġchrom os
ĠS ent
ĠR ET
ge ist
Ġstri ppers
Ġflesh light
Ġsome place
Ġ6 3
Ġimag ery
Ġjud icial
Com put
ĠUlt imate
Ġseper ate
; `
t akes
un c
ĠEvery time
sl a
Ġcart ridge
Ġtele com
Ġrick roll
ĠBow ie
ĠFerr ari
h ide
ou ge
Ġgo in
Ġcast ing
SE LF
at om
Ġst inks
Ġnot ices
ĠN ich
Ġbel oved
Ġend angered
amm able
Ġcou pled
Al most
might y
w alking
re pre
Ġs ided
est ablish
ĠU nd
Ġmicro sc
ĠJo in
ĠPed obear
Ġdevast ating
ĠG osh
ĠOC aml
Ġslaught ered
2 30
Ġd essert
Ġbull ying
Ġheart beat
econom ics
uj ah
p unk
z ene
ĠR oosevelt
os es
Ġcl ay
Ġdown fall
Ġind ist
M ind
a ac
c ils
Ġtrans cript
ĠZ en
ĠBl ade
aut o
ĠFed ora
Ġfet uses
ĠDON T
R un
u er
Ġu hh
uby a
Ġchat ting
ĠMeg an
rys ler
Ġs ought
Ġfor ci
ag ne
Ġdecl ined
agon ist
Ġcongress ional
Ġsan ction
rid ges
Ġinsp ire
m aker
ĠE NT
ĠIr onic
## #
Ã ¸
Ġfl uff
Ġfl irting
AN E
che ap
EE L
Ġbab e
Ġcriticism s
L og
ĠH oney
os ystem
ĠJ ean
ĠRe peat
Ġimport ed
sem ite
Ġsovere ignty
p b
Ġs ang
ĠM AK
Ġpro crast
ĠV ill
EE T
ĠMur phy
Ġambig uity
Ġstrateg ic
Ġanten na
ĠE agle
ĠBrazil ian
d yn
Ġt umor
ĠS aid
Ġdet ention
ĠAh a
Ġresist ing
Ġpizz as
Ġheli um
c old
op tion
ĠH ub
ĠAn ne
Ġtrust worthy
ĠAv oid
S uch
Ġg ard
ĠC ole
Ġ$ .
ann ie
ĠSat urn
Ġrecru it
Ġsubsequ ently
B J
d x
w aves
it ars
ĠC AT
ex ample
Ġred undancy
Ġnegative ly
ĠMat thew
s ided
ĠT yson
Ġma fia
Ġpoint y
10 6
ĠĠĠ čĊ
urs ion
can ada
Ġbarrel s
ĠF ACE
ave ment
Ġtri angle
yn x
Ġmort ality
Ġspoil ers
belie vable
Ġsho ving
SJ YR
4 50
s ports
Ġc ass
Ġfil tered
Ġarr anged
Ġimper ative
Ġcomprom ised
SJYR HA
c rypt
l ings
p ity
Ġbut th
Ġr aving
Ġr usty
bl owing
ser vice
ĠMP AA
Ġshotgun s
Ġsubt let
tz ee
D igg
J apanese
p riv
out side
ĠM t
ĠN ine
Ġdrive way
ĠHmm mm
min ute
Ġâ Ĥ¬
ĠBer keley
en erate
il ess
ra k
M uch
Ġdr ummer
UUUUUUUU UUUU
Ġmug ged
V ED
le ak
Ġcl aw
che ese
ĠPal m
Ġnut ri
graph ics
ĠFact or
G C
f asc
h undred
Ġr oman
Ġspe lt
Ġreal ism
sc rew
Ġbrut ally
tion ary
Ġflood ed
ĠC thulhu
Ġun le
Ġste ering
ev ent
Ġ| |
Ġvalid ate
Ġlub ric
c od
Ġthe r
Ġy ummy
Ġlearn s
Ġamaz e
Ġluck ily
Ġpunch es
Ġsales man
h uffingtonpost
os ion
Ġend lessly
Ġattribut es
Ġinherit ance
ĠAssoci ation
trend s
et us
ĠD akota
ĠSt ring
Ġassh ats
ocal y
ĠCorpor ate
2 33
B a
v p
z t
ĠW atson
th ony
ĠL y
ĠV I
Ġ5 8
ĠBl air
Ġped al
Ġpub es
am ins
ĠS achs
av s
Ġinf all
Ġalong side
Ġmac ros
ĠSky pe
ĠMary land
Ġdisgu ised
s uck
ab er
Ġobject ively
ĠBirth day
n ik
ĠS ell
ĠS alt
Ġ1 200
Ġam ber
app roval
oun ge
ĠLe vel
fin ance
ĠSun shine
Gr anted
Sure ly
, +
0 90
K it
Ġl ined
al ong
Ġre pt
ĠB ingo
Ġpro ggit
Ġun in
att ack
ĠInd ependence
ĠUN DER
Ġ\ [
n igger
Ġd itto
Ġre consider
ad min
ama zing
ret arded
Ġ12 8
Ġvol tage
Ġcreep ed
met a
ĠEl iz
Ġshif ting
Ġpolygam y
B UT
T alk
an arch
Ġcomm end
ĠGo dd
Ġkey word
Ġsleep s
Ġflu or
Ġmanip ulating
Ġcomfort ably
Ġeval uate
4 20
c ul
ER O
ĠUn icode
Ġhome opathy
Ġtruth ful
Ġcontinu ously
c atch
Ġlol cat
ĠPar liament
Ġpl oy
ĠBut ter
Ġut ilities
ĠRPG s
Ġparas ite
Ġnood les
ĠBET TER
Ġst umble
ust in
Ġsh ades
ĠP EN
Ġgo spe
Ġrent ed
Ġapost rophes
Ġfab ulous
mir ror
Ġc ement
Ġf al
Ġd uties
sh ock
ob y
oc cup
des ktop
Ġtriv ia
ĠTax es
repre ne
M D
ĠP unch
umb s
Ġperfect ion
Ġgre asemonkey
elect ric
Ġdiagn osis
Ġrecip ient
D VD
O VE
qu es
Ġequ ipped
Ġlab s
gu ard
Ġunrel iable
N BC
Ġp im
am ic
Ġhe res
Ġk angar
ĠJ eremy
ĠSh atner
Ġmem orable
Ġdoll s
Ġrecycl ed
Ġg love
ang led
Ġunder m
Ġsc anned
fuck ed
Ġneg atives
Ġque er
Ġalt ru
Ġevol ving
ĠAc adem
uls ion
Ġcom a
Ġgener ates
Ġfound er
Ġtend encies
Ġuncont roll
Ġb ouncing
st ats
ch ron
ime o
but ton
Ġproject ion
Ġgest ures
Ass uming
P ublic
ur ated
Ġfind ings
Ġreg urg
Ġdou ches
Ġ; -
Ġbi king
n ative
Ġs oo
Ġp el
ter ing
Ġhy dro
F alse
o Hg
w y
re ality
Ġn ifty
Ġstr ay
ĠDr inking
Ġtab let
ĠAc cess
Ġgren ades
D ark
m ist
ap ot
Ġsal ty
Ġhelicop ters
0 80
Ġe ve
ĠB road
Ġsuper hero
Ġblo at
b n
Ġst yl
ĠB OTH
Ġr ants
Ġca ution
Te X
I BLE
Ġe ugenics
ch ant
ĠB ooks
ĠN OR
cl ips
ĠSc ala
Lear n
T yp
Ġ uk
Ġa str
Ġp ension
ĠP oly
ĠE bert
Ġperson nel
Ġ** "
Ġpat rol
Ġcontract or
Ġbul bs
ĠSA ID
Ġtang ible
Ġtablo id
ĠSCI ENCE
n orm
st ra
ĠM C
ang a
Ġ... "
Ġs aint
ĠB OO
ĠG entoo
Ġfuck tards
10 7
Ġpar rot
zz ly
Ġham ster
inguish able
Ġreposit ory
p ure
es ame
th us
Ġover population
Ġhold ers
Ġprotect ive
Pro blem
Ġnom inated
ĠTh ai
itt les
Ġfun ky
Ġgeneral ize
Ġmurder ous
Ġsuspect s
rrrr rrrr
Ġestim ates
Ġd ork
Ġse als
ĠK u
Ġinf amous
Ġtest osterone
Ġfool ing
Ġtim er
log ic
ĠGra ham
C ase
Ġin exper
Ġe thernet
Ġfe ver
ock et
15 9
Ġannoy ance
ĠIN TO
23 5
Ġanaly ze
w idth
er us
Ġh unch
ĠD EAD
Ġr uth
ate red
ĠSt ars
ĠKen ya
Ġital ics
embed ded
Ġn udge
Ġ19 89
Ġdist aste
Ġattract s
ĠH uge
Ġcl inton
Ġfl ed
ĠBU Y
Ġbik ini
Ġpenet ration
N umber
Ġupd ating
ĠAp ologies
Tr uth
Ġathlet ic
Ġinhab it
ĠP os
ect omy
the piratebay
Ġext inction
Ġmar athon
light en
Ġx p
Ġpath s
Ġrot ting
opath ic
Muslim s
C ity
Ġs not
Ġun icode
Ġwill fully
ĠPro ps
ĠInst itute
Ġarr ange
Republic an
I gn
ĠM ONEY
gu ys
ĠIN T
olit an
Ġhost age
ĠFin nish
G ay
Ġre think
ort heast
ĠV erm
ather ing
Ġmiss pell
Ġple a
Ġpersec uted
Ġagric ulture
h ulu
j ury
Ġst oop
ul ars
Ġdirect ors
mod o
yy y
Ġepid emic
iv ors
cl ap
ĠPart icularly
out ing
Ġdev out
Ġsan ctions
ĠMad ison
Ġdemol ition
! ,
D U
ĉ ĉ
ĠA J
ĠM PG
ĠP ee
ocr at
mem bers
ĠRun ner
Ġvend ors
ĠArc ade
ĠSud an
n ature
us al
ĠP sh
ĠO L
Wor st
Ġinco herent
K S
M il
r unning
ĠL am
Ġob fusc
?? ???
Ġroy al
Ġm i
ĠA ction
com fort
Ġout door
ĠJ oy
Ġrem orse
ĠX B
ĠBl ind
rom ium
op l
Ġsh alt
ĠY esterday
Cont ext
Ġinflamm atory
n obody
Ġw ierd
im il
Ġbr ace
Ġinv oke
Ġblock ade
Ġcommer ce
agger ing
ĠWhe aton
ĠSOME ONE
7 50
Ġb red
Ġh et
Ġh ollywood
Ġprom otes
F at
m ccain
ot ional
Ġer ad
ĠBalt imore
ĠDiam ond
Ġst ages
ust ed
ĠC urious
Ġcl og
ĠTH AN
Ġhuman itarian
ĠSp ider
ĠMP W
Li bertarian
Ġcontracept ion
Ġt resp
Ġfl own
AAAA A
ĠGu ardian
Ġsubject ed
Ġjer sey
c ular
Ġbe ep
ĠH BO
ur ton
Ġun read
ĠK r
Ġtax i
Ġskin ned
Ġcross es
anc ies
necess ary
Ġinfuri ating
d g
all ies
ĠS MS
ĠC lear
ĠP UN
ard o
ĠIn n
Ġrep ressed
Ġ19 48
ĠHam mer
Ġparticip ants
Ġgam ble
IIII IIII
Ġindoctr ination
se lect
ĠP rem
AT ES
for ced
Ġlight weight
Ġmatch ed
kn ock
Ġlaunch er
ĠPark er
iw i
ĠSing apore
Ġa le
Ġf ax
ĠG IMP
10 3
ĠGOD DAMN
Ġpuzz les
V P
ĠB unny
ĠB EEN
Ġbo iled
play ed
ĠRem ove
Ġrecogn ise
Ġroot ing
ĠPhil ip
Since rely
ĠRoy al
M et
w rit
ar p
im o
ul er
Ġcl it
ĠBer lin
c z
e q
Ġas c
ĠC arbon
ĠB am
ĠCh ill
uri e
oun cer
Ġcontain ers
Ġloose ly
ĠBuild ing
doll ar
+ .
Ġp oured
ag gressive
ĠU FC
Ġpray ers
Ġeval uation
Ġfeat uring
Ġreper cussions
) (
D ATE
al tern
oo ch
Ġar sen
ff f
ĠIn formation
Ġhttp s
Ġfil ing
Ġinterf aces
Ġjan itor
Ġf aint
ak in
11 9
aby te
class ic
Ġaffili ation
Ġsod ium
Ġhier archy
ĠSpir it
Ġbe ck
Ġcar b
Ġchar itable
oph ilia
ĠEX T
Ġconcent rated
rec ord
Ġexhib it
Ġt ipped
ĠF ly
ĠL ONG
Ġapolog ized
Ġresort ing
quis ite
Ġacknowled ged
Ġeuro s
s ed
11 7
Ġwind shield
Ġexplo iting
Ġp ulse
Ġpro lly
Ġaren a
Ġcas ino
Ġund oubtedly
ĠHot el
ĠAtl as
ĠBall s
h ur
k j
Ġcomm its
13 5
Ġoccup y
Ġsucc inct
Ġconnot ation
B ra
Ġhe e
ĠH ahah
ub st
ĠTr oopers
Ġball ots
ĠĠĠĠĠĠĠĠ ĠĠĠĠ
Ġtrack ers
Ġmemor ize
Ġdisl iked
Ġolymp ics
: _
V V
h all
j unk
iz modo
ĠSp ore
rock et
belie vers
Ġsock et
d irty
ĠS erenity
Ġres olutions
amm a
Ġforg iven
M ax
de finitely
ile aks
ĠUp date
AL S
Ġobt ained
Ġtread mill
Ġconstitu ents
H U
c ann
ĠM AYS
Ġgl ob
Ġey el
Sh ut
Ġboyfriend s
ĠAL SO
entle men
ĠGal actica
Ġabstract ion
Ġcub icle
ĠM RI
ra ud
Ġprofess ionally
Ġd angers
th est
Ġhead aches
Ġrock ed
Ġrain bows
Ġvul gar
G OD
ate e
ĠP ub
ĠJ ama
Ġsy mm
ĠWhere as
sp ons
ĠSp am
Ġcal iber
Ġfit ness
ĠTex ans
Ġforeign er
Ġresemb les
Ġc ad
Ġe agle
ĠEngine er
ĠP rom
Ġer m
Ġabsor bed
Ġell ips
. -
ext ra
Ġrul er
Ġspir al
ĠDU DE
social ist
Ġlegend ary
ĠB URN
Ġfund ie
Ġpsych ic
ĠD al
Ġno on
Ġengine ered
Ġdish washer
Ġarbit rarily
t alking
Ġw agon
un ge
Ġinst ructor
Ġhus bands
IST S
Ġrestr aint
F riend
n asa
Ġc unning
Ġf ade
id iot
ach a
Ġexp ired
Ġtap ed
ĠSen ators
Ġoverlook ed
le ad
um a
ĠF ix
ĠR ee
Ġco con
ty p
Ġappoint ment
bu ilt
Ġexpon entially
j amin
Ġo ceans
ĠW y
Ġillust ration
Ġmiser ably
Ġhandgun s
p unch
ut us
ib ble
Ġmon og
ĠAm ish
sl ash
D oc
T ax
at l
ac a
il ibri
ĠF unn
?!?! ?!
Ġlegitim acy
fru it
m atch
Ġthe ism
Ġc m
ĠR oss
Ġred head
Ġesc ort
ĠForg ot
ĠEgypt ian
thra x
Ġindist inguishable
Ġhe ap
met al
ĠVictor ia
Ġst oners
Ġk in
Ġforget s
Ġphr asing
Ġjudgment al
bull shit
Def in
ĠL ynch
00 000
Ġper verted
Ġgen oc
Ġid le
ĠAr thur
ĠUp votes
Ġdocument aries
E h
t ur
Ġo str
up vote
Ġev apor
Ġqual ifications
e ce
h ark
É ¥
ac co
ĠD warf
Ġun pre
Ġstr ugg
Ġav id
ĠPr int
ilibri um
V EN
Ġed its
Ġunf ounded
Ġoptim ization
Ġtack y
Ġavail ability
2 17
Ġbe verage
all owing
ĠHe zbollah
Ġmort al
ĠCatholic ism
Ġforg iveness
Ġhunt ers
Y a
ĠA my
Ġdon or
ĠG ross
ĠE E
ĠJ et
Ġmon ument
Ġrestr iction
Ġ Ø
Ġdist ances
would n
Ġzion ists
s an
z u
Ġg a
et r
am en
ĠG ulf
Ġcod ers
ĠAMA ZING
D ate
m ount
m akers
Ġp ng
ĠP ig
od us
Ġsn eez
Ġground ed
ĠStr ong
Ġt apping
Ġh ides
Ġl en
ĠH il
Ġde bris
Ġfr own
ĠF RI
Ġem ulate
Ġcoll ision
pres so
Ġexplo ited
op era
ĠV oyager
Ġhum id
Ġvary ing
. :
B on
W ork
ĠH ook
20 5
Ġ_ ____
ĠTechn ology
ĠPakistan i
Ġlands cape
dig ital
/ "
V OT
Ġh ugs
ĠD ur
ĠE lement
Ġher ring
land er
Ġinstall er
Ġpred ators
rs ly
ĠSer ies
ĠNeed less
Ġauthent ic
F org
f ill
Ł |
Ġre inc
Ġreaction ary
trans lation
ĠDig ital
one l
Ġv ending
Ġmin ors
Ġhistor ic
Ġjealous y
Ġh ike
se ason
ĠM anson
ig arett
ĠG raph
Ġtr anny
ĠL ev
ets cape
Ġlight en
Ġcampaign ing
ĠTF A
Ġrip off
Ġnit rogen
Ġspokes man
b oston
r ss
Ġis lands
ĠOh h
Ġste aming
Ġtent h
Ġrenew able
rele ases
2 14
F ail
f ps
Ġa fore
Ġha v
ent ire
Ġam mun
Ġcur t
Ġri oting
Ġstar ring
Ġexception ally
Ġl ent
ag rams
ĠD DR
Ġpost ings
Ġw ik
Ġc rock
Ġus enet
Ġdown ward
Ġsystem atically
Ġmen us
Ġfur ries
can ny
Ġec osystem
F ort
Ġ ).
Ġ âĸĪ
ĠW arner
ĠN IN
ĠD iet
ĠP owers
Ġover time
Ġbu ds
ĠCom b
Ġhint s
s weet
Ġ( &
Ġta ils
Ġcr ooked
Ġdef lect
Ch inese
Ġhon our
Ġalleg iance
Ġrush ed
Ġsuppl ied
ĠGN OME
ĠS uicide
Ġkeep er
Ġpur ity
30 7
ĠDes ktop
Ġec stasy
Ġtwent ies
Ġ ouch
.. )
Ġup tight
pro gress
Ġbox ers
ĠChe vy
ij ing
ĠRus sell
ĠN ormal
ors che
oll owing
Ġcent ered
ĠTR UE
ra vel
Ġfin ed
gu ess
Ġblur ry
Ġhyster ia
Ġparas ites
ĠS G
ĠFUCK IN
Ġgross ly
i u
t x
Ġha mas
Ġmeth inks
Ġpers istent
ĠFood s
ĠConnect icut
ĠC ooper
Ġpro state
ĠSh rugged
br inging
cra igslist
Ġwand ering
b ashing
Ġch ord
Ġscreen ing
ĠTex an
min us
sim ple
Ġschizophren ic
ĠAmeric as
fl uous
ĠAcc ount
ĠMerc ury
ircumc ision
Ġprosecut or
B ER
ver ick
Ġsh ade
ĠP G
ore a
Ġfl ock
che cks
ari est
Ġeduc ating
Ġtre asure
e ight
is odes
Ġan om
sh akes
Ġev ac
AAAAAAAA A
P ain
at meal
le tte
ĠB ody
ĠSc out
Thing s
Ġh arn
en ough
Ġp iles
Ġj pg
ur ring
Ġle isure
Ġkind ergarten
dr unk
Ġwitch es
c ern
g res
r ists
Ġp ulp
ĠS kin
ĠF ield
ĠK ool
acc ount
Ġsusp end
Ġsav ior
D i
F UL
j er
ĠS it
Ġbeh aving
ĠRes p
ĠLo ved
Ġspr ink
Ġfle et
Ġanalog ous
Ġpleas antly
Ġsab ot
B m
f ont
ĠP ric
ĠL abor
de leg
Ġbr ide
ĠK l
Ġeffect iveness
Ġclar ifying
Ar ab
Ġdetect ive
Ġmol ested
Ġtooth paste
w onder
ĠH AND
Ġfr ickin
Ġ2 20
Ġover used
Ġmed ieval
Ġblind ed
Ġtag ged
Ġenlighten ment
ĠSold ier
r asing
v oice
ps ons
11 00
Ġanarch o
ĠLear ning
ĠAK A
at ting
ic able
ill usion
ant ically
ank y
ular ity
30 8
Ġperform s
Ġfag gots
alb um
] "
e urope
ist ant
cl oud
Ġret reat
Ġcol umns
Ġgee z
umin ati
ooh oo
ĠMel bourne
ĠDom in
ĠVent ura
Ġâī ł
* \*
D K
q a
ĠH orse
Ġvoc als
Ġacr onyms
Ġhamm ered
Ġammun ition
Ġback lash
te legraph
Ġhighlight ing
Gl ad
Ġslee ve
ĠTH ESE
ĠDe b
ĠInst ant
Pal estinian
F ind
un iverse
Ġmo s
ap per
ind ependent
Ġch illing
less ness
25 5
ĠOut look
Ġtele port
ĠLO CK
m eter
Ġst al
ep er
Ġcont ention
Ġend ure
Ġmass acre
fund ed
Ġgib berish
Ġartif acts
ĠW ales
Ġj eez
Ġover kill
Ġri ff
ĠAp ache
Ġvenge ance
a que
ĠN DP
ĠE mer
Ġret rospect
umm ers
Ġcolon ies
ahahahah ahahahah
Ġsuperst ition
Ġbe aches
ĠT ouche
Ġcoal ition
t ool
Ġt rophy
Ġste er
ĠCO B
vor ak
Ġm es
ĠO D
Ġkill ings
Ġomn is
\ **
o ften
Ġc ue
an throp
all els
Ġkn ight
Ġpolic eman
Ġris king
ĠPre pare
Ġident ification
ĠBlack s
Ġdrag ons
ĠBo ard
ĠId aho
Ġthrill ed
ĠN az
ĠV OTE
Ġbook store
Ġbull do
isp here
lett ers
th x
bre aker
Ġder ive
Ġcho king
ĠAL ERT
Ġtour ism
Ġspons ors
Ġearning s
) /
k new
Ġin verse
ĠH ood
ĠB ALL
ew are
lt on
fl ies
Ġparam eters
ĠCand le
Ġdescend ants
ĠL amb
Ġwork out
sh ake
ĠV W
Ġinv ari
fl ight
16 7
âĻ «
Ġcocks ucker
bor o
Ġbogg les
M iss
c ategory
or i
ĠSo cr
.... .....
-- &
Ġsat urday
Ġconcert s
Ġinsert ed
Ġdebug ging
Z E
r ower
s lightly
ĠC OUNT
ĠF B
ah l
int egr
ial s
Ġmar sh
ĠGu ard
Ġsil ently
pred ict
T I
f d
l ower
Ġp est
Ġl act
ir on
Ġde regulation
ĠPh ill
Ġspir its
Ġhonor able
Ġcyn icism
f uel
Ġt igers
Ġc ss
Ġcl ing
Ġcl an
Ġsl owing
Ġhy phen
Ġrepe ats
dem ocratic
ĠJP EG
Ã ¥
ĠN orton
z el
Ġh alt
Ġp ens
ah u
Ġsp ong
Ġev idently
13 7
Ġaffect ing
UL A
Ġj ib
ĠP ie
Ġsp illed
Ġprov in
Ġmis placed
Ġscumb ags
Ġse cede
ult y
Ġri ps
ĠHas n
s ubs
Ġg lee
spe ech
ĠiPh ones
Ġlip stick
; '
Ġam bit
Ġcr ass
Ġfl are
rol ogy
Ġfing ern
Ro bert
dim ensional
Ġ å
Ġp ow
ĠN aked
Ġch er
Ġdec ay
ĠMc D
ĠDA E
ĠRac ism
Ġin mates
oo ves
Ġpro x
ĠF D
ĠV HS
Ġgrad er
Ġhorn s
Ġagg rav
C Y
D umb
T ype
ĠS ac
og ram
cept ible
aw d
ĠCon nery
16 5
Ġsqu id
ĠPresident s
Ġcod er
WH Y
Ġbaff led
Ġschizophren ia
ĠPow ell
O Y
ut able
ĠH unt
ĠM oral
Ġlo athe
Ph one
ĠComp anies
ĠEl vis
Ġslut ty
Ġphysic ists
Ġcurric ulum
Ġdr one
bl ow
Qu ick
Ġconce al
V i
x p
ĠA y
ĠB NP
ĠR UN
ĠEx xon
Ġmom ma
arc ade
Ġple asing
ĠMor ning
Ġschol ars
T im
in ova
ĠM ILL
Ġel ses
ĠBr and
Ġya wn
Ġscr ub
ĠDE F
ĠCOM M
ĠDM CA
Ġaster isk
C orrect
Ġhand c
ash y
Ġdri lling
ĠEx ample
posed ly
ĠMed ical
Ġsemicol on
m w
al beit
Ġgen iuses
Ġorgan isation
Ch eney
Cl ass
Ġunins ured
D en
l c
ĠNo ah
ĠSt raw
Ġatt achment
Ġfig ur
apt ure
Ġstruct ural
eeeeeeee eeeeeeee
Abs olutely
n ostics
Ġm mmm
Ġp ong
use y
Ġkey words
Ġmist er
Some body
vol ent
Ġtang ent
Ġastron aut
Ġrig id
Ġm ongering
om bo
ĠL ocal
Ġide ologies
Ġcraz ier
se ems
ĠD ance
ci p
Ġleg ality
Ġsk yscr
Ġprof anity
ĠIS N
OW S
22 4
Ġparenthes is
A RE
or ship
ĠT iny
ĠP a
ĠE ST
ĠIM P
ĠMAN Y
capital ist
Ġrevel ation
ass hole
Ġinto x
Ġres on
du h
ĠNow here
Ġimm ortality
Ġbox ing
down vote
ĠLab our
Ġth x
on ia
en ame
Ġe ighth
ĠT ina
Ġfl uct
ĠSh ift
Ġmark er
ĠGr ab
ĠStar gate
Ġnic est
Ġsubsid ize
U B
] :
w art
et le
ĠW P
Ġkind ness
Ġdeterm ines
Ġmal ice
ĠQue ens
Ġbitch y
Ġlic ence
Ġexec s
Ġsyn thes
Ġinvent ory
Ġram en
Ġhambur gers
ĠExec utive
Ġschem es
2 12
V ING
at ist
Ġ6 8
Tr ust
Q ue
l A
Ġst if
ch ick
cr iminal
xim ity
hol m
Ġjack asses
ĠSay drah
ĠMod el
Ġemphas ize
Ġsatell ites
ch i
ĠE c
ĠAs king
Ġcost ly
ĠURL s
Ġdistribut ing
Ġmemor ized
Ġunbear able
G y
s q
ĠP ART
ĠL EA
Ġpre st
ire ction
ĠX Box
ĠCon vention
ĠHam ilton
Ġbored om
ga e
er ie
ar row
fe eding
Ġ19 85
Ġstandard ized
Ġrelat ivity
Ġsnip ers
Ġxt ian
Ġo o
il ize
ell s
Ġad verts
Ġmay onnaise
izz le
ĠOut side
Am azing
ĠNar whals
Ġc ures
Ġp ins
ĠSt re
88 88
Ġdump ster
Ġimpr actical
ĠBud weiser
Ġeloqu ent
ugu ese
P at
n amed
op ian
int he
Ġbr ute
Ġscre amed
Ġvow el
h istor
n aked
Ġa ustralia
ce lebr
Ġthey re
Ġrel ieved
ĠTH R
ĠDon ald
???? ????
Ġreflect ed
ĠCast ro
Ġindu ced
H amas
P E
h ub
Ġar ise
Ġrep rehensible
ĠBuff y
P ir
Ġe ct
Ġwith hold
ĠD roid
Ġright ly
ĠShe ll
Ġge ograph
oust ic
Ġastron om
Ġhorm one
ĠXen u
Ġsc oring
Ġapp alled
Ġvers es
Ġsqu irt
âĸ ĳ
Ġscar ce
l ots
Ġst air
ĠM AR
ĠL eno
Ġoff ends
oll a
ĠIM DB
ĠUr ban
b os
ust ainable
Ġfr owned
boy friend
ĠWW I
Ġoblig ations
Ġtin ypic
ĠViol ence
Ġp agan
ĠC ake
ĠG ill
Ġpl ed
du ctor
Ġbre eds
Ġequ ity
Ġoctop us
F eel
ĠM agn
ĠN elson
Ġdon ut
ĠAl zhe
Ġrepl icate
ĠWith in
ĠTe le
ĠM u
He h
icy cle
ste amp
Ġrelax ing
ĠRoll ing
econom ic
ĠRup ert
P oor
h air
m ons
Ġe uth
Ġgu ild
ĠBe ast
Ġ7 7
Ġdem ographics
pen ny
Ġanonym ously
Ġtrav esty
ĠS eth
Ġkn ot
Ġkid die
oll o
Ġexerc ises
bal ance
ĠMarx ist
Ġmonoc le
i ator
Ġst ressed
Ġmess aging
15 5
ĠGr ound
Ġscript ure
ĠHealth care
Ġraid s
ĠBU LL
Ġforci bly
Ġw ool
Ġte e
Ġsc ars
Ġlog os
---- -
Wor ks
ĠGP U
w at
ĠS ig
ĠC uz
amp ed
Ġsense less
Ġstud ios
rol og
Ġinfl ux
Ġcrow bar
Ġexplo its
claim ed
Ġexagger ating
Ġcondem ning
eopard y
# .
Ġc ubes
ĠL u
Ġclass mates
Ġhot els
ĠPer ry
Ġgradu ating
Ġdoub led
Ġtack le
ĠNiger ian
Ġfilib uster
ĠM R
ĠB ub
Ġfr amed
Ġun plug
Ġle x
Ġcar rot
Ġ19 67
Ġconsider able
Ġclos es
ĠGee k
ĠBatt lestar
F rench
M ine
Ġo re
ĠC LE
ĠIn side
Ġfil th
Ġcook s
Ġnut ty
at ly
Ġf oster
us r
he avy
ĠH UM
con tr
Ġ0 9
Ġfell a
sm ith
ĠHi ro
keep ing
users cripts
ĠH oo
ite ch
Ġcapital ists
ĠMur ray
Ġhighlight ed
Ġaffirm ative
âĸĵ âĸĵ
d q
p able
ut ory
ĠH ug
Ġtr ades
ĠSo viets
oy a
Ġpost al
ĠK elly
und ance
Ġhes itate
ĠBuddh ists
ĠW itness
Ġme ll
ĠC OOL
Ġcir ca
15 00
ĠBel gian
Ġmock ery
fre ak
2 25
c ases
f p
ck er
Ġgot h
wor se
Ġclock s
Ġhelm ets
b ble
Ġex cel
Ġman g
Ġche e
Ġstupid er
ĠAd olf
ĠMen cia
ĠFind ing
dec ided
Ð¾ Ð
V e
p ired
Ġw ounded
." ](
pr ised
ĠAg nostic
Ġharass ed
ĠâĻ ª
Ant i
Ġparenthes es
o ct
Ġh ips
ĠM asturb
ĠD NC
ĠE VE
Ġcr abs
Ġcompl icit
ien ces
Ġrob ust
Ġcoff in
Ġacqu aint
Ġimprison ment
m ails
Ġt u
Ġw ang
ri ors
ap ier
ĠR azor
Ġper ipher
sw orth
Ġscar ier
ĠWonder ful
ĠNiger ia
J im
M OD
ĠT ARP
ch ief
Ġswe ater
Ġincent ives
Ġpossess ive
Ã³ n
Ġwank er
Ġindis crimin
ra il
Ġapolog ise
dri ven
Ġchains aw
Ġmedit ation
Ġte ase
IN C
ĠSe lect
Ġrob otic
Ġesc aping
Ġpengu ins
ĠSpart acus
Ġafore mentioned
ot ics
ĠT L
ĠW inter
Ġde ceptive
Ġstar bucks
Ġflag ged
Ġlands lide
Ġfright ened
B tw
ise ase
Ġeye balls
ey es
ĠRed d
ĠOtt awa
Ġware house
ĠR u
Ġtr action
Ġam p
Ġpen al
Ġdem ons
28 6
IF Y
aaa ay
Ġpac if
ĠMAD E
Ġribb on
nd um
Ġneed les
Ġinv itation
ĠAr gh
Ġgreen house
heart ed
A GE
B AA
R OR
U ser
ĠW izard
ith metic
ĠB less
ort ex
ĠK o
Ġpick le
zene gger
G ER
H OW
h on
qu ila
Ġint imate
ident al
Ġ10 24
Ġfin als
ĠCol omb
Ġdisappe ars
Ġch ast
ĠE C
ĠU k
ud s
ĠCh ile
Ġbal ances
Ġstretch ed
Ġtooth brush
C re
Ġ ilk
on omy
Ġc one
Ġmo ar
ig ration
Ġex termin
ĠJ ennifer
load s
val id
Ġhost ility
Ġcollaps ing
ĠBow l
ĠLib rary
d les
s ucks
ĠI A
Ġis t
ĠS olution
ĠF ey
Ġno ses
Ġstupid ly
13 4
Ġaesth etic
w anted
ĠH edberg
ĠR aid
Ġday light
oph iles
post ed
Ġphilosoph ers
Ġbicy cles
cuss ion
deb ate
W ant
b q
Ġen comp
Ġsp anking
Ġreddit ers
gg le
OT S
FA IL
ad ians
out her
ir ation
ĠD irty
ob ia
Ġgl owing
OT IP
Ġrecon cile
t ar
Ġb ore
ĠS ports
ĠP up
Ġun lawful
ep isode
Ġbr ass
Ġsad ness
ĠMe chan
27 0
Ġwhis per
Ġassass inated
D ON
Ġt ier
Ġb ollocks
Ġin expensive
ĠT ip
Ġ( ~
Ġpet rol
g el
Ġjust ifying
ĠG EN
Ar ch
Ġcos mic
ĠLibertarian ism
Ġdispos al
Ġtodd ler
A ud
h d
Ġmarket ed
IS P
how ever
sy n
phas is
st ars
og ene
Ġdesktop s
ĠWatch men
Ġarr ays
YYYY YYYY
Ġsubmar ine
D M
p iss
ĠW a
ie ls
Ġcont am
ĠCr ack
Ġcentral ized
ĠAC ORN
ias co
Ġtwe et
ĠVerm ont
P ower
V ista
Ġd war
Ġre h
Ġche ats
Ġoper ated
fin ition
Cons ider
ez burger
Ġinstinct s
Ġbund led
l ace
Ġpre acher
Ġstre ak
Ġhom ophobia
Ġelimin ating
ĠDel icious
ĠLed ger
wal ks
n ix
n ames
w m
Ġt unes
im ating
Ġpo etic
ĠL ic
Ġey ed
Ġbag gage
Ġrob bing
sight ed
ĠNap oleon
D ar
S igned
ĠK armanaut
ĠAt om
Ġroot ed
iv irus
Ġbeh old
Ġthro ats
C ola
re mo
Ġch ills
ĠE ND
Ġim posed
Ġnew born
Ġwonder fully
ĠWal ter
Ġobsess ive
ĠI vy
he ment
im us
Ġch im
ĠTo dd
Ġarch aic
Ġoptim ized
eh ov
Ġswallow ed
Ġman iac
Ġhell a
ĠAr g
ĠEn hance
ĠMag azine
Ġbik er
ĠOcc am
m isc
t ubes
Ġend ings
Ġcar ic
ps ies
Ġmar gins
Ġsuper fluous
ĠOS S
Ġhi king
---------------- ----------------
al ine
ĠD olph
ĠCh rysler
als a
sw f
Ġgl aring
Ġdi aper
ĠMS DN
Ġpool s
Ġpuzz led
Ġislam ic
r int
at im
is en
ĠW OM
ĠF ED
qu ately
pl aces
me gle
like ly
Ġpat ented
ums feld
ĠRain bow
Ġmexic o
Ġf urious
ĠK ings
ever se
11 6
OR S
ĠWE LL
Ġassem ble
j ar
j ay
ĠIt alians
ĠR age
ĠFree BSD
ĠCont act
Ġgrav itational
Ġspaces hip
n in
ap y
ĠJ ong
Ġdis closure
Ġdi apers
Ġneg ate
was n
Ġfinan cing
athe ists
Ġth a
Ġl umber
Ġin advert
Ġex tingu
ĠG arden
Ġi Mac
wh oosh
Ġca kes
gg ers
erm aid
Ġcompil ation
pal in
ĠTra vel
Ġmarch ing
Ġcroc od
Y ay
ap on
idd y
Ġnorm s
Ġnar rative
ĠGar field
h oo
not es
Ġrelig iously
Ġair ports
Ġinsist ing
ĠAv atar
Ġclin ical
ĠAltern atively
P D
Ġgu itars
oh en
Ġtouch y
Ġsqu ares
ĠFF S
Ġpl um
ĠJ ee
Ġ6 2
Ġcry st
Ex plain
Ġinnoc ents
ĠStud ies
c ure
Ġo oo
ch rome
ĠL il
Ġviol in
irm ing
ett es
3 45
sh r
Ġcoll ateral
Ġcat alog
Ġreact ors
riv ol
ĠSolar is
F YI
R C
up t
pp y
Ġbull ied
Ġstri ve
J ud
m ouse
o ard
Ġdet ained
Ġhyp not
Ph ot
Ġmut ation
ĠComm ittee
oler ance
an imal
ĠG ON
ans hip
itch ed
Ġrepl aces
Ġge orge
ĠOpen GL
ĠOsset ia
b reed
i U
Ġk ings
Ġfr ugal
Ġpre ca
wik tionary
ĠBut t
pr im
OO R
Ġpain s
ĠEm ploy
Ġmerc iless
Ġf atties
Ġin equality
Ġthink ers
Ġsubm its
Ġmis car
Ġlim p
ET E
Ġbeaut ifully
Ġver dict
Gr ammar
cong ress
ĠWel sh
F ound
as is
ĠH istor
ig ate
Ġrel o
Ġgovernment al
Ġref ined
Ġclass ics
Ġflu ent
ĠEd ison
Right s
ĠImp ressive
Ġinter state
Ġtiny url
ĠEv idence
bal anced
Ġlooph ole
_ \(
or ld
ĠG oo
Ġcar rots
10 10
ax ies
dom ain
Ġvalid ation
Ġgraph ical
cd on
Ġflash light
Ġperm its
ĠSch war
organ ic
aaaaaaaa aaaaaaaa
terror ism
F Y
Ġan atomy
ĠB eth
sh ima
Ġfl am
17 5
Ġsurv ivors
spe lling
Ġdiss ap
Ġear liest
Ġgigg les
[...]
