{"Ġinstance":5288,"Ġlen":23634,"DK":23912,"Ġscient":2561,"ĠFrance":6195,"Ġshift":6925,"ĠVict":12890,"Ġdeity":15744,"Ġfun":766,"oog":5991,"headed":13397,"Ġfucker":8616,"Ġdetector":13258,"wor":1462,"righteous":15747,"Ġphysicist":18748,"ace":663,"Ġcite":9188,"Ġdirect":2158,"ó":181,"Ġexposure":9900,"rain":7491,"Ġabandoned":13637,"olved":11702,"Ġenabled":15618,"Ġfrightening":15719,"college":18094,"ĠMinister":17206,"LLY":6967,"ĠPutin":15119,"Ġnewly":19068,"Ġeligible":19716,"loc":22123,"ĠForgive":19665,"Ġassumptions":10396,"Ġcontrollers":21098,"Ġnegatively":22746,"Ġcuriosity":7089,"OOR":24979,"Ġbanker":25277,"ĠBin":15140,"Ġfunctional":9092,"ĠII":6883,"ĠParticularly":23191,"Ġcrippled":21471,"punk":22652,"ĠOver":6474,"ollo":24428,"Try":8533,"Wikipedia":14114,"uddenly":18595,"ĠVS":20006,"Ġregret":7046,"su":22580,"Ġseconds":3262,"Ġanarchism":18208,"Ġoverkill":23950,"Ġfishy":18375,"Ġlightweight":23303,"Ġhomes":7371,"Ġangry":4196,"Ġimagery":22604,"Ġdistribution":8898,"Cause":16455,"Such":22731,"ĠDane":13480,"alleg":25651,"Ġsup":746,"Ġ:/":6015,"ĠGTA":12455,"Ġhills":20549,"Ġhambur":10725,"Ġmedi":11303,"m":82,"estion":6747,"Ġdownload":2766,"ĠExpect":21320,"Ġaustralia":24341,"Ġclitoris":25210,"twice":25349,"IO":21489,"Ġtorture":4794,"Ġdefault":4962,"Ġcollapsing":24679,"Ġdensity":15307,"Ġinterpret":5148,"Ġtestament":15783,"pped":3383,"IGN":21155,"Ġupvoted":3742,"Ġexplodes":20928,"Ġnose":5753,"Ġnotation":20672,"Ġcontext":3081,"700":11231,"Ġevac":23819,"Ġav":1786,"ĠMarxist":24431,"ĠAMERICA":20768,"agues":16044,"Ġpres":1387,"Ġpenguins":24604,"Ġreply":3215,"Ġinside":2771,"Ġgroceries":18920,"iculous":12779,"Today":18426,"Ġlead":2035,"ĠJordan":13881,"Ġsyrup":10567,"INK":9285,"ĠFACT":21419,"AA":1133,"asts":16462,"Ġbring":2264,"Ġconclusion":6152,"ĠIBM":13785,"hammer":18505,"ĠTechnically":8919,"Ġrhyme":17047,"acking":7457,"Ġnursing":21740,"Ste":13108,"americ":18775,"Ġmates":18799,"ĠSolid":20772,"ĠComb":23737,"Ġjustifying":24738,"part":7107,"Ġdocumentation":12667,"Ġartif":18155,"Ġexplanation":4626,"Ġfructose":19475,"Ġrelationships":8082,"Ġroommates":17161,"Ġexit":11033,"Ġwhip":13977,"results":20331,"EEEEEEEEEEEEEEEE":25512,"anied":25102,"Ġindependently":19556,"ice":565,"Ġsang":22706,"Fail":23705,"days":15778,"Ġopening":6525,"Ġfiling":23362,"livion":7669,"Ġbuddies":12055,"iders":7414,"ĠDefinitely":7093,"Ġpolite":8945,"Ġaltern":3562,"ĠBoo":12044,"ester":3388,"Ġpredators":23665,"ĠRep":2008,"Ġelectric":4860,"long":7363,"ĠPR":4944,"planes":16761,"rupting":17505,"Ġstated":5958,"Ins":18149,"Ġcasually":21983,"Typ":23055,"Ġneglig":14719,"alley":11104,"Ġprotected":9392,"bra":9496,"ags":8210,"ĠCorpor":11190,"Ġtremend":15720,"ĠMontreal":16136,"Ġderog":18272,"ĠExp":20897,"Ġoverdraft":21875,"Ġconditions":7359,"Ġedits":23590,"ĠFood":11356,"ocke":18441,"ity":535,"Ġweigh":7571,"Ġgraduating":24470,"ĠMR":24475,"ĠCad":25850,"Ġattempt":2752,"Ġruining":10481,"sun":15866,"ĠAdblock":17567,"entions":19705,"Ġreput":8525,"Ġcm":23547,"Ġnone":3598,"=/":19119,"Ġregularly":6768,"Ġmaterials":10578,"Ġcontraception":23266,"Ġchina":12818,"ĠWorking":17709,"Great":10623,"Ġignorance":4997,"police":16099,"nuts":14985,"Ġprot":1739,"ĠFinding":24548,"egg":12379,"ĠOntario":12650,"Ġdistro":13379,"Ġdetermine":8252,"Ġbombers":18042,"Ġlanes":18570,"Ġrode":18001,"iiii":6697,"ĠMontana":16730,"ĠACLU":15801,"Ġfoll":1773,"Ġadvoc":5133,"Ġcited":14617,"ĠiPh":4526,"ĠCast":11528,"Ġbrake":17861,"Ġstripper":18091,"sci":20488,"Ġarticles":4228,"Ġexperimental":20844,"iot":11103,"Ġfires":13207,"Ġ^^":18081,"ĠVe":20902,"detail":16506,"English":12336,"Ġsanta":17309,"Ġcellphone":15353,"Ġvarying":23646,"Ġfrickin":23873,"wiki":1149,"ĠHa":3744,"Ġhire":6617,"pass":7277,"ashing":5697,"atican":17049,"Ġplacing":19107,"org":847,"Ġimmig":5530,"fru":21041,"ĠKu":23103,"26":4186,"Ġrede":16627,"Ġeuphem":17798,"ĠInn":23291,"nce":1071,"Ġhur":2359,"Ġsteaming":23700,"Ġhypocr":4841,"ĠRadio":9801,"ingle":9407,"Ġtheology":21379,"ĠHay":17301,"Ġinvention":13071,"Ġtrend":6121,"ĠFROM":12748,"ivable":14454,"advert":17246,"Ġgrammer":25233,"Ġhealing":19493,"Ġchildish":10017,"Ġcollateral":24943,"gy":1912,"OOOOOOOO":5896,"ĠWWII":8219,"EAR":10426,"ignty":20741,"Ġplumbing":25249,"Ġrip":6669,"TO":12205,"ĠLSD":9349,"ĠGene":15414,"Ġtruthers":21370,"Ġballot":12600,"'!":19560,"Ġprec":5640,"Ġimported":22702,"aws":9237,"Ġtroll":1947,"Ġwashing":12861,"Ġthanks":2059,"ĠTE":17494,"wed":3214,"ildren":7985,"Ġentitlement":18779,"inated":5790,"ĠAIDS":8552,"Works":24448,"Ġqueries":25045,"Ġenhanced":25068,"Ġappearances":25093,"ĠSex":7485,"Ġpew":14387,"Ġdogma":16530,"Ġtank":6772,"Ġfinance":12087,"ĠMur":7683,"organ":7934,"Ġovercome":15956,"everything":10388,"Ġarrogance":17984,"ĠDecl":22050,"Ġcompact":22470,"ĠSanta":7768,"tz":12662,"ker":5222,"ĠShar":13337,"HTML":16921,"Ġterritories":22558,"ĠEXT":23378,"ĠRF":22581,"Here":3336,"Ġverses":24370,"ĠQuestion":11518,"city":13744,"Ġ41":19336,"Unless":8915,"liv":6312,"Ġcomplete":3034,"ĠYo":9010,"Ġcounts":7426,"Ġwolf":9230,"Ġstripped":19590,"arin":19615,"Ġcode":1988,"yl":5050,"Ġoxygen":10684,"ĠArabs":8352,"eda":8564,"perial":17581,"oked":14304,"Ġbonus":8356,"Ġsliding":22078,";_":11970,"ĠWing":21969,"ĠPresidents":24128,"Ġcomponents":15667,"OR":1977,"Ġunto":16956,"Ġdefinition":3083,"Ġpolygam":20085,"Ġconver":11199,"Ġdealer":12430,"Ġdisease":6185,"Ġskept":7991,"Ġelaborate":6499,"Ġoffers":9317,"Ġgrows":11977,"ickers":22330,"Ġcool":1480,"Ġuploading":21701,"ĠBerkeley":22796,"Ġdemonstrated":15000,"Ġactor":8269,"Ġempty":5816,"Ġoffering":9259,"itor":4172,"ĠFail":9651,"Ġtransaction":18374,"trying":20669,"Ġconstant":7190,"Ġstops":7814,"walk":9026,"Ġcomprehension":10213,"Ì²":14952,"*:":15988,"Ġdemonstrates":19438,"Ġcredentials":21414,"hulu":23181,"ĠAllah":14083,"onel":23677,"ĠHUM":24498,"pac":25454,"303":25491,"Ġhides":23633,"Ġdownfall":22657,"ustom":2834,"ealous":6563,"§":106,"ĠIPA":19557,"Ġgenders":21865,"Ġstarts":4443,"alkovich":13742,"ĠAssh":15837,"oston":7616,"Ġwhenever":5162,"Ġcann":8436,"Ġdirected":10733,"Ġshown":5554,"ĠRac":16083,"Ġstems":21016,"pull":20534,"Python":21285,"ĠLeg":7427,"money":12640,"mine":14028,"Ġsolely":9630,"rog":4328,"Ġcapitalized":19525,"Anti":24559,"ĠBlackwater":20285,"Ġasserting":25050,"pp":509,"per":734,"Ġlie":3240,"take":9939,"Ġfright":10407,"ĠRIAA":10907,"ĠIMO":7055,"Ġdesires":19422,"Ġpan":3897,"Earth":20570,"lest":16664,"eyed":21758,"Ġmarsh":24043,"Ġgeograph":24363,"Money":25929,"_%":10895,"ĠTheir":4874,"ĠBeast":24419,"Ġarbitrarily":23497,"unky":17248,"shima":25031,"um":437,"ĠFoot":16670,"weak":25325,"Ġviral":12602,"Ġterminology":17957,"Ġmail":4926,"ĠBB":12030,"ĠGoddamn":13578,"ident":1077,"office":13198,"ATED":18694,"ĠAfricans":19001,"atrix":10367,"Ġserve":5717,"Ġloose":7030,"anything":9878,"entertain":19179,"Ġslapping":20535,"ĠChick":21402,"Ġsadly":7963,"Ġfunnier":7640,"þ":192,"gate":9133,"Ġconcent":7674,"sa":9795,"ĠZero":14552,"Ġthou":15916,"Ġblogger":18354,"itution":2530,"ĠLove":5863,"Ġdelay":11386,"ĠAle":19287,"Ġfucktards":23078,"ĠSeth":24425,"ĠScient":5586,"**,":7994,"TFU":11892,"Ġlikelihood":18445,"drah":20981,"ĠKurt":18999,"lA":24276,"Ġglowing":24715,"Ġhostile":14088,"Ġproved":9543,"Ġinvade":9487,"Ġbait":13147,"Ġwearing":3450,"etor":7185,"ribly":5651,"Ġpisses":9412,"Ġrig":12976,"pal":6545,"rating":7123,"Ġbumper":13345,"pay":13645,"ĠTitan":16822,"Ġnoob":13935,"Ġrefugees":21967,"Ġduration":25496,"Ġcommunism":9735,"Ġinput":8778,"Ġtracks":9879,"Ġfrequ":4876,"gs":10640,"av":819,"\").":11924,"Ġimmortal":17409,"Ġlocally":17877,"ĠPrecisely":20976,"Ġgoals":10828,"ĠYoung":13118,"Ġstumbled":18594,"đ":211,"Ġadds":8688,"Ġinstinct":11046,"Ġtunn":11262,"Ġwanna":4787,"ĠWeed":22006,"Ġlux":11896,"Ġfighting":4444,"ĠÌ²":25179,"marked":25222,"BL":10664,"01":5115,"TR":10082,"Ġdirector":12021,"Ġdreaming":16875,"ĠAsimov":21620,"ĠCase":15994,"Ġparaphrase":22282,"ĠYea":4635,"ĠGame":7329,"ares":6253,"nie":13086,"Ġconfess":19360,"suck":22871,"ĠBACON":25845,"Ġannoy":2686,"ĠThird":13699,"Ġincentives":24589,"Ġsophom":25852,"Ġairport":9132,"rillion":22592,"life":4976,"orgeous":12389,"lightly":15261,"ow":314,"ĠTO":3275,"Ġmodified":12645,"md":14009,"Ġtechnical":6844,"Ġskull":10984,"Ġtolerate":13974,"Ġdisprove":15730,"oof":2196,"ĠMIN":25860,"via":12778,"Ġclin":10083,"related":4248,"abled":6753,"Ġsword":9420,"modern":14406,"ĠGmail":15626,"atic":1922,"oubtedly":21461,"ĠSAID":23066,"Ġhyperbole":13825,"plain":14570,"Ġdonkey":16159,"Ġdyslex":19645,"Ġrespectively":22192,"arko":25641,"EST":6955,"rust":11176,"ial":991,"grounds":18169,"ĠCOUNT":24038,"ĠEnterprise":19444,"Ġlolcat":22932,"adelph":13743,"cription":10336,"Ġident":3528,"Ġsocks":9620,"Clearly":18465,"ĠPaint":19121,"Ġlanding":11786,"plan":8064,"Ġclubs":12153,"qualified":20164,"stan":19840,"hacker":25256,"ĠVan":12386,"ais":22329,"dat":25357,"Ġtwat":13745,"Ġaway":1264,"ĠScr":14408,"ĠMem":10785,"ĠĠ":515,"Ġuntil":1351,"Ġfacility":15858,"Ġeducated":7064,"Ġlabeled":10812,"Jew":13571,"mg":13551,"iden":6943,"ieving":15042,"Ġfame":15713,"Ġ404":18064,"urassic":19682,"ĠDonald":24346,"isode":12745,"ĠLiberty":15859,"Ġchair":7342,"FS":11988,"Ġdeploy":11429,"wind":11956,"âĶĢ":17397,"Ġfined":23771,"ĠPrivate":15612,"Ġsphere":18796,"ĠGot":5759,"ĠCO":6243,"walking":22634,"ĠLMAO":25346,"isease":24616,"ietzsche":20000,"ston":16182,"Ġshrink":18648,"Ġoccurs":12914,"Ġrise":7205,"ĠFB":24039,"Ġlettuce":18530,"Ġtripping":18744,"Ġincorrectly":13694,"spir":10688,"Ġfalls":7621,"ĠPrincess":16191,"Ġhorribly":9253,"universe":23929,"Ġplate":8072,"Ġhypothes":11798,"ĠFasc":14003,"high":7153,"Ġregister":8277,"posit":10096,"Ġpatches":16716,"Ġobligated":16298,"Ġmafia":22750,"ĠRussell":23764,"works":5875,"Ġkindergarten":23833,"Ġovernight":14627,"Ġdegrees":6991,"ĠAnything":6999,"La":15774,"regular":16687,"Ġjavascript":9983,"Ġatheism":4807,"ĠSat":5113,"yet":12920,"Ġgiggle":19904,"oun":2610,"anta":5209,"Ġwillingly":16295,"ĠPAT":22308,"Ġnav":11076,"Ġgroupthink":22002,"len":19765,"Ġwillingness":22023,"Ġabsence":14042,"ĠGranted":12034,"Ġnest":20410,"Ġsmug":7731,"Or":3391,"Ġdevast":16546,"ollow":9336,"Ġsuits":11502,"Ġoptimization":23592,"ģ":229,"ista":4056,"ĠWe":882,"iliar":4709,"pain":20208,"anan":21641,"Ġma":488,"Since":8349,"Ġdamaged":14796,"Ġcraigslist":12334,"ĠDays":21623,"ĠHappy":9777,"specific":19528,"Ġstunned":21781,"Ġhippy":21265,"bold":16075,"Ġparrot":23080,"anned":4036,"Ġsiblings":20018,"Ġscumbags":24084,"iques":10572,"aq":5921,"ittle":926,"Ġhus":4974,"...\"":3924,"Ġemployers":14352,"abulary":15202,"Ġmisses":17043,"cell":3147,"ĠSN":8714,"itors":8188,"ĠRoy":13254,"Prot":18864,"101":15629,"Ġwindows":3818,"ĠAliens":21425,"Ġ600":11983,"icating":15094,"Ġrooting":23323,"Ġsavage":25280,"Ġtons":6103,"Ġdust":8378,"Ġpassport":16413,"Run":22669,"Ġmarkup":18627,"code":7793,"AME":9268,"Ġgameplay":10915,"gam":12581,"Ġjur":13099,"Ġreports":7968,"Ġaffordable":15971,"Ġrod":16275,"Ġetern":13430,"ĠHAHA":18768,"iami":15637,"ĠEST":24226,"quately":24860,"160":18335,"Ġmisleading":6882,"Ġannounce":11152,"Ġ95":7633,"likely":24863,"Ġ:|":15158,"Ġalign":18537,"ange":1045,"Ġbs":17419,"ĠGrace":25433,"Ġdisguised":22870,"Ġdebts":18687,"Hy":19332,"Ġencyclopedia":25706,"Os":19720,"ĠBlow":19872,"path":20167,"Ġchain":7171,"Ġinc":1226,"Ġtruth":2393,"Ġpush":3717,"istic":2374,"Ġconspir":4069,"Ġgoto":19139,"ĠHom":12452,"ĠGodd":22917,"ĠKudos":14594,".........":24029,"Ġphysicists":24143,"Ġbollocks":24732,"ĠUnion":9217,"Dep":17908,"Ġstyles":14472,"ĠRU":19616,"Ġurban":10112,"ĠSand":11143,"verse":2354,"Ġslight":3384,"Ġ(*":14195,"Ġencounter":12295,"Ġpure":4041,"Ġwelf":8499,"photos":4936,"ĠMajor":14318,"ĠAdolf":24546,"allies":23286,"Ġchannel":6279,"Ġade":13383,"ĠPrime":14500,"Ġdeserved":8989,"ĠCoc":17600,"Ġaging":21408,"att":1668,"ĠDarwin":9672,"Ġpri":1729,"lessly":7506,"Ġowe":9912,"Ġcrisis":7637,"ĠOs":11342,"Ġworried":5173,"Ġburns":11289,"ĠBox":11635,"faq":16193,"pm":7070,"kept":21251,"Ġcripp":12708,"HS":10054,".\")":18312,"ĠGODDAMN":23314,"ĠPlaying":19155,"Ġwhoa":12382,"Ġinteraction":14764,"Ġnerves":21357,"tinypic":9206,"Ġpicture":1776,"rew":3080,"Ġdemocratic":7818,"ĠATT":21208,"Ġtweet":24768,"Ġfucked":2724,"fm":6636,"Ġmell":24526,"Ġkills":5900,"pes":6994,"Ġsends":12202,"yyyy":12500,"ĠOnline":15806,"MB":6673,"Ġ1200":22878,"Ġbelong":4648,"Ġrepeats":24065,"ĠWhite":4955,"ravity":13834,"Ġpolic":2644,"eto":16096,"Ġcommitment":16307,"Ġairlines":19909,"Ġdeveloped":6351,"Ġslaught":17729,"Ġblindly":13658,"ĠSometimes":4247,"leep":2370,"Ġwealthy":8266,"Ġrepeated":6564,"white":7568,"Ġproposition":17814,"Mr":11964,"Ġfelony":16717,"Ġsuccinct":23407,"Ġhacking":15124,"ĠInternets":20123,"Stupid":19496,"pired":24552,"Ġunless":2384,"isters":12252,"Ġloy":11682,"ĠIDE":15808,"Ġbox":2387,"Ġcast":5187,"ĠDownload":16858,"ĠTHEY":8581,"Whatever":18282,"Ġoverrated":11479,"ickle":18470,"oah":13803,"Ġdeclaring":19824,"Gee":20372,"irming":24939,"Ġmir":4511,"aring":1843,"Ġdisco":3894,"orting":18191,"Ġinformative":11742,"Ġconflict":6415,"ĠAss":6186,"Ġconcerns":12250,"Ġmute":18318,"Ġplayground":20474,"icient":4099,"Think":12083,"Ġheli":20477,"Ġcures":24323,"places":24861,"Palestinian":23927,"Ġprostitution":13673,"Ġoriented":20759,"Ġadditional":8577,"doing":14291,"ĠLib":12541,"Ġcycles":17533,"urb":2333,"Ġspeed":2734,"Ġtimes":1308,"Ġsticks":8934,"appy":3269,"Ġingest":25152,"Ġdrastically":18879,"Ġawe":15500,"Ġviewer":17989,"ĠNations":20321,"fully":2146,"orney":12498,"ĠGreeks":25306,"Ġfetuses":22667,"Ġhunting":8676,"van":9463,"remember":20441,"Ġparenthesis":24221,"Ġgeeky":18292,"Ġdiplom":19845,"Ġneur":17256,"ĠWay":5386,"ĠQu":2772,"Jo":19634,"ĠPathetic":25166,"Ġbinary":10193,"ich":628,"Ġflights":18232,"Ġpaperwork":19148,"annel":4584,"Ġrifle":9300,"Ġdevelopment":4946,"++.":16552,"atl":23538,"Ġwit":5901,"ĠI":279,"Ġplane":4665,"ĠSony":11269,"ĠDJ":15798,"Ġpriests":17767,"ĠIIRC":11248,"Ġrefined":25001,"Ġexecutives":16398,"ĠPope":12725,"AP":4661,"Ġtrade":4930,"ov":4108,"Ġleg":1252,"ĠJackson":7453,"ĠJet":23608,"Speaking":25302,"ĠMonday":10661,"arman":10754,"105":21783,"ĠWhile":3270,"Ġfact":956,"Ġmos":23930,"insert":11572,"ipedia":1068,"Ġscrew":5186,"trends":22843,"Ġmr":15940,"ĠArabia":10903,"ĠALSO":23449,"Ġknives":10511,"ĠTele":24405,"Ġvine":16713,"about":5556,"Ġbuffalo":12788,"31":8107,"ĠCOMPL":25563,"Ġconfl":5680,"Ġlaunched":15022,"Ġstrongly":7922,"Ġarg":1261,"Ġgather":9162,"Ġlobby":7494,"Ġportions":21106,"Ġjesus":7251,"ĠCube":22314,"Ġconsidered":2818,"Ġnom":5344,"Ġdetection":22521,"ĠINT":23168,"ta":3031,"Ġwann":21708,"Fe":20086,"sw":1324,"bly":12164,"Ġdominated":19718,"ĠNASA":9398,"ETE":24989,"Ġassass":9951,"Ġsemester":13949,"agine":5431,"ĠVer":9394,"PP":9549,"Ġbake":16792,"Ġsynth":19799,"Ġhack":4140,"Jesus":8414,"ĠSmo":10705,"Ġsimpl":6128,"Ġsway":15964,"teen":8654,"Ġproximity":25480,"alan":21009,"Ġmoronic":15065,"cribe":11078,"go":2231,"Ġhandy":8809,"Ġwritings":22415,"Ġtissue":15701,"aur":3659,"iforn":4010,"Ġrow":8059,"Ġmemories":8595,"Ġamateur":14004,"Ġhormone":24366,"Ġreplaces":24967,"Ġwife":2085,"Ġfantasy":6947,"phone":4958,"Ġcandidates":6254,"iant":3441,"question":12242,"ĠWithout":6841,"ĠSNES":19374,"ĠCorn":14598,"DD":6899,"Ġdecline":11998,"Too":11316,"ĠFreeman":14308,"Ġbuilding":3477,"Ġ000":18501,"iah":13569,"Ġethnicity":16156,".&":25408,"ĠFACE":22757,"Ġdictate":18619,"ĠCrystal":22249,"Ġcopyright":6023,"Ġexperien":4587,"UTF":8317,"Ġhelps":4629,"Ġabortions":10506,"Ġgravity":7622,"Ġorganisms":25875,"oster":10998,"Ġscience":2278,"Ġte":781,"Ġpond":18849,"ĠBald":19268,"Ġsimulation":19415,"Ġsmartass":20934,"Đ":210,"Iraq":20416,"Ġdivor":6898,"Ġcringe":15507,"Ġdiving":21824,"bies":8142,"ased":1867,"example":22744,"ĠProof":16650,"ĠLisp":7757,"Ġlearned":3314,"ĠBat":7781,"Ġfantas":11488,"Ġpassenger":14680,"ttp":469,"Ġtom":4110,"ĠAmendment":11401,"Ġtechniques":12442,"Ġscientific":4567,"ĠDepends":6791,"Ġgift":5464,"Ġsmarter":7440,"Ġshares":13656,"Ġset":1426,"Ġrides":17343,"res":519,"Ġstr":1173,"Ġmanufactured":17805,"ICH":18640,"ĠBle":18814,"Ġarena":23396,"ĠRad":18018,"establish":22637,"page":4694,"Ġposting":3053,"admin":22903,"/\"":23657,"ĠPeople":1972,"social":9006,"acular":12630,"Ġinstitution":10333,"ĠW":351,"Ġhu":1879,"Ġsmokers":13444,"Ġconnot":16197,"ĠĠĠĠĊ":6091,"Ġcubes":24465,"namon":25353,"ĠMit":25748,"Ġsizes":13595,"ĠEverything":5883,"ANT":6031,"Ġpuzzled":24853,",,,,":25833,"udder":11815,"Ġcashier":19650,"Ġamused":13951,"lah":12468,"Ġcontributions":16577,"Ġvitri":25689,"athers":8171,"Ġpress":2988,"-)":2819,"Ray":17039,"Ġnegotiate":21330,"Church":25724,"Ġloosely":23343,"umbered":25276,"udden":17148,"URN":14504,"Ġincludes":7096,"Ġplague":17282,"Mine":24487,"Ġembr":11777,"bands":18658,"Ġpass":1501,"Green":20943,"ought":720,"ism":858,"Ġchildren":1886,"ĠMaine":16740,"Ġdisclaimer":22363,"ĠFiction":19152,"Ġactive":6958,"ĠGraph":23686,"Ġgamers":12580,"Ġpuppies":14842,"Ġidol":17532,"Ġdance":6920,"Ġregist":5633,"Ġdispar":16458,"ĠKinda":10284,"ced":1224,"ĠObviously":5219,"oured":12212,"anga":23073,"Ġcrying":6364,"ĠCrap":15569,"Ġconfiguration":18216,"ously":4286,"ĠPalestinians":4933,"my":1749,"Ġlame":4752,"rock":6951,"exper":9559,"Ġloser":9245,"ĠVote":9680,"Ġelevator":12554,"Ġebay":15340,"Ġpublishing":17480,"Ġbre":1395,"Ġpromised":10234,"Ġroles":15799,"Ġinhab":17433,"House":20721,"Ġdonor":23605,"uous":5671,"Ĭ":238,"ĠVOTE":23990,"ĠGarfield":24912,"Ġundercover":25465,"Ġdeleted":5931,"Ġbu":691,"Ġpulp":23839,"onomy":24670,"Ġquarter":8192,"Ġannoys":14268,"Ġmiracles":25643,"icker":13237,"Miss":24025,"Ġsave":2777,"001":15449,"Ġamong":3980,"Ġconsistency":19128,"Ġcharities":22062,"Ġspaghetti":18878,"ulent":14413,"......":7526,"Ġgeneration":5076,"Ġassum":1530,"ĠSay":6827,"Ġsanity":16408,"Ġtab":3434,"iel":9442,"olen":5869,"arning":3913,"Ġform":1666,"Ġreplace":5205,"eks":11808,"Ġbrainw":12058,"Ġ55":12533,"Box":13151,"Ġmyth":5762,"Ġair":2075,"Ġinfluence":6713,"ĠChem":18623,"Ġuncomfortable":8189,"NNNN":14046,"Hg":19060,"Ġinher":11310,"=&":9201,"cool":8974,"Ġbedroom":11074,"Ġbigotry":12560,"Ġmaintenance":13090,"Ġmixt":19652,"Ġquite":1384,"Hot":20557,"Ġissues":2860,"Ġcontradictory":20561,"Ġglasses":7318,"opping":17835,"Ġpred":3745,"ienced":19126,"Ġbigots":19346,"olol":21273,"indsight":21428,"ĠBus":21868,"Ġendangered":22629,"ĠFactor":22811,"ĠTexans":23473,"lt":1546,"Ġgeneral":2229,"idd":1646,"Ġcompletely":1633,"Ġimho":20494,"min":4561,"Di":23846,"oms":4954,"Ġscrub":24166,"Ġhorizontal":21202,"Ġsells":9747,"Ġmesh":25378,"flies":24010,"ĠPD":25687,"perl":25789,"?\",":20953,"Ġplanes":8281,"rawn":7841,"Ġwrap":9679,"marijuana":19752,"agrams":23716,"Ġtransit":16335,"Ġcontradict":9482,"ĠFuture":18164,"emale":10836,"iations":25515,"Ġdedu":25692,"Ġemployment":12401,"Ġvideot":25726,"ī":237,"ĠAng":6627,"GC":22812,"Ġmissing":2926,"ken":1486,"ĠWORK":14765,"igned":6842,"bestof":18117,"PR":7489,"cuse":9788,"ĠBring":13646,"Ġcu":16022,"Ġfps":20138,"Ġspent":3029,"EL":9616,"we":868,"ĠGWB":17547,"Ġrenamed":25614,"ranted":18887,"Ġwandering":23791,"beck":25894,"=%":17893,"Ġlisting":17190,"Mus":10622,"norm":23070,"ĠPor":25704,"Ġcance":11705,"Ġtechnologies":14853,"bed":2592,"Ġtransmission":15686,"Ġcompare":5303,"Ang":21091,"ĠTina":24244,")\"":11729,"usable":19789,"Ġswed":18319,"wad":21556,"Ġirrelevant":5629,"Ġlands":9557,"Poor":24414,"Ġwhim":20404,"ĠAN":2326,"ueless":10443,"Ġslide":11183,"Ġapply":4440,"ĠFe":7473,"Ġhaz":11234,"Ġteens":12550,"Ġweights":19538,"ourn":3874,"ĠHam":4325,"op":360,"Ġinitially":12148,"Ġbun":21036,"OTIP":24716,"ĠNirvana":25652,"^^":14768,"ether":1955,"Ġwont":6183,"Ġflesh":8479,"Ġconclude":15999,"Ġkidnapping":21905,"ĠF":476,"ĠMPW":23264,"wheel":19025,"ĠWine":15117,"Ġpragm":19810,"Ġinstalled":5749,"note":12149,"âĶ´":25665,"Ġmeeting":6763,"Ġlaid":5198,"Ġrecycled":22984,"outside":22789,"135":23405,"ĠGreece":17242,"Ġincompetence":19309,"Ġcandle":17239,"ĠCentral":11288,"python":17372,"ĠRIP":17466,"Ġtext":2266,"Ġtoes":15485,"ĠPass":16709,"mont":19391,"Rec":19771,"ĠShoot":14455,"guard":22973,"ates":960,"Ġspiritual":12774,"Ġtwilight":20850,"Ġsubtlet":22784,"Ġsloppy":18495,"Ġago":1320,"osi":12465,"Ġesp":14943,"ĠPix":16003,"Ġdrug":2037,"Ġexcessive":12217,"ues":1809,"ologies":8270,"ĠBr":1592,"Ġelse":1065,"Ġpwn":16739,"Ġincome":4211,"ĠFDR":18017,"memory":25406,"Ġfix":2178,"ority":21004,"ideas":25464,"Ġlarger":5064,"Ġtall":5820,"Ġlists":9126,"FORE":17154,"Ġthicker":25550,"ĠWHEN":18116,"Ġadul":19012,"orman":22448,"Sup":9863,"ulance":15601,"Ġframeworks":25351,"bish":12981,"Ġcreative":7782,"ĠAlbert":12218,"Ġtroops":6340,"ĠWMD":25281,"ingers":16194,"irth":2882,"Both":14169,"Ġsect":17051,"Ġvisible":9488,"ĠAlien":14782,"Ġtrick":4142,"Ġtemporary":13824,"ĠAuss":13939,"Ġinvested":14881,"Ġunderwear":10436,"Ġsimplest":20345,"ĠXen":17756,"ferences":8758,"alians":22157,"Ġgist":25497,"Ġslavery":8110,"Ġphotos":5034,"ĠMult":14398,"Ġprohibition":16088,"Russ":17524,"GER":24650,"Ġanalog":11245,"Ġacquaint":24571,"sky":14540,"there":5065,"Ġblocking":11647,"uminum":11693,"Ġobjective":9200,"iw":11072,"Ġflags":15961,"ahl":24040,"Ġgenetic":8399,"Ġrecovered":25051,"Ġank":18486,"Ġcategory":7753,"Ġsuddenly":5538,"clip":11492,"Ġlong":891,"holders":14392,"author":15443,"Ġnotable":22443,"ĠNation":18189,"Ġpenguin":20777,"Ġevil":2633,"OST":8868,"Men":14660,"GU":21203,"Anybody":21633,"Ġforehead":14492,"cept":954,"Ġlungs":13807,"Ġtuna":18106,"Ġexhibit":23381,"Ġtoaster":19234,"Ġfinancial":5417,"ulting":5955,"unning":7026,"fest":13887,"ĠKatrina":21772,"inates":22422,"Ġnames":3767,"Ġunix":20221,"abc":20301,"outine":19340,"Ġfriends":1550,"Ġobv":1535,"ani":17102,"Ġquiet":6757,"Ġcombat":8311,"ogen":9886,"ĠSecretary":21661,"Ġquant":6689,"iph":12186,"ogyn":13607,"Ġnear":2628,"Ġintegr":6048,"licop":10949,"ĠTed":11666,"vas":14064,"points":15387,"Ġpayroll":22264,"Ġsums":12921,"Ġrapes":19007,"ĠKelly":24521,"misc":24834,"ring":2101,"gold":15908,"ripp":11434,"Ġbehavior":4549,"ĠNEVER":7908,"Ġrender":14837,"Ġbeyond":4014,"Ġinterviews":12376,"gie":16469,"Ġdownright":18046,"Ġpreaching":16660,"Ġpolicy":3593,"Ġadult":3919,"Ġlittle":953,"well":3880,"ĠBud":13398,"ĠKILL":12495,"Ġsweet":3856,"Ġsubmitted":5223,"ĠPersonally":6132,"eral":2608,"agle":12314,"Ġtele":6416,"ective":13666,"Ġ37":13821,"Ġ###":18244,"!!!**":19598,"Ġgener":1287,"?](":4559,"nl":17484,"ĠOSS":24841,"ĠNic":9645,"Ġinfrastructure":8741,"ahahaha":12811,"ĠPatrick":15599,"Ġwell":789,"karma":19769,"Ġobvious":2606,"ĠJS":15849,"ĠDuty":20591,"Ġretire":9536,"130":15009,"ĠSaid":22719,"ĠEl":6527,"Ġcoup":11343,"Ġtrump":18385,"etus":22844,"36":5320,"Ġpossibilities":14963,"peare":15608,"Ġwebpage":20229,"od":545,"Jud":24954,"Ġsadder":25619,"Ġnice":1394,"Ġpotentially":9127,"Ġjuice":8457,"ĠBee":17589,"Ġsession":11731,"Ġtapping":23632,"Ġcommit":5607,"Ġclosely":9101,"ĠiPhones":24092,"mmmmmmmm":21493,"Ġdecades":6094,"Ġcontrad":6949,"Ġhired":9367,"Ġtexts":13707,"akespeare":16385,"Ġinvest":2884,"Ġpony":15955,"icago":5940,"irable":13048,"erenity":20944,"Ġpurchase":6349,"ĠGrammar":12558,"Ġquotation":17254,"ĠSCI":19568,"ĠBarney":21635,"Ġcaution":23045,"ĠFran":25444,"GN":15773,"Ġmethods":8236,"ifiable":10918,"Ġabilities":13144,"Ġsearches":13536,"inois":13873,"ĠGREAT":16353,"ports":7296,"Same":13479,"NING":17155,"oohoo":23906,"Read":9699,"Ġintrins":20886,"Ġsuperv":15987,"Ġsetting":4743,"Ġelectronics":13461,"ĠArgent":17424,"ulsion":22995,"Ġsodium":23371,"Ġcrass":24096,"ĠUniversal":18151,"Ġboxers":23761,"Ġoffset":20596,"Ĵ":246,"Ġorganisation":24182,"steamp":24409,"Ġ2007":7707,"Ġmarriages":15979,"Ġdislike":6275,"creen":19486,"Ġaround":951,"Ġone":480,"Ġcoff":3619,"Ġaunt":15097,"ulative":16827,"Ġshapes":20763,"ĠOne":1913,"Ġfunded":9395,"German":19225,"Ġentertained":20899,"256":21059,"Ġ??":15214,"Ġsafety":5739,"ĠSenator":11811,"Ġcompiled":17575,"Ġbiking":23015,"Ġmonetary":14171,"ĠVW":24017,"Ġgrandparents":15313,"Ġmakers":15515,"Ġpy":9166,"ĠStre":24325,"Ġphenomenal":25084,"zilla":6487,"Ġmatches":12424,"Ġveget":5317,"Ġwages":10435,"Ġpleased":13693,"ig":431,"ĠSpr":17042,"Ġgettin":25537,"Ġalleged":17672,"Richard":25604,"ĠKNOW":9156,"Ġstatistical":15606,"Name":15717,"Ġreact":5312,"Ġunbelievable":15149,"Ġsq":17868,"Ġbackwards":5094,"ĠBur":7239,"omatic":11994,"Ġconfusion":9859,"ĠOther":4439,"Ġcyl":20639,"bb":4712,"Ġstrict":7243,"Ġadvertise":14473,"endar":10827,"Ġstale":20544,"Ġrats":12422,"ĠHooray":17974,"jp":18635,"ĠNature":18406,"ä¸":22495,"iest":3577,"astructure":8516,"ulhu":18757,"Ġzone":9227,"cil":7749,"Ġbroke":4237,"Ġincl":1909,"Ġhelmet":11621,"Ġcalendar":12584,"Ġlucky":4407,"Ġasses":8247,"Ġact":607,"Ġblatant":11118,"il":401,"Ġphotography":13772,"ĠBIG":14302,"ĠComment":12538,"Video":19160,"sein":15824,"shall":20506,"ĠGDP":12481,"Ġwebcam":20796,"Ġpromise":7084,"epalm":10702,"icket":15195,"Ġrecount":20405,"Ġshooters":21167,"Ġkeywords":24200,"Ġtwit":25089,"Ġowl":25211,"inc":3702,"Ġmilit":8835,"Ġruns":4492,"Ġven":9014,"gust":4141,"Ġdamn":1738,"Ġsumm":9038,"Ġperiods":12110,"Ġpicks":14572,"ãĢ":16093,"sset":18816,"Ġtowns":13885,"ĠCrash":19916,"Ġsettled":15369,"ĠONLY":9975,"it":274,"ĠØ":23611,"enty":2655,"Open":16847,"Don":2961,"Ġviewing":10460,"ĠNZ":15255,"ĠYe":18601,"Ġhometown":21100,"ĠBody":23824,"Ġanalogous":23855,"arry":8625,"access":19923,"semite":22703,"Ġappalling":25674,"gger":7132,"Ġsober":12027,"ĠKanye":12421,"Ġcomic":3901,"Ġ=/":10979,"hip":3443,"enda":6495,"Ġhungry":7915,"ider":3464,"ervation":16903,"otted":11734,"ĠBREAKER":15901,"boing":22210,"ĠOil":13176,"Ġdebugging":24034,"911":13501,"ł":260,"conom":1704,"cat":5767,"Ġblunt":13723,"ervices":17714,"lost":17841,"Ġfacilities":17954,"Ġrapist":11641,"ĠTitle":18006,"Ġdisingen":18685,"entials":18704,"Ġresub":19314,"Ġeduc":2629,"VOT":23658,"Ġunaware":11325,"Ġconsciousness":10425,"Ġadmission":18243,"Ġserial":10100,"Ġperpetrated":25967,"Ġsharing":6606,"tab":10206,"Ġspeaking":4067,"Ġslept":11667,"ĠDamnit":15285,"Ġassess":13180,"ediad":15611,"trend":19203,"ĠColumb":12199,"crast":19649,"Ġapathy":21496,"ĠArmy":8988,"Ġtitties":22275,"Ġwelfare":8528,"!\".":13516,"outhern":6868,"MMMM":17479,"Ġlaughed":5226,"vy":5673,"wee":19335,"OOL":14992,"ĠJesus":2315,"Start":19833,"Ġhelmets":24540,"ĠDOS":17826,"Ġstudent":4106,"ĠBU":10852,"Ġincon":10015,"Ġprobably":943,"Ġunderstands":11151,"anwhile":12830,"Ġpracticing":15935,"Ġexploration":21397,"Ġchimp":16231,"Ġbulb":16368,"Yea":21446,"Ġresulted":16911,"chool":4270,"ĠIMDB":24380,"ĠBub":24476,"shtml":11893,"Ġexample":1937,"Ġgraphs":21506,"Although":8849,"fu":8986,"Ġencryption":13967,"Ġsyll":15450,"ĠARM":19653,"ĠFIRE":18588,"ases":2339,"russ":25534,"Ġsolid":5345,"azis":5493,"iat":8429,"Ġcame":1532,"ĠRight":2740,"ĠMove":10797,"Ġstarter":25609,"Ġinfluenced":16444,"Ġbleeding":11775,"Ġeng":1866,"back":2978,"Ġmistress":25766,"conspiracy":17244,"ĠPentagon":19370,"Ġtherefore":4493,"Ġneat":7199,"Ġrepercussions":23353,"Ġjudgement":12715,"Ġtrans":1803,"ĠSarcasm":18440,"ĠNYC":7081,"Ġmicrosoft":12139,"ĠHalf":7286,"Ġperspective":4737,"Ġneck":6451,"making":12157,"Ġrevision":19875,"ĠIndeed":5027,"Ġportrayed":17054,";&":3883,"Ġheaven":6808,"Rep":8890,"Ġpromising":16463,"Ġmmm":15496,"Ġintroduction":17159,"ÑĤ":18586,"reddiquette":18555,"ĠOpera":6465,"Ġditto":22901,"Ġwtf":5040,"ĠiMac":24897,"Ġsleeps":22919,"Ġassociated":8045,"ĠWR":9943,"ĠBooks":23050,"wired":16301,"fp":24535,"âĢª":8601,"Ġshortcut":21870,"Ġsubmitting":9633,"ish":657,"source":6263,"ume":3381,"omp":14087,"ĠJon":6963,"Ġleads":6588,"Ġhamas":23781,"istor":13097,"kk":9947,"ĠHELL":13451,"Ġ~":4767,"ĠNukem":20436,"Ġlater":2382,"Ġmindset":12967,"ĠArgentina":20645,"upvote":23576,"Ġcorrupted":19270,"itarian":7283,"ĠMSDN":24851,"Ġslip":10058,"ĠBesides":8015,"ĠDunno":14766,"ĠPolish":16859,"Ġoccurred":9684,"Ġfrequent":12084,"wait":8077,"Ġcapac":21886,"Ġoverthrow":21241,"Ġgull":13500,"Ġbaffled":24131,"Ġcomplain":3740,"Ġsupern":13557,"ulsive":18870,").":764,"ĠDoes":1764,"Ġear":6814,"Ġstock":4306,"ĠCook":9588,"jad":14359,"Ġreturning":15996,"Ġboob":12311,"Ġfirewall":18499,"cii":22137,"ient":1949,"thes":7381,"Ġhitch":20147,"games":10133,"ĠGNU":11564,"ĠPerl":8362,"forum":12275,"Ġtat":22425,"ÙĦ":22533,"Ġdivide":12547,"ĠBirthday":22874,"MD":22960,"Ġconsensus":12767,"ĠWELL":24873,"Ġintervene":25182,"Ġlib":17696,"Ġexecut":5390,"Cor":20577,"olk":18949,"Ġcompan":20940,"Ġbandw":6894,"pelled":7419,"Ġprequ":25559,"REE":9692,"ended":2341,"ĠDor":19536,"Ġlegalization":13385,"00":534,"Ġsent":1716,"GE":5241,"ĠBMW":15436,"900":14333,"Ġthresh":18317,"imore":21298,"ĠDemocratic":8373,"Ġantenna":22714,"Ġhet":23248,"Ġworsh":25705,"ĠHahaha":10834,"Ġcarriers":18520,"jure":16036,"ĠBomb":19099,"regulation":19516,"vorak":23969,"ff":587,"Just":3328,"ession":4379,"Ġresorting":23386,"consumer":25091,"ascal":16953,"Ġun":489,"Ġport":2874,"IS":2014,"Ġpics":4525,"Ġbetray":16155,"bars":17087,"Ġreached":8994,"Ġparks":18330,"Ġdoct":5151,"30":2286,"Ġlawyers":8551,"ĠHIM":15137,"THAT":20532,"Ġswitches":18777,"Ġmaturity":19064,"rugged":20370,"ĠGravity":21436,"Jon":25171,"Ġboundaries":19876,"Ġcarrots":25015,"88":4268,"Ġoccasions":14698,"Ġgloves":16579,"wiktionary":24976,"Ġlied":8357,"Somebody":24202,"izar":8074,"Ġpuppet":12714,"Ġoutdated":14986,"Ġparents":2274,"ĠAst":11268,"Ġdentist":17285,"3333":17931,"ä":166,"Mor":19145,"ĠSoulja":20676,"abab":22109,"ucin":5120,"nature":23209,"Ġfounding":15980,"Ġstandard":2983,"Ġinfuriating":23284,"ĠMac":2782,"IIIIIIII":23297,"ionally":7334,"Ġresident":8775,"Ġsensitive":8803,"TT":11187,"Ġalready":1194,"Ġexpenses":12320,"Ġmuscles":14911,"Ġmodded":8797,"Ġcartridge":22614,"Ġrants":23044,"ĠĠĠĠĠĠĠĠĠĠĠĠ":23415,"Ġdivers":13718,"Ġbetrayed":25271,"Ġglorious":15581,"Ġbranded":25699,"Ġmass":2275,"Ġ5000":17454,"arten":18974,"!*":5849,"Ġtelling":2756,"uzzy":12777,"Ġframe":5382,"chell":25931,"record":23380,"Ġroads":7291,"Ġcreat":1826,"uations":6380,"Ġpim":22976,"Ġ...\"":23074,"Ġincluded":5426,"Ġdesper":7238,"Ġanytime":10068,"Ġrainbow":15854,"Ġpawn":18336,"ĠGa":19375,"Ġasked":2306,"ĠRev":22343,"Ġpotatoes":13622,"Ġgrou":1880,"Ġpartition":16200,"edberg":19891,"Ġleading":8079,"Ġreverse":7161,"ipped":4598,"fmt":19956,"ĠEye":17181,"Ġstrips":18085,"phet":12387,"apore":20668,"Cheney":24183,"Ġinspir":10736,"Ġventure":16061,"Ġdonations":12572,"Ġfuneral":13689,"ĠSays":13465,"Ġpost":774,"Ġpractical":7539,"Ġbury":14931,"Ġentities":18709,"Cop":25682,"Ġsurprise":5332,"owse":8920,"ĠAsia":10543,"ova":14361,"Ġsecular":10487,"Ġhosted":15594,"Ġbanned":4844,"Ġcommunications":19792,"Ġlock":3845,"Ġduties":22952,"ĠYork":5084,"reality":23024,"idiot":23509,"J":47,"Ġchristianity":18122,"Ġbf":19785,"ĠMegan":22674,"Ġwoman":1611,"Ġgur":20320,"hog":21008,"Ġonce":1316,"95":4528,"every":4754,"ĠEvolution":12443,"aghetti":13393,"**:":10379,"Ġvacuum":10254,"vent":4548,"things":16848,"Ġplausible":12220,"SF":18513,"Ġcowardly":19968,"ĠOpp":20931,"Ġtype":1959,"Ġ70":4918,"Ġlistens":20496,"Ġsick":2596,"Ġproductive":8819,"ĠKucinich":6376,"sourceforge":18989,"oded":10637,"ĠArabic":13663,"oodle":18715,"Ġclause":14081,"Ġ62":24929,"Well":3824,"especially":9410,"Ġreflected":24348,"ĠGL":10172,"Ġvivid":25673,"tte":12241,"omen":3256,"adda":25593,"Ġhtml":15694,"Ġexplo":6706,"ĠLimbaugh":10981,"ĠListen":11713,"du":1039,"nty":20398,"erning":15418,"ĠGrow":13965,"ĠITS":16010,"WHA":18837,"Ġpedal":22860,"Ġliar":8412,"Ġmarine":22460,"Ġneedles":24634,"ĠMarch":13083,"ĠSTOP":10843,"zes":14403,"ĠBURN":23490,"Ġfortune":14396,"piece":13457,"Ġunpre":23584,"Much":22800,"Ġmisplaced":24083,"fab":25869,"Ġbailout":7448,"Ġgrinding":22350,"igarett":23685,"urs":3271,"ven":530,"Ġtells":4663,"Ġsection":5096,"Ġpussy":5322,"ĠSen":5686,"Th":862,"fact":4126,"ek":4257,"Ġrendering":12997,"Ġgoof":14420,"Ġopenly":11182,"ĠYEA":8720,"anas":11619,"Ġbranches":18761,"Ġbounds":19245,"ĠMozilla":17842,"Ġbuilt":3781,"240":20273,"duct":3990,"Ġeleven":21721,"Ġexercise":6728,"Ġmeow":25870,"Ġfurious":24868,"steampowered":25946,"Ġmoot":14741,"Ġconsequ":5700,"Def":12681,"Ġdesktop":5354,"Ġworn":14103,"show":6271,"ager":3607,"Ġhob":6830,"otta":8351,"ĠQueen":11171,"athan":14355,"Ġ51":15597,"Ġtraded":18423,"dollar":23345,"Ġspeak":2260,"ĠCr":4437,"iy":17356,"Ġbargain":20600,"Ġlens":10316,"Ġmature":9316,"Ġstones":14610,"fortunately":2873,"Ġmeasurement":15290,"Ġunder":770,"racist":16845,"Ġqueen":13668,"Ġthumbn":11404,"seen":13706,"house":5062,"Ġresearching":19869,"Ġveloc":12877,"Ġwar":1284,"Why":2646,"Tot":17653,"230":22646,"mA":11031,"ense":997,"Ġwebsite":2831,"olution":2183,"nat":21490,"rocket":23426,"esome":1233,"Ġbub":5635,"Ġchamp":9829,"Ġlandscape":23655,"Ġheinous":25457,"Ġdistort":25517,"\"),":21480,"Is":2440,"Ġhat":3462,"Ġaddictive":13603,"ĠWanna":15423,"ĠâĢĶ":9438,"Ġunits":9750,"Ġprofessionals":16731,"Ġblew":7623,"Ġcomma":10451,"cock":16001,"Ġus":520,"After":8973,"Ġfab":9097,"Ġtrigg":17332,"Ġmedical":4064,"Ġaccidents":12435,"ĠAnother":5469,"ĕ":215,"Ġunable":6962,"ĠFortunately":14616,"facts":15875,"Ġoutlets":17393,"ĠAround":17683,"Win":19318,"rend":4193,"Ġmechanic":19461,"payer":20861,"Ġhighways":21782,"Ġreprehensible":24355,"fory":25553,"Ġwildly":17534,"Ġhappily":11326,"icus":18860,"117":23391,"pipe":25881,"Ġdonated":13035,"ĠEVERY":6217,"Ġmanufact":5893,"thumb":15104,"Ġfloat":13131,"assuming":14117,"usey":24199,"Ġnorms":24910,"Ġlung":9239,"Ġpopul":11503,"ĠEarth":4084,"Ġinviting":25851,"resent":17906,"Ġgolden":10244,"ility":1413,"Ġcraw":14970,"Ġpap":17959,"Ġbrig":22393,"Ġprotest":3712,"ĠTrolling":25994,"lies":22094,"Ġintended":5284,"Ġscreams":17012,"Ġimplementing":19813,"AKE":5898,"UE":11773,"arett":5658,"Ġprovin":24082,"ĠAND":3386,"lig":4344,"shield":18857,"Ġ53":20155,"attan":12703,"thx":23995,"osterone":21572,"reet":6006,"Ġhints":23738,"Ġhobby":10046,"Ġsurplus":18521,"Ġmine":2376,"ics":876,"ĠP":425,"Ġcert":7412,"Ġconfuse":10063,"Ġlayout":11459,"Ġsentient":19125,"Ġhamm":16884,"Ġjacket":13810,"cri":1431,"Ġequivalent":5385,"ĠContact":24880,"Ġadm":1757,"ĠEnhance":24830,"Ġpet":3947,"ĠSimple":11226,"bull":10938,"modded":2465,"Ġflow":8540,"ĠJPEG":24067,"Se":5621,"Ġshaped":12781,"ogram":24122,"Ġcomplaints":11106,"Ġcorpses":25981,"Ġdegr":18933,"oon":3039,"ears":3896,"Ġhandling":12128,"ĠFranklin":19829,"Ġgaming":5833,"Ġfox":7174,"Ġnuts":4668,"irrel":9708,"Ġrecommendations":17210,"Ġmister":24201,"Ġclaws":21776,"paper":5707,"char":8761,"Ġ2003":10337,"Ġconcerned":4923,"Ġblood":2937,"Ġbegging":14271,"ook":514,"cor":8549,"Ġobserved":15181,"IL":3544,"Ġoften":1945,"ja":5286,"Ġrid":1811,"ĠCALL":21424,"Ġlogo":6618,"Ġ45":6896,"ĠAgain":6550,"Ġget":443,"Ľ":255,"votes":2753,"agedy":11146,"Ġeternity":15011,"two":9544,"wards":2143,"Ġdepos":19032,"Ġdeclared":11874,"Ġdressed":8751,"Ġdoubles":25539,"ë":173,"gging":7521,"Ġcere":8120,"Ġliked":3061,"Ġresolution":8042,"Ġpractices":11355,"39":6788,"Ġhorm":14057,"EEE":14860,"ĠSans":16773,"ĠBal":19636,"ceans":20518,"Ġpitch":7845,"PE":24352,"ĠKore":4964,"ĠRE":5922,"Ġabst":7284,"ĠExcuse":12908,"***":4899,"inux":2089,"aku":21599,"oh":1752,"Ġce":3531,"Ġbeard":8124,"Ġsurvival":9938,"Ġindependence":15051,"Ġchance":2390,"Ġcanadian":18677,"Ġcompress":21380,"Ġju":5643,"Ġnazis":12785,"docid":13446,"ĠPA":7949,"Ġstop":1116,"Ġhash":10263,"atee":23464,"ĠEclipse":21523,"Ġborderline":19624,"¶":120,"lar":15069,"ĠDICK":25366,"han":13976,"Ġ1998":15789,"hm":20063,"wwww":7442,"Ġcurs":10612,"rent":1477,"Ġdissonance":18057,"Ġwoke":10338,"ĠState":5823,"Ġhollow":20788,"Ġarticle":1229,"53":9660,"Ġapologies":11392,"Ġcasualties":18142,"Ġcredits":14783,"Ġdev":3183,"rod":20356,"lesh":21216,"ĠNine":22791,"Ġdragons":23985,"ĠHER":12913,"Ġwe":366,"ĠMurray":24509,"ĠWalken":25206,"ĠPrize":17024,"Ġscr":4669,"undant":9018,"mic":12460,"Were":19724,"given":25039,"ev":2741,"Ġgnome":18564,"Ġflagged":24612,"minute":22794,"ĠMitch":19631,"tub":16636,"Ġassumed":5539,"or":283,"Ġhaskell":20993,"Ġchances":6970,"ĠShatner":22981,"Ġrebel":21825,"accept":11114,"ation":434,"Ġleader":6519,"Ġjazz":17010,"ĠSab":20383,"Ġwhore":6175,"online":9655,"Ġrespected":14998,"porter":7557,"Ġsemantic":21174,"Ġvis":2289,"Ġcontrary":8808,"Ġraces":12045,"Ġmatt":17423,"Ġintern":3895,"ĠDune":20397,"ĠPedobear":22641,"Ġsomet":669,"Ġrepl":2187,"Ġjail":3647,"verty":9386,"ĠPoland":13329,"Ġsomeones":15486,"Ġdeliberate":16493,"Ġterms":3587,"Ġpeanut":10070,"ĠGun":14203,"Ġnaked":4637,"elsius":17361,"Ġrhy":13540,"Ġdisingenuous":19274,"gel":24737,"Ġdress":5729,"Ġjailed":25073,"Ġviolence":4177,"Ġnah":10795,"Ġsocialists":17221,"ĠFascism":25340,"price":25511,"Ġerr":11899,"?..":21063,"ophobe":22063,"ĠIce":7008,"Ġpersonnel":23061,"ĠBuffalo":14829,"cur":16057,"Ġbench":11422,"ĠEaster":18766,"Ġ..":4423,"atever":1798,"Ġforms":7728,"arlier":4696,"Ġideology":9235,"Ġshel":9907,"ĠRPGs":22937,"isconsin":14345,"Ġpants":4198,"rep":12289,"Ġmurdering":12793,"Ġjews":6244,"Ġlocked":7538,"ĠTen":14208,"Ġrarely":5806,"ĠArizona":13720,"Ġcondit":4062,"Ġgerman":10969,"Ġ1990":10582,"Ġpos":1930,"ĠCont":5675,"GL":13354,"ĠSend":13377,"Ġlobster":20766,"Ġingen":21919,"ogyny":19296,"Ġalbums":9298,"Ġdead":1854,"lr":17981,"ĠJupiter":21344,"Ġmemory":4031,"kl":25880,"ĠMeaning":19500,"aches":7477,"Ġtransportation":11538,"Ġdude":2132,"modd":2156,"Ġmedicine":7118,"ĠHrm":25735,"Ġhostility":24678,"remo":24810,"onse":2600,"Ġsimply":2009,"gian":9874,"ĠDallas":15446,"Ġedible":25310,"Ġunnatural":20210,"ĠWeek":20259,"Ġperhaps":2934,"Ġpedophiles":16426,"hom":10980,"roid":6518,"ĠGiuliani":16055,"ĠMW":12995,"ĠSHUT":20490,"hee":20529,"Ġdestro":3150,"Ġtempted":13053,"speak":17881,"waves":22741,"ĠFirefly":11923,"rib":2549,"05":5207,"Ġsniff":15282,"ĠKeller":15905,".......":13191,"ĠJOKE":25615,"Ġstatue":17664,"Ġsummarize":21479,"Ġcries":20118,"Ġchief":12074,"isn":14194,"Ġphotoshop":6736,"Ġrival":17430,"iful":3291,"Ġgrant":11083,"character":20108,"ushi":14590,"Ġsymb":5661,"tol":25040,"Ġblocks":9291,"Ġapt":9977,"Ġdiscover":8180,"arming":10219,"Ġtherap":9450,"ĠNik":18327,"strike":22572,"ĠGirlfriend":25653,"ĠGeez":17394,"Ġoutraged":13376,"ĠBefore":6926,"ilter":21754,"Ġaccept":2179,"gary":16705,"Ġwives":12641,"Ġlol":2400,"Ġ12":2468,"Ġnext":1414,"Ġgrand":3106,"Ġbadly":6310,"Ġamounts":6484,"Ġenlight":7513,"Ġgladly":13483,"images":2722,"Ġsn":1924,"Ġcourage":12002,"Ġborder":6227,"Ġunknown":10861,"Ġencouraged":15221,"Ġcommenter":15424,"OIL":16394,"Ġ15":2625,"rors":6070,"ĠSan":6482,"obama":9646,"Ġproducing":11561,"ĠUg":19448,"ĠOld":5938,"Ġgolf":10871,"Ġlibrary":5384,"Ġshoved":19898,"Ġwaitress":20526,"Ġholder":20808,"Ġdare":6199,"Ġabsurdity":21433,"WG":21839,"intosh":22096,"icycle":24408,"Ġlosses":15223,"Ġrewards":19150,"fbcdn":20906,"Ġfinances":22461,"ĠWatchmen":24755,"udge":7555,"Ġugh":16178,"tubes":24835,"player":6575,"Ġslightly":4189,"ATING":25607,"Ġinsanity":14100,"ribute":5578,"def":4701,"avi":17061,"Ġupmodding":17845,"vet":18493,"ĠNeat":22093,"Ġclan":24062,"Ġnouns":25678,"icien":8430,"ERT":15226,"const":11848,"Ġgoin":22621,"Ġgot":702,"ached":5668,"Ġ1984":12710,"Ġski":16439,"Ġletting":5690,"ĠYeh":19972,"Ġreproduction":20216,"ĠFlickr":22244,"Ġjanitor":23364,"gest":2979,"ĠPrint":23587,"eight":23815,"Ġadded":4187,"Ġdiscour":13223,"having":17183,"ilarious":3461,"ĠAside":16648,"Ġlam":17764,"Ġkinky":20554,"ĠLabor":23861,"ĠNorwegian":14655,"Ġafrican":19187,"ĠISN":24218,"Ġhind":18609,"Ġwarehouse":24621,"Ġearth":3199,"Ġwizard":12676,"Ġforci":22677,"ĠWee":25369,"elta":25540,"ĠGas":18735,"Ġoverest":25634,"ĠFTP":25638,"Ġinvent":7085,"!!!!!!!!":4717,"Ġcastle":19349,"ĠSince":3578,"ocol":4835,"Ġobtained":23439,"Ġboyfriend":4905,"Ġexcited":6293,"Ġtea":6028,"Ġdiscussing":8265,"Ġknee":9385,"Ġdinosaur":16047,"Ġporn":2284,"ĠUnivers":5885,"ĠMAN":8736,"Ġstrawman":16715,"Ġwow":3637,"ĠVoice":22111,"Ġribbon":24632,"enny":13194,"ĠWorks":10079,"ĠStallman":18585,"....\"":20564,"ĠSerenity":23430,"Ġbills":6078,"600":9125,"eur":21197,"Ġist":24685,"Ġfle":8940,"hs":11322,"Ġbrains":7511,"Ġtriv":7867,"Ġindo":11714,"Ġnutrients":25622,"Ġimo":11349,"ILE":18015,"comments":1942,"Ġcareer":5936,"Ġhorrendous":21733,"Ġcomplex":4459,"Ġtore":25343,"Ġmidnight":15283,"Ġ|":2833,"journal":12966,"Ġmanner":6593,"Page":16348,"ĠSqu":9013,"posing":16053,"unte":7624,"Ġensure":9364,"Ġfactual":13161,"guys":23167,"sur":9719,"ĠFTA":15635,"Ġroom":2136,"ĠFor":1437,"pread":13940,"secure":25213,"Ġcent":2372,"ĠHappiness":25529,"Ġbailouts":15426,"Ġtinyurl":25008,"email":18480,"umsfeld":24865,"ĠRichard":8710,"ĠJob":18529,"OLD":13002,"Ġkissing":14033,"lang":10761,"onde":11735,"ĠRepublic":2332,"Ġ42":10779,"Ġdominant":16712,"ky":2784,"ĠBET":18194,"liner":18286,"Ġclutch":20613,"reland":8621,"Ġcombo":11475,"Ġhanging":6516,"ĠCow":13137,"Ġlegacy":15731,"Ġimmediately":4081,"ĠHaha":3957,"ĠPhiladelphia":16336,"Ġplenty":3361,"ĠOhio":9772,"Ġsuburbs":18716,"Ġstadium":19471,"ĠPU":20478,"Ġawarded":21455,"hhh":5886,"ĠHolocaust":11084,"Ġfragile":20543,"Ġturned":3020,"Many":13460,"Ġpolling":14975,"Ġjungle":22379,"bene":25154,"Ġlengthy":25978,"WWWW":13609,"ĠThompson":17717,"hours":25554,"Ġannihil":25950,"Ġhypothetical":13580,"Ġrefriger":16388,"Ġcrossed":11652,"profile":15555,"Ġhotels":24468,"ĠSleep":18902,"Ġmount":5588,"hyp":19267,"Ġcheating":7751,"Ġbuff":6856,"Ġ:[":25695,"lder":10217,"Gu":8975,"liament":12306,"ON":1605,"91":9933,"Ġdigit":14886,"Ġsimilarly":13842,"ĠPBR":22334,"Ġcopper":16478,"Ġlenses":20312,"iffs":22071,"orn":1154,"Ġfarming":14841,"Ġenvironments":20434,"Ġreplay":22083,"Ġslap":8961,"ĠSchwar":25024,"51":12377,"Ġwhom":6549,"vd":12096,"ignificant":14501,"Ġecosystem":23727,"uitive":12363,"EO":6046,"rible":1952,"rum":13365,"ĠUhm":18403,"ĠMiley":25579,"Ġgrowth":7747,"cm":11175,"Ġwhich":786,"Ġdodge":17100,"ato":5864,"Ġvegan":9927,"Ġpetroleum":25584,"ban":6971,"ĠDarn":25985,"Ġtoken":18986,"Ġpostings":23718,"icles":2838,"uminati":23905,"section":12111,"oth":902,"ĠCounty":14149,"Ġposed":21118,"Ġfrequently":7609,"\"...":5641,"Ġinclined":11905,"Ġcrappy":5601,"erry":4988,"Ę":218,"ud":732,"Ġeconomists":16294,"Ġasset":22590,"Ġremorse":23227,"ĠWH":2993,"Ġjersey":23272,"ounces":13539,"Ġcheck":1495,"Ġprecedent":14489,"los":18011,"ĠAccept":25906,"ĠSelf":13633,"ect":643,"Iran":17592,"ounded":9489,"Ġconvey":12713,"Ġlasting":21811,"UR":4605,"Ġcalc":5229,"more":1990,"Ġplat":4823,"model":19524,"Ġtasting":20647,"Ġpunish":4705,"Ġlake":13853,"ĠLuc":11615,"cong":17439,"ĠHuge":23134,"ZZZZ":19676,"ĠReligion":9158,"stage":25921,"vironment":3869,"Ġmisery":17566,"Ġusability":20696,"Ġsons":15043,"IST":6625,"Ġkicks":11096,"Ġcondemn":17007,"Sun":21481,"Ġcondescending":12561,"!.":25272,"Ġdraft":9678,"ĠWP":24256,"Ġppl":17055,"ĠCola":25990,"Israel":6150,"bing":3835,"Ġproduces":12531,"az":1060,"107":23079,"TI":24047,"Ġfee":7620,"Ġstalker":17849,"Ġwouldn":1186,"Ġhamburger":13271,"Ġrele":3920,"Ġpunctuation":9334,"so":611,"Ġshorts":14399,"Reilly":8687,"Ġbodies":7472,"Ġorigins":19966,"Ġmight":1033,"ĠLuther":21369,"Ġgeorge":24968,"ĠHAL":21688,"os":557,"Ġpornography":11373,"Ġsuspicious":10089,"ractive":13964,"57":8161,"ifferent":8638,"Ġfuckers":9818,"Ġnails":14619,"Ġcorporations":5495,"Ġcamera":3646,"OOOOO":25572,"ooh":8979,"oker":14277,"Ġtablet":23028,"Ġcloset":8674,"Ġderived":14816,"Ġyoung":2207,"ealand":9067,"ascar":16282,"afety":18367,"otyp":19174,"Ġtrial":7264,"ĠWars":6745,"Ġofficer":5479,"ving":706,"ost":988,"ifi":8507,"ĠTouche":23963,"Ġpromotes":23250,"ê":172,"ĠTW":10838,"Ġasking":2458,"Ġtrophy":23966,"istance":21352,"Ġplea":23178,"Ġdiaper":24850,"ĠStevens":25175,"conf":8779,"Ġtraum":12631,"Ġabout":447,"ĠSort":12883,"ab":436,"Ġchoose":3064,"Ġcomputer":1932,"Ġfancy":7575,"udo":9091,"ĠFlorida":6695,"ĠPlayer":19717,"Ġpayer":13362,"ĠZ":1918,"34":4311,"Ġnuke":11108,"itative":21791,"Ġunreliable":22974,"perm":25368,"IGHT":6233,"ady":6854,"ino":4813,"aster":2051,"Ġsake":4907,"Ġancest":10239,"Ġdesperately":14888,"Ġamuse":15300,"Canada":16280,"aaah":21160,"Ġfoolish":11423,"ĠAct":1656,"Ġruling":11656,"ĠAtheist":10294,"Ġadmin":9579,"Ġhelicopter":14347,"IIII":10741,"Ġpriceless":16600,"ĠPutting":17618,"Ġmoist":18444,"Ġdisplaying":20191,"###":22688,"Ġsaid":826,"........":5648,"Ġincest":15032,"Ġlact":24051,"Ġfriday":19459,"Ġtubes":11124,"Ġtreated":5987,"storm":13467,"ĠBOO":23076,"Ġ:\\":15797,"Ġtheorists":19237,"ĠCrus":21365,"Ġcross":3672,"rey":8539,"Ġrank":11331,"shine":12081,"ĠTesla":13438,"ĠHey":2258,"edel":19593,"Ġole":21076,"Ġnonex":25805,"blem":929,"Ġprisoner":22121,"Ġrud":25289,"ĠDVD":5490,"kit":12502,"ĠPent":13080,"Ġimportance":12264,"Ġdefeat":11424,"respond":14227,"Ġsuspected":14929,"Ġgenius":5693,"Ġstub":17713,"ĠSwed":5600,"amel":22567,"Ġconfirms":21927,"ĠDid":1514,"Ġenormous":11235,"lessness":23934,"Ġpoured":23347,"Ġhive":11256,"Ġrecovery":16311,"Ġinsult":4318,"aks":3452,"à²":6759,"Ġcollapsed":15435,"Ġbatteries":10484,"Ġcleared":16872,"Ġtransplant":22041,"approval":22880,"Ġpleas":13643,"emption":19688,"Ġimplications":15021,"Ġgr":709,"king":551,"Ġgif":8159,"Ġhas":541,"Ġfunction":3241,"Ġworry":2900,"Ġrun":1051,"Ġpurely":8766,"ĠToy":11947,"ĠPO":16137,"Nor":19702,"260":21367,"Ġprobation":22128,"ĠLevel":22882,"Ġdynam":8588,"Ġbundle":21871,"Ġprostitute":14079,"ĠFord":9695,"ĠHotel":23399,"G":44,"atively":9307,"Ġshelter":12806,"Ġtracked":22371,"Ġpleasing":24157,"aken":5551,"ton":1896,"Ġmini":9352,"ĠMt":22790,"Ġfaux":17896,"webster":19143,"Ġmedium":8754,"hea":14672,"Ġplanning":6082,"ĠDiv":18990,"Ġtake":854,"meal":20171,"Ġheated":20658,"ĠSV":18365,"Ġvet":15161,"ĠTeach":20836,"democratic":24066,"ulty":24086,"ĠNS":25627,"equal":22291,"ĠWatt":25436,"Ġrationalize":21245,"/)?":13657,"Ġhandc":24172,"Ġrigid":24206,"This":1582,"Ġdaughter":4677,"found":11726,"Ġbo":2180,"67":4856,"175":25033,"?)":3821,"ĠMiller":18112,"Ġcandidate":4434,"atin":7906,"Ġbody":2329,"loom":16642,"ute":1325,"Ġinfl":3003,"GGGG":18569,"Ġcolony":19597,"ĠGovernor":19751,"Ġtrusting":22426,"Ġthroat":9650,"ccain":11173,"tl":14076,"ĠON":3679,"Bill":15673,"Ġsaint":23075,"Ġtags":10277,"metal":23556,"ries":1645,"Ġfeeling":3062,"Ġorganization":6273,"ĠRedditor":11620,"Ġgems":21753,"Ġanswer":1760,"ustin":22942,"Ġforbidden":16436,"Ġsupplied":23748,"Ġfractional":25208,"Ġevent":2896,"2007":5200,"ists":1010,"pc":13878,"Ġownership":9396,"alls":22054,"ano":10841,"ĠFocus":25761,"bus":13135,"ilibrium":23588,"ĠChap":14499,"osing":21438,"Ġencourage":7988,"ĠACORN":24766,"Ġlibel":20907,"Ġfags":18492,"Ġcurrently":3756,"Besides":10892,"ĠMIT":13361,"Ġ2000":5290,"ĠPOW":14303,"Ġolds":7901,"ĠWhenever":9123,"Ġencrypted":17171,"NNY":19673,"tree":20127,"ĠTokyo":21055,"Ġoperate":10000,"epic":18743,"rm":7397,"Ġinstincts":24779,"Ġblind":3951,"Ġdor":20095,"avy":7267,"Jews":16972,"Ġmagnetic":14564,"Ġbatch":18201,"ĠFloyd":17201,"pic":3940,"ĠKid":14889,"Ġphenomen":7740,"essert":21130,"ĠBuffet":25768,"Ġjudgmental":23562,"aked":2911,"Ġaddict":7134,"vm":17932,"bowski":19040,"ivirus":24806,"Ġsubtle":7579,"Ġprocedure":10415,"mach":16676,"ĠDakota":22845,"Ġsid":25286,"ĠThrough":19637,"Ġreplying":8466,"ĠPerfect":12865,"Ġpoison":7155,"Ġever":877,"Ġfacebook":6277,"Ġcurious":3149,"Ġmelting":18914,"Ġspitting":20552,"Ġrack":12365,"Ġidiotic":8061,"Ġdisson":17544,"cas":21213,"Ġcareers":21972,"Ġmuslim":5657,"Ġunbear":21454,"Ġquestionable":15241,"Ġfoot":2897,"Ġoutlawed":19942,"arant":4724,"Ġcompos":12007,"Ġtire":14363,"ĠArkansas":21121,"Ġbour":21734,"ĠKen":10344,"kr":12556,"Ġpencil":16139,"Ġappealing":13518,"ĠCzech":18809,"ger":1313,"Ġdrama":11730,"Ġlost":2217,"ĠMakes":6933,"ĠGn":13618,"Ġsurvive":6041,"rition":11821,"2008":3359,"Ġbal":4042,"Ġapp":875,"ĠMyspace":21943,"Ġinterwebs":19361,"Ġwealth":4343,"Ġdespicable":20883,"Ġfork":11506,"³":117,"Ġmur":2418,"achus":15661,"Ġdrone":24145,"corpor":17386,"Ġeconomics":6155,"best":6601,")'":20465,"ĠPir":9111,"Two":11085,"Ġhats":10807,"Ġirresponsible":13681,"Human":18764,"ĠMurphy":22711,"Assuming":23008,"outs":5974,"Ġaccomplished":12325,"alloween":12603,"Ġdetermining":21770,"ĠPandora":21655,"orter":6796,"ugh":1614,"Ġatrocities":15943,"ĠDiet":23733,"Ġfrequency":13921,"Ġtied":8643,"As":2510,"iger":6054,"Ġtur":3127,"Ġracial":8750,"Ġinevit":7933,"Ġcommer":4050,"balls":9632,"Ġgoats":16575,"168":18719,"ujah":22651,"Ġdocumentaries":23572,"ĠLab":13902,"Ġfireworks":20771,"Do":2442,"However":5733,"talk":9428,"wart":24254,"Basically":16080,"Ġster":8885,"Ġmustard":18072,"contr":24499,"ĠNancy":18159,"posed":1714,"Ġits":895,"ead":1119,"Ġbunny":16609,"Ġshitt":17583,"ĠHonestly":5677,"Ġkettle":20092,"oven":21384,"ivity":3986,"ĠJavascript":13871,"Ġmega":17116,"Ġmo":390,"Ġfreezes":25063,"Ġthous":2953,"44":5804,"tx":23780,"idental":24655,"Ġstandpoint":16161,"Ġvacation":8864,"gl":4452,"arr":8417,"ĠJournal":19479,"speech":24091,"ĠDolph":24845,"Ġdollars":2812,"Ġhowever":2717,"Ġtune":9799,"ait":1027,"Ġcir":2420,"south":18750,"Ġhangs":21046,"ictionary":4869,"Ġsoul":6068,"Ġsense":1421,"Ġharvest":14433,"Ġunc":9765,"Ġect":24358,"Ġsupposed":2043,"ixt":9165,"ĠJOB":16545,"Ġtinfoil":18730,"termin":20032,"acc":3517,"Ġoffend":13248,"ĠDead":6919,"Ġdescription":6400,"ĠDanger":22056,"ĠSig":24451,"337":21569,"ivers":4345,"Ġ89":25545,"ax":1975,"arts":5494,"Mart":8503,"Ġfundies":17878,"roleum":22388,"ĠĠĠ":1563,"ron":2532,"Ġshoes":5505,"Ġrockets":7365,"ours":7408,"ĠBlade":22664,"Ġprivile":9716,"groups":20751,"instead":21806,"Ġmocking":12826,"Ġtravels":21356,"Ġsat":3156,"rocious":19419,"Ġsock":8870,"Ġenlighten":10945,"Ġtel":12582,"ĠConservative":16558,"Ġubiquitous":25997,"Ġnowadays":9152,"Ġsmelling":22146,"ĠMa":6159,"andy":9893,"Ġvirtually":10921,"Ġrose":15995,"Ġtop":1466,"ĠDownvoted":6392,"Ġsnark":10630,"Part":18572,"Ġvoting":3002,"Ġrings":11473,"Ġframework":12066,"Ġindicates":12471,"Found":24995,"Ġbottle":5269,"ieved":10252,"act":547,"ĠDOWN":10867,"Ġnegot":11428,"Ġunexpected":14980,"ĠEdward":17342,"Ġcourt":3692,"Ġgrades":14924,"Ġcoders":23621,"Ġstarving":10865,"Ġinvolved":3295,"Ġcampus":9746,"Ġscare":8022,"ators":3418,"Ġreci":6774,"Ġvisually":21974,"Ġgenre":10345,"Ġreinfor":17146,"IW":14243,"Ġdownvoting":6192,"Ġmeme":3538,"Ġshed":14192,"asel":19392,"ĠLi":3930,"Ġnominee":20255,"ĠSoci":13971,"Ġlime":20823,"Ġculture":3497,"OILER":21122,"Ġbeverage":23596,"Ġcond":9343,"Ġsafari":22072,"ĠVerm":23175,"Ġhookers":11925,"lines":5714,"Ġconsens":9532,"ĠApril":11186,"Ġmode":6330,"nox":9454,"Ġshake":9698,"Ġcoding":10613,"Ġcul":15512,"Ġclarity":16776,"ĠUPS":17987,"Ġconcede":16225,"Ġsymbols":15025,"ĠFeynman":20272,"Ġinherited":21002,"dx":22740,"Ġstretched":24666,"vo":10094,"ĠPlace":19803,"Ġtraitor":22477,"avs":22864,"rect":1338,"ĠRomania":25056,"athed":25862,"oft":18822,"doors":20184,"Ġtelev":5971,"Ġ360":5891,"«âĢª":13473,"Ġcuil":19366,"Ġproblems":2322,"af":2892,"Ġprofits":8117,"Ġstuff":1285,"lab":13357,"Ġfeeds":16675,"Ġcompar":4009,"fat":11021,"autiful":12300,"Ġextremists":16239,"Ġtipped":23382,"Ġamazes":18301,"Ġavid":23586,"ĠCHANGE":25562,"Ġlo":604,"videop":13576,"ĠShock":19350,"Neither":21410,"living":20348,"Ġbland":20360,"ĠTo":1794,"ĠContent":25905,"Ġblaming":10849,"orer":9715,"Ġlending":20047,"Ġsensationalist":15185,"pict":8628,"chrome":24936,"sat":15217,"Ġcompens":9087,"coming":7680,"regard":10665,"EET":22710,"Ġcube":14364,"Ġtrilogy":18507,"ological":4335,"Ġprofessor":7703,"beer":15769,"Ġreplies":7525,"CII":17674,"Ġparking":7715,"ĠCurrently":17377,"ĠNar":12127,"roc":4908,"ĠProv":21973,"ermaid":24901,"wordpress":8282,"ĠCong":3687,"Ġbreasts":8420,"Ġ33":11945,"ĠQuake":16515,"Ġindul":20104,"Ġwakes":25624,"ailout":25872,"Ġupload":6803,"ĠKorea":6858,"ĠMexico":6223,"god":7692,"Ġsemi":7522,"Ġviolated":15829,"america":22586,"others":5292,"Ġuninstall":18290,"Ġradiation":12432,"akes":2854,"ĠFAQ":22027,"dyn":22717,"Ġmortal":23599,"ou":267,"Ġbiting":19951,"Ġuptight":23759,"kia":16305,"anked":22068,"Ġlizard":22293,"Ġimpeachment":15184,"Ġsongs":4956,"Ġtypically":7322,"Ġcop":1345,"uls":7313,"Ġfreshman":16296,"Ġtar":3748,"Ġisrael":6285,"ĠDave":11278,"Ġvaccine":11776,"itivity":17079,"ĠAlways":7767,"said":20657,"126":21988,"ĠDur":23660,"Ġextinct":17641,"ooves":24111,"ĠSTILL":13182,"Ġconditioning":22397,"Ġemo":13005,"Ġfallen":12123,"Ġjib":24079,"Ġballots":23414,"one":410,"Ġspend":2545,"idth":6479,"Ġdigital":7276,"Un":3960,"Ġmods":9256,"like":2007,"ĠHong":21033,"Ġscri":4254,"ared":2016,"Ġcd":12180,"arious":4684,"ĠCirc":19043,"SL":17194,"table":20117,"ĠCha":25488,"kay":21798,"Ġround":4381,"owned":10021,"Ġthumbs":14307,"dn":16338,"Ġcontainer":14040,"deep":18805,"Ġspew":21918,"ĠWhen":1306,"Ġwhatsoever":7433,"Ġunderrated":18702,"rific":8987,"Images":19149,"Ġwings":11115,"server":20176,"Ġinfr":7773,"Ġcolored":14822,"View":20300,"Ġsticker":10348,"apse":6608,"Ġreceiving":10312,"Ġshooting":4949,"Ġpur":1753,"Ġaston":18304,"Ġyell":3934,"poor":15399,"[PAD]":0,"Ġracist":2681,"Ġfranchise":16522,"elve":10913,"Ġtutorial":14483,"ĠAlaska":9173,"lla":11769,"Ġchar":1355,"Ġresponding":8365,"ammers":4593,"Ġabsurd":6088,"iller":11026,"stone":10929,"Ġcommun":1963,"ip":617,"ners":4897,"Ġchickens":11567,"Ġtriple":15041,"Ġbegun":17103,"ĠAlberta":18250,"ifics":19051,"Ġhoax":13962,"ĠHATE":12864,"pin":12986,"Ġcontribution":14498,"Um":14721,"Ġcensoring":19214,"get":1048,"atner":21204,"udes":5104,"Ġprefers":19022,"ala":9702,"Ġsterile":21238,"ĠChrist":1439,"Ġperpetual":21831,"ĠPaper":22540,"ka":4689,"Ġwidth":19725,"ĠEagle":22715,"Ġaddition":7627,"Ġfort":6864,"Ġcapacity":8699,"Ġcommunist":9322,"ĠBrooklyn":20980,"olut":2076,"Ġsurf":8342,"Ġvel":10821,"OSE":13930,"Ġabortion":4861,"daily":9547,"Ġmum":15337,"creat":11937,"Ġripped":8939,"Ġwhilst":10833,"Ġincons":12309,"ĠMilk":18305,"!...":21109,"Ġunderm":22987,"TS":7754,"235":23118,"Hel":17639,"Ġbig":1024,"Ġcameras":7311,"Ġrepresentatives":15191,"news":2622,"Ġphotographs":18004,"Ġ40":3084,"Ġremotely":8851,"Ġmushrooms":14022,"olas":16885,"ĠAb":4333,"Ġfade":23508,"Ġcartoons":13421,"ĠPoe":20141,"sr":9036,"Ġachievements":18783,"stra":23071,"Ġsupplement":21159,"Ġfingern":24099,"Ġcallous":25498,"ĠAm":2112,"Ġcorn":5870,"Port":25564,"kw":25857,"pare":19300,"wear":8153,"Ġoffense":6793,"Ġrange":5574,"Ġunf":4468,"Ġtrains":13052,"ĠStarb":11077,"Ġkids":1497,"screens":20352,"âķ":15034,"Ġbullets":9080,"lyn":14326,"Bull":16176,"Ġmain":1931,"kind":8321,"Ġteacher":3979,"ĠEas":8805,"Ġ43":17475,"Ġpissed":4146,"MAN":18484,"ĠOh":1109,"Ġvac":5343,"Ġas":373,"Ġreasoning":6406,"ĠM":393,"Ġgam":7391,"Ġknown":2579,"Ġdramatic":13857,"Ġunstable":16765,"âĸĦâĸĦ":19066,"Ġextract":10793,"actical":19504,"Ġloaded":8344,"Ġ1994":20037,"ĠCreed":20457,"ĠSydney":20884,"uz":5271,"row":2056,"ĠWilliam":13654,"icity":12990,"ĠOr":1160,"Ġkicking":9674,"Ġsinger":14220,"Ġwhiskey":14356,"ĠOuch":15078,"North":20895,"Ġren":12323,"Ġbusted":12579,"Ma":21029,"Ġignored":8158,"Ġhoney":9472,"Ġrepet":12258,"Ā":194,"Ġsymptoms":13481,"Ġinmates":24110,"Ġmargins":24839,"Ġhorizont":18020,"Ġtactical":25743,"Ġhelp":1124,"rise":16507,"Ġanten":20848,"Ġbure":11212,"Ġaesth":15702,"ĠBach":20421,"bp":12851,"Ġcompetent":13903,"Ġmurders":14637,"ĠFro":18991,"Ġexpl":1157,"ĠPand":17473,"Ġmens":22423,"ĠOur":5078,"Ġreprodu":7540,"Ġsweat":8146,"ermans":9713,"ĠMatt":13323,"Ġcarried":10502,"important":16067,"ĠLow":17642,"Ġsympath":12958,"Ġviolations":19127,"ALL":4924,"[SEP]":2,"Ġfetus":11676,"ĠConsider":12999,"Ġin":303,"ades":3276,"Ġbond":12895,"Ġ99":5280,"Ġstance":7975,"Ġhelping":5599,"Ġimmune":11613,"Ġ98":11655,"LF":15131,"mc":15573,"Ġdiamonds":15602,"Ġtargeted":15813,"Ġmit":18453,"ĠPar":5535,"Ġslowly":5903,"Ġunderstandable":14612,"Ġpundit":20752,"ĠAIM":21210,"TER":5376,"Ġvapor":14075,"Ġdummy":21879,"ĠUltimate":22607,"ĠDDR":23717,"Ġunprotected":25711,"ĠService":13018,"forge":15677,"Ġmotives":19804,"ONEY":20593,"rug":6596,"Ġomnipotent":21766,"ĠBowie":22617,"ĠEngine":9748,"Ġdenom":19265,"ĠJeremy":22980,"ders":4562,"Ġhol":4609,"Ġpow":24103,"enes":25141,"celer":8829,"Ġmeth":2996,"Ġaccompl":5874,"assed":13433,"Ġlifes":20203,"ĠBeck":5264,"Ġparas":13426,"tingu":22077,"Ġdestroyed":6649,"Scient":16955,"Ġsaf":5046,"++,":17970,"Ġmissed":3044,"Ġmemes":7508,"ht":18666,"Ġpattern":6655,"ĠWest":4049,"Ġpointers":17853,"resp":6127,"Ġstudio":11040,"Ġnifty":23025,"ĠJac":20964,"cy":1446,"Ġdiscipline":17582,"Ġbail":4660,"oner":10571,"vidia":18674,"sound":19198,"Ġaccents":14173,"hips":17440,"Ġshitload":15142,"Ġresc":19684,"Ġpredator":22406,"ĠTechnology":23653,"instant":14400,"Ġlogos":24446,"mid":16865,"Usually":25667,"ĠGeneration":25742,"Ġsenate":14994,"Ġpenalty":7676,"Ġowners":5214,"oor":3293,"Ġmistakes":7071,"Ġthinks":2904,"78":8631,"í":175,"urrent":7079,"Ġorg":5976,"Ġseg":8473,"Ġpurchased":10374,"Ġglo":9041,"gram":10719,"Ġintentions":13146,"ĠTotal":14233,"ist":406,"Ġexpanding":15678,"Ġponder":21956,"irder":25849,"Ġengage":11009,"Aw":11100,"ĠChuck":9321,"Ġtotally":2055,"Cool":19304,"ĠJapan":2927,"ĠSER":18953,"Ġmerge":20293,"ĠZombie":14373,"365":21534,"ĠWonderful":24582,"oshop":4735,"Ġpatents":12415,"ĠFixed":13905,"ITS":19693,"AT":1492,"fin":3965,"Ġroommate":8437,"version":9529,"ocks":8541,"bin":7904,"Ġsyndrome":12104,"climate":21700,"Ġachieved":14930,"Ġlately":6021,"Ġfictional":13268,"ĠDoom":15574,"ikipedia":3326,"Ġgrey":12209,"ĠCramer":22372,"verted":10055,"Ġmonog":23533,"ĠLONG":23384,"Ġsuggest":1889,"zhe":19883,"Ġconfidence":9432,"Ġunwilling":16742,"¥":104,"choice":12360,"Ġtextbooks":21756,"Ġmel":9302,"ture":15734,"Ġprodu":1508,"ĠRoger":17543,"Ġscotch":21096,"Ġfiltering":18534,"Ġweed":3802,"hero":14097,"Ġnavy":20997,"Ġtack":11403,"Ġcling":24061,"Ġfederal":4476,"Ġsin":5972,"Ġentirety":17846,"Ġresponsibilities":21086,"ĠDI":14866,"Dan":25265,"OUCH":25660,"Ġaccurately":11833,"Ġpoetic":24794,"Ġextra":2959,"Ġmines":19449,"Ġresid":25348,"kins":6002,"Ġlbs":11363,"Ġens":6498,"Ġsuppl":9064,"auc":8087,"die":13791,"Ġloading":12201,"neg":11535,"Ġdisks":19248,"Ġinept":20232,"ĠBlame":20614,"ĠSimps":8624,"ĠEL":21994,"Ġprotection":6633,"Ġseen":1191,"VING":24271,"ĠEric":16842,"Ġfil":1620,"Ġrelationship":3280,"Ġbrick":12025,";[":16528,"ĠUse":5810,"inks":5791,"Ġshots":7003,"Ġrealistic":8728,"nm":16027,"ustralian":21028,"aw":1244,"ĠBUT":8698,"Ġcommie":21189,"oustic":24364,"inn":10912,"Ġobservation":9627,"Ġexploiting":23393,"Ġgranted":10039,"*(":18508,"Ġarab":13394,"Ġelectricity":7902,"smo":11747,"Ġwaterboarding":17666,"ĠComcast":14257,"ĠFront":17325,"doesn":12850,"ĠNut":17802,"oved":16327,"ĠMorgan":14462,"Ġalike":13424,"ĠVenezuela":19934,"RC":24949,"Ġfoam":20873,"Ġdiscuss":2279,"Ġvideos":4163,"ĠMo":6117,"H":45,"us":307,"Ġchilling":23933,"Ġballs":3346,"Ġscared":4764,"limited":9019,"eremy":19632,"Ġble":4478,"ua":9762,"Ġfurther":3829,"Ġcommunication":10275,"*-":18863,"Ġshop":3209,"Nothing":10308,"Ġ|âĢ«âĢªâĢª":16778,"Ġintake":20636,"Ġliberals":7140,"Problem":23091,"Ġwash":6027,"roll":1321,"Ĺ":251,"Ġtopic":4155,"Ġoccup":5781,"Ġgang":5973,"Ġassertions":20569,"index":3956,"Ġcollapses":22036,"[DOC_SEP]":5,"ammed":6807,"isco":8597,"Ġnic":6679,"Ġmorbid":19987,"rison":19929,"Ġslippery":16860,"nz":13577,"Ġbarely":5584,"webs":10608,"atting":23888,"Ġsudden":4451,"exter":15114,"that":2340,"Ġadjust":8474,"ĠAg":2488,"nc":14371,"~":99,"ĠMust":7209,"form":2494,"Ġwore":12016,"Ġcrab":17772,"Ġdistribut":8641,"ĠBrian":15129,"Ġmind":1302,"Ġpackets":22257,"ĠAgnostic":24556,"Ġliking":9551,"erg":6472,"Being":14376,"does":5911,"Ġslower":9205,"Ġshotgun":8253,"Ġcollaps":9774,"thanks":11346,"Ġbaby":2651,"ql":12688,"erver":15086,"done":18005,"Ġcooling":18476,"î":176,"Ġdisagrees":12048,"font":23859,"ĠIncre":25525,"nazi":22231,"kids":15775,"Search":12028,"orea":23809,"ĠImp":14734,"Ġimbe":25524,"Ġimmigrants":9231,"Ġcough":12134,"©":108,"sent":19847,"ĠPredator":25786,"Ġmonster":8105,"Ġdeserve":4075,"Ġhundreds":5240,"Ġworkers":5916,"Ġelitist":12674,"archive":9465,"used":1707,"Ġintercourse":15343,"compet":17553,"MAO":19612,"free":4510,"Ġdevelop":2032,"ĠShrugged":23788,"120":10585,"rele":16585,"Ġstates":2716,"Ġgenuinely":8014,"call":6174,"ĠNer":17944,"Ġtransferred":22594,"Ġawesome":1386,"Ġassembly":12589,"Ġprocess":2548,"sized":12704,"Ġsouls":14780,"ĠSum":25984,"Ġfant":3458,"atse":18455,"ins":1436,"ĠCost":10280,"Ġcertificate":12801,"Ġstage":6823,"azi":3714,"Ġbegin":2844,"better":10238,"dec":12221,"aries":3716,"ĠAlright":9088,"Ġopponent":13325,"Pal":11345,"ĠPHP":6587,"FC":6589,"Ġstealing":5513,"ĠConsidering":7984,"ĠWhoever":13926,"Ġoral":11592,"Ġcomplained":15724,"Ġoverpopulation":23088,"Ġcapabilities":17174,"ĠAsk":6063,"Ġbreaker":16113,"alien":18972,"Ġincluding":4218,"Ġdouchebag":4948,"Ë":141,"And":1485,"Ġusable":14854,"ĠBase":19359,"inue":19848,"ATH":14110,"Ġcapitalist":11309,"ĠREA":5060,"Ġfilter":6210,"ĠReason":15355,"Ġlicenses":16747,"iked":13573,"Ġgn":10766,"ĠBrilliant":12101,"Ġreception":18179,"eries":13098,"OLL":20380,"episode":24723,"livious":18332,"ĠPIN":25771,"ote":782,"Ġsyntax":7832,"Ġhaters":14562,"____":4891,"Ġpools":24852,"Ġeastern":13675,"aneously":8795,"ĠGlenn":7022,"ĠHAVE":6916,"flickr":5571,"Ġtilt":22171,"Ġuns":4515,"Ġdiversity":16763,"oleon":21945,"Ġsubsequently":22738,"FY":25028,"Ġacademic":12052,"Ġpillow":14370,"rd":4517,"Ġappointed":20067,"between":19867,"Ġmod":1987,"*?":5054,"web":5396,"Qu":6730,"ige":14129,"quick":21178,"Ġsyn":5670,"Ġhomework":7233,"Ġprofession":9437,"Ġidiocy":13021,"ĠINS":12222,"Ġtorch":21395,"jobs":8826,"unting":12338,"huh":22520,"Ġcord":13217,"ause":4395,"Ġartifacts":23947,"ugg":5743,"appl":20219,"Ġhypnot":24958,"Ġcasino":23397,"Ġeffectively":7763,"Ġdrop":3630,"Ġremembers":19215,"adult":25060,"Ġdisrupt":17052,"drink":21194,"ĠBeach":18908,"factory":25926,"tw":3087,"iqu":4940,"Ġgri":6319,"Ġfist":9063,"eros":17557,"Ġburst":10631,"pick":11139,"ĠRobin":15183,"Ġhand":1044,"the":970,"ĠEng":1938,"see":5079,"Ġextremist":16799,"Ġplagiar":19468,"Ġdrawing":7695,"ob":763,"aff":2504,"Ġprost":8293,"GG":6458,"mitted":9794,"astically":12097,"Ġpresume":12113,"ĠXKCD":12316,"Ġummm":21070,"gu":2906,"Ġnumer":8472,"-":18,"Feel":24398,"Ġton":3683,"Ġshoulder":9519,"uters":14319,"Ġoutta":15190,"ĠSchiff":22386,"Eh":23573,"Ġunlikely":7385,"ĠSaudi":8672,"Ġslack":16685,"riages":14090,"ĠNove":9641,"Ġno":518,"Ġeveryday":6783,"Ġgovernments":7435,"Cr":12749,"ĠNearly":21923,"ĠMcCain":2338,"Ó":149,"ĠSm":4089,"Ġ20":1647,"rict":5011,"base":10876,"Ġkick":3122,"Ġmoderate":11047,"ec":2569,"miss":13623,"Ġtad":15253,"Ġlamp":16302,"cost":15885,"Ġinsure":17560,"128":21044,"intelligent":21152,"building":22271,"Ġcess":25294,"Ġfisc":14175,"ĠGoog":18944,"Ġgonna":2212,"Glad":23922,"Ġallerg":13251,"ĠCarry":21249,"''":11286,"Ġarm":3387,"mb":3025,"ĠNY":4118,"ĠThat":578,"Ġbrows":2823,"ĠOR":7394,"Ġluxury":14557,"ĠPennsylvania":17280,"?),":19266,"ast":512,"ĠErm":19135,"Ġdesk":4019,"USE":10154,"lander":23663,"ĠForg":8492,"ido":11782,"Ġright":635,"Ġscroll":7257,"Ġcourses":14094,"ĠTypical":14471,"obe":11241,"leading":6154,"ĠSeeing":12095,"ĠĠĠĠĠĠĠĠĠĠĠ":16906,"Ġtwins":17031,"ĠLets":6276,"eating":17677,"Ġdocs":19278,"ĠFantastic":16811,"ahu":24073,"ĠExxon":24154,"ĠThan":21242,"ural":2038,"Correct":24171,"Ġmemorized":24293,"fol":13910,"Ġcommunicate":11589,"sel":1662,"ĠFCC":17686,"Ġfunctions":8248,"Ġoppress":20406,"Ġmarching":24905,"ĠLG":25829,"Ġbus":1493,"kill":6674,"ĠGi":12197,"Ġhella":24828,"Ġcried":11178,"Ġhis":608,"Ġwithout":1088,"Ġdriven":8793,"_.":7965,"Ġchosen":8438,"uan":14773,"Ġhipster":10446,"Ġbetween":1424,"gium":16114,"band":4150,"Ġprosecute":17769,"Ġunwanted":19189,"Ġbatman":21161,"Ġamirite":21869,";'":24094,"izzard":11941,"oard":24956,"Ġgenerate":9892,"Ġbass":11195,"sub":6603,"Ġsupporters":5860,"Ġhollywood":23249,"Ġearly":3435,"oom":5776,",'":14323,"left":11258,"ĠDream":10235,"arse":19735,"Ġtangent":24204,"~~":12599,"%":10,"icol":17337,"Ġpatriotic":18624,"\\_\\_":19194,"OUS":8418,"Ġexec":3942,"Ġpeople":465,"IA":4225,"ournal":4432,"WTF":6140,"unned":16708,"fia":21604,"Ġhumans":3555,"Ġusual":6296,"ĠDOES":9816,"words":9923,"Ġknock":4690,"Ġwouldnt":11271,"Ġcircular":15348,"usters":9785,"Ġoppression":15735,"Ġcont":745,"ĠHenry":16355,"Ġestim":17028,"irector":21873,"For":3490,"Ġincoming":22172,"Ġlate":3069,"ested":7810,"Ġargued":12231,"Ġreceives":22364,"Ġexpos":7876,"yeah":9371,"Ġfilling":12488,"bone":17366,"Ġqgyh":19254,"romag":22385,"Ġstrippers":22600,"ceptive":16774,"ĠRoom":21212,"8":29,"Ġpsychic":23492,"Ġtoothpaste":23870,"Ġ3000":14428,"Ġwool":24443,"Ġstif":24277,"Ġclinical":24919,"irect":5435,"Ġludicrous":19202,"Ġfaggot":12146,"/](":16383,"change":4810,"LC":7505,"Ġpay":1000,"Ġemergency":8397,"Ġreflection":11928,"Ġsaddest":18858,"avoid":20921,"Ġescaping":24603,"wouldn":23613,"Ġbrewing":25630,"Ġconcern":3498,"Ġrapid":10594,"Ġpremium":11746,"different":19049,"ĠCameron":19666,"Ġcultures":10027,"say":11688,"Ġplug":4674,"ince":967,"oy":772,"arian":2462,"Ġconstruct":6918,"netic":19116,"It":1125,"Ġfrank":8544,"Ġhandful":10960,"ection":2495,"estinian":15540,"Ġaggression":16119,"ĠDew":19010,"Ġathletes":19093,"Ġcausing":7323,"FOR":18856,"011":20400,"drunk":23834,"Without":18980,"ifies":7250,"Ġtro":19564,"Ġresponses":8151,"ations":1038,"Ġfell":3253,"DE":7104,"Ġinflation":6838,"Ġmechanics":13445,"Ed":16095,"integr":24041,"ĠJ":583,"Ġadvocate":8294,"Ġencrypt":13487,"Ġwidespread":14512,"Ġvalve":20467,"clop":9581,"san":23615,"Pat":24332,"Ġcomplement":25893,"Ġexpired":23511,"ĠT":321,"Ġ1024":24656,"Ġaggress":6540,"Ġdeal":1708,"Ġrequest":4641,"Ġbeef":7791,"ĠLord":8447,"dam":11193,"=\"":12120,"full":1985,"ĠTHEN":12569,"Ġpenal":24625,"ĠRIGHT":10663,"ensional":16395,"Key":25099,"Ġopen":1513,"?!?!":5808,"Ġobjects":7739,"Ġpanties":12510,"Ġstatistics":7045,"wi":18070,"Ġmisogynistic":21348,"ĠHorrible":21518,"ĠSaturday":9563,"ĠWent":22047,"roads":25778,"Ġbene":2790,"Ġdelusions":21634,"know":6292,"Ġnotch":20253,"Ġdesert":8517,"080":23036,"Ġlining":22395,"Ġtreatment":6042,"Ġlayers":18408,"Ġs":268,"Ġstorage":10245,"ĠJe":19809,"Ġfavourite":7337,"AL":3152,"Ġdelete":6288,"Ġstunt":13148,"Ġmixed":7224,"Ġentitled":8603,"ĠAtlanta":15718,"onor":16910,"ku":17525,"Ġcharming":20283,"Ġĉ":12988,"ĠThen":1601,"cough":10214,"aya":20707,"Ġrequired":4148,"Ġheavy":5260,"ĠMaher":19072,"113":22254,"Ġasc":23336,"Ġhobbies":21695,"let":659,"lect":2515,"Ġvoc":9955,"ĠLob":25238,"Ġreferen":9755,"lyrics":22307,"Yep":16360,"92":8172,"Ġremoves":19828,"Ġsize":3023,"Ġalright":6846,"Ġinflu":4883,"Ġlaughing":4552,"ĠPlenty":15524,"Ġnominated":23092,"Ġcoworkers":15349,"Ġpine":16014,"Ġordering":15758,"Ġweekly":16292,"nt":481,"Ġextensions":15199,"whats":20489,"bye":11265,"Ġtracker":17939,"Ġcommented":11218,"Things":23826,"rh":15624,"ĠTimes":8719,"ĠPie":24080,"baby":13769,"ĠMeet":19819,"Ġcaste":25773,"Ġsoy":16153,"Ġadopt":11793,"Ġselected":15033,"Ġbon":4586,"Ġprominent":17367,"Ġ:-/":14166,"Ġsteril":18977,"fter":824,"Ġforces":6374,"ellig":7912,"now":2705,"rrrr":8524,"Ġvegetarians":19177,"duck":25623,"Ġcoder":24129,"ailand":19209,"Ġyea":6582,"ided":2152,"Ġerad":23254,"Ġpudd":15675,"Pro":5124,"ippers":17597,"Ġfatty":17784,"Ġpleasant":11610,"Ġvinegar":18675,"Ġoptical":18712,"idency":9492,"Ġindian":20896,"ĠEnter":11809,"Ġgoat":7644,"etically":8757,"Ġstereotyp":7462,"Ġshouting":12961,"Ġprescription":14060,"Ġscal":17167,"Ġexempt":17186,"ĠMichelle":18681,"Ġcubicle":23453,"imated":11390,"paration":22179,"Ġdoor":3146,"FFF":22550,"onymous":5769,"ĠRupert":24413,"wik":787,"Ġhonor":7738,"anz":19204,"129":25599,"umm":7979,"arks":8555,"Ġsmile":5932,"Ġkeyword":22918,"racial":19380,"Ġimpractical":24328,"against":14628,"Ġlaz":15121,"Ġcosting":20468,"Ġtransm":20802,"Ġdedication":21047,"ham":5527,"Ġhij":9664,"Ġeject":22181,"Ġusername":4007,"Ġnigg":12175,"rams":15846,"ĠHint":18721,"asi":21064,"Ġtribal":22217,"ĠOhh":23699,"ĠIvy":24818,"Ġinspiring":19543,"Ġview":1751,"ĠGreen":6995,"Ġhaving":1238,"Ġansw":1461,"Question":25916,"stal":8056,"ternal":6385,"Ġ00":16467,"Ġproclaim":17609,"Ġchlor":19307,"Pict":20578,"Ġoperates":21805,"Ġmorph":22499,"Ġinstaller":23664,"COMBO":20136,"Ł|":23672,"Ġauth":2395,"9":30,"See":6457,"Ġche":908,"omy":6532,"Ġediting":9637,"Ġwhiny":13985,"ĠMin":5165,"ĠPhoenix":16965,"tty":773,"verages":18553,"Ġfries":9875,"Ġlink":1127,"ĠReader":20649,"ĠENT":22686,"Ġdrilling":24174,"????":6190,"Ġworth":1553,"sch":14121,"Ġnephew":22380,"ĠDa":5324,"ĠBILLY":25138,"Funny":15156,"ĠChinese":4130,"ĠDaily":7167,"ĠColumbia":21546,"Ġcart":4034,"Ġfactor":6118,"typ":23520,"Ġhunter":15087,"Ġsprink":23853,"OUD":25442,"14":3059,"Ġsans":16983,"ĠMod":7146,"Ġinconven":12287,"Ġconsulting":25895,"Ġbikini":23138,"Ġdifficulty":12587,"Ġparadigm":20996,"flag":25571,"Ġsentence":3113,"lf":677,"Į":240,"Ġmete":18873,"bler":14925,"Ġchef":18762,"hg":25486,"Ġtemp":15883,"ĠUnd":22638,"Ġ....":6282,"Give":12871,"issy":25780,"ĠFox":3333,"Ġoutlaw":11061,"UK":15395,"rophic":25312,"Ġnightmare":11282,"Ġcalled":1361,"'re":510,"An":4558,"Ġmasturbating":11219,"Source":13255,"respons":9827,"Ġnearest":14972,"Ġfertil":16206,"Half":21751,"riors":24576,"Ġasian":9686,"Ġdull":13309,"Ġvandal":17314,"Ġexpon":16190,"Ġrecord":2547,"Ġjudicial":22605,"df":5659,"Ġidiot":2295,"Ġoccasionally":7823,"ĠPortal":17260,"Ġintel":18903,"Ġdat":2303,"Ġwindshield":23392,"ading":3460,"Ġreconcile":24717,"ĠMirror":21732,"214":23704,"Ġ)":5572,"ĠMach":9997,"oi":18427,"UL":5952,"Ġdemocratically":22245,"ĠHezbollah":23598,"worthy":12239,"Ġsubsidize":24251,"dder":22228,"Ġafterward":16566,"Ġmun":18102,"Ġconsol":17559,"Ġgas":3198,"PS":3481,"ĠGeorg":7200,"whe":6381,"ploy":2135,"Ġ23":6611,"Ġtitles":9642,"Ġfoil":13229,"flu":15753,"rians":17310,"ĠGold":5908,"Ġnewsletter":17705,"Ġtranscript":22662,"girls":12899,"ĠGN":9180,"iblings":19196,"Ġabuses":19727,"Roll":21778,"Ġrage":7682,"Ġdisregard":13307,"Sat":21998,"23":3743,"ĠEDIT":13619,"Ġtransactions":21291,"TFY":4153,"Ġirony":4880,"ĠStalin":11130,"Ġimmense":15523,"Ġbean":18025,"Ġaccounts":5409,"Ġpicky":16948,"Ġdolph":12880,"acting":17995,"Ġapologize":6944,"Ġaccidental":19744,"Ġinnocents":24932,"Ġups":10768,"usa":19252,"ĠClinton":4238,"Ġerror":4630,"ĠNobel":12094,"Ġunlawful":24722,"Ġsandwich":5389,"Ġcodes":13458,"ĠFWIW":20616,"rays":19305,"Ġbroadband":17940,"Ġthus":4414,"ĠPardon":22566,"Ġlocated":11887,"ĠPup":24721,"Ġsmo":1793,"Ġwishing":16933,"Ġpert":21761,"Ġlocal":2899,"Ġexpressed":12682,"tin":6710,"Citation":14818,"ĠBAD":14730,"ĠĠĠĊ":5325,"aaa":7981,"Ġtv":5514,"Ġtower":10927,"ĠMadd":15083,"ĠCra":7411,"xx":8359,"Ġdry":5710,"eriously":2020,"Ġtransl":5561,"ĠABOUT":12450,"Ġproduce":5092,"Ġvaluable":8336,"ench":8020,"DB":13331,"Ġunderage":14932,"gressive":13731,"fig":15894,"Ġguilty":4827,"abul":14070,"Ġhardcore":8538,"puts":9798,"ansion":9422,"Ġemotion":10993,"ĠOk":2277,"ĠContext":17839,"Ġwield":18359,"EEEEEEEE":10081,"7215":19355,"ĠPenis":20261,"art":493,"Ġintegration":20311,"Ġassistant":20528,"ĠDennis":14235,"Ġindust":3013,"Ġgosh":20687,"Ġexper":1438,"Ġlooking":1451,"Ġfallacy":8818,"omn":18235,"Ġtruther":20742,"Ġbutts":20971,"Ġcorrespond":16042,"Ġnobody":3071,"Ġcompat":8464,"Ġconvictions":21961,"old":1101,"engers":14553,"Ġislands":23698,"Ġdecay":24106,"Ġstopped":3289,"ris":3677,"weight":7187,"Ġseven":7708,"ounter":8102,"Ġcontribute":8502,"ual":894,"Ġmoved":4309,"Ġbrowsing":8951,"Ġexplaining":6984,"ally":375,"ĠAmeric":896,"Ġstrong":2632,"Ġbark":6592,"Ġcandy":7589,"Ġwipe":8199,"Mc":9093,"Ġstats":10232,"Ġpoo":7129,"Ġreproduce":13277,"Ġeleg":15457,"Ġpotato":12834,"Ġjohn":16205,"Ġchill":10188,"th":371,"Ġpour":11225,"Ġsubreddits":7486,"interest":16549,"Ġclinic":17611,"wolfram":19059,"Ġfinite":15440,"Ġdolls":22983,"Ġitalics":23128,"Ġleaking":25044,"Ġpoorly":6941,"ĠCheers":15985,"Ġwatermelon":21548,"ĠApp":1983,"Ġdegree":3999,"Ġstupider":24545,"ĠRot":25227,"Ġmutually":11687,"ĠWhats":9381,"Ġrash":25237,"avement":22758,"Ġadvocating":11662,"ograp":9391,"Ġembarrass":5335,"ahren":17790,"Ġtrolled":16898,"ĠSim":3961,"Ġenter":5536,"Ġbrack":12747,"Ġscales":19256,"Ġ*[":19982,"mist":23032,"Ġindoctrination":23298,"Altern":25174,"Ġensuring":25507,"Ġfreelance":25957,"Ġscary":4702,"Ġunion":6583,"Ġagree":1165,"amas":11028,"amation":12941,"probably":10293,"ptions":7974,"Ġstruggle":12166,"Ġprimarily":10837,"Car":18714,"Ġdaddy":11863,"ĠClint":20684,"Ġanniversary":22042,"zt":22853,"yond":3737,"pers":11081,"Ġhist":1943,"ĠColbert":9236,"Ġoptimal":25231,"Ġexciting":9330,"Ġdumpster":24327,"Ġ`":4109,"ĠMetal":13906,"Ġwarmer":22482,"igation":21412,"angel":7304,"ĠRussians":10991,"Ġcyclists":17459,"Ġhardly":4643,"orant":17033,"angu":1593,"LP":18174,"Ġ77":24420,"ursday":12950,"Ġbelieve":973,"Ġsuspend":23844,"Ġintegral":25352,"ĠWarren":19668,"ĠBrother":16590,"Ġ:-(":9138,"Ġseriousness":13748,"Ġarchite":9880,"ĠVader":17990,"ĠGI":19871,"Sch":20439,"Ġprogress":4585,"ĠOriginal":16508,"Ġimpression":5786,"quite":20452,"Ġsized":10860,"Ġgorilla":21255,"Ġoperators":21990,"enis":22394,"Ġaesthetic":24691,"Ġelectoral":16499,"aaaaa":17346,"Qaeda":25847,"Ġlub":19900,"Ġrocket":7094,"igs":12677,"Ġmindless":12930,"iary":16250,"ĠHung":19246,"Ġpermit":14053,"ĠWashington":6735,"ĠSEE":12441,"Ġevident":21985,"NBC":22975,"EDDIT":7789,"Ġblock":3046,"Ġunconscious":17284,"Public":23009,"Ġfrog":12235,"arter":4046,"article":4971,"Ġtent":10482,"Ġprice":2739,"Ġimm":1951,"*...":10518,"Ġsponsored":15870,"Ġgear":8558,"Ġbeneficial":15201,"argument":18019,"definitely":23435,"ĠAfghanistan":6220,"Ġbands":7910,"Ġchoke":16029,"Ġembry":21377,"ĠCastro":24349,"jew":18322,"Ġpoetry":18049,"loads":24676,"Ġrelating":20269,"Ġslaughtered":22645,"bird":10505,"ĠPress":15938,"Ġpuss":4463,"Ġgenerating":19865,"Ġmedicare":20447,"Ġlawy":4454,"Ġgarlic":15638,"ĠWednesday":15535,"Ġmutation":24960,"gin":1970,"bar":2679,"Ġaudio":7092,"support":11888,"low":12633,"Ġidentified":15645,"Anyways":19896,"Ġunderestimate":15076,"Ġaddress":3170,"ĠRoosevelt":22654,"im":339,"Ġlumber":24893,"Ġrescue":12924,"ĠColl":6797,"ÉĻ":25041,"Ġyr":15320,"Ġvisual":7443,"Ġeup":15326,"Ġproven":5645,"Ġtyranny":15473,"BUT":22913,"imov":19324,"Ġmake":648,"ÿ":193,"ĠDroid":24360,"Ġunden":25043,"Ġmemo":13933,"ĠFAR":18790,"ĠHicks":21288,"Ġabsorb":18415,"Ġstore":2794,"Ġdiscourse":12294,"ĠDollar":22230,"Ġgag":13437,"ithub":25177,"ooked":14204,"ĠCanadians":7796,"ĠCompany":17509,"Ġrelieved":24344,"iley":15254,"fashion":20373,"Ġlabs":22972,"Ġrecipes":20339,"Ġmut":4571,"?!!":19094,"Ġbathtub":21636,"ĠHehe":13308,"Ġcrank":15651,"Ġdiver":21079,"Ġshields":21960,"keeping":24504,"Ġspaces":8333,"ĠMess":15074,"Ġunw":8548,"ulars":23184,"Ġfill":3330,"ĠKingdom":18010,"Ġelection":3704,"Ġdisk":8855,"Ġsatisfying":13786,"lay":10165,"Ġidi":1697,"ĠEst":25267,"Ġsound":1117,"ĠJessica":20359,"sigh":6889,"Ġteenager":11070,"ĠStrange":11153,"Ġjobs":3537,"Ġfans":5684,"ĠParis":10734,"Ì¶":18842,"urton":23276,"Ġie":11251,"erie":24306,"Ġpunishment":6224,"Ġtoget":2417,"Ġinn":3796,"ĠDwarf":23583,"Ġmachines":5827,"ĠTwo":4681,"Ġandroid":20576,"fuel":24058,"K":48,"ĠWarcraft":14034,"Ġtu":24574,"________":9571,"Ġmag":2381,"Ġpermanent":10406,"Be":3234,"esc":13054,"Ġlimb":15815,"dit":755,"post":4322,"Ġgenetics":17204,"rarily":22479,"ĠMale":18211,"apper":23931,"doch":15610,"ĠâĢĵ":12312,"ĠFry":15046,"priv":22788,"Ġtodd":18468,"Ġnormally":5824,"Ġtit":5892,"Ġclinton":23135,"Ġrespect":2411,"blog":3121,"Ġshield":10049,"reddit":1026,"RI":6412,"?*":7265,"edit":1415,"Ġlibraries":9187,"bec":10158,"nold":16387,"Ġdrunk":3225,"Ġdol":12566,"ĠLuckily":12735,"Ġlove":957,"ĠProject":14036,"Ġpainting":9631,"ĠCore":16015,"cape":10462,",-":17168,"Ġflex":11856,"Ġpes":18118,"Ġsail":12606,"Ġpolish":18247,"string":18853,"Ġremarkable":19303,"Ġregions":19368,"ĠFahrenheit":20358,"Ġdisposable":20455,"orrowind":21691,"ĠCob":21744,"ĠTop":8753,"thest":23458,"Ġhumor":3703,"ĠMasturb":24563,"Ġastrot":25819,"Ġbears":8081,"Ġsoph":10875,"cann":23443,"ĠSuicide":23750,"Ġsooner":10110,"Ġtee":24444,"ĠInstitute":23162,"Ġemer":6366,"Co":13721,"undance":24522,"Ġchart":8542,"Ġantisem":16089,"Ġorganizations":10599,"met":5123,"ĠAndy":20314,"Ġpainted":13265,"Ġeh":4339,"Ġhill":9221,"z":95,"Ġviable":10261,"Ġdown":655,"Mac":11045,"Ġdistraction":20442,"MO":8178,"Ġcompassion":12621,"much":11350,"itement":18363,"Ġbattery":6551,"ĠOWN":19401,"ĠEdison":25004,"ierra":25167,"avior":25790,"closed":16345,"Ġdiv":3685,"Ġugly":4396,"Ġcollar":15780,"ilk":17655,"bur":4731,"ĠMother":10735,"OME":5041,"hu":12776,"Ġimpeached":21108,"Ġdestroy":3807,"Ġaircraft":11957,"Ġcandid":3218,"Ġcows":10201,"Ġvow":15548,"IF":6604,"Ġbro":1836,"berg":5877,"Ġensl":17200,"Ġtheater":9388,"ĠBol":20700,"Ġmentioning":9584,"mis":15712,"B":39,"Ġrunner":20956,"Ġsuing":15933,"Ġamaze":22833,"ĠThose":2861,"amazing":22904,"Ġspoke":10137,"Ġalong":2508,"IE":6370,"Ġties":13738,"aron":17807,"ĠMorrowind":22445,"point":4279,"stat":12005,"Ġmoms":16700,"icularly":16846,"ĠeBay":16915,"Ġsticky":13521,"Ġparliament":17678,"Ġarchive":19144,"Ġreasoned":19743,"HU":23442,"ĠOCD":17080,"emonkey":14652,"Ġcal":2699,"ĠIsland":10044,"Ġaxis":21749,"ĠGNOME":23749,"Ġelectromag":25631,"Ġhey":4519,"Ġrestaurants":10445,"Ġspite":12017,"ination":2506,"Ġrounds":13399,"IN":1223,"ĠBush":1845,"care":3636,"unate":19113,"gonewild":21231,"Ġgets":1434,"Step":9208,"estin":9773,"ĠRape":16488,"Ġislam":12705,"conce":19073,"Ġtrigger":10685,"Ġglow":19655,"Ġchurch":3294,"Ġboyfriends":23448,"Ġgeek":8152,"Ġciting":17428,"Ġmodern":3793,"Ġcontroversial":11367,"ilia":10957,"Ġperforming":14159,"Ġins":1041,"Ġdri":1215,"ĠPlease":2254,"Ġwhats":7217,"ai":3786,"ASS":12351,"Ġape":15089,"Ġexplosive":17703,"Ġfapping":18240,"Ġnewer":12057,"Gen":10965,"ĠJimmy":13342,"Ġidentifying":20809,"BU":21400,"der":573,"Ġprayer":13299,"Ġuntrue":15532,"Ġ]":14187,"inine":15250,"atters":19080,"Ġexpectation":19398,"Ġreper":19474,"riend":835,"ĠSpot":19793,"VA":21175,"ĠHomosexual":25098,"Ġthoughtful":14485,"Ġprox":24112,"Ġfolding":25541,"cip":24214,"Ġimmortality":24236,"Ġseizure":22360,"ĠMBA":25882,"Ġplanets":14405,"inese":3486,"Ġcreation":5336,"Ġgain":5837,"Ġpool":5935,"Ġethics":12359,"Ġmaintaining":16032,"Ġalpha":15826,"Probably":14001,"worth":16129,"Ġrepetitive":16516,"to":1681,"ombies":17207,"Ġpolitician":6777,"myself":25802,"Ġjustify":5881,"ebus":25991,"ĠLOCK":23938,"Ġamaz":2082,"Ġnature":4047,"try":10035,"Ġtable":4774,"|.":15787,"Kit":22889,"counter":25879,"anger":2481,"ibles":16595,"¢":101,"even":6560,"Ġsomeone":801,"Ġfabric":11584,"ĠKindle":21822,"Ġsarc":2919,"ori":24027,"ĠSpears":20107,"vim":25320,"ĠUV":25911,"Ġactivity":7293,"Ġincredibly":4392,"ĠLO":6634,"Ġvery":779,"Ġgive":1061,"==":4758,"udos":8787,"aired":17097,"ĠSea":16167,"Ġfyi":21272,"State":21468,"mongering":22199,"commons":13532,"Ġenemies":8618,"ĠTel":18307,"ĠPerry":24469,"clock":16249,"<":33,"Ġmud":13351,"eller":10198,"Ġconsiders":15519,"ĠFerr":19886,"Ġcounsel":15844,"Ì²Í¡":21597,"breed":24971,"ĠHook":23650,"Ġstab":6307,"wire":13026,"Ġconserv":3206,"ĠDad":10177,"Ġprevent":3943,"Ġanyways":6166,"Ġeffect":1824,"Ġdonate":8075,"ĠMartin":11999,"unn":6616,"ĠVent":17224,"othing":7732,"Ġhere":704,"ground":3471,"Ġgenoc":23568,"ools":10419,"Ġrepresented":13641,"Ġmeas":6517,"ocket":23114,"Ġmang":24543,"\\(":18525,"Ġslowed":25620,"Rel":11421,"Ġsensitivity":20573,"Ġcommunists":19338,"Ġtransition":13991,"f":75,"AC":3375,"ĠWoods":19988,"Ġpsychotic":20200,"ag":408,"earch":6684,"center":20392,"ĠMMA":21867,"ĠLies":22498,"Ġsunlight":17977,"Ġgeneralize":23096,"ĠOfficer":25611,"Ġint":560,"ABLE":19133,"Ġbroken":3747,"SSSS":13839,"Ġrephrase":20375,"ĠBaby":12512,"boarding":11861,"el":499,"vi":5468,"Ġber":20243,"Link":13831,"Ġdelayed":21062,"Ġbelly":12616,"Ġexpected":4534,"meat":19171,"Ġcryst":24930,"Ġengineers":9054,"Ġstabbed":14444,"atio":19464,"Ġhonour":23745,"Ġwired":17885,"Ġthrown":6505,"ĠRuby":7632,"bis":25542,"Ġkn":472,"Ġdependent":11738,"Ġindepend":5107,"ĠCounter":18995,"Ġkidding":3841,"Ġbi":2713,"Ġpessim":21266,"ĠGPS":14735,"etchup":14118,"ĠExcel":21487,"Ġdefine":6134,"Ġshitting":12522,"ISS":15736,"coon":18366,"umph":16271,"Ġthreesome":18962,"ĠYEARS":21528,"ĠInst":4873,"Ġdevoid":21836,"DA":8011,"Ac":17129,"Ġreb":5960,"ĠSupport":18199,"ined":2334,"Ġuninformed":16986,"17":3114,"Ġstupid":1263,"Ġdetected":18454,"Ġde":429,"Ġamerica":7179,"ĠCalvin":14703,"vert":2227,"ĠSomet":2943,"otic":5311,"Ġmand":6124,"Ġsnack":19664,"Ġreinc":23673,"ĠReminds":8291,"Ġmid":4226,"Ġinstalls":21282,"48":6462,"Ġastron":10721,"illance":16812,"Ġrestriction":23610,"Ġfantasies":16293,"Ġmoderately":20872,"names":24790,"itary":2464,"Ġreveal":11380,"Ġlegality":24215,"Ġinfall":22865,"Ġcurric":22007,"Ġles":6666,"Ġninjas":20811,"ĠVol":11079,"ters":2779,"Ġpans":18370,"Pop":22304,"ĠWhose":25589,"LET":20787,"Ġwelcome":4616,"Torrent":18062,"!\"":1719,"Ġcommitting":12226,"msn":11876,"75":4122,"ĠWTF":3131,"Ġcertified":20965,"ĠPret":21855,"ew":759,"IRC":10199,"=_":16895,"ĠLion":21514,"Ġfundament":12302,"pable":24514,"Ġentity":11166,"SC":18927,"ifications":10179,"Ġpolit":1453,"uly":3163,"ĠAustralians":18579,"Ġpriced":17324,"Ġhorse":5261,"ĠZim":14599,"ĠBattlestar":24485,"Ġincomp":6311,"Ġartificially":20415,"ĠMath":14265,"aren":7105,"Ġsixth":22552,"team":17938,"VP":23316,"eper":23941,"ĠBITCH":15960,"ouston":12091,"igration":24673,"ĠEx":1473,"Ġriding":7343,"Ġprecisely":8916,"ĠSmoke":22154,"Ġmockery":24531,"meric":856,"outing":23192,"Ġgenitals":15700,"Ġvideo":1334,"ĠRun":9732,"Ġrapidly":15464,"Ġdept":21925,"Ġpenetration":23139,"half":15028,"ses":6419,"Ġattempting":8570,"anity":16369,"Ġdivision":13904,"PT":16524,"Ġbush":6294,"eration":8046,"Ġfuels":19723,"Ġmyths":20308,"murder":20776,"stri":21666,"usr":24496,"Ġanatomy":25029,"Ġende":19946,"Ġpresumably":12553,"Ġpack":2857,"Ġground":3431,"Ġspray":8504,"Ġdispute":14477,"Ġshouldnt":20813,"Ġshith":17843,"Ġpushed":8877,"omination":15070,"Ġcircus":22258,"OVE":22969,"ili":3341,"Ġmenus":23724,"sworth":24580,"ĠCalm":22160,"ĠPenn":10770,"theless":16379,"Ġneutral":9572,"ant":417,"Ġreputable":18540,"yson":15748,"ĠCelsius":19737,"ĠAdobe":10194,"tzee":22785,"ilarly":10835,"But":1814,"Ġtrail":6073,"ĠStat":13064,"Ġdocumented":14157,"star":8303,"ĠYEAH":9560,"orld":25013,"Ġcelebrate":11851,"owed":13712,"idelines":18037,"Trans":15705,"Ġcard":2798,"Ġlar":1594,"Ġdistortion":25914,"Ġhalf":1658,"Ġencount":10958,"Ġdime":14073,"smoking":20901,"Ġtrib":21720,"oted":6571,"asion":4151,"Christ":6696,"urious":10583,"Ġmercy":17501,"Ġlur":11654,"Ġgrip":15192,"ĠFUCKIN":23777,"dimensional":24101,"\\":65,"ak":790,"ß":161,"heart":8476,"far":13682,"ĠBrothers":13890,"ĠVHS":24114,"Ġjustifiable":25812,"ĠWhich":2444,"Ġvocal":11875,"Ġparade":16291,"Ġspouting":20217,"volent":24203,"Ġvalue":2855,"tr":2155,"ra":580,"Ġcrunch":15219,"Ġmars":19164,"internet":10782,"ĠTuesday":12598,"Ġassist":8610,"Canadian":20737,"abeth":22148,"Ġgel":21073,"Ġfirms":20574,"key":2410,"ĠEspecially":4603,"Ġmeaningless":7995,"Mad":20011,"Ġimport":1863,"ake":1036,"Ġdot":11986,"ni":12898,"edi":2872,"Ġlocation":6957,"arm":1067,"Ġworrying":13435,"Ġnavigate":20924,"Ġstep":2967,"Ġeating":3125,"ĠHill":4181,"ops":4192,"hl":6242,"ĠCtrl":11302,"ĠBoy":6120,"Ġmothers":11484,"ĠWouldn":5568,"Ġcentral":6711,"ateful":12964,"States":15588,"ima":12719,"Ġfixes":17991,"Ġfare":19497,"agons":21177,"REAK":8319,"On":3988,"ilosopher":19100,"esteem":22144,"Ġtourist":16071,"ĠJoin":22640,"aaaay":24629,"Ġauthorized":25268,"Ġaxi":21264,"Ġfaked":17234,"congress":24993,"ĠGear":15549,"Ġworse":2093,"Ġmultic":25090,"has":6934,"Ġactively":9055,"iser":7634,"Ġconnect":5780,"Ġwestern":6824,"Ġupdated":9659,"Ġvid":12414,"x":93,"Ġlubric":22828,"Ġalongside":22866,"ĠGee":10224,"ĠLiter":15566,"ĠBeautiful":16419,"Ġpeppers":25933,"Ġaccuracy":10983,"99":2154,"É¥":23581,"ĠCou":19165,"Elect":20894,"ĠBang":11840,"Ass":13117,"ĠPy":13998,"Ġdownmodded":4104,"Ġdoll":1969,"Rem":8657,"Ġpulling":7327,"Ġwheel":6394,"ji":16278,"retarded":22905,"85":4769,"isse":18096,"Ġyay":15136,"dist":13975,"Ġly":20394,"ĠStore":18425,"http":513,"ĠTurkish":25067,"ometer":15133,"Ġmarriage":3682,"mpt":8936,"Ġourselves":6719,"ostic":6444,"Ġunplug":24478,"Ġbloody":8223,"Ġvict":3492,"Police":16749,"HO":8791,"ĠCapital":9363,"oud":2283,"tml":8323,"Ġdownt":9609,"Ġintim":11695,"Ġactivist":22538,"aze":9757,"obo":25799,"azing":14096,"ridge":16947,"bf":16971,"opia":15864,"rive":6429,"Ġheal":15502,"Ġemissions":16127,"ĠOkay":4307,"Ġ22":6390,"usiness":7714,"Ġdignity":17191,"Ġempirical":17993,"Ġnerds":9266,"Didn":17891,"Ġcouch":9238,"OC":16645,"Hard":17770,"ĠPC":2898,"Joe":20589,"omed":6401,"Ï":145,"Ġmaximum":10711,"Ġpalm":18283,"ĠFUD":22315,"ĠEuropean":5622,"Bar":13004,"vg":14109,"asting":14409,"older":18670,"rand":22032,"itely":1743,"ĠGit":15286,"Ġfolk":9873,"Ġcurrent":1989,"Ġaspir":17748,"ten":1370,"Ġhint":7836,"REN":19893,"ĠWheaton":23244,"perform":19913,"Ġmatched":23304,"Ġpract":2565,"Ġphase":12922,"atholic":4803,"Ġbugs":7211,"ĠTiger":14466,"Ġpowder":14880,"ĠFDA":15525,"Ġbye":18622,"Ġaired":19635,"BLIC":25416,"Obligatory":20430,"Ġobfusc":23219,"Ġstar":3217,"Tom":18107,"ĠVir":7827,"Ġfutile":20024,"ĠFile":19565,"ĠWinston":25693,"tt":376,"ĠWhereas":23468,"penny":24422,"Ġslave":8755,"ĠRazor":24578,"!\")":21843,"pro":1725,"Ġiron":7380,"Ġvictim":4102,"ĠFive":13346,"Ġrat":5105,";(":14864,"abs":5746,"ĠCatholic":5988,"forg":17295,"apon":24908,"ĠChief":18071,"06":5242,"acus":19552,"ĠPirates":22079,"Ġsurgeon":19263,"entry":21145,"OTE":11795,"Ġtard":25555,"Ġads":3862,"mail":4100,"Ġfreely":12790,"Ġcomb":3329,"ĠProblem":10285,"ĠSoftware":14746,"Ġwomb":21333,"Ġchap":8941,"Ġquantum":11794,"utive":14684,"ĠCON":8913,"Ġoverth":15841,"ĠNonsense":21529,"Ġsmiling":14272,"Ġbenefit":4820,"mer":701,"shot":6871,"aby":5761,"elligent":11562,"ĠTony":16037,"Ġhazard":17691,"Ġsuffice":19894,"ĠLeno":24377,"Ġattacks":4960,"Ġwed":6460,"lots":24374,"YOU":10093,"ĠHealthcare":24439,"Ġelecting":21794,"Ġbanning":10405,"Ġinclud":2599,"Ġintro":10250,"utation":25516,"Ġdecides":9644,"ĠColorado":15654,"mit":7219,"ĠNSFW":4740,"Ġappoint":10228,"Ġjumps":15099,"EEN":16495,"Ġgran":20310,"Ġpurposefully":22320,"Ġsunday":22347,"Ġplant":5758,"Ġperce":9249,"Ġbeautiful":3852,"ĠIraqi":12526,"Ġquicker":13442,"Ġfaithful":22070,"brid":11717,"Hamas":24351,"Ġlimp":24988,"Ġfrying":25618,"Ġhurts":6715,"Ġcompatibility":14901,"Find":23928,"roit":9203,"ĠEvil":11653,"Ġgovern":8175,"Ġspout":13094,"ippy":18573,"Ġtha":24892,"Ġlegal":2170,"ictive":25412,"Ġshove":13441,"Ġlabour":18431,"Ġincompet":9313,"ħ":233,"screw":22818,"Ġhell":1389,"NO":10353,"pop":5515,"onia":24241,"Ġfamous":6043,"log":7730,"bps":19217,"Ġassoci":4945,"Ġec":10522,"Dick":22236,"Ġinfluential":18315,"io":1452,"look":4208,"Ġdeliver":7998,"static":8127,"Ġmachine":2994,"Ġdoors":8203,"antly":2656,"cycle":9855,"Ġsleeping":7403,"Ġstrike":7688,"Ġplural":10539,"Ġstead":12093,"cache":15163,"affle":16710,"Ġbowling":19251,"Ġstalk":11816,"Ġpilots":17656,"ppy":24951,"Ġfatties":24983,".âĢĿ":10937,"sss":25605,"bath":17927,"Ġwholeheartedly":20065,"Ġlif":4633,"Ġ!=":5801,"Ġbankruptcy":15680,"Ġbodily":21472,"grown":21950,"vable":7111,"Ġcredit":2847,"nes":6473,"Ġdemol":15434,"lee":6835,"Ġreinstall":16616,"Ġjeans":10917,"Ġ=)":6859,"Ġcream":6346,"Ġbrakes":16946,"ances":2725,"Ġnarciss":19381,"Ġwiping":17059,"Ġreduced":10722,"ottle":17333,"makers":23625,"Ġperforms":23895,"Ġcust":12900,"ĠBoard":23986,"biblegateway":25330,"ĠJewish":4405,"fly":7189,"Ġsprayed":25449,"ĠOx":20594,"Ġbrownies":25493,"wal":16081,"ĠNES":15750,"kish":19323,"xual":3369,"Ġbrings":6718,"Ġburied":9931,"Ġdur":20671,"Ġviews":4799,"Ġlearnt":19961,"Mark":17662,"ences":3787,"ulating":6887,"ĠCIA":7035,"ĠRest":15312,"olf":3893,"Ġwiki":9605,"Ġslim":12107,"Ġcompares":22048,"Ġlibertarianism":17022,"Ġdeg":3038,"Ġsaving":4847,"Ġabbrevi":14664,"retch":6074,"Ġgrav":5907,"Ġide":974,"ĠLetterman":22588,"Ġbrag":17075,"Ġjust":413,"Ġx":2525,"ropri":3403,"Ġprofit":4027,"ginal":14062,"Ġtradem":15478,"regardless":15671,"obviously":18047,"Ġnamed":4123,"Ġtranslated":14939,"ĠHi":6494,"Ġeyes":2687,"Ġjoining":13095,"Ġfe":619,"Ġmovements":15814,"ĠVictor":16527,"Ġoffer":4131,"ĠKeep":4937,"itals":8174,"Ġwheelchair":19954,"Ġadjusted":20082,"Ġshortcuts":21247,"ĠZeppelin":21928,"ĠSolution":24686,"Ġtops":15178,"syn":24750,"Ġopposes":25242,"Ġparenthes":15902,"spelling":25035,"Ġjud":2577,"Ġpink":7514,"ĠMexic":4281,"ĠScot":12658,"ĠCiv":15105,"ĠCompared":18957,"AR":1991,"Ġled":7260,"jo":7601,"Ġefficiency":11825,"Ġpage":1619,"uk":2889,"formers":16563,"ĠScientologists":21856,"Ġnegate":24888,"ĠCrunch":25150,"Ġclim":7346,"Ġkidney":20055,"ĠOF":4262,"Ġroute":9971,"tv":8215,"roy":10739,"¹":123,"Ġcomputing":14011,"ĠExcept":3339,"amental":5155,"ĠSweet":8035,"CC":6122,"ensions":8560,"ĠFAIL":10340,"Ġbund":13343,"era":8519,"Ġyield":12742,"Ġhistory":2219,"Ġjoint":7467,"Ġunicorns":17465,"none":20678,"Ġcontinuous":21050,"Ġspit":10225,"Ġwhipped":21144,"asma":14648,"Ġmagazine":9050,"Ġkingdom":21527,"iece":20240,"ilos":3759,"BLE":11168,"Ġvas":20234,"ĠUsually":7939,"zbollah":20342,"icle":1081,"Ġcowards":19176,"Ġdownside":17663,"VEN":23589,"Ġprospect":17837,"Ġadvis":16230,"ĠSeattle":9614,"orders":8408,"Ġdiameter":22140,"ĠMagazine":24831,"ammy":18350,"aultards":25220,"Ġweird":2509,"Ġspecify":14217,"Ġstepping":18053,"Ġregard":3028,"down":3140,"Ġdual":9540,"Ġpartial":13634,"Ġwind":2776,"Ġpar":1709,"Ġwithdrawal":19163,"JA":19512,"oming":22011,"Ġadvanced":7646,"Ġlife":1037,"Ġinst":969,"Ġbow":4581,"Ġsocietal":20652,"Ġmarathon":23150,"Ġbalance":6909,"Those":9059,"heit":15188,"Pre":10006,"Ġshallow":10906,"Ġcrashes":11147,"umbo":22424,"ĠHang":17725,"Ġrequested":15162,"Ġfinancially":15148,"OW":2479,"Ġgenes":11019,"Ġknot":24426,"Ġcondom":5358,"Ġveteran":21373,"Ġmal":6110,"Ġterrorist":5036,"Ġgreater":5848,"ĠGM":7631,"Ġcorrelation":9841,"Ġminded":10681,"Ġfifty":14479,"atched":18631,"handi":25350,"ibl":9350,"ĠUN":4819,"apanese":10680,"Ġrope":13241,"oups":17427,"Ġcoerc":16719,"Ġfavors":19941,"Ġcollection":7052,"uffer":20480,"antically":23891,"Ġfresh":5080,"still":8627,"Ġcolour":9759,"jon":21784,"HHH":13863,"Ġaffirm":16263,"environment":21864,"ĠMyth":12614,"Ġ1920":20284,"dle":11877,"Ġtogether":2425,"red":995,"ĠKnock":19157,"Ġevolutionary":12980,"Ġwang":24575,"ĠOB":11921,"Ġdash":15542,"ĠVM":12256,"Ġprosecuted":15169,"ĠRon":2271,"Ġvitamin":20905,"Ġvicious":16919,"Ġdrum":12860,"esides":3826,"]":66,"ĠAlice":21709,"Ġfel":10805,"Ġparentheses":24560,"lights":14052,"Ġot":25672,"Ġproduced":7689,"Ġ\\[":22899,"ĠSpace":8041,"Ġadvert":3887,"Ġbend":13339,"Ġdealers":12378,"ila":16553,"Ġproject":3004,"own":568,"too":7816,"Ġsubway":12821,"cheese":22807,"alyst":25842,"Ġgro":9881,"Ġnewest":19914,"Ġservers":5573,"Ġglory":14578,"Ġextraord":15015,"arthy":16817,"ĠVen":15585,"atted":16825,"outher":24711,"ock":1030,"ividual":3158,"Ġcrushed":15144,"ĠQuit":13125,"Ġbeside":14120,"Ġpremise":9969,"Ġniche":16797,"Ġrm":22411,"ĠPut":5444,"fo":11778,"Ġoutstanding":20991,"Ġtrem":13847,"ĠLegal":17527,"ĠCab":20005,"cho":8966,"Ġlingu":14797,"Ġappreciate":4298,"ĠWal":4886,"ĠOH":6630,"Ġastr":23057,"ĠZionist":12575,"intellectual":17323,"Ġmixture":21582,"technology":13708,"Ġarrogant":9521,"ASH":15710,"Ġrepublic":3725,"Ubuntu":25258,"What":1624,"Ġunus":8290,"Ġsle":8506,"ĠB":397,"ign":749,"Ġhate":1240,"ĠDepending":17125,"itant":17718,"Ġincredible":6973,"bal":8695,"Ġpiss":2336,"ĠIll":7280,"Ġanonym":13096,"Star":13470,"Ġedges":18975,"Ġprovince":21588,"Ġresent":14705,"ĠClojure":22387,"list":5614,"Ġnarwhals":18302,"balance":24430,"Ġoperations":12427,"Ġalgorithms":15729,"Ġingredients":14527,"Ġbeaten":9008,"mates":9157,"Ġtoolbar":17209,"ĠDawkins":8869,"aborate":6018,"ĠXBox":24301,"Ġrevolution":6476,"Ġsca":2587,"Ġtravesty":24424,"Ġholds":8201,"Ġtemper":6402,"Ġboom":10925,"ETA":9295,"Ġb":275,"Ġsubsequent":19591,"Ġtens":13043,"Ġbomb":3614,"ub":595,"ĠNothing":3671,"Ġcircumc":7410,"Answ":21911,"Ġsong":2064,"Ġvirus":7338,"Ġstrap":17352,"Ġvers":1670,"Ġscreens":6014,"ĠHolland":19175,"Worst":23213,"ives":1416,"Ġsuperstition":23961,"Ġrewarded":20846,"Ġsurrend":16529,"ĠPacific":18215,"Ġ__":14561,"tm":1286,"Ġaccommod":20693,"Ġmembers":4164,"iams":12792,"ĠMIL":20782,"Ġinfring":9792,"Ġorb":20876,"Ć":200,"CR":11261,"Ġhopes":9989,"ulp":12240,"cheap":22693,"ĠTroopers":23413,"urbandictionary":13395,"ĠCancer":22265,"pub":14041,"Ġappreci":3439,"et":319,"ceptions":17243,"Ġseem":871,"Ġbest":1106,"ĠSP":6147,"Ġtrips":14393,"Ġmacro":15101,"freedom":15179,"case":8263,"count":8427,"agram":11607,"Ġprejudice":16656,"Ġindu":12655,"Ġchamber":17119,"rations":14904,"ĠRunning":17975,"Ġavoiding":12711,"Ġanyway":2003,"bury":18273,"ees":3866,"Ġsideways":18483,"hug":19860,"Ġexpertise":20353,"ï»¿":21697,"ĠIrony":21458,"Ġsnapped":25483,"Ġlovers":18299,"Ġcreature":13224,"Ġease":13456,"Ġos":15456,"Ġbru":19855,"Ġfascinated":21209,"Ġparty":2054,"CO":16359,"supposed":19363,"EEPLE":9984,"eee":14102,"Ġoutlook":21260,"aving":2457,"Ġjustified":8130,"thal":20954,"Ġ1993":21624,"ĠKoreans":20185,"Ġdefend":4664,"vania":14946,"Ġlogic":3118,"Ġflavored":20510,"OX":7399,"Ġteaches":14231,"Ġisolation":22220,"ĠPig":23627,"innamon":25909,"myspace":13763,"Ġtried":1781,"¡":100,"Ġscene":4295,"ffff":9635,"pad":10427,"Ġfoster":24495,"Ġchristian":6212,"ĠDoctor":11661,"while":5859,"BR":8355,"Ġsalty":23034,"ĠTH":1228,"ĠCHE":25066,"Ġex":444,"Ġproof":3168,"ental":2763,"room":2769,"Ġsil":4356,"ĠFuturama":14456,"Ġremake":15327,"West":17926,"load":1677,"Ġasteroid":20773,"Ġguessing":4580,"ĠStrong":23631,"VI":15167,"ø":186,"Ġagainst":1305,"ĠForever":18157,"Ġ4":985,"Ġheadline":3563,"Ġbreast":5587,"Ġsuicide":5238,"Coll":20287,"Ġpump":7967,"hot":5880,"ĠJESUS":20595,"Ġlas":21287,"Ġstick":2558,"urrently":12152,"ĠOpen":6137,"ĠPakistan":7746,"play":2377,"Ġtobacco":9946,"Ġ9000":12410,"Ġlynch":16995,"wars":19319,"OOOOOO":21193,"ĠJam":16652,"Ġonto":4513,"Ġammo":11997,"Ġsubstitute":13114,"Ġlawsuit":11167,"China":21549,"Ġabused":10856,"Del":21662,"ĠCare":6501,"ĠHERE":10404,"Ġrul":2702,"ĠEconom":10189,"Ġresem":12109,"Ġsettlers":17892,"ording":2941,"Ġinsec":11099,"levant":2950,"Ġcopies":8530,"Ġpreval":15338,"Ġrepresent":3812,"Ġutter":5721,"Ġharassment":15291,"Ġeager":16896,"ĠLEA":24298,"ĠUpmodded":7919,"Ġcomplaining":5616,"ĠCPU":9932,"ĠGnome":16954,"Ġactress":21018,"aggressive":23348,"atist":24272,"Ġcanon":19761,"ĠRussian":6219,"Ġhominem":10343,"Ġmy":398,"Ġ125":25445,"Ġbenef":3139,"Ġplanet":3700,"/),":9186,"Ġengineered":23495,"Ġtoxic":13126,"ĠNative":12768,"ĠPick":12537,"CE":5274,"ĠPee":23202,"ĠPrem":23300,"fff":23359,"atim":24856,"Ġpossessions":25645,"Ġindoctr":14332,"orean":18138,"Ġjuvenile":17797,"posts":18378,"Ġmatch":4256,"lets":7424,"side":1948,"ĠGates":11529,"uum":9383,"Ġtheft":8443,"Ġcongress":5782,"Ġ#":2795,"Ġcliff":12936,"Ġphilosophical":13327,"lle":14074,"Ġloyal":17840,"ĠKids":10844,"ammable":22630,"*,":3536,"emon":6514,"?).":13664,"AG":14283,"ĠBa":16491,"ight":559,"ian":743,"Ġshy":12150,"Ġscissors":18615,"ĠUk":24662,"cart":15782,"Ġterritory":10257,"Ġfinger":5015,"Seems":13773,"ĠCentury":25363,"ĠTAKE":20739,"ends":2103,"ĠCode":13555,"Ġsucks":2645,"ulate":4101,"Ġang":3219,"maybe":7677,"produ":16684,"inis":17092,"Inter":18039,"ials":24042,"Ġinsensitive":16674,"ĠJose":12736,"rine":12308,"Ġbankers":12763,"wing":4351,"Ġbecame":4722,"Ġconfirm":5012,"ĠBet":8708,"Ġaudit":21068,"Ġcritical":6716,"Ġfeed":3454,"Ġ26":8003,"Ġchuckle":14533,"ĠEventually":14748,"worldnews":14546,"Ġbackpack":18295,"ezburger":24778,"Ġglad":2730,"ĠCommander":21646,"Ġconsideration":13364,"Ġinsisted":19435,"Ġdem":2184,"Ġdys":12795,"Ġartific":9797,"Left":22595,"Ġ^":6093,"Ġeggs":7076,"Ġimmoral":9897,"Ġpassage":14907,"Ġeliminate":11996,"Ġbrands":17632,"ĠSong":19754,"ĠGPL":10603,"Ġtape":6377,"Ġgun":1538,"Êĩ":16606,"live":7077,"Ġbut":387,"Ġmalicious":17211,"Ġvocals":23915,"Ġbreath":6717,"Ġemb":10327,"Ġapparent":10546,"ĠDRM":6878,"Ġcontents":14508,"Ġpains":24980,"Ġconject":25290,"ĠTerrible":21891,"ne":972,"Ġmoral":4393,"ãģ":5519,"Ì":142,"fasc":22813,"Ġind":1295,"en":282,"oad":11952,"Ġhedge":20168,"Ġvib":10744,"Ġqueue":16513,"You":1174,"bab":9179,"Ġdisgr":15360,"ĠDespite":13239,"ĠLots":7547,"ri":363,"Ġpsychology":11628,"Ġthread":1531,"umn":9163,"ĠExplorer":13749,"bris":20624,"Ġpizza":5051,"ĠMaryland":22869,"ĠId":8452,"ifier":13722,"yard":13676,"Happy":16111,"Ġfears":16468,"izzle":24319,"Ġenvy":15315,"ĠN":414,"Ġgard":22732,"ĠTex":3837,"slightly":24037,"Ġfundamentally":14518,"ĠFr":1726,"iciently":10753,"Ġguns":3040,"Ġfallout":20418,"Ġutilities":22936,"ĠCorps":25492,"Ã©":4951,"itable":13946,"Real":14274,"Ġgood":637,"enezuel":15330,"!?":4837,"Ġdads":25741,"Ġsquirt":24371,"ĠYes":1100,"plement":3798,"Ġpredict":6184,"Ġ3":812,"arge":6748,"Ġinvisible":9710,"Ġstumb":14724,"ĠSystem":10119,"Ġdestructive":15957,"Ġweather":6675,"orus":16735,"ĠRice":20963,"Ġlottery":12761,"Ġunsure":18688,"ior":2243,"Ġafrica":22556,"etic":2890,"Ġdup":8446,"pir":2719,"Ġpresent":4022,"security":18402,"Ġearthqu":19071,"Ġprejudices":25769,"Ġruins":13858,"Ġadvantages":15212,"yp":1953,"chan":2563,"sters":5611,"Ġhun":5620,"Ġsh":388,"Ġbrain":2221,"76":6600,"ĠWonder":9929,"Forg":23670,"Ġagriculture":23180,"users":11360,"Ġchoosing":9721,"Ġblockade":23241,"Ġcontinuing":13014,"ĠHood":24006,"obby":19078,"ktop":13671,"browse":15143,"ftfy":18708,"Ġhistor":5813,"utions":6843,"Ġmelt":8828,"imony":15461,"Gay":23172,"ade":730,"Ġcage":14281,"Ġcollected":17036,"Ġecstasy":23755,"ĠQaeda":16482,"Ġvulgar":23462,"Example":22003,"ums":2871,"ĠPlus":4693,"ocking":13378,"oooooooo":5865,"Ġprinciples":9902,"into":15206,"og":668,"uable":7805,"VE":2910,"Ù":155,"ĠLock":16781,"Ġmeantime":20581,"Ġcourts":10349,"ĠCompare":22326,"Ġwrongs":20388,"ĠChrono":25757,"Ġtrust":3006,"ĠMarx":10933,"Ġenemy":6660,"Ġpun":1962,"kward":5512,"Ġhosts":15245,"Ġflown":23268,"Ġhike":23682,"Ġanother":1199,"ĠHR":15082,"Ġconfronted":20354,"!?!?":25057,"ĠAll":1574,"Ġinterest":1169,"Ġswitching":10140,"\\\\":13432,"ĠLupus":25062,"chuck":25323,"Ġlaunch":5368,"ressing":4362,"hement":24819,"upus":12068,"Ġchips":8929,"elling":11013,"Ġlay":3733,"Ġembarrassed":10309,"Ġfastest":16100,"Ġestate":13169,"chester":18346,"ot":305,"ĠCandy":25737,"eer":19534,"ĠGEN":24739,"ĠSus":17654,"Ġdeception":25688,"palin":24903,"Ġâīł":23910,"Americans":12145,"Ġcontinues":9669,"IMP":14999,"cyclop":15298,"ĠHann":10146,"Ġinert":25684,"based":6170,"Ġbureauc":12026,"Ġregex":19050,"ĠSwitzerland":14119,"ausible":10649,"Ġess":4030,"Ġvoice":3235,"Ġinh":14386,"Ġerection":15427,"Ġfactors":11604,"ù":187,"Ġpound":7914,"ortion":8696,"Ġappearing":19822,"mpg":20420,"ĠHy":9858,"Ġsurely":6485,"Ġdistributed":13644,"Ġsad":1919,"Abs":19481,"Ġreluct":21768,"Ġjun":10683,"Ġaccur":3267,"Per":6972,"chn":1680,"Tr":5699,"Ġcompliment":11246,"UG":17286,"Ġchrom":17651,"browser":21186,"Ġzones":20302,"Ġexcluded":21551,"Ġkeep":1098,"SO":13522,"Ġuneducated":13449,"That":1562,"Ġleak":14044,"odd":21575,"ĠGIMP":23312,"classic":23369,"protect":25470,"Ġrepair":11918,"Ġsmoke":3373,"xkcd":8381,"Ġmaneu":20222,"hide":22619,"Ġdonut":24401,"onto":8566,"istan":3909,"Ġboth":1212,"Ġfeminist":12771,"ĠInt":3162,"Further":18140,"Ġterror":2519,"52":10891,"ĠTER":20680,"Ġaltru":22992,"Ġwank":13413,"ĠTNG":19981,"ĠMadagascar":25257,"aled":5855,"ĠNetflix":15454,"ĠLam":23218,"Ġign":1703,"Ġprogression":20959,"Ġequating":25793,"Ġrecip":18036,"Ġcrushing":20093,"Ġinco":22324,"ĠID":4486,"Ġcirc":3347,"Ġentropy":20646,"inal":1328,"Ġupwards":20180,"ĠKoran":20524,"Ġpdf":16610,"Ġretort":17230,"Ġmailing":20409,"212":24270,"Ġmonsters":15304,"ĠLetter":17392,"Ġpeeing":17320,"travel":19136,"ĠÌģ":12274,"Ġpronoun":18065,"illion":1667,"Ġindustry":3665,"ĠPaul":1391,"Ġpop":1373,"Ġbudget":5853,"ĠTHINK":15197,"Ġspouse":16678,"tick":19852,"ĠThree":9037,"Ġnerv":10556,"ett":5766,"ĠTwain":21975,"God":5525,"ante":22190,"idel":10728,"humor":15656,"ipher":21317,"lete":3892,"Ġthan":550,"ĠTWO":16796,"Ġpigeon":21801,"ĠSun":4685,"ĠDiablo":13995,"itious":18838,"Ġpatience":16568,"Ġcake":5564,"Ġhous":5244,"stud":10302,"President":18217,"Ġmascot":25796,"Ġantib":17205,"Ġplaying":2114,"ú":188,"Ġke":855,"Ġ0":2446,"rav":3797,"Ġsalary":8888,"ICS":11616,"have":5839,"ĠSoviet":7639,"gal":15886,"Ġremarks":17004,"PB":13792,"Ġtattoo":7774,"Ġmisconception":17701,"ension":4230,"Ġmeet":2694,"orted":12417,"Ġblank":6553,"Something":14407,"ĠAir":7028,"lled":18204,"ĠPrius":20690,"Query":20837,"v":91,"fl":2138,"epsi":12183,"Ġchallen":4840,"Ġgore":19728,"Ġmarty":20841,"nnnn":18303,"ĠAngeles":16281,"Ġemployed":13063,"Ġticket":5486,"portion":17765,"ĉ":203,"Ġtapes":17804,"otional":23253,"quote":16805,"inee":18294,"Ġscenario":7826,"Ġprogrammed":17616,"urns":20114,"Religion":19035,"alous":25130,"Ġcommittee":14389,"ĠBob":6678,"ric":1573,"ĠSocialist":18500,"Ġdragon":15113,"movies":17742,"relevant":18971,"ĠMoses":25355,"Ġhal":14937,"Ġwants":2115,"Ġhates":5829,"ĠYEAR":16640,"ĠAP":6413,"osystem":22699,"ulated":4686,"iments":8369,"ĠCraigslist":16578,"Ġfailed":4207,"Ġ--":1805,"encies":8424,"ĠFootball":22142,"wm":24791,"ĠAvatar":24918,"264":17101,"Ġconviction":15970,"ĠWho":1603,"Ġinsecure":13840,"Ġarea":2842,"ĠRomans":17327,"Ġsneaky":19983,"Ġmusic":1823,"lor":7315,"ĠDjango":21104,"Ġfunky":23095,"ĠHorse":23914,"ĠAH":25523,"Ġinstantly":8681,"force":4604,"hop":9306,"Ġsubstant":9150,"Check":12265,"McC":12403,"Ġsw":1435,"ĠArm":14143,"ĠMy":930,"Ġtwist":7308,"Ġgrace":15233,"ignant":18097,"ode":1301,"TE":18892,"ĠScience":6539,"ggies":18568,"Ġ88":19288,"ĠHindu":15632,"ĠAre":1445,"Ġhandicapped":17518,"Ġplugins":19674,"Ġsure":793,"ully":14351,"rup":2571,"ĠDo":910,"Ġsign":1498,"Ġdocument":4129,"Ġmoon":4595,"ĠJan":8415,"Ġagents":12757,"othe":15595,"PC":8667,"\",":1616,"Ġcontain":6151,"Under":17134,"Ġcharges":6437,"Ġmort":5832,"health":6996,"uary":7320,"ured":2985,"Ġglue":16380,"ĠList":8488,"ĠEsc":17682,"Lets":18184,"Ġ\"*":11120,"GM":18339,"Ġpets":11884,"ÑĢ":22135,"Ġsocket":23428,"IND":10931,"ĠGill":24392,"ĠGandhi":17070,"Ice":25170,"Ġgorgeous":13370,"powers":20665,"mccain":23252,"EXT":25485,"apego":25962,"Ġmodels":7503,"Ġstores":6467,"Ġfucking":1009,"Ġillustration":23527,"Cap":13141,"Ġwondering":3899,"Ġsport":4201,"town":15186,"Ġfuzzy":14418,".**":5478,"empt":2191,"ers":407,"Ġregulations":11823,"ener":14738,"ĠOO":12611,"Ġniggers":18749,"Ġfloats":19967,"480":22166,"Ġspeeches":17019,"itational":22565,"Ġsays":1385,"Ġtrillions":21739,"xxx":25865,"Ġabsol":5835,"Freedom":19356,"Ġoutsour":20044,"amine":15600,"ĠTIL":21543,"ond":1405,"32":5929,"dem":5307,"Ġbuffer":20043,"ĠHalloween":13782,"Ġnovels":14615,"Ġoffs":14249,"Ġhandles":16714,"Ġpyro":19452,"aves":3353,"allen":4412,"irl":4877,"oops":4115,"enez":14821,"double":17147,"Tell":13103,"Ġconv":2337,"Ġprocesses":12956,"cd":4003,"ĠCond":15430,"Ġgodd":16473,"itch":1586,"GR":20925,"Ġassured":16849,"Ġsc":799,"ĠIAmA":14584,"service":22781,"Ġmarijuana":5004,"Ġtheyre":24343,"ĠUnions":25203,"adio":7608,"%,":9470,"Ġflames":17573,"Ġwears":11448,"UPID":19446,"ĠTer":7059,"ĠBan":12000,"Ġleather":13427,"Ġguarantee":7495,"Ġindeed":3711,"irting":17300,"Ġrespecting":19667,"ĠRequ":19749,"Ġcabin":11817,"Ġawards":20445,"Ġgateway":22051,"ĠErlang":20503,"eval":22288,"rapol":20755,"uild":6686,"Ġargument":1898,"ĠToo":3617,"Ġmerely":5279,"Ġquantities":21230,"Ġacts":6938,"zb":16375,"RRR":20248,"aza":5649,"Ġpeoples":7398,"isive":22136,"edu":4756,"Ġ1991":22488,"Ġhesitate":24523,"oly":2166,"cking":19950,"Ġhum":1118,"ung":2693,"pective":4433,"yer":13931,"ĠFund":16434,"ĠCOD":16744,"ĠTruth":10660,"pb":22705,"Ġcoffee":3847,"Ġriot":11027,"Ġdign":14811,"Ġarmp":20783,"abl":17914,"Ġeven":676,"Ġembarrassing":8997,"Ġbanana":9494,"Ġes":1844,"Ġsched":14066,"sure":16814,"ĠEh":7130,"azy":13466,"Mom":20859,"ĠFUNNY":21921,"ĠOrder":15723,"Ġcitations":17778,"Ġstaggering":25456,"vote":1558,"cro":21954,"ĠKennedy":12651,"ups":5546,"Ġendings":24836,"close":14726,"Ġdoin":18125,"Ġrecognized":10074,"Ġcopied":12552,"elect":7932,"Ġspir":5510,"ĠSociety":17780,"owns":18737,"oral":5504,"Ġintellectual":6953,"Ġtranslation":9429,"Ġimpose":17720,"{":96,"Ġdevice":5467,"Ġconn":3049,"DP":8364,"Ġmales":8665,"ĠRoman":8991,"aceutical":19208,"Ġtexas":18705,"Ġlear":19383,"Ġdefinite":20908,"Ġseriously":2018,"ĠPhilosophy":20947,"Ġunders":17580,"ĠPan":10476,"ĠIRA":21198,"ĠWatson":22854,"ĠLot":15952,"Ġhabit":7212,"dg":23285,"nasa":23506,"Right":8327,"tool":23965,"ĠJar":17250,"Ġbypass":18311,"Ġjerks":15771,"worked":21850,"FUL":23847,"ĠSac":24121,"Ġfascist":9663,"ĠĠĠĠĠĠĠĠĠĠ":25053,"ĠSurprise":25180,"Ġolymp":19371,"comp":2931,"ĠKind":5369,"Ġgallons":17506,"Ġmet":1356,"ĠPBS":18943,"Ġsepar":3998,"Ġcour":1206,"acted":15314,"blowing":22780,"Ġloop":7678,"ĠHow":827,"race":17943,"fare":10491,"Ġgoofy":18792,"ril":7819,"Ġrecycle":22122,"Re":3243,"ĠIcelandic":25415,"Fuck":4243,"Ġfond":9883,"Script":10471,"Ġprotocol":12933,"Ġfaster":3801,"fe":831,"language":17137,"quire":15287,"Ġpup":5434,"Ġinferior":11314,"ĠCool":5691,"Ġnitrogen":23694,"ĠOtherwise":6758,"alling":13193,"ĠInstall":20845,"Ġ52":17754,"Ġdad":2935,"elcome":5485,"Ġtorrents":11596,"asury":15764,"Ġcr":752,"Ġstimulus":12454,"Ġscout":16550,"Ġparaph":16228,"âĶ¼âĶ¼":17481,"Ġpumpkin":21837,"wy":23023,"alpha":15432,"Ġstarring":23713,"Ġdeveloper":7236,"._":10453,"tinyurl":11565,"Ġscars":24445,"ORS":24872,"Ġover":672,"ansas":10057,"Ġpays":6751,"ĠBOTH":23043,"Ġbutton":3707,"These":7742,"agonist":22680,"Ġstoners":23558,"Ġlawyer":5794,"Ġsnakes":15448,"omeness":11932,"Thing":19686,"Ġreleasing":14510,"Ġsec":1818,"ĠNU":20134,"ĠUR":22481,"soever":7358,"`.":16544,"ĠSc":2839,"ĠHands":20209,"Ġapocalypse":17144,"Ret":22517,"Ġtaboo":18812,"Ġindustries":16505,"Ġanarcho":23885,"uzzle":25304,"WHAT":17261,"!":6,"ĠEve":12948,"Ġposition":3048,"UM":8283,"Ġpractically":8216,"undred":3223,"pie":8375,"ulpt":18645,"Ġabsent":17329,"Ġthis":381,"Ġrent":5146,"rower":24036,"gallery":12162,"Ġbtw":6245,"Ġeconomically":18028,"Ġdictator":9023,"ĠSix":13453,"Ġquestion":1188,"syl":14722,"bash":16993,"Ġupside":9197,"Ġanswers":5603,"Ġbad":852,"poll":15472,"Ġmouths":16492,"ĠDu":17808,"major":18606,"Ġdrool":19315,"Ġwink":17456,"ĠTy":14255,"iring":4611,"ĠGravel":21313,"ĠFut":9705,"Ġribs":21929,"lavery":25372,"Ġirrational":8050,"douche":17985,"ourne":15543,"zip":13336,"ĠNHS":19777,"Ġatm":7628,"ingu":6922,"history":14005,"L":49,"Ġhypoth":12014,"()":6792,"Ġbreathing":11162,"Ġsenator":14239,"nel":16445,"Ġdisability":18488,"Ġhorns":24116,"Ġcham":13826,"ship":2060,"Ġdomination":25328,"hib":5452,"ortal":12154,"ĠCompanies":24140,"all":342,"ondon":6594,"Ġcy":4028,"ĠXbox":8799,"Ġprevious":4733,"ĠItalian":10408,"ĠWoah":13416,"Ġballoons":20336,"Ġtrace":16728,"Ġpassword":4904,"ĠRe":1420,"finger":25087,"outube":1245,"osity":6024,"Ġter":1043,"Ġdoc":3319,"abol":17495,"Ġvent":9219,"Ġthreshold":19169,"Ġmanipulated":19669,"Ġdebun":15451,"Ġunt":1288,"Ġelected":4671,"Ġseeds":11082,"82":8038,"ĠTower":16841,"NR":17109,"atheism":7298,"Ġcreators":20366,"ĠGay":10005,"ĠCoinc":21469,"ĠEv":5397,"Ġgarage":12326,"Ġupd":3604,"ĠAlpha":17193,"Ġbolt":21187,"Ġpossessive":24590,"Ġsoon":2312,"Ġah":6789,"Ġsimilarities":21185,"educated":10651,"Ġsuperiority":14668,"virus":21172,"Ġhardware":4852,"verick":23806,"Ġpest":24050,"ĠUgh":8313,"ierd":20182,"raction":18090,"Ġper":818,"erson":830,"Ġcolours":18314,"ĠSwedish":12665,"Ġcolloqu":21722,"Ġouch":23757,"Ġturb":18158,"Ġsocially":9553,"ĠWon":13050,"artment":5169,"Ġredneck":13304,"Ġskyscr":24216,"robang":22153,"Ġgives":2804,"ĠJersey":9439,"jer":23848,"sf":18970,"CAUSE":13631,"Ġunrel":20154,"Ġanec":9673,"Ġgesture":16342,"Ġtheirs":10528,"Ġhe":355,"Ġgrill":11944,"Ġfreezing":15831,"Ġpursuing":21847,"Ġbitch":2239,"Ġdecision":4305,"Ġguarant":5365,"Ġmiser":9751,"Ġbases":13889,"Ġintell":2225,"nor":12516,"ĠAL":5783,"Ġsympt":10061,"ĠCop":14663,"aka":11439,"Ġrefers":8393,"Ġprinting":12210,"ests":6798,"Ġcompreh":6138,"Ġtwelve":13741,"etta":15465,"who":4763,"ĠWright":15852,"Ġrestart":16058,"ĠBecause":1478,"Ġunrealistic":18277,"Sec":17884,"ĠVenezuel":16589,"Liber":19378,"Ġaf":2929,"inejad":15403,"ĠTa":21112,"Ġinvolve":7150,"Ġconnecting":21136,"Ġgospe":22945,"however":24749,"Ġenlightening":25434,"pf":25567,"Ġisol":10804,"WA":17519,"ĠCraig":20249,"ive":500,"oos":4331,"asy":3694,"Ġspeech":3159,"Ġsettle":7196,"edly":6537,"answ":10335,"acer":21010,"Ġprovoc":25489,"ĠWa":24761,"known":7210,"\";":15623,"Ġhip":5101,"lex":2774,"Ġcousins":17999,"ĠRepublicans":3954,"Ġarise":24354,"Ġfre":2294,"ucky":7086,"Ġhumour":9935,"ography":5074,"ĠGermany":5112,"Ġcars":3115,"Ġrab":6317,"ionist":7082,"cher":10030,"Ġdonation":14977,"Ġdispro":8526,"ĠBuddhist":18105,"idays":11883,"Ġstriking":18807,"Ġconvincing":9562,"ars":980,"Ġthird":3320,"rodu":3411,"Ġannounced":13065,"Ġchasing":15057,"Ġsincere":15614,"Ġdid":529,"Ġnood":14808,"reement":6677,"ifully":19790,"republic":20950,"Ġeighth":24243,"Ġinaug":25288,"ration":2829,"Ġbreakfast":8197,"tal":10300,"ĠVP":8836,"âĢĿ":5077,"Ġethn":21237,"irs":21999,"ieval":18888,"ĠSpring":18000,"Ġlegitimacy":23543,"Ġbiology":11016,"Ġdiscriminate":17831,"Ġmetaphor":9753,"Ġcro":10387,"Ġ1980":13166,"deal":19207,"Ġpresum":15917,"Ġroman":22815,"Ġive":12343,"Ġoutr":5653,"Ġcinem":14464,"ructor":18890,"fa":9338,"ĠBank":9211,"Ġgraphic":9473,"Ġnuclear":4124,"Ġwherever":12144,"correct":13205,"Ġtril":17586,"Ġ27":8840,"Ġdiss":5768,"Ġsimultaneously":11208,"Ġbull":1717,"gov":5845,";)":11772,"Ġturtles":13533,"Ġcattle":18137,"Their":15376,"Ġlibert":3789,"ĠCompletely":13562,"oration":14453,"Ġlowered":21820,"ĠWarfare":22298,"ĠMuch":7402,"Ġeconomic":4469,"Ġfringe":16693,"Ġpacif":24630,"ĠCOR":25828,"Ġequations":21559,"Ġassumes":13243,"girl":7664,"Ġdemocrat":11963,"Guy":18395,"ference":2171,"ĠPhysics":16775,"Ġbinding":20610,"Ġtexting":16299,"SU":21123,"oen":12457,"hair":24415,"Ġperiod":3678,"ds":3445,"inct":4968,"Ġclosed":5134,"Ġrecognizes":25371,"Ġbearing":15061,"Ġflawed":9320,"Ġmilitary":2747,"ĠJones":7950,"Ġbrief":8501,"iff":3868,"upiter":18833,"Ġeditorial":17644,"gots":19299,"Ġhuman":1539,"ĠCann":21023,"Ġweaponry":25255,"agger":6822,"ico":13670,"ĠSave":14264,"Chinese":23744,"Ġtrek":19709,"Ġcaffeine":14091,"iles":3226,"placed":15761,"Ġacknowledged":23388,"Ġflavors":21090,"ase":670,"ĠMaster":13291,"Ġstream":6446,"ĠHT":6156,"Isn":11020,"Ġdelight":14573,"ĠNARWHA":22366,"Ġparent":1878,"Ġbehaviour":11107,"Ġpaths":23153,"Whoa":25469,"Ġcontempl":17488,"Ġcolors":7706,"Ġimplying":7120,"vie":1070,"Ļ":253,"Ġperception":10392,"isan":10441,"Ġoutright":11593,"usions":7556,"Ġsoldiers":5737,"mittedly":19549,"ĠMelbourne":23907,"ĠOz":20661,"uffington":15499,"ĠOccam":24833,"oobs":19841,"Ġpix":7405,"Ġfart":8713,"ubby":13175,"208":25421,"bac":8440,"Ġbubble":7097,"Ġexpanded":20271,"Ġbucks":5610,"Ġportion":7658,"ĠQuite":9171,"Ġwhether":2424,"ĠMO":17719,"Ġexponentially":23523,"Ġcelebr":5125,"Ġastronaut":24205,"Ġbelieves":5773,"ĠKat":11639,"ĠEU":8196,"necess":6266,"Ġdisliked":23418,"Ġresistance":10672,"Ġbash":8496,"Ġposts":2706,"Ġtragedy":12293,"Ã¸":22689,"Ġnew":804,"ĠAnswer":17645,"deleted":906,"!!!!!!!":16238,"ĠSafe":18457,"Ġzealots":22413,"Ġreaders":9771,"Ġlegit":4033,"peg":14534,"ocracy":7430,"ĠReturn":25710,"Ġtwe":10386,"Ġaids":17520,"inals":20238,"Ġatheist":2894,"ĠAA":14448,"De":7234,"reedom":2624,"just":2865,"ĠRay":10899,"Ġsenior":11158,"Ġcompression":14620,"Ġcoherent":14762,"Ġray":16247,"Ġprey":17226,"âĸĪâĸĪâĸĪâĸĪ":14689,"5000":19328,"icable":23889,"ĠIn":829,"Ġgravitational":24881,"adition":19400,"ĠNH":14378,"sports":22767,"Ġbrand":5132,"ĠUbuntu":5537,"geek":12601,"Ġsemen":14461,"fuck":2516,"picking":19587,"sign":16151,"Ġinvariably":25945,"ĠEVE":24565,"gif":5650,"olt":8872,"ĠRab":16038,"ĠJu":21131,"Ġcons":864,"Exactly":16756,"anim":17747,"apot":23033,"tmnd":19249,"Ġstrang":19842,"Ġcurriculum":24144,"ĠHe":688,"Ġterrified":13417,"iration":24712,"Ġremains":8048,"Ġbooze":11658,"arch":1162,"Ġcalculator":15468,"ĠSUBREDDIT":16381,"Ġfailures":17504,"park":12932,"Ġended":4373,"ĠUFO":16149,"ĠKnowing":17776,"86":5025,"ĠThink":4872,"ĠSa":19199,"Ġbinaries":25450,"ĠFinland":14995,"ĠCOULD":20054,"cin":21672,"thedaily":25686,"Ġedge":7737,"ĠAMERIC":14481,"y":94,"Ġracists":12187,"yahoo":13412,"Ġpipe":7562,"Ġ47":17229,"Mur":22504,"WAKE":25375,"Ġallow":1851,"Ġvariables":14320,"760":21444,"Ġsubmissions":6369,"QQ":19859,"Ġnutty":24493,"oid":1992,"Ġder":5017,"Ġounce":13574,"geon":11354,"Ġstupidest":16551,"resses":13850,"Ġdemocrats":8114,"`":69,"Ġhacker":15741,"Ġkidnapped":19651,"Ġadministration":6148,"ĠNarwhals":24322,"ĠNaked":24104,"conn":9623,"funded":23945,"ĠSher":14861,"Ġpopping":16164,"process":17679,"Ġpir":3805,"ĠCheney":6424,"Ġmotto":20891,"ami":13797,"Ġfuck":671,"Always":21382,"imeo":23004,"ĠAction":23223,"ĠFUCKING":5145,"ĠIAN":25391,"Ġpuns":7273,"Ġexplan":4258,"Ġwanting":5423,"Ġcraft":11090,"Ġpubl":12470,";.&":17715,"ĠChron":16978,"ZING":19091,"Ġ1800":20736,"Ġefficient":6339,"ĠLanguage":18753,"iU":24972,"Ġceiling":13330,"Ġdetermines":24258,"ĠTrade":22297,"ĠMed":7207,"ĠOSX":10842,"ĠOper":5652,"Ġswim":6786,"Ġofficers":7665,"Unfortunately":12951,"Ġinvesting":15122,"93":6258,"Ġinfection":13190,"huffingtonpost":22837,"History":18882,"VED":22804,"Ġrecru":11677,"Ġapplies":6866,"guy":9894,"Ġcluster":15014,"sc":2499,"ĠView":16477,"ĠGirl":11207,"Ġsuitable":14897,"Ġclassroom":17761,"Ġmeteor":20805,"pire":22273,"matic":22417,"government":12464,"guardian":17603,"entious":10494,"Full":19106,"Ġadvant":5149,"estyle":8852,"birth":16572,"Ġranch":21889,"Ġbrowse":13356,"Ġbacked":9865,"ĠRecently":25077,"Ġexamples":5524,"Ġmi":23222,"pig":19703,"Ġwebcomic":25484,"over":3351,"ulations":4442,"iences":24568,"Ġjustice":5294,"ĠTor":6326,"Ġdisturb":5655,"ĠABC":15292,"isher":10265,"Ġtrailer":8439,"Ġboils":20378,"Ġdirty":4943,"zzzz":14744,"Ġcell":3315,"Ġbab":1984,"Ġdirectly":3886,"ibly":2077,"Ġmessed":8998,"pool":13558,"Ĩ":234,"Ġadvertised":17737,"untu":4165,"prisingly":19138,"Ġheading":12257,"orable":8655,"Ġinformation":2505,"redd":10565,"Ġexperts":12542,"happ":17112,"Ġext":1333,"BTW":8900,"ĠUnix":13529,"ĠCDs":13882,"Ġmisguided":17278,"ĠInf":21275,"ĠGraham":23109,"embedded":23129,"Ġdistaste":23132,"Ġbasis":4828,"Ġparasites":23775,"Ġcount":912,"Ġdiscovered":5982,"ĠCall":5407,"fc":14883,"Ġepid":19750,"Ġranked":19830,"Ġworld":984,"ĠScott":8749,"Ġpeers":14015,"ĠCle":4601,"Ġdelicious":5157,"fixed":15225,"itute":5910,"when":6561,"cent":2634,":(":9837,"oulter":15807,"Ġisolated":16490,"appropriate":9781,"nom":22081,"aced":3428,"ĠGC":20945,"ena":15132,"Ġchampions":22105,"isphere":23993,"not":1277,"posedly":24176,"debate":24701,"Ġcommercials":8391,"Ġsucked":6388,"RIP":25475,"Ġcurtain":25583,"Ġiraq":14736,"SM":9786,"ĠHollywood":9930,"Ġthieves":16415,"category":24026,"Ġ69":17902,"ocrat":23203,"google":3096,"Ġteen":4506,"Sl":15726,"Ġstressed":24434,"orthy":18144,"uf":13987,"ĠHeadline":25136,"Ġgirlfriend":2552,"ffiti":17856,"ĠGerman":3348,"Ġloyalty":19659,"avorite":19890,"ĠComm":5118,"Ġexam":4250,"ĠCBS":22444,"wood":5049,"ĠKiss":19385,"itgeist":25129,"Ġdescriptions":22325,"»":125,"Ġbrilliant":5257,"alb":7177,"Ġapples":10478,"got":2182,"Ġpers":3415,"Ġvacc":6363,"Ġdecent":3368,"Ġespecially":2536,"Ġrestaur":5068,"Ġmicro":6464,"Ġ2004":8454,"Ġproduction":5831,"ĠReagan":8664,"Ġlibertarian":5265,"Ġmonthly":12762,"war":4521,"lein":15660,"Ġcommand":5108,"OP":3068,"ensitive":12373,"move":16430,"Ġwallpaper":16485,"Ġfifteen":17746,"Ġchunks":19281,"Ġapology":12590,"Ġstars":7073,"ĠOops":11672,"hour":12492,"olis":14899,"Ġhappened":1800,"ĠHarvard":15642,"Ġwitnessed":16310,"ĠWERE":20031,"Ġcongratulations":20295,"Ġcoinc":7470,"Ġworst":2745,"must":13488,"Ġstarted":1775,"Ġparse":18496,"Ġba":19861,"Ġjava":11128,"Ġamerican":5224,"item":17390,"With":6555,"¦":105,"MBER":20810,"Ġfeat":13585,"vern":1063,"Ġtricked":22084,"ower":1059,"Ġstfu":21962,"ĠBNP":24152,"Ġdwar":24772,"345":24941,"Ġports":14739,"wa":16779,"Ġlightning":14379,"Ġnotorious":22058,"ems":2775,"ĠNavy":14025,"Ġuni":2002,"ls":3098,"Ġsust":8957,"Ġbenefits":5278,"owder":11252,"Ġsens":3424,"Ġcolle":17307,"Ġwire":5583,"worker":11464,"ĠType":20139,"Ġremained":21644,"lette":23823,"flight":24019,"eties":9446,"Ġopera":14988,"ĠAer":21407,"ographics":20084,"ãĥ":12928,"Ġtaped":23512,"Ġcue":23976,"Ġseemed":4421,"Ġchromos":22596,"books":6790,"Ġluckily":22834,"Ġmach":2355,"motion":21360,"ĠFark":18329,"Ġabort":3816,"ĠDeb":23925,"stration":18854,"fortable":4600,"wr":3984,"Hopefully":20686,"Ġdrawings":20716,"Ġsingle":1853,"Non":19280,"Ġdwarf":21759,"Ġuncle":7661,"avas":6676,"eq":23335,"Ġmood":8614,"Ġastonishing":25198,"Ġinconsist":25048,"defined":17510,"Ġcauc":17364,"Ġinability":13173,"Ġreminds":5225,"Ġwalking":4436,"Ġpressing":14509,"Ġbounce":18414,"mes":13545,"bn":23041,"Ġlinked":4801,"penis":16543,"Ġshill":15281,"ĠTyler":22221,"ĠMat":9499,"enerate":22797,"Ġsinking":21832,"ĠIve":12634,"Nice":10162,"Ġswinging":22356,"ĠDOESN":21608,"kick":20263,"ĠKill":8241,"Ġpulse":23394,"Ġvamp":9725,"Ġanxiety":14658,"media":7654,"Ġhmm":9683,"Ġorientation":16427,"fant":18245,"uma":23516,"SR":11749,"Ġsignific":3882,"Ġmissionary":25633,"Ġ6000":17952,"oll":1231,"Ġtotalitarian":18176,"Ġenjoyable":11259,"Ġbit":966,"Ġprayers":23350,"Ġloot":21598,"quisite":23387,"in":265,"bos":24382,"ĥ":231,"Ġfavor":1986,"Ġcruc":18904,"Ġillustrate":21061,"ĠUT":20211,"Ġtestosterone":23105,"ė":217,"ĠEver":4785,"ao":15576,"Ġoverhead":17030,"Ġbicycle":12322,"Ġretirement":13897,"set":3408,"Ġ||":22826,"Ġlesser":10562,"Ġhoriz":16471,"Ġtrolls":6764,"Ġrel":869,"zen":5215,"ĠUpmod":16686,"ably":802,"Ġapost":8613,"Ġstrangers":10389,"ĠArnold":18394,"Ġmoose":19112,"2009":3041,"Ġbike":4796,"Ġtraction":24623,"ear":569,"ĠJerry":15828,"Ġveg":13780,"Ġeveryone":1176,"iable":5075,"Ġtesting":7125,"Ġbisexual":16591,"Ġslick":19607,"mao":20719,"ĠDrinking":23027,"ersonally":5028,"Gy":24295,"Ġcater":17277,"ĠLaws":20797,"Ġincorporate":25867,"Ġlava":25987,"flo":22368,"Ġpresident":2421,"Ġdoctors":6146,"Ġhomeless":6585,"Ġorgy":21343,"ĠScandinav":17619,"Ġrelying":19626,"ĠRace":21243,"ACE":12978,"ĠGentoo":23077,"Ġgeniuses":24181,"Ġrealized":3738,"Ġnightmares":16130,"t":89,"Ġexplain":1559,"Ġenhance":16074,"u":90,"Ġpict":1393,"ĠMinnesota":14211,"Ġtowers":12686,"Ġtough":4715,"Ġcause":2205,"ict":776,"Ġdraw":3413,"Ġlabel":5250,"ika":13252,"Ġimplicit":15704,"Ġstamps":16538,"ĠMmmm":17156,"Ġtre":8980,"bri":20058,"ogene":24753,"ĠKerry":14065,"Mexic":25317,"unk":1768,"Ġoblivion":9745,"ĠINTERNET":15923,"rivol":24946,"Ġaid":7102,"ĠPrinci":25447,"ĠDanny":25585,"ĠSunny":25626,"FL":7389,"Ġenvision":21012,"iator":24433,"itech":24507,"mant":25788,"Ġoverdose":25979,"ĠManhattan":14979,"Ġ$.":22734,"Ġanecdot":13023,"Ġconsequences":7108,"Ġapostrophe":11397,"Ġpsychiat":16479,"Ġfilmed":16966,"Ġheavily":7613,"Ġnumb":3026,"Ġcane":17866,"stop":7480,"Ġspecs":16963,"1010":25016,"ĠYoutube":9196,"ĠUK":2923,"ĠDrive":17516,"NG":8182,".](":2068,"Ġprohib":8202,"wwwwwwww":18128,"dear":22519,"akin":23366,"everse":24870,"Idi":18657,"Ġsew":14539,"ĠThai":23093,"bery":12394,"Ġpremiums":22141,"Ġcereal":12969,"swf":24848,"aph":1510,"ĠLady":14531,"ĠTry":3077,"Ġwarming":6136,";_&":16440,"html":1557,"Ġfingers":5856,"Ġenforcing":19928,"Ġyawn":24165,"Ġitalian":25522,"ĠEinstein":11451,"Dr":9462,"Ġforeign":3977,"Ġeuropean":17382,"GA":8033,"Ġauthor":2627,"science":6629,"ĠSyndrome":17461,"ĠSucks":16638,"store":9813,"Ġendorse":11890,"Ġ).":23729,"Ġadvice":3451,"itude":3925,"Act":5814,"Ġintellect":5327,"Ġrecommended":11291,"videoplay":13774,"Ġgf":9524,"Ġgrams":16422,"Ġerrors":8569,"ments":1272,"Ġanalogy":6454,"Ġroll":3751,"Ġmainstream":6247,"Ġunderstanding":4166,"Ġlifetime":8992,"Ġfought":9730,"Ġdeclare":10187,"anging":10212,"Cont":8871,"Ġmuscle":10758,"feld":10941,"Ġdrunken":13060,"tard":11414,"ellect":13531,"which":3374,"ĠAsh":15558,"ĠSup":3645,"rob":8368,"Ġorganic":10073,"iminal":4332,"ĠIsrael":1428,"arent":1182,"Ġdeeply":9787,"Ġlaser":9856,"Ġpotential":4959,"Ġaffects":11961,"Ġsmart":2664,"Ġ32":7058,"profit":11333,"Ġwatches":12165,"Ġapplic":3863,"Ġmeasured":13966,"].":10231,"ĠTHING":15007,"Ġincorpor":15929,"Ġdamages":16587,"orton":16871,"Ġarticulate":18075,"dl":20451,"Ġrejection":20757,"Ġcoin":10440,"Ġprojection":23006,"Ġthee":18398,"Ġhee":23410,"Ġrepository":23084,"ĠSom":11032,"Ġarmor":15417,"Ġsweaty":21603,"unge":23500,"Ġneed":666,"ĠYellow":19052,"Ġhunters":23602,"Ġderive":23997,"ĠClearly":6535,"Ġfiat":18502,"Ġfront":1976,"Ġdigits":13386,"Ġgene":11703,"etle":24255,"Ġmean":762,"Ĝ":222,"Ġcl":605,"ĠWhe":10527,"Ġinfringement":14912,"ooooo":15644,"lower":24049,"Ġdisappears":24659,"Ġcontam":24763,"finition":24776,"Ġsuperfluous":24840,"Ġheroic":25254,"ĠAndre":25839,"Got":17646,"Ask":6685,"acre":13811,"ĠHolmes":25083,"ĠDeath":7977,"Ġtransp":15897,"Dem":11715,"Ġbadge":15821,"YES":17915,"Ġdelic":4761,"ĠUncle":17934,"Ġfine":1935,"Ġvariations":20744,"Ġheavier":21156,"User":24642,"dis":4375,"Ġweapon":5089,"ree":627,"ĠDick":7445,"thank":15596,"vacc":25358,"Ġproducers":18171,"Ġsponsors":24001,"Athe":12196,"sol":19463,"Ġro":850,"Ġoppose":10116,"voting":4139,"Ġminimum":5928,"Ġrelevance":16821,"ĠStar":4174,"SP":8632,"Ġforgetting":11039,"Ġwii":20012,"deleg":23862,"ename":24242,"ĠTr":1998,"Ġdishonest":11659,"Ġcomedy":6690,"Ġasinine":17699,"ennis":9619,"Ġbind":18848,"ĠBlair":22859,"Ġanthrop":15120,"ĠAl":1047,"ming":4536,"arcraft":7655,"Ġgenocide":7691,"onents":8815,"Ġprivacy":8058,"Ġdepression":7743,"pod":9621,"ialect":15652,"Fucking":11371,"Ġwhen":549,"Ġcivilians":6200,"ĠD":415,"BREDDIT":16304,"Ġcollectively":21301,"ĠSent":22597,"Ġcomedian":13172,"Ġkid":981,"Ġbarrel":9058,"Ġvarious":5181,"Ġcentre":19023,"Ġnicest":24250,"hearted":24638,"ļ":254,"ĠDarth":20880,"Ġflipping":15229,"Using":22214,"pre":4420,"Ġanonymously":24423,"Ġsigning":12543,"Ġhacks":16452,"Ġtatt":6302,"Ġpayment":9961,"Ġpins":24324,"itic":8752,"Ġlonger":2544,"Ġwhatnot":15497,"Ġdeser":2612,"ĠYO":16803,"Ġinvestors":18162,"ĠCHR":18940,"Ġhung":5809,"Ġshifts":22420,"Ġpresidency":11859,"OB":7726,"Ġprogrammer":5724,"Ġscum":11136,"Ġreinforce":19835,"Ġcomparing":7825,"Ġbehaving":23850,"Aud":24745,"Ġwet":7021,"Ġnotor":25392,"ĠTHR":24345,"Ġexperiment":6333,"Ġclicks":15510,"man":1123,"OCK":14132,"Ġpermanently":13381,"acht":18462,"Indeed":19921,"Player":25655,"Ġlulz":12635,"Ġcompound":20212,"Ġpoliceman":23980,"ologist":6961,"Ġhurry":15898,"Ġdoubtful":25592,"Ġcomment":794,"Ġattorney":14868,"ĠLI":5150,"Ġshape":6194,"Ġcollision":23640,"54":8955,"Ġdial":6188,"Ġsurround":7049,"Ġdrown":11881,"ĠBasically":8288,"À":130,"Pres":14023,"ĠCLE":24489,"Doc":23536,"Ġchurches":10128,"ately":1374,"Ġhabits":13523,"vot":1083,"opin":14368,"ĠLearn":10496,"Ġdefined":7598,"abilities":10831,"Ġsuperficial":20199,"ĠOCaml":22644,"uploads":7416,"was":4341,"ios":7833,"ĠComing":15752,"Ġgrandmother":10394,"ĠRog":10233,"XT":19563,"Ġwiped":14613,"Ġinconvenient":20747,"Ġch":495,"Ġeasily":2887,"ĠHebrew":18965,"Ġsanction":22682,"iss":798,"arios":16810,"Ġprediction":17561,"Ġreli":17968,"Ġoccupying":19404,"ĠHus":15401,"reek":14020,"ĠAnyway":10342,"ĠRails":15627,"ĠMerc":16082,"Ġconverted":13102,"Ġasterisk":24170,"150":8978,"cellent":3655,"ĠFant":9693,"Ġcitizen":5718,"Ġ\\":6443,"home":6929,"Ġcivil":2564,"burn":12583,"igg":2034,"urally":5998,"Ġgovernor":13669,"Ġrecall":5275,"Ġinvented":5666,"rit":3506,"Ġunhealthy":14058,"ĠMySQL":14645,"Ġorganize":14922,"ĠGah":21674,"E":42,"Ġrethink":23173,"Ġbrute":24336,"prim":24978,"ocaly":22848,"Ġreview":4259,"ird":1412,"duc":11006,"Ġweasel":25156,"alcohol":25266,"ĠStick":16601,"Ġclarify":7807,"ĠProbably":3701,"Cons":9251,"their":10139,"Ġbaking":19271,"happyofficeworker":22213,"Ġplastic":5218,"inous":22294,"Ġliqu":5994,"Ġroast":21606,"eric":3007,"sty":16727,"Ġlocks":16968,"Ġresort":8295,"theonion":14686,"theory":17628,"Ġoutweigh":18998,"Ġpresents":13051,"ĠScientists":22226,"Ġencour":4999,"Ġacceler":9978,"Ġacknowledge":11131,"Ġproviding":7890,"Ġooh":20962,"CD":5799,"ě":221,"ĠDX":20305,"iantly":21256,"ĠDing":25335,"awesome":10568,"Ġtattooed":21846,"Ġhes":7719,"ĠOcc":14770,"oHg":23022,"ĠQue":6573,"ĠJoseph":16219,"Ġredundancy":22745,"Ġfluent":25003,"Ġwalks":8396,"Ġadaptation":25076,"ong":532,"Ġuseless":4390,"Ġaverage":2666,"Ġanswering":9212,"Ġthreats":11814,"Ġrestrict":7997,"how":2039,"Ġregulate":14893,"Ġarguing":5035,"etto":13093,"Ġmysterious":15210,"Ġawait":16226,"ĠConst":17196,"Ġslapped":17227,"Ġstaged":17681,"Ġphilosopher":20814,"Ġimperative":22771,"Ġcircumstance":21554,"shake":24016,"Ġuniversally":17762,"Ġparameters":24011,"ĠThor":17649,"Ġrequ":1597,"Ø":154,"Ġson":3437,"Ġaccurate":4040,"ĠFamily":9744,"From":7331,"olves":10117,"Ġpurch":4233,"Ġserves":10577,"Ġverb":6241,"mbur":10591,"ĠApart":17511,"ĠDavid":6426,"ĠWIN":15528,"ĠForgot":23551,"Ġtempl":25205,"Ġciv":14189,"Ġacceptance":16397,"Sex":15973,"Ġautomatically":5370,"Ġadapt":11591,"Ġemailed":20998,"Ġheads":5315,"osaurs":11585,"ĠMissouri":22377,"ilot":22535,"...](":9242,"Ġdoctor":4076,"Ġflame":11116,"Ġimagining":14230,"Ġ1997":18514,"docs":17637,"Ġexponential":25603,"Ġbank":2881,"Ġchrome":12846,"real":3761,"nut":10580,"icular":12416,"Ġremain":6692,"ĠShort":13133,"ĠTA":18026,"arters":13901,"Ġvista":14130,"fers":14422,"Ġgen":1001,"OUND":15605,"ĠLIFE":21571,"Ġneighbour":16045,"Ġsupers":21632,"Ġ6":1341,"Ġrubber":10246,"Ġerm":23480,"ĠOttawa":24620,"ĠWelsh":24994,"83":7301,"Ġenforcement":9756,"Ġcommonly":9940,"Ġbureaucracy":20277,"Ġbul":7244,"ograph":2883,"ĠVirgin":8985,"ERIC":12874,"Ġroot":5732,"Ġjoy":8200,"bob":21894,"Ġprivat":17415,"Ġprince":20120,"Ġarchitecture":14761,"Ġvind":21386,"ĠPH":5665,"Ġpartner":7720,"Ġ2001":8763,"Ġstood":9591,"nery":18227,"ĠSK":20244,"running":23217,"ablish":5318,"Ġfu":13484,"Ġnoticeable":18320,"Ġutil":13534,"reed":1490,"Jim":24584,"****":6251,"Ġfirearms":13869,"ĠMs":15690,"them":11336,"Ġarr":6343,"attering":16874,"hard":7729,"Ġassistance":16283,"Ġelectrical":13604,"ĠIndian":6044,"Û":157,"regon":9882,"Ġmotive":15048,"AK":5977,"ĠSold":14900,"umer":5956,"reshing":12903,"joke":13594,"ĠSlow":19685,"Ġsexually":9074,"Ġlurking":21626,"reg":2974,"OUT":8881,"All":4346,"Ġlobbyists":14054,"ĠCR":8249,"alog":13770,"Ġguest":12593,"Rock":19531,"Ġbir":22560,"Ġ":226,"Ġcombine":15949,"]\"":23898,"lestar":20760,"ardo":23290,"Ġpipes":14547,"Ġå":24102,"Ġglove":22985,"ĠNot":917,"ĠMary":9508,"Ġeurope":9376,"ĠSpend":25432,"Ġregular":2980,"Ġterrorists":5267,"Ġpong":24198,"glect":13942,"achelor":18820,"gt":504,"way":622,"won":17095,"Ġlongest":14589,"Ġlist":1276,"actica":20563,"ĠFinnish":23171,"ĠCommunity":25214,"fic":2456,"ĠInsurance":19258,"software":13802,"hehe":16091,"onium":25671,"ĠPlay":8338,"arden":8019,"Ġnews":1516,"round":5789,"ĠNAR":20218,"ĠBeatles":11481,"Ġdiamond":13505,"ĠFresh":18190,"ĠAMD":19707,"ĠStr":6440,"Ġbullying":22648,"ĠAtlas":23400,"GW":25273,"Ġgaining":15400,"LESS":21872,"Ġfalsely":20675,"Ģ":228,"Ġadvertisements":18392,"str":3509,"ĠHilarious":16869,"jg":25341,"ĠCan":1107,"fortune":25943,"SH":7549,"Ġobliged":25426,"cl":878,"ĠArt":7564,"Ġclosing":12090,"ĠAlt":16405,"ĠFF":6123,"Ġsubmitter":9290,"Ġbreaks":6511,"Ġpursue":16256,"ointed":17847,"same":14603,"ĠWhy":907,"Ġweeks":2982,"Ġcoke":6806,"elle":19101,"ą":199,"itler":4059,"Ġsorta":12118,"Ġtrucks":12974,"girlfriend":14127,"iled":7837,"Ġvector":18430,"Ġ128":22906,"ĠIT":2609,"ĠIDF":11685,"'...":13696,"Ġvag":3404,"Ġbabby":18134,"Ġcab":7041,"fur":17288,"friend":3493,"Ġfarts":17405,"Ġlipstick":24093,"covered":17136,"ĠSSD":19853,"Ġinval":9852,"Ġspokesman":23695,"û":189,"proper":17175,"Ġusb":21760,"Holy":11319,"ĠCars":19190,"mmmm":6626,"Ġbegan":8600,"Ġoutlet":15509,"https":10259,"Ġsucceeded":19308,"ĠEuropeans":10519,"71":11216,"mil":9189,"gebra":16377,"Edit":1638,"Ġadoles":21544,"ggit":18739,"ĠOOP":25438,"Ġdrift":18313,"ĠHell":3372,"Ġfather":3284,"Ġyoutube":4564,"\"*":12439,"olic":3794,"Ġyet":1368,"Ġaffili":13157,"Ġsheer":11111,"Ġimprisoned":21337,"Ġtwitter":8070,"Ġdough":14784,"Ġrest":1401,"Ġjournalist":12827,"Ġfixed":4360,"25":2851,"ĠAgreed":3586,"Ġmanual":8831,"ĠTHEIR":17399,"Ġstro":17515,"Ġtemperature":8113,"trust":19373,"Ł":259,"Ġdressing":13932,"lam":3287,"elly":8813,"moon":16647,"ried":1864,"Ġvile":17257,"Ġhammered":23917,"Ġridd":18872,"Ġretrie":25792,"ĠHeck":15053,"lifting":19285,"Imagine":14849,"ĠVoyager":23644,"lic":898,"Ġreferred":8899,"Ġtorn":10893,"Ġzionist":15757,"ahem":20919,"Ġperipher":24579,"Ġforgive":10170,"ĠFranken":13856,"ĠPAY":22548,"ĠRelax":22563,"ONE":5549,"paid":12448,"âĻ":3906,"ĠAdam":10383,"Ġwithhold":24359,"Ġperf":1534,"ĠFind":8085,"Ġbathroom":5713,"Ġhavent":15357,"ĠWAIT":19620,"Ġrussia":18551,"Ġ900":20072,"Ġmasters":13737,"Ġbrown":5615,"Ġalt":5542,"ESS":8617,"comic":10384,"ĠCandle":24012,"Ġjoking":5533,"Ġblocked":8738,"Ġord":9507,"Ġpanic":11358,"ĠShakespeare":17541,"bike":21906,"inton":3792,"width":23120,"urope":2269,"Ġrevers":11631,"military":17450,"pha":7523,"eopard":10125,"Ġtalked":6201,"ĠMU":11068,"onsense":17558,"Ġthrowaway":21568,"65":4430,"---":7409,"Ġlit":9528,"Ď":208,"Ġfr":461,"Ġsod":15669,"Ġplugs":22008,"ARP":16019,"Ġdunno":4854,"Ġreduces":18515,"Ġ14":3879,"Ġforgot":2712,"**":758,"Ġcustomers":5734,"Ġunions":9516,"mighty":22633,"ĠONE":7784,"Ġsurprised":2809,"RM":5414,"ĠBILL":16446,"Ý":159,"Ġpurchases":18220,"Japanese":22787,"iless":22798,"Ġchord":23793,"ione":25185,"alem":13403,"ora":7297,"::":8062,"Ġheadphones":14641,"Ġmeaning":2808,"ĠChange":10625,"hat":12639,"Ġexpend":20565,"Ġcriter":11523,"ete":16195,"Government":21821,"anthrop":23977,"ĉĊ":25920,"Ġprograms":4975,"qu":487,"Ġchicks":5446,"Ġbizar":9077,"Ġcur":1467,"Ġtwenties":23756,"abor":4842,"Ġ[/":16103,"ustrial":17350,"Ġslogan":18069,"ĠDylan":19406,"Ġpossibility":6452,"Ġricher":17499,"ĠStan":15071,"Ġelderly":15177,"Ġpunchline":11869,"itive":2251,"Ġbandwagon":17522,"Produ":13007,"Ġignor":2391,"Ġsarcastic":5383,"Ġthroughout":7629,"SQL":10882,"?...":13084,"Ġahh":18203,"Ġwarrants":20922,"econom":11507,"Ġmayo":19739,"ĠUp":2125,"arn":1330,"fting":20584,"Ġloops":21315,"Ġinvasion":8662,"Ġcakes":24899,"Ġdominance":25075,"Ġleaves":6274,"Ġtwent":20843,"ĠCorporations":21996,"va":6657,"prom":10992,"feed":16051,"ortality":18684,"Ġselective":19046,"Ġdiagn":10064,"Ġindication":14177,"Ġdeck":13211,"Ġfer":14141,"reesome":17658,"Ġfinds":7578,"Ġunreasonable":12269,"/":20,"Ġthings":873,"Ġfreeway":21830,"productive":18287,"Ġorigin":4340,"endy":19581,"oust":7531,"message":25246,"Ġmurdered":7927,"IBLE":23047,"Ġhappiness":9999,"Ġfing":3298,"ŀ":258,"dream":18969,"Ġplease":1694,"iny":2751,"Ġhanded":8500,"Ġconclusions":10964,"Ġseasons":12080,"Ġmalf":21665,"ĠArist":21922,"Anyway":8586,"DATE":23355,"cause":548,"rass":4853,"business":11209,"iers":4219,"Ġpoly":8307,"Ġtiny":4538,"ĠOrthodox":25765,"Ġ63":22603,"Ġextend":12709,"Ġmortg":8194,"Ġdarn":14626,"Ġoh":2435,"ĠWr":5323,"Hitler":17371,"geist":22599,"Ġsubsid":7240,"acement":7986,"Ġodds":8191,"Ġconduct":8483,"truth":12654,"Ġbarrier":16950,"ĠHEY":18258,"Ġpictured":18632,"Ġtalkin":19000,"gar":4021,"ĠCoke":10472,"Ġworthwhile":11708,"Ġphysic":11189,"dered":3631,"ĠStuff":18436,"Ġevolved":9778,"Ġlaunching":19917,"quid":20920,"Ġbong":9409,"Econom":21032,"Ġscifi":22091,"Ġoven":10714,"ias":7943,"Ġmortality":22761,"ĠAnd":711,"ĠHat":20395,"Ġrubbing":15262,"Ġgrenade":19456,"Ġais":19210,"ont":1213,"Ġlighting":13359,"Ġmyself":1564,"Ġforth":7504,"yo":13599,"È":138,"ÇĿ":14905,"ĠPalestin":3817,"ĠCH":5720,"ĠMike":9464,"Ġ2002":13287,"ĠMay":5216,"ĠHuh":6637,"Ġyog":17648,"Ġ400":8735,"ĠCharlie":13687,"Ġhilarity":19232,"Ġsmashed":20553,"¸":122,"Ġsoup":10968,"VEL":21024,"ĠPowers":23734,"350":17262,"PA":8491,"Ġupgr":5364,"ĠTaliban":12171,"Ġstrip":6567,"Ġlogically":13650,"Ġexplained":6612,"Ġeuros":23389,"ileaks":23436,"flation":13326,"ĠTexan":23795,"Ġstarbucks":24611,"bq":24703,"neath":12758,"ĠFOX":10729,"Ġcyclist":21239,"Ġessentially":5803,"cgi":9970,"Ġupgrades":20206,"Ġphoto":3728,"ĠLedger":24787,"Ġtoilet":4573,"ĠJama":23466,"usive":5153,"Ġcycle":8360,"Ġwilling":2944,"km":15152,"Ġcampaigns":15891,"1000":8304,"ties":8493,"Ġpreparing":17882,"tter":803,"Ġfin":1540,"ĠDefense":18655,"Ġwomen":1322,"caps":20131,";âĢľ":20165,"Ġpermitted":21346,"ookie":14305,"Ġshortly":12717,"Ġmeets":14069,"ammar":3467,"Ġ_":2084,"inger":7124,"Ġflooded":22821,"ĠScala":23053,"Ġmerciless":24982,"Ġsynthes":24264,"ĠMuhammad":21513,"Ġliberty":8148,"*.":1892,"pet":4058,"Ġunfortunate":9193,"Ġsmooth":9204,"Ġreaching":14068,"Ġlighten":23690,"Ġnovel":5436,"essions":14039,"ĠCas":19131,"Ġreads":6877,"Ġcherry":15350,"Ġdemons":24626,"ution":1156,"ĠHall":12370,"Ġconnotation":23408,"Ġinterpretation":9012,"wat":24450,"countries":25207,"ĠPre":3308,"ĠREAL":10639,"Net":12508,"Ġcollect":4308,"Ġdesigns":16868,"rency":6047,"Ġwritten":2639,"ulus":7274,"Ġrapists":14742,"Ġdefence":16809,"Ġafraid":3488,"Ġlived":3444,"Ġredu":4317,"answer":21913,"ĠÏ":25725,"Ġdecency":19892,"ĠIceland":10530,"Click":21021,"Ġconfident":9483,"Ġsubscription":14717,"bert":1476,"Ġreturns":12035,"Ġgoodness":10553,"ombs":21522,"Ġgraduated":11382,"Ġwait":1348,"hell":8095,"Come":11148,"IES":12296,"Ġclients":10314,"ourney":14035,"Ġredd":12425,"ctors":13736,"Ġwarfare":15772,"Ġhorror":8242,"Ġinduced":24350,"Ġgl":1352,"Ġsisters":16121,"Ġdanger":3300,"Ġblowjob":12444,"Ġallergic":17026,"BM":8863,"Ġeleph":9617,"Ġnearly":3530,"Ġrefresh":13139,"burgers":21305,"uments":3615,"Ġwah":22373,"ĠDSL":15876,"Ġsho":7961,"Ġinspire":22684,"Ġcitizens":3753,"Ġmade":903,"utt":25402,"Ġsnipp":25728,"Ġasleep":8839,"alking":7263,"Ġmother":2253,"oubt":16917,"arcasm":6017,"Ġunacceptable":14625,"\\*\\*":15145,"ĠForm":18012,"Ġpineapple":25679,"Ġskewed":18913,"Ġprinciple":7822,"Ġare":362,"uke":4541,"dote":18086,"evit":7166,"Ġclearer":18213,"lighten":23151,"Ġclar":4957,"step":12619,"Ġaddicts":17389,"ĠBSG":20729,"ĠFreedom":10297,"Ġcondesc":11347,"ĠChar":9789,"idding":14747,"Ġequipped":22971,"Ġhacked":13835,"Ġmethodology":25092,"ĠWHY":9288,"Ġpicked":5031,"Ġvillage":14798,"Ġrails":19537,"Ġreflect":7050,"ĠSin":22555,"els":2081,"ology":1734,"expect":10541,"ĠChamp":22403,"Ġunderstand":1089,"Ġsolution":3371,"Ġpedophile":12063,"Ġchase":13775,"Ġ[*":13922,"ĠBlah":22169,"tain":3548,"Absolutely":24195,"fun":7668,"Ġinf":1066,"imals":13801,"Ġcontaining":13231,"Ġsight":7859,"Ġdesperate":10381,"ĠReserve":12845,"Ġcalculate":16830,"ĠBros":18274,"default":18557,"Ġsupport":1249,"ctic":15682,"ĠHitch":13305,"ĠDiamond":23256,"uh":2423,"Ġstranger":9758,"mel":13184,"ctions":5689,"Ġintegrated":16923,"ĠPolitical":20664,"ĠNoah":24188,"ĠTodd":24822,"ĠPlanet":14874,"lement":12020,"capitalist":24229,"á":163,"Ġpile":7759,"ĠFar":9135,"ĠIncorrect":22331,"OU":1388,"Ġinfo":4501,"sylvania":15865,"GH":8324,"ĠFriends":16653,"athing":16450,"ĠSecondly":25863,"Ġphysics":5454,"Ġfluid":12931,"Ġaside":5590,"atriot":11240,"ependent":14474,"Ġdu":11766,"Ġarse":12215,"ĠDeal":15922,"Ġfeminine":19443,"Ġconsumed":18080,"oteric":25163,"Ġsocialist":6580,"Ġwho":502,"Ġdownvotes":4695,"acked":6500,"Ġfamilies":7648,"ĠCustom":21350,"Ġcreationism":16448,"Ġlocate":25713,"ĠEdit":8001,"check":5654,"rees":3273,"Ġmostly":2992,"ĠHm":11163,"ĠHFCS":12420,"ĠSpecifically":20053,"medi":18358,"called":9681,"atics":7232,"Ġpoverty":9424,"ĠCorp":19584,"Ġyear":660,"sett":22345,"Ġrestaurant":6455,"rape":13259,"Ġdownmodding":8984,"Ġrationality":20403,"ĠThese":3207,"âĹ":17060,"Ġmetals":22104,"Ġdidn":744,"unci":12486,"Ġpars":13348,"Ġphil":18031,"Ġslow":2710,"doc":6113,"sql":22232,"Ġfirst":805,"Ġdeserving":18337,"Ġergo":25784,"yy":5299,"Ġfounder":22998,"UST":5811,"Ġdefended":21226,"Ġtrap":8927,"ĠSurv":21702,"Ġcomposed":18345,"ivil":2369,"Ġdeep":3301,"Ġsitting":3697,"fac":10448,"Ġshovel":16969,"Ġmisogynist":25462,"!!":708,"ribut":3848,"Ġmanners":21331,"Ġbr":792,"mus":7191,"More":8275,"ara":9110,"Ġimpress":11602,"ĠSouth":3838,"acts":13961,"Ġstocks":14737,"ĠSquare":15663,"ĠSec":5777,"Ġwarnings":21125,"Wrong":18376,"ĠEven":2222,"Ġinspect":12759,"Ġimprovements":20192,"ĠOm":21689,"clean":17208,"Ġtickets":8489,"Ġfeatures":5296,"mr":22180,"?!":1772,"Ġindicative":22212,"ĠOnion":9232,"OUR":12213,"illusion":23890,"ĠVegas":12272,"Val":21638,"Ġgate":12411,"night":5254,"Ġprocessors":20291,"Ġdum":19878,"Ġperceive":16363,"Ġdimension":16163,"club":17068,"esar":20090,"Polit":18847,"Ġchast":24660,"ĠSavage":20628,"Ġspelling":4293,"fap":12278,"ward":1902,"Ġprefer":2249,"Ġcrave":18671,"Ġcelebrity":12268,"Ġcomparison":5161,"Ġvaccines":13968,"odox":15058,"Ġreactors":24945,"img":1651,"Ġstaying":9198,"Ġnoone":17961,"what":2371,"Ġstopping":7945,"never":7156,"Ġinjustice":21687,"eff":4336,"Ġobligation":14643,"ographer":9960,"ĠUSSR":15918,"Ġtoilets":16034,"Ġinterfere":16425,"Ġtakes":2268,"ĠApples":20815,"Ġdisp":7519,"Ġblatantly":13319,"Ġcunning":23507,"Ġcrude":16932,"'t":330,"24":3502,"ĠEnergy":21102,"Ġdilemma":21302,"tk":21536,"Ġfraud":6836,"Ġcontainers":23342,"amm":1251,"name":5984,"Ġleech":18518,"Ġpedant":18672,"ions":698,"Ġhair":2620,"Ġcrit":2761,"Ġbec":4448,"Ġfled":23136,"keep":9909,"ĠAt":1733,"ĠPaulson":2737,"o":84,"Ġperfect":2022,"di":5844,"-&":10881,"Ġdeclined":22679,"some":4555,"Ġannoyed":8790,"Ġfict":11761,"etti":11801,"Y":62,"ented":2869,"Ġstable":8057,"apping":4659,"Ġaccepting":11796,"Ġsophistic":14154,"Ġconstit":14583,"oths":15244,"Ġavail":16798,"Ġsubsequ":13779,"create":18634,"Ġdisapproval":18291,"ĠCh":815,"Ġumm":13818,"Ġtyping":5914,"Ġattest":21769,"Ġexpert":6327,"Ġdemocracy":4646,"Ġdowntown":12596,"ĠCOMMENT":19644,"--------------------------------":24843,"Ġintroducing":19938,"Ġwrench":20146,"ĠHobbes":18352,"Very":13122,"marks":11486,"sd":19286,"arth":2069,"Ġdrinking":3773,"ĠBra":7261,"Ġpilot":9779,"Ġnud":13572,"ĠMicro":19647,"Ġlet":968,"5":26,"ĠDem":2602,"ffic":19623,"Ġsilence":11758,"Ġspontaneously":25293,"arding":15708,"Ġ*\"":7603,"Ġcompiler":9434,"uggling":11274,"ĠExec":18987,"umps":7198,"Ġstiff":16942,"Ġtobac":9843,"Ġcurves":22174,"leak":22805,"oons":7341,"Ġnot":358,"going":9159,"Ġexperiments":15328,"ĠBand":12585,"Ġfrust":6605,"Ġchron":20842,"serving":25664,"Ġthe":270,"ĠNIN":23732,"Ġchemical":6709,"Ġhar":3910,"Ne":10382,"phil":20525,"ĠFirst":3474,"Ġbasing":18490,"Ġphon":21793,"Ġcontributes":25730,"Ġappro":2728,"Ġconf":1372,"Ġsurvived":12954,"Ġother":652,"ilosoph":4085,"Ġinstead":1457,"Sure":8302,"minded":9834,"ean":13210,"beit":12106,"fessional":18214,"inson":18758,"ĠOUT":8811,"ĠJohnny":13145,"ackers":13448,"ĠDouglas":19447,"ĠBlue":7705,"odies":6305,"Ġrhythm":21692,"Ġtriumph":22454,"Ġbeaches":23962,"Ġlazy":3981,"ched":11965,"Ġdes":936,"Ġtrain":4658,"ĠGeorge":4678,"estic":7484,"Ġworks":1581,"ĠMcDonald":10566,"ĠEat":11779,"Ġnickname":14862,"ĠWatching":15505,"dude":19028,"Ġunsubscribe":21132,"Ġrenewable":23702,"Ġhorizon":22462,"Ġconverting":19484,"funny":7854,"Ġirritating":15059,"ucks":3151,"ords":5484,"Ġdeserves":5624,"Ġsuspicion":17222,"Which":6262,"Ġsac":6543,"Ġcolon":8083,"Ġreduce":7553,"using":2452,"Ġdevastating":22642,"ĠMarines":19362,"elt":2908,"ĠCivil":10024,"izz":3132,"Ġoffspring":16732,"Ġdun":4249,":\"":21997,"Ġturd":12313,"isms":10088,"ĠâĢ":3622,"earing":13294,"oise":21955,"ĠBi":10616,"ception":5660,"ĠSure":2669,"Ġcaps":7421,"CP":11992,"Ã¤":13517,"ĠJoel":21616,"sequ":4499,"Bring":25472,"Ġoverflow":25440,"HEY":25701,"ĠTHAN":23261,"Ġtorrent":5642,"ĠTennessee":19602,"rr":3137,"ĠKiller":25968,"Ġstereotyping":25519,"ĠAfrica":5457,".'":5735,"Ġelephants":19310,"ĠGOOD":12192,"ĠAF":13380,"oct":24561,"ĠOdd":9558,"Ġcom":418,"Either":11586,"Ġthumbnail":15107,"Ġconsistently":10363,"bruary":15539,"Ġcaffe":13238,"ĠRoyal":23326,"ĠGPU":24449,"Ġhiking":24842,"Ġshow":1131,"Ġlest":20853,"be":719,"PG":5411,"Ġstraw":6574,"Ġsystems":4455,"Ġdisproportion":19877,"baum":19902,"ĠFoundation":20786,"Semitic":25078,"Ġvan":7285,"Ġabstinence":16900,"erved":7758,"OG":12404,"ĠHAS":11645,"Ġhilar":14335,"hern":6379,"pless":11250,"val":3673,"orth":10334,"txt":16631,"Ġconservatism":21684,"fx":22361,"mission":9500,"307":23753,"ĠZone":22191,"Ġsalt":7044,"Show":17348,"Ġentitle":16346,"q":86,"ĠHere":2235,"eeeeeeee":10662,"Mat":22328,"ĠMart":8685,"ĠJews":3312,"ĠDemon":18546,"crap":19932,"ush":1102,"frame":17420,"Ġsheeple":10157,"SJYRHA":22773,"ĠFA":7170,"ickin":21316,"ĠRow":18497,"ĠScotland":16308,"Ġlitter":16733,"ĠTrek":7916,"ĠDrink":19554,"Ġliterature":12114,"cake":11412,"Ġdeed":21848,"Ġmeter":12813,"human":7921,"ĠMacbook":19811,"Ñ":147,"esla":11804,"Ġintroduced":9467,"Ġending":5121,"ĠAlb":18561,"Ġtyped":8125,"Ġshiny":10695,"ircumc":16564,"ĠSmalltalk":18862,"due":18886,"Ġtraff":4490,"Ġxt":19173,"Ġsatir":19797,"Ġgrandfather":10278,"Ġjizz":19970,"Ġyeast":20193,"Ġmix":3861,"Ġservices":5178,"Ġbastard":5595,"atica":11830,"Ġdrowning":19365,"eter":4215,"Ġplus":4651,"umper":19343,"ĠBorder":20660,"ĠWM":14170,"Ġsurfing":15001,"Ġdrones":21381,"Ġsubmits":24986,"Comput":22606,"ĠZionists":18143,"Ġ1930":21516,"ĠRand":7357,"Ġinj":6373,"pur":16908,"finitely":5969,"Ġvia":4760,"Ġempire":12246,"Ġyourself":1489,"reme":3854,"^":67,"cross":18978,"ĠMurdoch":17064,"1200":19469,"igh":823,"Ġhow":566,"Ġexplos":6816,"ar":298,"Ġac":716,"Ġdream":3568,"Ġpublish":6083,"Ġpublicity":12285,"eb":6795,"Ġscrews":18747,"azz":9246,"Ġdecrease":14971,"OUNT":18939,"ÉĲ":18961,"ĠSTDs":19812,"Ġpl":536,"ĠFed":4287,"etheless":10854,"ĠBall":11058,"Ġshutting":20424,"Ġsubstances":18875,"Ġwip":8608,"ĠMuh":17110,"entially":3991,"ibri":21376,"ly":323,"inus":14991,"ĠRichards":22112,"ader":5602,"Ġenough":1004,"ĠOthers":20790,"Ġinde":2976,"ĠBS":5716,"Ġslice":12503,"armanaut":11719,"cing":2173,"ingen":16973,"Ġautism":16258,"enced":9234,"zz":3047,"mean":17617,"Ġsegreg":20130,"Ġexams":21566,"Ġvending":23678,"ĠLocal":24209,"Ġgeez":23904,"Ġeyed":24796,"Ġtragic":13537,"ĠBull":6512,"OOOOOOOOOOOOOOOO":12291,"ĠHannity":12077,"Ġeloqu":16358,"Ġfiring":9836,"Ġbelt":9272,"Ġfear":3135,"lear":3379,"94":5460,"Ġkit":14049,"boot":15546,"ĠAntar":19034,"Ġmisogyn":14329,"tering":23019,"statement":18898,"original":11405,"Ġimp":1403,"ahm":20609,"ALS":23438,"Ġgray":12564,"Ġrecords":8701,"Ġmessing":13667,"Ġfanatic":21441,"Ġcho":5249,"Ġstrikes":9625,"Ġevapor":23577,"Ġprior":5351,"Ġburned":8032,"ĠCuba":14050,"Ġbites":19069,"ductor":24394,"ĠCrazy":12352,"ĠBAC":21233,"Ġfavorites":11709,"fit":5723,"Ġscreenshot":9817,"uting":9361,"Ġ1950":18417,"Ġoversimpl":21719,"AM":2368,"Ġfundamentalist":11882,"mouth":14678,"Ġkittens":12037,"Ġthug":22108,"Count":20938,"Ġgasoline":11283,"Ġcontractor":23064,"Ġovertime":23735,"Ġsafer":9319,"_":68,"Ġharmful":11365,"aus":6833,"Ġstrength":7804,"install":7852,"liter":10509,"Ġchunk":11689,"Ġblowjobs":17228,"Ġsummar":15325,"Ġcorpse":14772,"Ġwires":18341,"Ġsorted":20698,"ehovah":25745,"Ġbabies":4941,"antic":4589,"ĠSmith":7879,"Ġpropos":7626,"ĠCountry":15779,"ĠCostco":18729,"ata":6342,"Ġprogressive":9749,"Ġheaded":12970,"ogue":8309,"iod":3272,"Ġvanilla":18177,"Ġeasiest":12388,"Bacon":20438,"weiser":21610,"Bo":19935,"ý":191,"Ġinsulting":8322,"Ġduck":8784,"Ġelbow":20113,"Ġcraving":20027,"sm":4915,"Ġexclude":20281,"reprene":22959,"cream":21916,"rovers":6837,"Ġfleet":23854,"Ġneither":4117,"Ġdeciding":12125,"ĠVietnam":9545,"Big":12740,"N":51,"Ġmayonnaise":24318,"Ġaren":1312,"Ġ1080":20049,"Ġmans":11954,"Ġcargo":21735,"Ġlacks":12726,"Way":18178,"DF":7893,"dar":17245,"090":22888,"ĠArcade":23207,"Ġjewel":16922,"uzz":5918,"Ġdelivery":8903,"ĠADD":17263,"DI":25473,"Ġconting":25658,"Ġtomatoes":16818,"Ġsniper":13227,"ĠLeban":14340,"Yup":21541,"chick":24278,"Ġfake":3110,"Ġfusion":16429,"Ġcrowbar":24458,"Ġburn":3331,"Ġspends":11588,"ĠOwn":17537,"Ġdiverse":16807,"Ġpushing":7100,"ouse":1255,"third":21537,"AMA":8648,"oz":10755,"Ġmp":11315,"Ġschedule":13132,"ĠCor":5156,"0000":5889,"-*":22132,"Ġcertainly":2308,"Ġdisrespectful":17449,"ĠLebowski":20754,"Int":9045,"Ġconvict":13913,"Ġgum":13983,"gyh":16634,"Ġdescend":16437,"Ġasians":21826,"uva":21663,"Ġswap":14559,"Ġabroad":15445,"Fre":22367,"Ġwrath":25324,"nish":19753,"ĠPorn":14695,"Ġmarginal":15200,"Ġswift":22585,"firefox":9115,"Ġcampaigning":23691,"dq":24513,"ĠMagic":12692,"ĠTemple":25520,"Ġgar":7256,"Ġsequ":5367,"ructure":8029,"Ġexploring":22082,"unity":4171,"Ġtasks":15263,"eple":16897,"until":17477,"uition":11320,"push":22306,"ĠWAY":9522,"?!?!?":18207,"ampshire":17858,"irm":3141,"Ġcomprehend":11989,"ĠShouldn":8262,"Ġcapable":5821,"ĠQuebec":13830,"erves":13911,"ĠConservatives":15874,"Ġpoisoning":16688,"Ġaggreg":17736,"gf":18209,"Ġthier":18288,"information":13178,"ples":3316,"ĠNE":4449,"Ġdismissed":18033,"cond":1227,"ent":335,"Ġreve":6064,"ensed":19738,"Ġclog":23260,"Ġtrad":4282,"Ġate":6668,"Ġfoundation":14429,"Ġcovered":5088,"Ġaster":11435,"standard":14236,"Ġorbit":12760,"Ġattach":16330,"Ġgrease":17179,"Paul":12718,"Ġdiscredit":13602,"ĠFBI":9244,"ucking":14558,"Ġcens":5297,"lett":15887,"Ġimgur":12491,"oogle":1332,"Ġ-":623,"atholics":10127,"Ġarrows":11902,"rance":16270,"Ġcliche":16288,"nex":19293,"ISM":19416,"Ġplanted":19437,"pirate":15868,"ĠSFW":19588,"ĠAge":10994,"ynx":22760,"Ġregion":8173,"Ġvendors":23206,"Ġmentioned":3447,"Ġkin":23559,"Ġvig":12772,"Ġletter":4563,"rows":16699,"eppelin":18535,"Ġammun":23710,"Ġlanguages":4488,"from":5418,"Ġlocking":19088,"ification":4024,"ĠFD":24113,"urama":11472,"ĠScottish":15305,"ĠYesterday":23233,"Ġreward":7820,"i":78,"Ġ44":16201,"Ġtor":8471,"Ġdread":15460,"Pic":25216,"Ġsexuality":11935,"Ġtalent":8258,"Ġfaced":14505,"ĠChildren":12225,"Ġsill":21139,"ĠAssociation":22842,"Ġmeters":13756,"Ġreturned":11853,"Ġtheor":12133,"FFFFFFFF":12685,"Ġcrust":19741,"EAD":10604,"Ġ[**":18246,"relation":7724,"Ġnoun":10746,"Ġthugs":15247,"Ġcudd":16404,"they":4060,"ĠRick":8394,"ĠGF":14251,"ariest":23812,"ĠItalians":24877,"Ġclones":21885,"ĠCre":8209,"istically":8589,"Ġcontroversy":14048,"Ġcriticize":10141,"Ġgrief":16203,"ĠEnjoy":9030,"Ġcapitalism":6012,"Ġhilarious":3768,"Ġhypothesis":13382,"Ġpod":13725,"ĠProfessor":19104,"ĠOscar":21817,"atom":22624,"Ġpalin":22453,"ĠRUN":24153,"RU":25308,"£":102,"Ġshopped":15526,"mat":18526,"Ġincreased":8166,"ĠProgram":25370,"inova":24161,"Ġcontraction":21883,"Ġstatus":5576,"Ġcompressed":17793,"Ġcub":12445,"Ġdrives":6099,"many":12098,"Ġtravel":4741,"Ġplacebo":18161,"oenix":13695,"Ġvalid":3553,"Ġcomeback":16052,"Ġhandguns":23529,"\\]":21500,"ĠMAD":15196,"Ġsit":1419,"alib":9474,"UUUUUUUUUUUUUUUU":15378,"EEL":22694,"Ġlego":25189,"Br":11002,"Ġmorons":7221,"ĠGU":6422,"psons":23883,"Ġqualified":9471,"Ġwoo":18831,"ĠDebian":17008,"ĠThunder":17391,"Ġwinning":6222,"oys":21510,"Ġbefore":883,"ĠTim":8101,"Ġcollector":25300,"Ġgrass":8623,"Ġjug":25821,"Ġforce":2817,"Ġprosecutor":23804,"ba":4965,"ĠSkype":22868,"ĠNPR":12753,"quila":24653,"anship":24965,"ĠACTUALLY":25282,"Ġsurface":7612,"Ġgrandpa":15665,"izard":8930,"bo":1779,"iter":1891,"Ġbasket":9889,"Ġmetric":7884,"Ġrecurs":9501,"ĠRegardless":10486,"think":5119,"Ġbri":6395,"ĠMarriage":18543,"ANE":22692,"Ġstole":6463,"ĠNowhere":24235,"Ġbuying":3318,"Ġconce":7710,"Ġcher":24105,"Ġtheists":16148,"Ġindicate":9944,"«":110,"Ġdemo":2533,"rael":1269,"ĠNever":3394,"Ġliberties":12011,"ST":4790,"Ġbeh":1623,"Ġexchange":6852,"cuts":15299,"uto":15438,"Ġfurry":15977,"Ġobjection":17599,"+.":23346,"Ġquo":14856,"Ġcents":7872,"Ġpuzzle":16449,"Ġsteer":23967,"Ġmedic":5056,"Ġraids":24440,"ĠCoca":19434,"troll":15010,"ĠLadies":21354,"Ġlikes":4038,"AND":6544,"isdom":9289,"Ġoffenders":18109,"Ġ(\"":9567,"Ġglobal":4588,"Ġ19":1634,"Ġinteractions":21686,"ĠSatan":8922,"Ġerase":22339,"Ġclothes":5339,"Ġabbreviation":22493,"Ġclearly":2487,"Ġsy":983,"Ġ49":17172,"translation":23675,"Ġbicycles":24699,"Ġast":5562,"Ġconfusing":6280,"Ġteac":2998,"ĠGovernment":6526,"ĠNW":20189,"ĠImperial":21248,"Ġpacket":22591,"Ġcut":1881,"aman":10920,"Pr":10066,"|_":15823,"atmeal":23822,"Ġphilosophers":24698,"Ġsan":6760,"NT":8468,"tc":14996,"Ġrespects":20566,"Ġtier":24731,"been":18092,"Ġbill":2299,"Ġpreview":15341,"MU":25364,"Ġmodel":4143,"Ġexamine":19814,"guided":15477,"Ġbatt":10692,"ĠCLICK":21107,"ĠIntelligence":22097,"doll":16090,"orpor":12046,"ă":197,"Ġspot":4366,"uated":14588,"Sad":14487,"alty":5953,"Ġwrestling":16766,"Ġeither":1278,"McCain":13316,"Ġconstituents":23441,"Ġguard":8844,"rls":13958,"ocus":14414,"Ġredirect":13776,"Ġsummary":11648,"Ġconvin":4551,"Ġsuccessfully":10747,"Ġdisable":12270,"Ġp":286,"ĠSH":3504,"Ġincrease":4776,"ash":1053,"Ġchin":14507,"pd":17032,"YYYY":11211,"qid":14850,"Ġeasy":1958,"rac":8237,"Ġnause":15716,"hill":9451,"ĠWear":25501,"Ġcopying":13621,"Ġexplore":16596,"Ġhipp":7262,"Ě":220,"Perhaps":9542,"haw":18111,"skin":20112,"Ġtrauma":21048,"Ġgenerally":3254,"osp":3482,"ĠSal":10930,"Ġcomponent":14777,"Ġgrind":15616,"15":2523,"Ġsupernatural":15668,"Ġforgotten":7657,"aft":13025,"ategory":17180,"Ġshrooms":19372,"Ġrefrigerator":22414,"Ġfrugal":24974,"İ":242,"dro":7352,"U":58,"Ġcancer":4133,"Ġrestroom":22319,"ĠLinux":2901,"Ġgir":949,"ĠMake":4992,"Ġslang":11545,"acles":13606,"Ġdivid":17521,"Ġcured":16456,"Ġsigns":6321,"Ġsanct":25158,"Ġpads":25309,"Good":5432,"Ġmormons":25400,"Ġevenly":25628,"Ġinflammatory":23235,"Ġgoatse":13499,"159":23115,"Ġartic":14621,"cluding":8156,"Ġinvited":11498,"ĠHit":15561,"control":15692,"Ġperfection":22963,"Ġjealous":7193,"Ġlaugh":1861,"CH":4125,"Ġdinosaurs":13250,"Ġsatire":9102,"Ġparenting":19186,"Ġgroup":2273,"Ġvend":12829,"assic":14800,"ibilities":9636,"ĠAskReddit":15972,"Ġradar":16318,"connect":14545,"At":5082,"re":266,"inator":9782,"Ġtaser":13128,"ĠPearl":20408,"ĠTech":16050,"SJYR":22765,"osh":3257,"Ġupmodded":7368,"Ġracing":14018,"Ġ180":15518,"Ġthesis":16582,"ĠRup":22382,"Ġbehav":3775,"odes":4612,"mad":10717,"Tim":24160,"å":167,"Ġarrive":14604,"Ġreform":6890,"Ġsuggestions":8340,"ĠFalse":14968,"Ġdescript":20379,"lit":22031,"Ġdoubt":2357,"iki":7116,"asant":7645,"avage":12540,"cano":14858,"atts":14898,"simple":23797,"Ġredditers":24706,"Ġinternational":6034,"Ġsentiment":8316,"ĠSnow":12859,"Ġprint":3603,"ĠMouse":16339,"Google":9264,"Getting":25301,"Ġiter":25685,"Ġnope":10121,"Ġcharacteristic":26001,"Ġleadership":13322,"Ġbott":2375,"ĠRussia":4223,"Ġmassive":4370,"Ġlots":2990,"BC":3843,"lymp":7590,"Ġskipped":16316,"Ġseper":17876,"Ġassert":6658,"Ġwatched":3352,"Ġsurgery":7550,"59":9589,"Ġalas":18506,"Ġprepared":7702,"Ġprevents":12955,"\"":7,"ĠDID":8456,"Ġmisunderstood":12668,"ĠKansas":14828,"istence":22182,"Ġlap":3512,"ĠDE":6726,"ĠUnicode":22927,"ĠDawn":25506,"Ġsignature":16145,"adelphia":14160,"Ġcommercial":4280,"ĠDom":12350,"ISA":13492,"Ġcurrency":6647,"Ġsatellite":14008,"Oblig":19779,"Ġculturally":20214,"ĠMeat":20688,"ĠAmerican":1479,"atible":15990,"Ġrequests":12983,"rad":9139,"Ġflock":23810,"IK":10657,"Ġpenet":12720,"Ġdialect":16611,"Ġop":1056,"70":3571,"lan":15211,"Ġdifference":1808,"ĠMcDon":6765,"Ġtouched":10682,"Ġubuntu":13106,"ĠCRA":19574,"stab":20590,"ĠJong":24885,"erals":19445,"Ġtinypic":24388,"Ġlegalized":13559,"details":18434,"ican":6654,"ĠConnecticut":23785,"Ġmillion":2365,"BB":13140,"ĠSteven":13496,"Ġsaturday":24031,"Ġalph":13486,"ews":1377,"dy":4026,"Ġsoda":7725,"Ġletters":5613,"Ġcalculus":15936,"Ġdug":20013,"ĠExt":9917,"cuss":11611,"AH":11122,"Ġextingu":24895,"letons":25986,"Ġbased":2058,"average":16287,"ically":942,"prime":20994,"either":21391,"Ġgames":1780,"ĠNeed":7583,"ometimes":9596,"mess":17411,"Ġdownward":23722,"Ġinvari":24018,"ield":2297,"Ġfav":1684,"ĠLOOK":14434,"rick":9399,"Ġsty":10738,"Ġlou":14843,"always":10019,"Ġilliterate":14805,"Ġretired":12022,"+":16,"Ġoffline":19837,"canny":23726,"ITH":6430,"raph":2414,"info":4762,"Ġurine":12844,"Ġredne":8928,"11":1396,"ĠAWESOME":10974,"Ġarresting":22269,"Ġrenting":22467,"ĠDEF":24167,"rc":18185,"shakes":23818,"sen":11395,"inating":6672,"Ġtaste":3419,"Ġdistribute":16313,"Ġverified":18150,"sense":21286,"Ġpayed":20149,"CT":5072,"SHIT":21488,"ement":2177,"LI":22503,"Ġmonitor":6295,"Islam":14993,"astika":20541,"Ġunemployment":10296,"Ġ1995":18050,"Ġwondered":6324,"icer":16793,"ĠCS":5756,"Ġheter":11847,"Ġassemble":24874,"andals":25259,"Ġaccountability":21874,"Ġfool":3693,"Ġinsured":25420,"Ġearned":9958,"pack":8747,"Ġcompetitive":10963,"Ġbreeding":15575,"rete":9279,"download":11174,"Ġfence":10811,"Æ":136,"Ġcognitive":13767,"ĠGuide":18605,"Ġpages":4797,"Ġalot":7249,"squ":9770,"bl":1472,"Ġep":2301,"Ġsaying":1086,"Ġordinary":12103,"Ġhistorical":8234,"Ġcatchy":18388,"Ġwidely":9724,"Ġsounding":11001,"abytes":18797,"Ġlyr":8585,"ĠProgramming":16826,"ĠLess":10041,"Ġgrossly":23778,"ĠDAE":24108,"htm":1360,"rop":1579,"Ġcommas":17909,"pictures":14312,"Ġassigned":19079,"INS":19595,"match":23545,"Ġomnis":23973,"Ġproceed":9124,"ĠWHO":9520,"Ġreminding":13986,"ĠPos":23146,"Ġmotor":6680,"Cong":12612,"Ġim":640,"ivid":2850,"ĠIF":9763,"Ġstandards":4791,"Ġinvalid":10642,"weird":18421,"Ġstupidity":6434,"Ġreuse":25322,"short":17431,"ĠHmmmm":22793,"ĠCarl":7776,"rigu":11958,"Ġmotion":7989,"ĠGET":7561,"Ġron":12355,"Christianity":20470,"Ġalthough":3898,"ĠPac":13138,"Ġbecom":3104,"ĠBillion":19963,"Ġteams":9491,"Ġminors":23679,"Ġhorrend":19642,"ĠDevelop":11062,"Ġconcentrate":18539,"ichael":12907,"FAIL":24709,"pell":5770,"ĠCouldn":9347,"Ġfat":2218,"public":7944,"eth":2759,"Ġoddly":15578,"Ġlane":9445,"20080":17602,"uation":2105,"Ġcorrectness":18257,"Ġhelm":21323,"ression":2727,"Ġcant":4520,"Ġbackups":21486,"Ġyears":825,"NN":3962,"odeck":25913,"serv":25959,"Ġindirectly":20948,"oot":1256,"Ġconsequence":14596,"Ġpint":16498,"Ġactual":2379,"ĠJO":17114,"Ġagency":11279,"Ġcheeseburger":19815,"ĠĠĠĠĠĠ":9957,"ington":11624,"ĠUkraine":22285,"Ġshortage":17037,"Ġeff":1353,"mm":1216,"vies":2652,"Ġfollowers":12657,"Ġdefining":15582,"Ġant":1790,"Ġshaved":16855,"Ġmate":6398,"ging":2501,"pid":19357,"Ġrefer":2475,"Ġromantic":12042,"Ġheh":7559,"Ġfathers":12494,"intendo":9906,"OO":1319,"enger":9806,"mand":18279,"ĠO":433,"LD":5282,"Ġzealot":21853,"Ġgreasemonkey":22964,"TFA":11940,"drop":14179,"Ġheap":23555,"Ġdecor":18146,"uman":4800,"ĠSpart":17319,"Ġcommend":22916,"Ġminim":4413,"ald":4979,"Ġothers":1906,"Ġfoss":13700,"Ġmath":3902,"e":74,"73":9373,"ď":209,"Ġsexual":3541,"Ġpsycho":14410,"Ġplates":14827,"Ġcounted":11431,"ĠChristopher":16252,"ĠAf":2738,"ĠCent":6290,"Ġmorals":11222,"Ġaccidentally":5430,"Ġwould":424,"Say":16663,"Ġwary":22496,"Ġauthentic":23669,"Ġmention":1695,"zil":8463,"WHERE":18479,"Ġrepublicans":6523,"Ġsuspect":4160,"ĠBatman":8843,"ooo":6720,"jack":9421,"Ġprinter":11824,"ĠMurder":18333,"Ġconveniently":19002,"Ġbor":13899,"Ġknuck":18390,"ĠWRONG":13374,"Ġ:":733,"Ġresearch":2995,"Ġre":317,"Ġsoldier":8164,"job":4725,"Ġdisaster":9835,"nov":7667,"Ġassign":10589,"Ġappropriately":19211,"regulated":21427,"Ġmolest":12800,"Ġwitches":23835,"Ġparan":6762,"Ġthankful":17508,"Ġboil":14958,"din":16525,"iances":25123,"Ġcondone":17822,"Ġcompromised":22772,"Ġinsinu":16695,"Ġchuck":8996,"id":324,"features":17151,"Ġblo":10667,"Ġhorrifying":18524,"Ġtrackers":23416,"Ġany":468,"Ġreactionary":23674,"rencies":21705,"Sometimes":13283,"ĠSomewhere":19006,"ĠBible":4750,"Ġautomatic":9098,"Ġmovement":5492,"ĠSTFU":12971,"ĠDiego":18668,"ĠAmazon":7835,"audio":19047,"Ġug":4095,"pants":14683,"ĠJr":13616,"UT":3526,"Ġmidwest":20463,"Ġpuzz":9809,"quality":14032,"ĠComic":17402,"====":9270,"Day":18836,"None":19027,"ERN":22449,"Ġhelium":22724,"Ġapostrophes":22947,"antis":19342,"fire":4864,"Ġflare":24097,"Ġearliest":25037,"Ġguesses":25146,"agg":13795,"Ġspawn":12062,"ĠMedic":10708,"ĠBird":17218,"Ġearn":5243,"ĠFunn":23541,"Ġmotherboard":22198,"ĠNeeded":25666,"Ġyork":22206,"Ġfacing":11030,"12":1968,"ĠAbraham":19008,"infl":25948,"ĠDexter":16223,"bers":3201,"Ġsource":2208,"Fixed":10181,"ugal":14823,"DVD":22968,"png":3914,"Ġyeah":1591,"erve":4808,"Ġwager":15633,"Ġcaring":10869,"iscons":14313,"Ġimplants":21292,"Ġscumb":14623,"ĠIsraelis":6459,"Ġvoted":2557,"ĠMechan":24726,"Ġconfuses":19044,"Ġspokes":15570,"ovich":12177,"Ġcrypt":20175,"Ġreferenced":17724,"Acc":11551,"boys":14253,"Ġtamp":15017,"ui":20355,"ĠInteresting":4632,"Ġtaxi":23279,"Ġtramp":25382,"Ġgears":19358,"Ġhospitals":13328,"thodox":17281,"ki":6556,"Ġirritated":25993,"Ġpublication":20315,"acter":2677,"ication":4178,"Ġenthusi":11121,"ĠEmpire":11192,"Maybe":4838,"houses":25100,"IONS":17751,"Ġjudging":9783,"ĠArthur":23570,"Ġsquad":17435,"Ġbackup":10215,"Ġ|.":10449,"Ġratings":11637,"Ġcache":13215,"charge":13929,"Ġresponse":2688,"Ġtie":8341,"Hope":13049,"Ġindis":20704,"Ġlearns":22832,"Ġdesigned":4619,"List":9176,"Some":4672,"arded":2486,"uggle":9701,"Ġtreats":16123,"ĠMichigan":11457,"Ġfreaky":18221,"iped":21586,"emed":13583,"Ġadv":2128,"Ġsmallest":17969,"Ġblasphemy":21898,"pos":1140,"educ":8132,"ĠFurther":11966,"pel":12527,"cult":21416,"Ġproportions":21460,"is":276,"Ġcustomer":6562,"Ġsap":18306,"ĠKr":23278,"junk":23423,"Ġdiffers":25709,"wave":17972,"Ġkeeper":23751,"Ġdistracted":16854,"Ġpermits":25023,"ĠWindows":2507,"Ġmaths":18271,"Yay":24907,"Ġhighschool":12462,"aser":5388,"Ġliberal":3785,"etris":17712,"Ġmuch":651,"Ġhug":8451,"Ġobligatory":16838,"osen":7436,"Ġconven":6130,"ĠSagan":17960,"Ġdeleg":11516,"Ġpsychological":11184,"Ē":212,"Ġcustoms":19542,"amous":11237,"Ġalgebra":19818,"Ġbold":9707,"Ġgallery":20785,"sembly":10742,"machine":22398,"ĠResp":23851,"ĠSalt":22877,"Update":25917,"imer":10602,"Ġconstruction":10107,"Ġapologist":18478,"Ġintroduce":11150,"belie":7017,"Ġproph":22375,"GO":15421,"Ġagrees":11034,"Ġfwd":21014,"Ġaw":992,"Ġtrivia":22957,"Ġhistorically":16174,"Ġweb":2502,"Ġdent":11008,"ĠAyn":14181,"Ġaddit":4911,"Ġordered":8450,"ĠFR":9466,"nice":12490,"Ġleast":1062,"ĠCuil":16654,"ĠROFL":20615,"ĠMario":8350,"Í":143,"Ġwaters":15951,"Ġproprietary":13290,"Ġbeating":6428,"Ġhomeland":21290,"rots":19426,"Ġcynicism":24057,"ĠTaxes":22958,"Ġmultiply":21429,"Ġlick":11446,"Ġdepressing":7382,"brain":13798,"ĠEverytime":22612,"ĠLiberal":14525,"Ġexploitation":22358,"rom":2674,"water":6231,"Ġcalm":8717,"Ġcontrast":11718,"Ġpo":473,"Ġdatabase":7891,"hey":7996,"Ġfrustration":17145,"little":13542,"ifference":20667,"Ġherb":20955,"ĠEAT":22562,"Ġdoomed":12842,"Ġknocking":16134,"Ġrelies":18722,"bait":12608,"Ġunpro":15648,"ĠAhmadinejad":18029,"UX":25899,"ello":16576,"ollocks":20094,"sec":3285,"uuuu":5142,"Ġcontact":4627,"amps":14357,"Ġwished":16944,"Ġpse":10329,"HAHAHA":15792,"inative":25410,"Ġdoggie":10361,"Ġmortgages":19058,"yers":16629,"Ġdetract":20160,"iuses":22362,"AY":3212,"ĠCrack":24764,"itties":15945,"Ġshat":18865,"\\)":17815,"Ġunicode":23159,"ued":6671,"Ġlobbying":18014,"Ġgrep":21119,"Ġliquor":13171,"ment":490,"ĠNT":21417,"ĠCamp":11646,"Ġpasted":20363,"pup":16441,"ises":3757,"olics":9833,"Ġdrink":1761,"huge":18544,"ilant":13203,"ĠGroup":18818,"sole":5997,"Ġprofile":8212,"Ġfuel":5461,"Ġhaircut":17911,"ĠGA":19998,"ĠDONT":22668,"Ġsleeve":23923,"Ġflu":4815,"amp":697,"ĠSpe":4093,"Ġchat":7842,"Ġdangers":23457,"Ġill":1641,"Ġwaves":13302,"rub":25983,"Ġmex":14997,"Ġmccain":16752,"Ġscholar":13614,"Ġjackass":9696,"Ġcheering":20475,"ĠTakes":21857,"Ġgrants":21332,"Ġmajority":2750,"Ġconscience":16189,"Ġoutrage":7188,"icorn":9040,"Ġ---":12573,"edon":17766,"isen":24857,"Ġadvent":10787,"ĠIm":2928,"iple":3822,"umbs":22962,"Ġmug":10378,"Ã³":13206,"Ġdebating":12557,"Ġrendered":17813,"sarcasm":7126,"Ġsignal":9362,"Ġeloquent":24330,"French":24486,"ortex":24646,"inform":6724,"OTH":8670,"Ġconcur":10794,"Ġdistract":7418,"ĠDigital":23676,"Ġsimilar":2230,"Ê":140,"ĠHeaven":14775,"ĠHahah":23411,"UUUUUUUU":6230,"sq":24296,"bible":16184,"Ġhunch":23122,"Ġmassively":16268,"ĠCount":6780,"Time":11568,"Ġpac":13717,"seems":24212,"/-":20858,"Ġgates":21015,"Ġgenuine":5728,"encyclopediadramatica":15915,"ĠTiny":24224,"agles":18596,"Ġchemicals":11504,"Ġrecycling":20857,"Ġkind":935,"anted":4222,"Ġbooks":2720,"Ġgreedy":10928,"WN":12079,"Ġsurve":14327,"Ġhahaha":11410,"fd":24048,"ĠIsraeli":4234,"Ġreven":5569,"Ġpathetic":6203,"ĠMAR":24376,"ella":15796,"Ġthin":6397,"Ġreligious":2362,"ĠKeith":16979,"Ġconsult":13012,"Ġclocks":24539,"ĠCause":10498,"ĠEs":4261,"ymes":17000,"uuuuuuuuuuuu":25108,"viol":10848,"Ġcat":2438,"Ġpenn":13289,"Ġseveral":2670,"Ant":15351,"p":85,"Ġoverwhelmingly":19858,"Ġcompass":25394,"Ġworthless":6558,"ĠHand":12929,"Ġimpressive":6260,"Ġgradu":6084,"Tube":6533,"AAAA":2141,"Hell":8343,"Ġdirection":5291,"Ġspare":8858,"Ġnights":11548,"Ġneutrality":14486,"Ġblade":14618,"Ġsmokes":14696,"christian":17437,"BE":12078,"Ġhel":7446,"Ġpsych":3558,"Ġsociopath":12505,"Ġmisunderstanding":14125,"ĠHP":10743,"Ġreceipt":17076,"Ġterrit":8334,"Ġmosqu":17607,"ĠNarwhal":21220,"ĠHip":19826,"Ġcoll":1407,"Ġresidents":16711,"hold":4998,"ostics":20362,"oosevelt":21300,"Ġrefund":15889,"finance":22883,"Ġathletic":23144,"ĠMush":25487,"thers":1847,"edge":8410,"ĠHOT":19161,"aders":13439,"Ġheav":3811,"ils":5273,"HING":9257,"OOM":14358,"Ġyes":1390,"Ġforums":9375,"Ġloathe":24138,"Ġinfiltr":22323,"ering":1448,"Ġswitch":3171,"Ġpercentage":6255,"Ġamusement":19013,"16":2915,".\"](":24554,"Ġunheard":25145,"Ġprick":9355,"ĠChrysler":24846,"une":3489,"ĠDep":4184,"Ġmis":1916,"bes":6102,"apedia":20825,"shirt":6885,"ĠMor":7215,"camp":13746,"Ġfruits":17351,"Ġdisbelief":19901,"Ġmouse":4723,"Ġpepper":12273,"ĠHouston":13423,"ĠFreddie":25752,"ĠHAPPEN":25956,"overed":20245,"Ġregurg":23012,"gay":8846,"Ġincompatible":18996,"Ġtests":6667,"ĠPalestinian":7395,"ĠLight":8786,"Ġcelebrating":19746,"inguish":10853,"uty":6435,"male":14478,"Everything":14523,"Ġgrape":18435,"Ġpsy":21467,"Ġanswered":7113,"fps":23706,"Ġremembered":9825,"Ġeliminating":24785,"Ġbesides":6214,"¤":103,"anking":10796,"Main":16958,"Ġhorrified":22457,"**.":4778,"ĠAhem":22547,"hus":9331,"Ġbitter":8034,"Ġshifting":22911,"Ġmisspelling":20835,"Ġtour":5986,"aii":11839,"wikimedia":11132,"Ġsaved":5117,"ilies":7226,"USS":22150,"Ġhydro":23020,"Ú":156,"Ġforeigner":23474,"Ġtease":24599,"ĠDubai":12151,"Ġchampion":21219,"press":4839,"Ġradio":4531,"ĠSteve":7602,"plat":17247,"Tw":7671,"ĠGotta":10311,"Other":9485,"Ġextent":8310,"Ġunarmed":17921,"Ġflood":8895,"ĠSearch":13683,"azor":9315,"ĠDr":3124,"aste":6334,"Ġfeeding":10444,"Ġowning":11858,"Ġlegally":6072,"FK":13860,"ogs":7229,"ĠThough":5764,"Ġdispos":13688,"Ġsubsidies":14311,"Ġobst":15118,"Ġpas":17550,"Ġspelt":22816,"Ġstill":718,"lift":20770,"Ġ58":22858,"Ġnail":6784,"Ġilleg":8953,"radio":21092,"Ġrap":2601,"div":18377,"bits":7983,"Ġcruise":16124,"ĠAmericas":23799,"unks":13759,"ros":5016,"Ġsteady":16300,"ĠAB":8308,"selling":22442,"Ġvertical":18113,"olith":21205,"ain":450,"ĠHoo":24506,"ĠIdiots":25107,"olice":10503,"Ġfirearm":15981,"Mem":25172,"47":5073,"imp":4867,"ribution":5793,"Ġbik":11406,"Ġdire":1837,"Ġhomophobic":15620,"Ġhappen":1073,"Ġadvertisement":16785,"Ġvoluntarily":15520,"url":6863,"Ġcoworker":16928,"Ġapproached":21765,"Ġhusband":5420,"ĠAlmost":7766,"Ġgrammatically":19787,"isodes":23816,"ising":2290,"Ġthank":2815,"oul":3875,"oring":2676,"ĠHold":10788,"Oper":20099,"Ġpinch":21771,"Ġcompensation":15483,"oli":15925,"Ġfore":2113,"ĠParliament":22933,"ĠNYT":14349,"Ġdissap":25036,"photo":11409,"rospect":19806,"Ġinfuri":17859,"edaily":25126,"Ġcontroll":4607,"Ġtiming":12957,"Ġ_____":23652,"Ġwarrior":25642,")...":8071,"Ġsteak":9941,"Ġtroubles":15932,"Ġcirculation":25467,"ĠCopy":16813,"continu":20711,"mount":23624,"Ġstain":21214,"corn":10493,"iddle":2131,"ĠBah":12901,"ij":3355,"Ġbusiness":1901,"Ġsever":2615,"Ġpurpose":3380,"ĠGar":13196,"him":16432,"ĠWayne":16604,"Ġirrespons":12009,"Ġpaper":2757,"ĠDAY":19575,"ĠBelgian":24530,"olutions":13520,"believers":23427,"ĠMine":6714,"Ġintolerant":15228,"ĠParents":22302,"nar":17375,"Ġslutty":24142,":-)":19317,"ooks":8592,"Ġraid":9791,"Ġthirsty":25451,"git":25155,"aik":25834,"CKS":18667,"#.":24464,"hall":23422,"breaking":13300,"ā":195,"Ġbeast":11064,"Ġuhh":22671,"Ġcruelty":18197,"Ġmomma":24155,"Ġblond":16265,"KE":3755,"erate":10977,"irc":7899,"link":6599,"ĠLiberals":16192,"ĠCity":6313,"Ġbur":2715,"ĠMom":9796,"Ġhail":17048,"ĠPred":17978,"Ġchallenges":20225,"Ġclaiming":5948,"Ġrecording":10262,"âĺ":16615,"Ġmaple":21512,"Ġlifestyle":9709,"ĠFedora":22666,"ĠLu":24466,"ĠZed":25662,"INC":24600,"Ġdrive":2194,"Ġcow":3900,"Ġdumb":2316,"Let":5170,"Ġsustain":11164,"Ġbuggy":16160,"Our":11531,"alf":1458,"maker":22685,"Ġasshats":22847,"Ġwhoever":7147,"Ġbetter":814,"fr":4846,"Ġattend":8776,"Ġtoday":1925,"Ċ":204,"Ġcircum":4301,"Ġpity":9803,"wan":11993,"itudes":14580,"don":4496,"Ġdata":2729,"Ġclassify":20174,"Ġpiles":23829,"Ġrevealed":14112,"ustainable":24383,"Ġterrifying":12669,"ĠCGI":19662,"Ġcarrot":24480,"gasp":20579,"Ġsurprising":5917,"ĠAmy":23604,"ĠDV":21258,"asha":21762,"Ġmemorable":22982,"ĠGood":1730,"ĠCash":16126,"Ġ[...]":16451,"American":5884,"Ġmild":8529,"Ġstraightforward":20151,"ira":17900,"Ġpolitely":18181,"EC":12700,"Ġkeyboards":16321,"ĠHummer":22529,"oped":25144,"Ġbatter":4950,"Ġrepresentation":10748,"Ġanticip":13955,"uv":13008,"ĠMonty":17675,"Ġdragged":16991,"anners":17873,"Ġcosmic":24741,"able":686,"Ġtempt":9191,"Ġdebunked":18994,"Ġshopping":7404,"Ġcriticism":6794,"Ġahead":3941,"Ġspam":4323,"rin":20374,"END":14158,"Ġkings":24973,"use":423,"Ġannoyance":23116,"comfort":23224,"naked":24340,"raw":2247,"ha":2807,"ĠMPG":23201,"Ġmexican":15264,"essel":18371,"Ġteaching":6052,"uu":2590,"Ġbecomes":4544,"Ġdiffere":914,"Ġconsiderably":16937,"ĠDirty":24713,"Ġnormal":2789,"21":5703,"Ġresize":25250,"Ġcone":24671,"ĠCam":13677,"Ġworldview":18959,"ustral":10815,"Ġtaxing":17665,"Ġdece":12935,"avez":14294,"Ġhomeopathy":22928,"\"?":2012,"Ġconvinced":5843,"ĠHampshire":18419,"ĠDance":24213,"Ġsame":751,"Ġvehement":25999,"Ġwonder":1379,"Ġlaziness":19129,"Ġgently":21658,"Ġdr":925,"Play":17568,"whoosh":24898,"run":8177,"ĠSo":750,"mt":20889,"Ġfet":5326,"ĠEth":16718,"Ġstoned":9202,"DC":17711,"Ġassume":2539,"ift":3011,"Ġtreating":11482,"Ġheart":2868,"Ġacknow":7649,"ĠURL":6865,"ĠIAMA":13918,"Ġchop":8487,"ĠBECAUSE":14341,"Ġdisagreeing":14716,"Ġexecute":15054,"Ġfundamentalists":16255,"rial":6189,"ĠWoman":18954,"ĠIran":3195,"Ġride":4786,"defense":14113,"ĠAgree":14258,"Ġyah":17213,"rier":7584,"Ġproducer":18773,"Ġtrendy":19519,"nation":13713,"Ġwholly":20411,"rina":18058,"meme":19710,"ĠSci":14200,"Ġpositions":7808,"ĠDoing":15447,"ARK":17157,"iggest":22450,"Ġblessed":22487,"Nope":15027,"IP":5032,"asemonkey":15367,"Ġevaluate":22923,"Ġlab":2678,"slist":7926,"âĸĳ":24372,"ĠExper":16935,"icide":4183,"Ġnurs":13313,"ompous":19670,"for":1688,"comics":9286,"Ġtools":5878,"Ġcoat":12050,"Ġrec":1072,"uicide":13152,"Ġstink":14908,"ted":3662,"Ġhatch":21003,"Ġwrongly":25133,"Ġclerk":22090,"Ġzombies":8512,"Ġhomosexuality":10360,"olutely":2189,"ĠTibet":14629,"rest":2591,"Ġpirate":6888,"foo":18136,"RESS":20795,"Ġstoring":20833,"Ġoo":24314,"ĠSpartacus":24605,"appe":6142,"Ġworking":1817,"Ġdirt":8086,"ĠKnight":12198,"Ġgren":13672,"Ġrelief":14732,"Ġmocked":20627,"ĠNetherlands":12647,"Ġignores":16806,"guide":20449,"Ġcontemporary":21252,"co":1323,"Ġbeg":5964,"Must":20431,"idgin":21281,"Ġharn":23827,"ĠMexican":8772,"box":3279,"Ġmeant":1927,"ĠParty":6813,"IGH":21154,"ĠNietzsche":22075,"VOTE":19009,"Ġmandatory":9400,"Ġthumb":5709,"Ġrebell":18590,"Ġtasty":9639,"ĠIM":3849,"xim":5395,"Ġamb":8912,"Ġreset":16489,"irmed":22277,"ĠMoon":9369,"arations":25683,"ĠBelgium":18003,"wn":778,"ĠMSM":10829,"IMES":25425,"Ġmay":848,"Ġanarchy":14920,"Ġdrag":5730,"cod":22829,"Bra":23409,"ć":201,"ĠOL":23212,"ĠSpam":23470,"Ġexplorer":22039,"zed":10999,"Ġmechanism":11792,"handed":13690,"president":16904,"Ġspirits":24055,"ĠCoffee":20612,"Ġ68":24273,"ĠCal":3242,"eel":4557,"Ą":198,"ĠRock":5604,"athetic":9582,"Ġgay":1754,"yr":5189,"ĠLa":6622,"ĠTaking":14164,"ule":5741,"Ġconservatives":6729,"Ġiran":19056,"appro":22119,"cean":7018,"Ġplaced":9043,"Ġoriginated":20568,"lings":22775,"Ġprofitable":11257,"ort":524,"ĠSaw":14435,"Ġcareful":6453,"ĠHend":21993,"Ġfigured":4179,"Ġtow":5253,"Ġinformed":8296,"prise":8416,"phones":8644,"Ġblah":5529,"Ġbacking":12301,"ailing":14445,"ĠMil":7025,"fem":17695,"Ġcustom":3091,"ĠST":3393,"Ġdriving":3438,"Ġlength":5933,"ĠAin":22589,"guess":23772,"Ġnewborn":24814,"Ġbusting":25953,"Ġ=]":25064,"Ġty":1225,"Ġpenis":2877,"Ġhood":10264,"Ġcontroller":10771,"Ġdecisions":6215,"Ġentreprene":25384,"oulder":25702,"reements":18474,"Ġoutput":10884,"cases":24534,"keys":6815,"ĠSoldier":23880,"ĠChill":23339,"Ġtechno":19694,"oline":9293,"ĠHarry":10545,"covery":16065,"bd":16726,"ĠFreud":17956,"Ġdolphin":20605,"ĠClick":11967,"Ġbaff":14836,"Ġpremature":18048,"Ġcrowds":22570,"icken":9980,"Ġoxymoron":21347,"Ġinvaded":10447,"achel":13815,"orse":6939,"Ġicons":15950,"Ġpurs":8684,"Ġimages":4865,"ernel":8346,"paul":12996,"aybe":1290,"ĠNO":3825,"anges":14196,"Ġexploded":17264,"Ġcol":2062,"Ġsocialized":14221,"Ġsharks":18899,"rf":18985,"Ġoutcome":10355,"Ġvapid":22223,"134":24690,"ilver":18884,"Ġis":309,"ĠJee":24928,"Ġorang":8892,"Ġto":289,"sad":12618,"ĠStep":5873,"NY":14938,"inch":17958,"ĠWave":22207,"Ġstate":1197,"Ġpu":17130,"ombo":24208,"ĠIgnorance":20966,"WS":10247,"ann":1903,"Ġcheat":9335,"NS":9548,"iterate":11678,"uine":5378,"Ġpharmaceutical":21478,"Ġmanagement":7098,"ĠALERT":23999,"Ġrevenge":10501,"ĠâĨ":21553,"ORD":17253,"uj":12419,"ots":1499,"Ġcreepy":5172,"Ġtradition":5702,"uties":19922,"Ġgreat":994,"orph":14224,"atered":23125,"ilbert":17692,"Ġscen":4967,"Ġpatterns":13279,"community":17400,"Ġkitchen":7451,"Ġchip":8952,"ĠName":10288,"ĠFew":20228,"ĠCouncil":21146,"phrase":15111,"Ġagreement":8274,"Ġconfirmation":16454,"Ġcorpor":2806,"Ġvert":13493,"Ġshelf":14484,"Ġpouring":22162,"Ġdamage":4653,"Ġexplosions":18846,"Ġrented":22946,"ĠTh":411,"Ġgone":2803,"Ġlooph":17383,"Ġfocusing":15462,"Ġsubm":1759,"ission":2619,"Ġhammer":9722,"Jack":17647,"Ġtenth":23701,"ĠPur":18644,"ths":17001,"Ġof":302,"Ġposs":1318,"allow":5846,"Ġpyramid":21151,"berman":7881,"Ġinflux":24457,"eep":9871,"Ġhorses":11955,"uses":2584,"ĠLou":7709,"Ġsucking":9490,"ĠLarry":13219,"rian":6850,"Ġmac":4158,"Ġtaxed":11789,"Ġstatistically":17265,"Ġprosec":6557,"makes":17928,"abble":20357,"Ġcheaper":4747,"Ġpa":9116,"ĠFTFY":18344,"Ġbeloved":22628,"Ġcopy":2673,"Ġannoying":3546,"Ġviewers":12849,"Ġwedding":8025,"ĠCup":19661,"Super":17445,"Ġrefusing":13366,"albums":8847,"FTA":20327,"amazon":7438,"Ġtrunk":16039,"hopefully":21324,"Ġdick":2426,"ĠExcellent":8559,"Will":11181,"Ġrecognition":13235,"Ġvoluntary":14019,"Ġintr":12140,"Ġveh":5445,"Ġpardon":19233,"hance":20432,"cold":22725,"Friend":23505,"ĠShame":12546,"Ġcompelling":13919,"incoln":10222,"story":5930,"Ġit":310,"Ġprev":2188,"folio":20775,"acha":23510,"iating":18895,"Ġmed":2006,"When":3595,"Ġwagon":23499,"mor":7712,"ĠISP":8458,"learn":16815,"Ġgarbage":5925,"Ġadorable":13281,"Ġinherit":16748,"Ġexcept":2070,"Ġarcade":22164,"Ġvaguely":14846,"Ġmathematics":13031,"Ġfootprint":18819,"ĠFl":2781,"boston":23696,"Ġfingerprint":25362,"ylan":17935,"Ġmarried":3507,"Ġhorrif":12071,"Ġms":17741,"Ġsmells":9086,"Ġstash":21712,"craigslist":23790,"286":24627,"Ġploy":22934,"Ġdise":5085,"Ġaqu":17507,"Ġft":15562,"arity":17166,"Ġswallowed":24826,"ĠFuck":1813,"Ġinfant":12236,"Ġsmack":14493,"(\"":14198,"ĠProve":15784,"Ġpurity":23752,"ĠVersion":25800,"Ġrepres":3108,"Ġdied":3043,"Ġfrankly":10106,"ĠHBO":23275,"Ġparticipants":23295,"Ġconventional":16696,"Ġcolumns":23903,"apt":4738,"ĠNOTHING":13640,"Ġgiggles":25038,"ert":999,"might":11638,"Ġserved":8099,"Java":19221,"Ġcooking":8642,"hhhhh":18806,"Ġadding":6168,"ĠReality":18242,"ĠAfter":3065,"ĠFW":15722,"Ġ4000":19489,"arcade":24156,"megle":24862,"why":4836,"ollah":16396,"Ġorgasms":20560,"Ġpirating":18438,"Ġalter":11053,"Ġpresidential":9329,"anson":15658,"Ġhelped":5489,"ĠMc":1735,"Ġdinner":6252,"Ġhiding":8044,"ĠAK":11050,"Ġincapable":12075,"ĠYet":6178,"Ġmile":6937,"ocide":6704,"Ġutopia":25601,"LE":2743,"ĠRemove":23321,"Ġbuzz":10617,"Ġprotecting":10031,"Ġstress":8441,"jug":20089,"Ġconsume":11807,"Ġconvers":3136,"Ġprosper":15754,"quisition":19807,"ĠHDD":21602,"ĠWilliams":14348,"Ġfuckin":7002,"Ġcharity":8716,"stable":14425,"Ġframes":15079,"Ġislamic":24854,"estinians":15274,"Ġpros":8179,"Ġridiculously":9057,"Ð¸":20717,"democracy":22428,"Ġsenses":17374,"ĠComp":4697,"Ġhalo":20722,"ologists":9137,"sight":12179,"rix":12868,"ĠTheres":18127,"ĠSilverlight":19483,"Ġheritage":19773,"Ġhappening":4292,"iling":4497,"Ġcapt":5166,"TW":3890,"ĠWOR":7736,"Ġsemantics":12348,"Ġru":2116,"OL":2079,"wh":1090,"Ġbestof":20349,"Ġmythology":21342,"Ġclimate":7042,"ĠMPAA":22782,"Ġfooling":23106,"dirty":23429,"fluous":23800,"hon":24652,"ye":5371,"Ah":9666,"Ġpasses":10763,"ĠLieberman":14819,"ĠEliz":22910,"Ġwhite":1769,"Ġpracticed":20343,"Ġfur":3182,"air":1104,"Ob":4634,"Ġofficially":8691,"ĠFunny":4919,"Ġhover":13489,"Ġrounded":19611,"ĠUSPS":22061,"takes":22610,"ĠALWAYS":12891,"Ġevaluation":23351,"Ġoverall":7142,"Ġreason":1028,"Ġamongst":10286,"izer":9113,"ĠKevin":12678,"Ġunlimited":10988,"your":4326,"Ġcleaner":14330,"film":16120,"Ġfem":2262,"Ġcatch":3164,"Ġintentionally":9109,"Ġgor":15676,"Ġarchaic":24823,"Ġobscure":8312,"evil":12563,"ĠPUN":23289,"Ġsurrounding":13183,"Ġpre":585,"Ġplayer":4121,"osis":9332,"BY":18699,"Ġenlist":19494,"Ġpractice":4498,"Ġfactually":22060,"iping":25654,"Ġinexper":23111,"Ġstudios":24455,"ĠC":392,"Ġdifferences":7886,"Ġbiased":7449,"ished":3100,"Ġbarg":15514,"ĠShe":1354,"riam":17021,"Ġfarmer":14873,"actic":13538,"ĠBoom":20701,"Ġvalidate":22827,"block":5912,"Ġinterpreted":13130,"Ġvirtue":17604,"Ġrevealing":18881,"Ġtaxpayers":13111,"Ġneo":6610,"Ġclock":7048,"ĠWtf":16612,"Ġblast":8484,"whatever":10690,"aine":5184,"Ġdumber":15584,"poster":19117,"whore":21217,"Ġdeterm":4851,"ĠGuinness":22211,"mails":24573,"Ġdemanding":12963,"ĠLibertarians":13535,"Ġsignals":16218,"Ġstay":2282,"Ġputting":3261,"();":18472,"azine":6750,"mber":6387,"Ġtag":4378,"Ġposing":20061,"ĠConf":14031,"Ġschool":1248,"shop":10962,"Ġliver":13016,"Ġsmoker":15294,"Ð¾":16593,"ĠRyan":18180,"ject":1202,"Ġcreated":3175,"Ġsensor":20937,"ĠMuslims":5188,"ĠMAK":22707,"F":43,"egal":2324,"Ġextremely":3723,"ĠBTW":8894,"ĠAndroid":12507,"Ġstatic":10839,"brush":15317,"sect":9967,"Ġcapitalists":24508,"release":21423,"find":15265,"Ġevents":6009,"Ġmodule":20309,"Ġescort":23550,"ĠPETA":11501,"Ġagnostic":8950,"Ġmalkovich":16323,"ĠSubway":21103,"cb":21501,"action":2922,"Ġwww":9243,"ĠChevy":23762,"ves":919,"Ġthingy":20039,"enanigans":12765,"\".":982,"opathy":15738,"Ġappear":3978,"Ġbehave":12509,"peak":19122,"Ġathe":1762,"ĠSir":8298,"ĠRuss":2875,"Ġtray":21895,"Ġdont":2403,"Ġinvestments":16624,"Ġmultiplayer":10689,"ogical":12060,"Ġscratching":21976,"ch":354,"Ġtitle":2255,"out":345,"ul":427,"Ġfollow":2466,"ĠHitler":4391,"oler":8122,"amb":6538,"Ġproud":4739,"Ġgoose":17738,"'m":452,"ĠCame":10523,"ATION":9402,"ify":2203,"Ġobservations":18379,"Ġmund":20679,"rex":21435,"Ġpuff":21453,"ble":576,"ons":821,"Ġnearby":12040,"Ġaccomplishment":21725,"Ġagreeing":11227,"ĠNASCAR":22593,"ubst":23412,"Ġslaves":8633,"ĠCuban":25109,"lin":5130,"Ġadoption":16025,"Ġsophisticated":15763,"Ġdownloaded":8879,"Ġcommission":16303,"British":18133,"ault":2025,"Ġcrew":10459,"Ġloses":9612,"Ġsatisf":6180,"ocy":11113,"Ġpedantic":11582,"Ġguards":14650,"Ġeyebrows":20712,"Ġqualify":9665,"FTFY":4466,"Ġstreak":24783,"ĠRevolution":14677,"Le":9039,"1600":19976,"ambig":25837,"ľ":256,"Ġgeneralization":14760,"imin":3432,"Ġaction":3510,"ge":582,"Ġsoooo":12173,"Ġinjured":12822,"Ġfactories":19353,"Ġreign":20026,"Ġpedobear":20337,"config":18784,"Ġsuspension":22203,"Ġrecipient":22967,"ĠBing":17787,"balanced":25010,"ients":5403,"Ġaccording":4383,"written":12680,"ĠIRL":16960,"til":20433,"bean":21785,"Ġauthority":5608,"Ġ10":1340,"ĠLincoln":11295,"Ġnevermind":13724,"Ġrefere":4879,"mon":3165,"Ġlogical":4939,"Ġproport":7882,"happy":8505,"Ġdirectory":13625,"ĠCD":5057,"ĠSeems":4570,"\\_":5585,"ĠJames":8054,"ĠFPS":9397,"regn":16269,"Ġquantity":16878,"Ġgib":17577,"sburgh":17930,"ĠDer":19918,"wink":21657,"Ġsecede":24085,"Ġsnipers":24312,"Ġwikipedia":5944,"Ġvirgins":15171,"ĠUr":14137,"Ġinstruments":17023,"Ġexpire":25422,"ĠRET":22598,"Ġfulf":11895,"ĠIRS":14967,"sex":7061,"itamin":25827,"Ġconsists":16602,"db":4896,"ĠWITH":6997,"Ġtargeting":16832,"Ġruined":6448,"IT":1257,"ĠAT":4260,"Ġtas":8532,"Ġonline":2970,"Ġcannot":2270,"uge":7527,"mate":5812,"ĠWords":18669,"geoc":19864,"ĠTL":24608,"Ġfeds":21982,"Ġdamaging":17500,"Ġlosers":13732,"ĠSing":14767,"Ġtigers":24059,"IDENT":25608,"Ġdog":1832,"ANK":10520,"Ġcarry":3148,"sn":5204,"Ġunexpect":12804,"Ġenrich":25871,"Ġsucker":15160,"s":88,"ĠBoth":5100,"gers":5211,"Ġreadable":17287,"ĠOrleans":19689,"ĠWait":2709,"Ġunethical":15266,"Ġversa":16331,"Ġfiles":4385,"ĠIncred":18696,"Ġnutjob":20642,"Ġeyel":23446,"âĻ«":24021,"Ġstacked":25798,"ove":1718,"Ġanarchist":12544,"Ġseiz":17066,"ĠColomb":24658,"Ġship":4970,"Ġsolve":5740,"ĠLim":8842,"mins":21767,"Ġrelo":24999,"ĠPoint":8286,"Ġspells":19977,"Ġcolonies":23959,"ĠBoss":25883,"Ġconcl":4111,"Ġsticking":9312,"Ġ~$":20007,"Ġnoticing":14774,"Ġprett":20267,"Ġdoom":15489,"ĠCe":18475,"Ġspeakers":10145,"ĠWi":18963,"TING":19014,"Sigh":17005,"ĠHuck":11441,"ĠMD":13310,"Ġvolunte":8193,"Ġstability":17298,"asty":5491,"Ġsoviet":21827,"washington":15715,"Ġbogus":17016,"abee":11052,"Ġliber":2574,"Ġobserve":16520,"ĠGIR":21699,"Ġkilling":2921,"Ġrioting":23712,"cel":7109,"ĠACTU":20803,"tube":4304,"Ġadapted":25700,"Ġopened":6945,"Ġpreempt":21659,"Ġholocaust":9511,")(":23354,"ĠRandom":17453,"vol":9449,"Ġ1960":20952,"ĠJust":1148,"Ġliter":2954,"Ġprofess":3192,"ĠBSD":14190,"Ġincreasing":7431,"Ġwhales":17640,"Ġmall":8725,"tell":17680,"Ġlady":4642,"Ġnational":3828,"ĠSEC":21071,"Ġyesterday":5098,"Ġhers":16658,"Ġadam":21818,"Ġpointy":22751,"ITCH":13075,"ĠSMS":23287,"Ġtri":1143,"ailed":22000,"Ġoverlooked":23514,"Ġappetite":25898,"orate":19646,"speaking":21263,"ĠWild":11864,"Ġ:)":1211,"Ġjelly":15260,"ĠLeave":12428,"Ġvulner":13561,"Ġdefinitive":17755,"Ġcivilization":9986,"ouri":17967,"Ġ:'(":18840,"Ġstaring":10769,"Blue":19224,"ĠMiami":19326,"credit":19405,"Ġgre":2313,"Ġcorporate":4885,"Ġbust":6653,"180":17272,"Ġally":19919,"Ġvotes":3860,"Ġshredd":22508,"ĠAren":8190,"AAAAA":23269,"psy":11125,"ied":1187,"ĠUpvoted":3543,"Ġcalls":4347,"ifying":6115,"ĠOregon":10650,"erto":21334,"Ġpublisher":22194,"Ġminus":11891,"ĠWW":5438,"ĠHammer":23294,"Ġschemes":24269,"Ġboredom":24304,"ĠWife":25079,"Flash":25354,"Ġwik":23719,"ĠWalk":14591,"Free":11919,"mur":14490,"Ġcatches":19057,"Ġkm":14926,"ĠMill":16016,"Ġcheckout":25873,"Ġbarn":25121,"Ġimplemented":10283,"ĠBrook":17306,"Ġpenny":11701,"Ġconceived":21470,"Ġnetbooks":25977,"Ġpreparation":25923,"Ġabandon":15603,"Ġroo":19580,"gall":9061,"Ġzeal":13872,"hh":1589,"rl":17556,"Ġengine":2685,"Ġcoincidence":9590,"ĠDev":22512,"oko":25361,"arily":2754,"ICK":8267,"ĠHonest":16771,"Ġenjoyment":17517,"Ġpopulace":14878,"Ġ130":20313,"Ġstew":19949,"ĠRandall":19979,"forward":14017,"Ġindicated":21787,"ĠHead":9973,"door":13046,"Ġhaven":1598,"Ġattempts":9587,"ĠYorker":25338,"Ġapps":6356,"ousy":16418,"Ġarms":5090,"Ġselection":8332,"ĠAri":11827,"ĠPain":21854,"arly":1337,"Ġarri":10103,"onna":2094,"Ġsections":16867,"ardless":6988,"Ġreading":1722,"Ġconsumer":7619,"gaming":11440,"ĠSy":4700,"Ġopposing":11763,"style":8923,"Ġpulls":13041,"Ġske":5567,"Ġraw":8128,"Ġapprove":8337,"Ġoverseas":13570,"dad":15356,"you":1819,"hhhh":4834,"ĠSTD":16273,"ĠKos":17652,"actor":19115,"ugly":19277,"Ġtransparency":19558,"fucker":19780,"Science":17344,"ĠCap":5014,"Ġdickhead":19888,"Ġundo":20239,"Ġtelesc":20556,"Ġlb":21833,"oying":21936,"ĠCurious":23259,"Ġlicence":24262,"Ġflour":16172,"ĠPART":24297,"Þ":160,"Ġsubscri":4822,"logic":23108,"Ġimpaired":25582,"ĠIdaho":23987,"ping":3227,"Inc":19713,"spec":11907,"wash":18340,"Ġcrime":2966,"Ġsignificant":5221,"Ġorganized":9220,"ELL":10666,"..\"":20091,"breat":21447,"ĠBrad":16751,"istent":11328,"Ġappears":4524,"itting":1911,"Ġhappens":2108,"Ġanywhere":3519,"ĠIraq":2758,"Law":20157,"Ġâĸ²":20847,"status":22261,"tur":23574,"Ġextensively":25596,"Ġfeels":4267,"ulator":8246,"V":59,"\"](":10919,"ĠBilly":11489,"Ġinevitable":11056,"Ġdec":1093,"ĠHero":9657,"rence":11707,"ophobia":14426,"Ġsunshine":21173,"ouncing":10781,"rugman":13471,"Ġtasted":14147,"itated":14711,"Ġrefute":14791,"ĠTALK":21297,"ĠIntelligent":21887,"TV":7135,"Ġmoments":9624,"NE":15088,"ĠLE":15921,"Damn":9377,"Ġhors":9404,"isy":7235,"Ġsayin":7937,"Ġdancing":9764,"Ġendless":12536,"ĠTHANK":15127,"Ġtrait":8218,"ĠSpore":23425,"fits":16086,"Ġstat":2778,"Ġfollows":10174,"Ġdescribes":11574,"Ġexcel":24542,"ĠMeth":12962,"Now":3681,"Ġbore":24719,"Ġgrade":4592,"ĠPatriot":13526,"ĠMost":2110,"ic":306,"Ġsee":613,"files":6328,"kelback":12870,"Anyone":9697,"ĠTerm":13581,"Ġchallenging":15683,"ĠNuclear":16607,"Ġdoubts":18285,"personal":18409,"zer":5300,"Ġwitnesses":19219,"ad":343,"Ġurge":10548,"Ġprofessional":5705,"etry":12886,"ĠFU":12248,"ĠXD":18583,"ĠTomorrow":21443,"ĠNewton":17330,"ĠAsshole":21451,"Ġshalt":23232,"Ġsome":467,"Ġcharacter":3144,"Ġgender":5685,"ĠHis":1840,"Ġtraveling":10147,"Ġcss":24060,"Ġmeditation":24598,"ĠAlex":8605,"ntax":7299,"Ġstatistic":13598,"iously":975,"retion":22209,"ĠMet":6040,"Ġdisagreement":17292,"ĠLegend":18728,"Ġmakes":1016,"Linux":10824,"ĠEnglish":2394,"ĠHug":24516,"vine":25365,"copy":15948,"ber":646,"Ġvalidation":25019,"Ġintegrity":11514,"Ġcoffin":24570,"wikia":18458,"ĠVill":22709,"ĠPort":6410,"Ġlargely":8723,"option":22726,"ĠChristians":3864,"trl":7062,"ĠRAM":7319,"Ġcells":8363,"ĠHello":8883,"Ġsou":10320,"Ġjaded":22401,"blood":16389,"Ġdisag":2224,"Ġtries":6721,"Ġiniti":13034,"ĠTHERE":10178,"Ġatleast":17706,"worst":16603,"ISE":18121,"Ġunbelievably":21182,"onsanto":12047,"Ġvic":17650,"Ġimmigrant":17752,"CK":1744,"Ġabove":2603,"Ġstrive":24953,"%.":5879,"Ġchanging":5355,"Ġoutside":2497,"Ġmast":4200,"Ġbid":13612,"Ġfonts":14779,"Ġpatron":17176,"ĠMonkey":16098,"Ġvaries":18612,"healthy":12018,"Regardless":19994,"Ġreport":2406,"states":20819,"ĠBarb":20983,"imating":24793,"adgets":19911,"ĠSmart":14124,"Ġ(":496,"ĠCAPS":14067,"igion":6181,"iar":11720,"½":127,"Ġstubborn":21499,"Ġreflex":16697,"Ġceases":21613,"Ġattracts":23133,"Ġmisinterpret":19257,"Ġhindsight":25184,"issors":16583,"por":1961,"Ķ":248,"ĠPokemon":16157,"ĠBritney":17907,"Ġunintention":20226,"Ġcurrencies":22069,"',":4176,"ucket":5899,"ĠTRUE":23769,"âĸĵâĸĵ":24512,"Ġj":370,"Ġneuro":19663,"Ġpersec":12972,"wit":15444,"Ġunderlying":15498,"Ġfilth":24491,"Ġpopulations":17318,"Ġreasons":2962,"Ġexhib":14812,"Ġoffence":21299,"ĠFan":20322,"Ġpersecution":22412,"Ġtalks":6959,"ĠDevelopment":14917,"Ġconsuming":15544,"Ġwear":3204,"nd":421,"P":53,"Ġincreases":10114,"zs":15506,"stories":15830,"acept":16334,"rehensible":17266,"cisely":19082,"Ġcompensate":19510,"Ġamput":22241,"Ġnanny":20550,"magazine":17863,"Ġextrem":3161,"Ġrelax":8792,"Ġinvolvement":16309,"Ġrecon":17296,"Ġways":3126,"Ġsporting":22026,"ĠJoy":23226,"Ġhypocrites":17723,"Ġvolunt":9323,"Ġcrucial":20051,"Ġbroadcast":9566,"Ġcabinet":16326,"Ġsurreal":19498,"ridges":22683,"ĠGW":10873,"Ġtongue":7490,"ĠNope":3877,"Ġpolice":2122,"Ġunlock":10356,"Ġpurse":19403,"Ġemp":6775,"bon":5681,"Ġwarn":14180,"Ġpolitic":3616,"Ġbuddy":4728,"ĠHot":7567,"âĢ½":9688,"Ġsuck":1470,"boards":9754,"Ġquest":1032,"Ġintuitive":16357,"ĠAussie":17779,"Ġoriginal":2087,"Ġfilming":18262,"Ġvolcano":19386,"ĠVirtual":20213,"Ġfactory":9425,"Ġrename":20733,"Ġforced":3994,"Ġbet":1074,"omg":19945,"Ġpublic":1628,"Ġla":796,"Ġstrapped":22335,"Ġcomp":630,"ĠYahoo":9348,"Ġsusp":8214,"Ġmanagers":14095,"HHHHH":22299,"ardon":10862,"iters":7966,"person":8063,"oking":16438,"oq":18056,"Ġparties":4482,"Ġlook":654,"chest":15276,"enders":8798,"Ġtaken":2383,"Ġspending":3968,"lem":18610,"Ġsided":22636,"450":22766,"ĠBrain":16049,"Ġnons":5424,"ratulations":7847,"Ġyellow":7535,"Ġnazi":7958,"Ġobsessed":11608,"ĠLife":5913,"Ġdistinguish":13936,"OAD":12493,"ĠOct":9658,"Ġmilitant":15725,"ĠGaza":6746,"Ġpriorities":16501,"Ġafterlife":16905,"Ġapes":17593,"Ġcatast":17976,"vl":18876,"Ġbragging":20033,"ĠSee":3095,"stock":20559,"yrus":20588,"ching":12816,"ĠTra":11339,"inflation":20890,"Talk":22914,"Ġlookin":25132,"Ġadjective":17562,"antanamo":17684,"ĠTaco":17133,"uckily":10924,"Ġcostumes":22405,"Ġprogr":1430,"Ġenters":25252,"ĠGy":25458,"Ġline":1720,"Ġvill":8195,"ĠFrankly":15442,"Ġingred":10620,"ro":348,"Ġyep":10780,"Ġturning":5401,"ĠStorm":19432,"Ġmandated":22392,"Ġfavorite":2537,"ĠQuicktime":22437,"Ġanarchists":17457,"Ġradical":9979,"Ġclasses":5349,"equality":19844,"Ġbeach":8663,"ifest":14491,"ĠAk":19291,"ĠLogic":18968,"Ġinflated":19795,"selves":1788,"Ġquestions":2802,"photobucket":8889,"Mod":17462,"ĠReplace":19947,"Ġdiscourage":20471,"Ġobtuse":22131,"Ġsale":7270,"Ġshops":11029,"ĠNC":14401,"Ġupper":7577,"Ġimprison":12288,"Ġarent":13948,"Ġclip":6050,"ĠHugh":19630,"modders":21505,"Ġwillfully":23160,"oo":346,"ihil":11936,"Ġexist":1678,"ĠGu":2700,"Ġorgan":2726,"Ġcouples":12549,"IPAC":16352,"ĠDesign":16502,"nostic":7529,"Ġexisting":7838,"irms":12393,"One":4862,"Ġsheets":14830,"Ġsquid":24127,"enough":23828,"ĠDe":1872,"Ġeth":4018,"Ĕ":214,"volution":10403,"inge":7704,"Make":13893,"bayimg":20511,"enth":21792,"Ġsemicolon":24178,"worse":24538,"Ġbip":18411,"fore":811,"Er":15044,"Ġrooted":24805,"Ġduh":10538,"season":23683,"creepy":25657,"avor":12610,"shows":25081,"Ġwa":11154,"Ġclitor":21135,"Ġmaj":12172,"ĠLouisiana":17676,"Ġhiring":11462,"Ġshall":4149,"Ġencomp":24704,"Ġid":1567,"Ġgeneric":9766,"Ġgrilled":20294,"Ġfarmers":11767,"Ġoffices":15696,"Ġwh":318,"Ġrepost":8721,"Ġspont":17072,"Ġdomain":6968,"often":23975,"rail":24594,"ndum":24633,"Fun":25474,"Ġoblig":6362,"ĠDub":9847,"abama":12613,"ĠTool":17855,"Of":5306,"ĠDri":13036,"yon":21432,"Ġperfectly":3585,"vel":1011,"asphe":14622,"ĠMOTHERFUCK":18380,"ooch":23357,"Ġgrim":25441,"Ġeffects":5066,"Ġfreed":25746,"anny":8554,"ipes":10463,"ery":1829,"Ġkarma":2611,"][":15064,"end":470,"Ġhated":6011,"Ġinterface":6932,"Ġmol":7765,"ĠNumber":14219,"Ġking":7423,"HA":2305,"ĠOnly":2657,"ĠINSIDE":17090,"ĠDanish":19427,"66":4654,"ĠHopefully":6744,"Ġcombined":8431,"Ġhydrogen":14365,"aints":15781,"Ġdouches":23013,"ĠAsking":24289,"ĠArc":15154,"ĠLed":15589,"Ġprejud":10569,"Ġstreaming":16000,"orage":8909,"Ġassh":2078,"Ġread":717,"Ġnor":2905,"ĠPitt":13648,"ĠDrugs":15467,"Ġtort":3722,"ĠLOVE":9354,"ĠJerusalem":16704,"Ġbiblical":19261,"Sur":20651,"Ġformal":11546,"super":12695,"Ġtorturing":16560,"magic":20177,"Ġaim":6139,"Ġchanges":4502,"desc":10814,"Ġinstit":12281,"etooth":20804,"Ġwarm":3727,"Ġcampaign":3523,"rule":21067,"115":21206,"Ġtrack":3112,"20":1528,"trans":8259,"Ġ46":18717,"Ġcommunicating":22419,"ront":9505,"Sw":15727,"Ġcope":22441,"Ġtrades":24517,"Ġpowerful":4714,"Ġconsistent":8727,"Ġocc":2347,"ĠAud":13358,"ĠFer":18973,"Ġperm":5067,"Ġtips":8055,"ĠArch":11537,"Ġmanually":13355,"ĠSOMEONE":23245,"Ġupgrading":21693,"Cre":24668,"ĠBoys":16914,"Ġinconvenience":22130,"Ġfl":893,"Ġaccess":3056,"ĠNapoleon":24800,"lean":18725,"Ġcommute":16073,"Ġchainsaw":24597,"Ġcomments":1519,"ĠAtl":9004,"itle":1859,"Ġlawsuits":16997,"Ġrecorded":11255,"ĠLCD":14833,"Ġpromptly":19527,"ĠRTS":20169,"Ġburnt":16698,"ĠMagn":24399,"Ġbandwidth":8147,"appers":17365,"east":17422,"icial":7340,"Ġdiarrhea":19843,"ristol":18456,"Ġuterus":25989,"ettes":24940,"Ġhierarchy":23372,"Ġgrateful":16823,"Ġoccupation":11480,"istant":23900,"Ġoctopus":24397,"Ġbillion":4017,"ĠUNIX":20324,"Ġpel":23018,"Ġperman":7422,"ĠNorm":11515,"Ġindistinguishable":23554,"elected":16605,"amins":22862,"Ġgrocer":17833,"ì":174,"Ġmountain":9604,"Ġbutter":5778,"Ġprank":12646,"Ġepis":3210,"ĠCom":1895,"Ġpronounced":8220,"ĠOFF":11097,"ysical":15571,"Ġinterchange":22336,"Ġfreel":17750,"Â·":19541,"because":6284,"ĠCheap":20567,".:":23647,"Ġband":3086,"ĠRub":17293,"ĠGibson":20101,"ĠPop":9733,"Ġreporter":12754,"pics":7439,"Ġknight":23979,"GB":5683,"Ġpale":13924,"Ġsketch":12973,"Ġjo":1115,"umber":1488,"ĠNo":713,"Ġwide":5024,"Ġaliens":8442,"Ġadblock":10586,"Ġclam":22013,"ained":3022,"Ġfrench":7940,"Ġregistration":15165,"ĠEC":24661,"ĠNational":8010,"saving":25428,"Ġpercentages":25663,"Ġconstantly":5086,"reat":675,"dc":17786,"cial":1130,"ĠAllen":19999,"Ġhandwriting":20048,"oice":1637,"Ġmenu":8106,"Ġhypocrisy":9690,"ĠSenators":23513,"Bi":25390,"Ġdeadline":25803,"ĠCorporation":25887,"ationally":21681,"ĠNickelback":14740,"Ġdepict":22255,"sync":25714,"ater":977,"ĠMB":12539,"Ġ8":1441,"Ġlamb":14585,"j":79,"ĠHur":14276,"Ġupsetting":25178,"ĠHamilton":24303,"âĻŁ":19555,"eeee":4726,"Ġmusical":11337,"Ġknew":2067,"men":3323,"chart":19885,"isure":21964,"Ġ09":24500,"ĠG":479,"Ġconstitutional":10723,"Ġassociate":13067,"Ġnicely":8820,"ĠBears":21585,"Ġrum":11185,"ublic":1075,"ĠNicely":25904,"Ġejaculate":25513,"DY":25937,"arest":12889,"Ġallowing":7563,"ĠOM":5566,"Ġnoticed":3306,"bots":21627,"Ġoffended":6341,"ĠWarner":23731,"Ġwom":963,"Ġbars":6931,"Ġdecl":4212,"hots":13367,"Ġfundamental":5593,"vision":14199,"st":337,"Ġstove":21942,"ĠProper":18477,"ĠEE":23607,"Ġdiet":6441,"Ġentered":11728,"Ġnarwhal":15116,"Ġsubreddit":2263,"Ġflash":4066,"rough":7690,"ise":932,"ğ":225,"Ġtap":5483,"ĠTHEM":12750,"ĠPic":11391,"Ġcaus":10954,"Ġexpects":16272,"Ġbra":4913,"Reg":11724,"gas":18947,"Ġhangover":22427,"Ġflawless":25082,"opic":20254,"ervatives":10474,"rats":9172,"versely":19394,"ĠDi":8478,"OULD":7769,"Ġforget":2238,"rior":13001,"aper":1812,"ĠNOT":2554,"Ġbothering":16110,"Dead":20874,"ĠOp":10053,"Ġdealt":13908,"Ġcoupled":22631,"Ġalias":25186,"800":8432,"off":2692,"ĠShould":3904,"Ġle":522,"ĠEpisode":18931,"Ġcrystal":17702,"tom":19097,"\"&":20008,"odge":18400,"Ġbubbles":16760,"ĠTB":21374,"Ġreckless":21814,"ĠFerrari":22618,"Ġtool":2971,"T":57,"Ġdisapp":3739,"inence":12784,"Ġbud":4746,"ces":1111,"tage":17570,"cs":6985,"panic":17347,"lu":15903,"ĠKorean":10774,"bridge":18139,"Ġremarkably":19539,"Ġchoking":23998,"Ġsink":8620,"Ġexpensive":3325,"Ġbrave":11563,"Ġaccum":17627,"ĠâĻª":24558,"ĠFED":24859,"rative":12697,"neapolis":25251,"Ġstyle":3611,"Ġgap":10549,"?\".":13297,"Ġchick":2736,"Ĥ¬":16559,"Ġwounds":21977,"Ġthinking":1440,"ĠComputer":11298,"Ġemphasis":14045,"Ġbrowsers":9016,"ĠRing":20060,"shift":20545,"Ġpretends":25952,"Ġobsc":6196,"onic":3282,"ĠHawking":17673,"Ġpodcast":19086,"App":7310,"EG":9248,"ĠCue":25535,"Ġwhomever":22095,"ed":292,"ĠNor":2682,"Ġprotect":3074,"Ġprosperity":22353,"Ġoutdoor":23225,"asia":19382,"Ġrobotic":24602,"Ġdeval":20401,"Ġtanks":11372,"Ġnoises":15577,"Ġlasers":17572,"Little":21679,"ften":12178,"Mass":25908,"Ġir":1652,"Ġkeyboard":4576,"Space":13829,"ĠJoke":18825,"Ġhomosexual":5109,"oore":9784,"Ġacronym":13649,"Ġemulator":19838,"Ġvisitors":20852,"ĠUNDER":22898,"Ġscripts":12867,"ĠCanon":18270,"Ġfield":3626,"Ġstereo":19085,"cop":14270,"education":20326,"Ġvegetable":18828,"Ġsavior":23845,"Ġ&":555,"touch":18473,"Ġcrosses":23281,"Ġassault":5943,"Ġvariable":12694,"Ġmust":1232,"Col":14380,"corporate":25314,"indows":1797,"Ġmattress":22113,"Ġholes":7895,"itur":19513,";.":11857,"Ġaudience":5866,"EEEE":4594,"Ġprob":6403,"ATE":6149,"gent":9523,"Ġwrest":11721,"Ġfitness":23472,"ĠWTC":13033,"tion":8243,"ggers":24900,"Ġrelations":13554,"Ġnum":25401,"violent":14565,"Ġshady":17283,"Ġgroups":4744,"Ġoverused":23875,"Ġbelow":4324,"Ġlegalize":14863,"Ġwhine":11745,"Ġprocedures":16464,"ĠRomney":14210,"ĠASP":20643,"ĠNorway":9700,"Ġrequirement":11352,"iti":11522,"Ġphilosoph":4574,"Ġstall":14569,"ĠAwww":16637,"pu":14913,"Ġmeds":16820,"le":304,"eted":18152,"Ġapproxim":11149,"uing":10855,"Ġposter":4849,"ĠClever":17864,"Ġanimals":3602,"Ġheat":5706,"Ġsocialism":6886,"itual":12086,"Ġencouraging":14579,"Ġvein":18897,"irst":741,"erv":1841,"Ġinsan":8911,"Ġsymbolic":20792,"...?":6569,"Ġenlightenment":23879,"First":7600,"Ġrightly":24361,"Ar":5277,"lling":2050,"mult":15366,"ĠMight":7112,"Ġcod":6197,";*":7607,"Ġdownloads":15386,"liners":25243,"Ġspoon":10832,"ð":178,"Jewish":18101,"Ġanimated":11557,"ĠCute":18650,"releases":23703,"ĠHedberg":24693,"Ġadventure":15545,"Ġbaked":14014,"ĠKirk":17357,"auty":20462,"cribed":13979,"nik":22875,"Ġbots":13189,"Ġexc":2451,"ita":8261,"Ġpersecuted":23179,"Ġstandardized":24310,"Ġcroc":18509,"++":3187,"Ġresistant":25373,"Ġhah":6331,"Ġexception":6475,"Ġpol":938,"Ġinbox":15501,"Ġad":785,"onestly":4902,"Ġbicy":9261,"reck":9800,"protected":20163,"ith":353,"Ġsigh":12912,"ĠĠĠĠĠĊ":14416,"Ġgravy":19039,"Ġelectroly":22073,"extremely":25134,"Ġridiculous":2680,"Ġtraditionally":21545,"Ġbiker":24832,"atable":13739,"Ġcould":633,"ites":2350,"ĠHilton":16980,"Ġcontract":3834,"ĠCarlin":15246,"ĠBear":11474,"blind":14810,"hel":18198,"ilt":2848,"Ġcopyrighted":18253,"Ġscumbag":21654,"usty":14634,"ĠUlt":12406,"istics":5039,"Ð¾Ð":24550,"ĠTurns":14669,"Ġforcing":7911,"voters":16138,"ĠNelson":24400,"ĠDIE":19151,"ĠJay":14731,"Ġriff":23951,"137":24076,"Ġhit":1929,"They":2524,"ĠBEST":17417,"Bre":20866,"ĠMarket":17498,"Ġip":19191,"Ġabomination":20789,"Ġsneez":23629,"tones":25676,"Ġfigure":1933,"cker":24536,"ĠPunk":20601,"Ġclever":4608,"ĠDone":13527,"isd":15640,"Bon":23648,"ĠAJ":23200,"ĠBruce":11799,"Ġsex":1129,"Ġquotes":6405,"Ġlaughs":13730,"sal":15458,"ĠWorse":17953,"cess":1132,"Ġcircumst":6884,"opian":24334,"ONG":7888,"Ġchallenged":14961,"ĠBeta":22564,"nesday":13787,"yan":10465,"Ġloos":15695,"Ġdemocr":2785,"Ġaffect":4866,"Ġjunior":15534,"ĠDUDE":23487,"Ġupdating":23141,"Ġtouchy":24924,"Ġprincipal":16453,"aul":1292,"DR":8444,"Ġdemonstr":6209,"Ġimper":8578,"Ġrefuge":14310,"Ġambiguous":14587,"Internet":16758,"Ġmama":19465,"SS":3573,"Ġafore":23707,"Ġusers":2912,"ĠChild":14144,"ĠAr":1747,"ahh":19762,"Ġmormon":16542,"ĠPOS":18328,"Ġstrategies":25756,"vernment":1103,"Ġtl":12660,"Ġsmashing":22584,"Ġhonest":2053,"Ġdelivered":11844,"py":4112,"uesday":10799,"Ġrelease":4175,"ouche":7569,"Ġtun":10267,"market":7701,"ĠLee":12015,"uccess":13387,"Ġsensation":18099,"Ġsalad":13368,"Ġbytes":16518,"ĠSUVs":22378,"Ġprim":3820,"Ġspect":11539,"Ġetc":1578,"Ġthreatened":10315,"Ġbosses":18909,"Ġut":3638,"Ġshave":9845,"bro":11951,"iotics":21150,"levision":22463,"hn":11377,"station":14676,"Ġdecre":9048,"Ġherring":23662,"Ġnatives":22474,"ĠZombies":22344,"Ġcommits":23404,"inations":10784,"idering":7080,"ral":2088,"erty":15342,"Ġparticipate":10948,"common":10276,"Granted":22885,"Obl":17919,"Ġrate":3442,"Ġunconstitutional":13963,"US":2344,"sort":11329,"ĠMuslim":3324,"Ġanyone":1058,"ĠOri":16217,"Ġsimplistic":18331,"Ġresur":18035,"Ġbapt":21640,"ĠAOL":14701,"exas":20495,"domin":18745,"ĠAttack":22234,"Ġfirefight":18936,"Ġaddiction":9476,"Ġcharacters":4736,"Ġbrace":23239,"116":24871,"Ġinv":1110,"ĠDA":8789,"Ġcad":23476,"ĠGitmo":21838,"ĠTPB":18364,"Ġsevere":10678,"âĢĶ":9076,"ruly":12689,"sem":5313,"Ġcarries":14176,"ĠCant":18289,"giene":21404,"Ġhorrible":3309,"Ġrev":3643,"ysics":10432,"Ġan":293,"Ġtwenty":8652,"Ġhooker":12979,"arer":13841,"uffy":15240,"irvana":20257,"Ġweirdest":20290,"Ġspeaks":8092,"Ġdesigning":21207,"mirror":22949,"breaker":23996,"Ġdeaths":7324,"Ġguests":18218,"Ġmult":2513,"Ġsalesman":22836,"Ġlun":11127,"ĠCage":21396,"Ġthere":505,"IOUSLY":25471,")/":24003,")":14,"Ġnet":2512,"Ġstabbing":20346,"ices":1862,"Ġgoth":24537,"aging":4044,"urther":8857,"egr":5441,"Ġowns":7552,"ĠHeart":19672,"economic":24412,"ĠLibrary":24681,"Ġyada":25543,"ĠGUI":9247,"Ġcel":18823,"Ġcaf":21845,"Ġopp":1604,"ESE":17418,"Ġtactics":10644,"Ġcivilian":10190,"Ġinstant":7956,"Ġtesticles":15066,"Ġoverr":17983,"ĠED":19367,"Ġawful":4509,"ancies":23282,"ftware":12208,"attery":20753,"Ġalb":3763,"Ġscreen":2942,"define":9459,"ĠCharles":15333,"Ġactivities":10652,"Á":131,"itage":16618,"âĢĻ":2618,"atter":3000,"Med":21741,"ry":571,"ĠCrysis":19695,"ĠFemale":21387,"position":11384,"ĠčĊ":2030,"ĠBlack":4185,"ĠFranc":10322,"ĠJim":6901,"Ġemails":8634,"onom":15157,"CL":15572,"ph":1013,"burger":10397,"r":87,"ĠBBQ":18706,"Ġverse":17595,"velt":20727,"Ġsuite":22295,"Ġevils":15205,"/_":11206,"Ġcement":22950,"Ġrichest":21153,"Ġscores":13088,"sfw":13301,"Ġinevitably":15224,"Ðµ":17188,"Ġharsh":7987,"Ġqualifies":14446,"'?":5687,"Ġrevolt":21764,"Ġsite":1676,"Ġcoach":17994,"bags":13796,"Ġintegrate":22152,"ĠHouse":5003,"Ġelev":8759,"asted":14106,"ibet":12797,"ĠHelp":14415,"Ġcomplicated":6820,"Ġsmall":1529,"Ġheight":7930,"oids":10894,"Ġquietly":17111,"Ġenlightened":16107,"Ġepit":22370,"athon":17034,"Ġskinned":23280,"Ġemacs":11908,"ready":1167,"Ġterrorism":7001,"Ġlaptops":11929,"ĠBuzz":21897,"Ġleverage":22076,"Ġhugs":23659,"Thats":17485,"Ġath":7788,"Ġside":1653,"Ġsugar":5305,"Ġspark":12315,"cry":20655,"Ġsmelly":21939,"views":22022,"omeday":9042,"ING":1679,"----------------":10357,"Ġvampire":13877,"Ġcelebrities":15832,"Ġauction":21482,"Ġhemp":18660,"ĠNigerian":24473,"PL":5736,"ufact":5598,"Ġlargest":6867,"Ġlimits":8006,"Ġpassive":12391,"Ġpieces":6250,"Ġantis":13592,"Ġcome":1105,"olph":16112,"ĠHOW":10211,"Ġdresses":19473,"ĠOBAMA":19671,"orge":3666,"Ġastronauts":25969,"icy":6033,"ĠFort":7388,"IDE":10042,"ĠGB":11975,"aud":3542,"Ġbooth":20735,"There":2345,"ision":2091,"ĠNick":15029,"Ġlaundry":15538,"Ġflipped":16641,"ĠThinking":19491,"DAY":19529,"Ġ×":19906,"Ġhereby":21715,"Ġsurveillance":18233,"ĠIdol":19183,"Ġfreaked":13608,"Ġrealistically":21909,"Ġattributes":22840,"@":37,"face":3238,"ĠMos":11927,"scient":12237,"Ġelementary":12383,"Ġrusty":22779,"Ġfier":19849,"thinking":16410,"es":288,"umped":5394,"Ġchang":2004,"ĠNobody":4806,"craft":6910,"ody":948,"Ġtraditional":8460,"Ġcommitted":6870,"parents":12082,"Ġwreck":12122,"ORT":13062,"est":428,"Ġexpressions":15272,"Ġbombed":15991,"Ġring":4909,"ixed":5825,"alds":8329,"igm":15374,"Ġbureaucr":16414,"Does":5509,"leans":17753,"Ġcritique":19081,"ĠBlock":19851,"Ġdreams":8097,"arb":3343,"Ġraped":5195,"ren":1192,"400":7770,"Ind":8693,"ĠGenerally":13817,"Ġsessions":20807,"Ġnutrition":15289,"tuce":17050,"Ġknowledgeable":19910,"Ġdrivers":5447,"ĠFlight":22573,"ĠComments":20637,"Ġcracks":17549,"Ġwheat":16374,"Ġpoint":715,"med":5213,"rised":17929,"Ġpromoted":18800,"bread":22312,"ĠRepeat":22701,"Ġbuttons":8520,"grade":11368,"ę":219,"Ġsatisfied":13734,"utus":23531,"spot":6238,"Ġcartoon":7441,"iii":17634,"Ġprofessionally":23456,"ĠYeah":952,"ĠNaz":23989,"eopardy":24463,"Ġresource":10411,"Ġcloud":8115,"cia":13547,"AE":21415,"Ġalcohol":3765,"ither":1057,"group":12884,"Ġteleport":23937,"Ġhighlighted":24510,"ĠGolden":15672,"Ġembarrassment":20205,"VES":20860,"raud":23455,"evin":11430,"Ġfailure":5688,"Ġclown":9440,"Ġripping":14667,"aaaaaaaaaaaaaaaa":25026,"ĠBEL":19880,"ected":3819,"cap":7083,"Ġweakness":12919,"ens":725,"input":18399,"ĺ":252,"Ġrecogn":3605,"Ġmob":5906,"Ġoverre":18839,"emy":20999,"HH":1899,"har":14502,"Ġongoing":18541,"Ġsed":13360,"ĠAth":19130,"Ġconsenting":21366,"Ġpredicting":22475,"Ġimprisonment":24572,"Ġooo":24935,"Ġcancel":11783,"ned":3929,"ilty":4547,"Ġisland":8149,"Ġjumping":8490,"Ġcriteria":12497,"Ġbags":7367,"Ġdissent":14108,"ĠCertainly":11094,"Ġshes":14794,"®":112,"Ġscreaming":7415,"aton":12506,"Ġstrangely":15560,"ĠNSA":15914,"consider":18522,"Ġgra":6952,"vor":18639,"asso":19573,"Ġwhites":10437,"ized":1400,"Ġcomposition":20650,"ĠâĤ¬":22795,"Ġconsultant":25755,"Ġanalogies":25809,"Ġshe":679,"ype":5807,"Ġkernel":9267,"Ġsole":6628,"Ġdeluded":19348,"ONS":18463,"Ġreferences":7379,"Ġblue":3762,"ORPG":25117,"couldn":25668,"Ġbanner":18351,"Ġcolleges":19388,"Ġhttp":986,"Ġgenitalia":21670,"Ġimagination":10008,"Ġpreferences":12059,"Ġsurpr":1980,"Ġreject":5963,"Ġdawg":9832,"Ġpengu":14785,"Ġreson":24233,"Ġepidemic":23188,"avascript":6738,"Ġheck":8553,"mouse":24955,"FFFF":5694,"ĠStart":7907,"Ġscrewed":6249,"ĠApologies":23142,"ĠSpirit":23373,"=)":22272,"Dub":14082,"Ġrigged":17443,"ĠNa":14388,"Ġpies":25110,"Ġquestioning":11306,"Ġoverwhelming":10033,"ifty":16179,"Ġcinema":21466,"Class":24184,"ooters":25739,"Ġwoah":18355,"Ġsimple":2408,"perhaps":18935,"Ġartistic":15867,"Ġpast":1810,"dk":18124,"also":7386,"NA":6177,"screen":9731,"ĠDuck":19627,"Ġexpectancy":21077,"Ġstrings":11456,"ĠVin":21318,"Ev":21368,"Ġtabloid":23068,"Ġfighter":12283,"Ġtying":25606,"ĠÎ":16046,"Ġundoubtedly":23398,"ĠCy":12163,"Ġpig":4394,"ĠOrange":11123,"Ġjurisdiction":20387,"icking":2714,"ips":2732,"Ġweren":3076,"Ġpregn":4596,"Ġgrandma":11513,"Ġauthorities":13468,"ĠDD":18877,"ĠWOULD":13888,"arbage":5559,"ner":1584,"ĠSpec":15646,"hum":18921,"âĢ½âĢ½":22100,"lier":18547,"thulhu":19971,"HHHHHHHH":7750,"MY":18082,"ĠFey":24687,"Ġscar":8314,"gp":19532,"Ġpro":441,"Ġblender":25430,"Ġassumption":6805,"game":7396,"Ġclich":18420,"Ġlocker":25934,"--&":24030,"itical":9278,"Ġdar":18141,"Ġbullied":24952,"ĠTravel":24904,"Ġparts":3547,"tot":11950,"hab":8773,"Ġaccount":1868,"Ġreducing":14936,"Ġmagnet":9119,"Ġisn":859,"israel":15153,"aven":4878,"ght":383,"hor":11318,"Ġbees":14105,"a":70,"NOTOAD":15409,"ĠMSNBC":14397,"Ġjudgment":8969,"Ġrag":15788,"Ġ66":21567,"Ġguarantees":22278,"isions":5095,"ĠChile":24664,"Ġwood":4925,"ĠDoesn":4384,"Ġconservative":4489,"ittee":11221,"ancing":6408,"uten":19986,"Ġswitched":8141,"Ġneocons":13262,"berries":16242,"Ġslipped":18602,"ĠVeg":9903,"Ġsister":4500,"ctor":2791,"Ġmaking":1293,"ado":7799,"Ġcru":8707,"OMG":10018,"ĠAfric":3833,"Ġmagically":12324,"ĠEVERYTHING":14275,"l":81,"Ġknowing":3813,"Ġoverlook":16416,"raid":3288,"isa":12905,"Ġappet":19409,"Ġfacial":11810,"Ġagreed":5679,"Ġeats":9215,"cohol":3410,"+%":17806,"Ġdouch":19227,"Ġconsider":2206,"Ġsuicidal":19586,"Ġproblem":950,"ĠAqu":19681,"Ġjournal":5475,"Ġcomedians":20961,"ĠDiam":19393,"ĠTerry":21257,"ĠĠĠĠĠĠĠĠĠĠĠĠĠĠĠĠĠĠĠĠĠĠĠĠĠĠĠĠĠĠĠĠ":22239,"Ġfounders":22418,"ĠMP":6781,"ĠMain":14432,"Ġboiled":23319,"Ġfirmware":21711,"Ġfilibuster":24474,"Vista":24771,"Ð½":25820,"Ġdvd":18552,"heads":7794,"ryan":22168,"Ġtrav":22510,"named":24333,"ĠHmmm":7696,"minus":23796,"Rights":25005,"ĠPelosi":14213,"wish":25274,"ĠMichael":5203,"pr":1235,"Sadly":20425,"Christian":9945,"ĠHein":21899,"Ġenvelopes":25331,"Ġheels":19546,"Ġwise":7524,"Ġimposed":24813,"Ġevol":6436,"kg":16390,"ĠHulu":12484,"projects":17838,"ĠSub":6456,"Ġhighlighting":23921,"amily":6905,"Vote":14749,"Ġtreaty":18636,"ĠVoting":20198,"Ġdisput":19412,"Ġproportion":11962,"Ġslightest":13150,"Ġmonth":1404,"Ġcrowded":16829,"Ġmarch":11904,"Ġfest":12012,"ke":334,"Ġdildo":14145,"Ġcontracept":16876,"iced":2588,"Ġyou":297,"Ġbast":4061,"ĠSeptember":11643,"Ġadvertis":8856,"ience":1648,"ĠPolitics":17041,"Ġprimaries":14983,"arted":13760,"ih":5628,"Ġadap":14131,"Ġscientifically":17085,"Ġexch":18611,"ĠHOR":19506,"da":3872,"ĠMission":21619,"Ġnu":6524,"slow":16945,"rooms":7741,"ĠThe":394,"ĠCa":13512,"Ġdialogue":13228,"Ġembar":4683,"ĠU":564,"Ġsuit":5018,"Ġenh":10773,"olds":11601,"comm":2327,"mma":13833,"rocery":8376,"ĠCz":16279,"Ġsmartest":17279,"ĠCalc":21888,"Ġgestures":23007,"Ġ;-":23014,"ĠTre":5996,"ĠBook":11169,"ĠFather":16261,"ĠChavez":15733,"Ġatom":11711,"Ġslides":19742,"Ġdiscovering":22235,"Ġobjectively":22873,"romium":23230,"Ġreplicate":24403,"hark":23580,"Ġpossess":9207,"Ġinefficient":15721,"Ġdies":5989,"Ġ{":7271,"Ġunfunny":16140,"ĠAndrew":18168,"ĠHAND":23872,"ateg":4512,"Ġpreference":10458,"Ġdebates":11644,"Ġflowers":12124,"sick":25848,"Ġbroad":5233,"identally":9901,"ĠPer":2246,"Ġjer":7482,"Ġbombing":10813,"Change":22465,"ĠLong":8906,"uth":1342,"500":5428,"Ġask":1220,"Ġtact":6080,"Ġsuccess":3188,"ĠGeorgia":8405,"ĠIranian":10380,"Ġprofound":13295,"Ġoffending":20681,"Ġ700":13491,"stars":24752,"Ġhighest":6646,"ĠMedical":24177,"Ġlangu":1682,"Ġflexible":17739,"rather":25342,"Cy":25670,"????????":24347,"ĠBMI":20692,"Ġbee":14126,"Ġscope":14463,"Ġradioactive":18808,"Ġinterference":20122,"Ġdismiss":7942,"ĠDems":13068,"Ġcircumcised":14441,"Ġvir":3401,"Ġparticipating":17275,"ĠKling":25395,"Ġposit":19282,"Ġstupidly":24689,"blank":25740,"Ġt":262,"faith":20829,"Ġclass":1464,"wolf":12371,"Ġtagged":23878,"Ġportable":14516,"Ñģ":21038,"assion":10560,"(":13,"cam":12459,"eds":6013,"ĠKim":13726,"ĠSky":9218,"size":15243,"bear":10704,"ĠSkin":23840,"Ġemoticon":25806,"ĠNAT":14659,"erk":3795,"Ġstrain":15842,"Ġaccus":9727,"Ġlever":20623,"Ġmassacre":23944,"Ġreplic":25229,"Ġstunning":16484,"Ġlast":1114,"con":731,"Ġdang":18087,"ĠInquisition":25696,"ĠPOL":12934,"Ġunique":6345,"Ġcrooked":23742,"four":17362,"79":8668,"Ġneighb":3495,"ĠANYTHING":15093,"Ġparked":16738,"ĠAcid":22202,"atly":24494,"Ġstarcraft":25479,"Ġdistinct":9541,".":19,"Ġslot":15992,"Ġprime":8421,"orig":8995,"Ġwound":13347,"nerd":18817,"ĠTest":9828,"ĠAgainst":19618,"Ġpr":662,"Ä":134,"Ġexcl":4315,"ĠWomen":6641,"Ġfixing":10323,"affe":16244,"vals":21431,"ĠLame":18795,"Ġme":374,"ts":1607,"Ġtail":7316,"Ag":10504,"Ġkangar":22979,"ughters":12170,"Ġshoulders":15679,"sed":23390,"independent":23932,"Ġrh":4892,"ĠGh":19553,"Ġrobber":21147,"adem":6834,"Haha":21224,"Ġ=/=":20371,"write":11270,"Ġmuslims":8999,"ws":8535,"Ġsubstantial":15301,"pity":22776,"Ġdepend":6109,"ague":5904,"Ġhapp":795,"ever":1084,"Ġnotice":2984,"Ġbought":2684,"Ġgraphical":25020,"ĠWillis":21001,"Ġchills":24811,"ĠCanadian":4202,"ickr":4829,"ô":182,"Ġethnic":7684,"ĠSpain":12485,"ĠGive":4989,"oopers":15047,"Ġattribute":15234,"uling":19092,"--":1190,"Ġvolunteer":12129,"Ġax":7258,"Ġdenied":9564,"ĠDecember":12195,"Ġsab":14662,"Ġsponsor":19585,"ĠBeyond":21388,"ĠValve":8406,"Ġdimensions":18673,
[...]
