{"[PAD]":0,"[UNK]":1,"[SEP]":2,"[P0]":3,"[P1]":4,"[DOC_SEP]":5,"\u0004":6,"\b":7,"\u0010":8,"\u0012":9,"!":10,"\"":11,"#":12,"$":13,"%":14,"&":15,"'":16,"(":17,")":18,"*":19,"+":20,",":21,"-":22,".":23,"/":24,"0":25,"1":26,"2":27,"3":28,"4":29,"5":30,"6":31,"7":32,"8":33,"9":34,":":35,";":36,"=":37,"?":38,"@":39,"A":40,"B":41,"C":42,"D":43,"E":44,"F":45,"G":46,"H":47,"I":48,"J":49,"K":50,"L":51,"M":52,"N":53,"O":54,"P":55,"Q":56,"R":57,"S":58,"T":59,"U":60,"V":61,"W":62,"X":63,"Y":64,"Z":65,"[":66,"\\":67,"]":68,"^":69,"_":70,"`":71,"a":72,"b":73,"c":74,"d":75,"e":76,"f":77,"g":78,"h":79,"i":80,"j":81,"k":82,"l":83,"m":84,"n":85,"o":86,"p":87,"q":88,"r":89,"s":90,"t":91,"u":92,"v":93,"w":94,"x":95,"y":96,"z":97,"{":98,"|":99,"}":100,"~":101,"":102,"¡":103,"¢":104,"£":105,"¤":106,"¥":107,"¦":108,"§":109,"©":110,"«":111,"¬":112,"­":113,"®":114,"°":115,"±":116,"¶":117,"·":118,"»":119,"¿":120,"Á":121,"Â":122,"Ä":123,"Å":124,"Æ":125,"Ç":126,"É":127,"Ë":128,"Í":129,"Ï":130,"Ð":131,"Ñ":132,"Ò":133,"Ó":134,"Ô":135,"Ö":136,"×":137,"Ø":138,"Ú":139,"Û":140,"Ü":141,"Þ":142,"ß":143,"à":144,"á":145,"â":146,"ã":147,"ä":148,"å":149,"æ":150,"ç":151,"è":152,"é":153,"ê":154,"ë":155,"ì":156,"í":157,"î":158,"ï":159,"ð":160,"ñ":161,"ò":162,"ó":163,"ô":164,"ö":165,"÷":166,"ø":167,"ù":168,"ú":169,"û":170,"ü":171,"ý":172,"þ":173,"ÿ":174,"ā":175,"ă":176,"ą":177,"ć":178,"č":179,"Đ":180,"ē":181,"ę":182,"ě":183,"ī":184,"ĭ":185,"ı":186,"ł":187,"ń":188,"ŋ":189,"ō":190,"ő":191,"œ":192,"ś":193,"ş":194,"š":195,"ū":196,"ű":197,"ų":198,"ż":199,"ž":200,"ƃ":201,"ƒ":202,"ǝ":203,"ɐ":204,"ɑ":205,"ɒ":206,"ɔ":207,"ə":208,"ɛ":209,"ɟ":210,"ɡ":211,"ɥ":212,"ɪ":213,"ɯ":214,"ɹ":215,"ɾ":216,"ʃ":217,"ʇ":218,"ʊ":219,"ʌ":220,"ʍ":221,"ʎ":222,"ʒ":223,"ʞ":224,"ˆ":225,"ˈ":226,"ˌ":227,"ː":228,"̀":229,"́":230,"̂":231,"̃":232,"̄":233,"̅":234,"̆":235,"̇":236,"̈":237,"̉":238,"̊":239,"̋":240,"̌":241,"̍":242,"̎":243,"̏":244,"̐":245,"̑":246,"̒":247,"̓":248,"̔":249,"̕":250,"̖":251,"̗":252,"̘":253,"̙":254,"̚":255,"̛":256,"̜":257,"̝":258,"̞":259,"̟":260,"̠":261,"̡":262,"̢":263,"̣":264,"̤":265,"̥":266,"̦":267,"̧":268,"̨":269,"̩":270,"̪":271,"̫":272,"̬":273,"̭":274,"̮":275,"̯":276,"̰":277,"̱":278,"̲":279,"̳":280,"̴":281,"̵":282,"̶":283,"̷":284,"̸":285,"̹":286,"̺":287,"̻":288,"̼":289,"̽":290,"̾":291,"̿":292,"͂":293,"ͅ":294,"͆":295,"͇":296,"͈":297,"͉":298,"͊":299,"͋":300,"͌":301,"͍":302,"͎":303,"͏":304,"͐":305,"͑":306,"͒":307,"͓":308,"͔":309,"͕":310,"͖":311,"͗":312,"͘":313,"͙":314,"͚":315,"͛":316,"͜":317,"͝":318,"͞":319,"͟":320,"͠":321,"͡":322,"͢":323,"ͣ":324,"ͤ":325,"ͥ":326,"ͦ":327,"ͧ":328,"ͨ":329,"ͩ":330,"ͪ":331,"ͫ":332,"ͬ":333,"ͭ":334,"ͮ":335,"ͯ":336,"Α":337,"Γ":338,"Δ":339,"Ε":340,"Θ":341,"Λ":342,"Μ":343,"Ο":344,"Π":345,"Σ":346,"Τ":347,"Φ":348,"Χ":349,"Ψ":350,"Ω":351,"ά":352,"έ":353,"ή":354,"ί":355,"α":356,"β":357,"γ":358,"δ":359,"ε":360,"ζ":361,"η":362,"θ":363,"ι":364,"κ":365,"λ":366,"μ":367,"ν":368,"ξ":369,"ο":370,"π":371,"ρ":372,"ς":373,"σ":374,"τ":375,"υ":376,"φ":377,"χ":378,"ω":379,"ό":380,"ύ":381,"ώ":382,"Ϡ":383,"Ͼ":384,"І":385,"А":386,"Б":387,"В":388,"Г":389,"Д":390,"Е":391,"З":392,"И":393,"К":394,"Л":395,"М":396,"Н":397,"О":398,"П":399,"Р":400,"С":401,"Т":402,"Ф":403,"Ч":404,"Я":405,"а":406,"б":407,"в":408,"г":409,"д":410,"е":411,"ж":412,"з":413,"и":414,"й":415,"к":416,"л":417,"м":418,"н":419,"о":420,"п":421,"р":422,"с":423,"т":424,"у":425,"ф":426,"х":427,"ц":428,"ч":429,"ш":430,"щ":431,"ы":432,"ь":433,"э":434,"ю":435,"я":436,"і":437,"Ѽ":438,"҉":439,"Ҩ":440,"Ծ":441,"ְ":442,"ִ":443,"ֶ":444,"ַ":445,"ָ":446,"ּ":447,"א":448,"ב":449,"ג":450,"ד":451,"ה":452,"ו":453,"ז":454,"ח":455,"ט":456,"י":457,"ך":458,"כ":459,"ל":460,"ם":461,"מ":462,"ן":463,"נ":464,"ס":465,"ע":466,"פ":467,"צ":468,"ק":469,"ר":470,"ש":471,"ת":472,"،":473,"؟":474,"ء":475,"آ":476,"أ":477,"إ":478,"ا":479,"ب":480,"ة":481,"ت":482,"ث":483,"ج":484,"ح":485,"خ":486,"د":487,"ذ":488,"ر":489,"ز":490,"س":491,"ش":492,"ص":493,"ض":494,"ط":495,"ع":496,"غ":497,"ف":498,"ق":499,"ك":500,"ل":501,"م":502,"ن":503,"ه":504,"و":505,"ى":506,"ي":507,"َ":508,"ُ":509,"ِ":510,"ّ":511,"ْ":512,"ی":513,"۞":514,"ं":515,"क":516,"त":517,"द":518,"न":519,"प":520,"ब":521,"म":522,"य":523,"र":524,"ल":525,"व":526,"स":527,"ह":528,"ा":529,"ि":530,"ी":531,"ु":532,"े":533,"ै":534,"ो":535,"्":536,"்":537,"ಠ":538,"ಥ":539,"ರ":540,"ೃ":541,"น":542,"ร":543,"ั":544,"า":545,"เ":546,"่":547,"้":548,"๏":549,"ᄏ":550,"ở":551,"​":552,"‎":553,"–":554,"—":555,"―":556,"‘":557,"’":558,"“":559,"”":560,"„":561,"†":562,"‡":563,"•":564,"‪":565,"‫":566,"‬":567,"‭":568,"‮":569,"′":570,"‽":571,"‿":572,"⁄":573,"€":574,"←":575,"↑":576,"→":577,"↓":578,"↔":579,"↗":580,"⇒":581,"⇧":582,"∀":583,"∂":584,"∃":585,"∆":586,"∇":587,"∈":588,"∑":589,"−":590,"√":591,"∞":592,"∧":593,"∨":594,"∩":595,"∪":596,"∫":597,"∴":598,"≈":599,"≠":600,"≡":601,"≤":602,"≥":603,"⊂":604,"⊆":605,"⊙":606,"⋅":607,"⌘":608,"⌥":609,"─":610,"━":611,"│":612,"┃":613,"┌":614,"┐":615,"└":616,"┘":617,"├":618,"┤":619,"┬":620,"┴":621,"┼":622,"═":623,"║":624,"╔":625,"╗":626,"╚":627,"╝":628,"╣":629,"╤":630,"╥":631,"╦":632,"╨":633,"╩":634,"╯":635,"╰":636,"▀":637,"▁":638,"▂":639,"▃":640,"▄":641,"▅":642,"▆":643,"█":644,"▉":645,"▌":646,"▐":647,"░":648,"▒":649,"▓":650,"▗":651,"▘":652,"▙":653,"▚":654,"▛":655,"▜":656,"▝":657,"▞":658,"▟":659,"■":660,"□":661,"▢":662,"▫":663,"▬":664,"▲":665,"►":666,"▼":667,"◄":668,"◉":669,"○":670,"◌":671,"●":672,"◔":673,"◕":674,"◤":675,"◥":676,"◼":677,"☀":678,"☂":679,"☃":680,"☄":681,"★":682,"☆":683,"☉":684,"☐":685,"☑":686,"☒":687,"☛":688,"☞":689,"☠":690,"☢":691,"☣":692,"☭":693,"☹":694,"☺":695,"☻":696,"☼":697,"♀":698,"♂":699,"♔":700,"♕":701,"♖":702,"♗":703,"♘":704,"♙":705,"♚":706,"♛":707,"♜":708,"♝":709,"♞":710,"♟":711,"♠":712,"♡":713,"♥":714,"♦":715,"♩":716,"♪":717,"♫":718,"♬":719,"✌":720,"✓":721,"✔":722,"➡":723,"⠁":724,"⠇":725,"⠊":726,"⠎":727,"⠑":728,"⠓":729,"⠕":730,"⠗":731,"⠝":732,"⠞":733,"⠥":734,"、":735,"。":736,"々":737,"「":738,"」":739,"【":740,"あ":741,"い":742,"う":743,"え":744,"お":745,"か":746,"が":747,"き":748,"く":749,"け":750,"こ":751,"ご":752,"さ":753,"し":754,"じ":755,"す":756,"せ":757,"そ":758,"た":759,"だ":760,"ち":761,"っ":762,"つ":763,"て":764,"で":765,"と":766,"ど":767,"な":768,"に":769,"ね":770,"の":771,"は":772,"ば":773,"べ":774,"ま":775,"み":776,"め":777,"も":778,"ゃ":779,"や":780,"ょ":781,"よ":782,"ら":783,"り":784,"る":785,"れ":786,"ろ":787,"わ":788,"を":789,"ん":790,"゚":791,"ァ":792,"ア":793,"ィ":794,"イ":795,"エ":796,"オ":797,"カ":798,"ガ":799,"キ":800,"ク":801,"グ":802,"コ":803,"サ":804,"ザ":805,"シ":806,"ジ":807,"ス":808,"セ":809,"タ":810,"チ":811,"ッ":812,"ツ":813,"テ":814,"デ":815,"ト":816,"ド":817,"ナ":818,"ニ":819,"ノ":820,"バ":821,"パ":822,"フ":823,"ブ":824,"プ":825,"マ":826,"ミ":827,"メ":828,"ラ":829,"リ":830,"ル":831,"レ":832,"ロ":833,"ン":834,"ヴ":835,"・":836,"ー":837,"ヽ":838,"一":839,"上":840,"不":841,"个":842,"中":843,"为":844,"主":845,"么":846,"也":847,"了":848,"予":849,"事":850,"交":851,"人":852,"什":853,"仅":854,"他":855,"以":856,"们":857,"任":858,"会":859,"住":860,"何":861,"你":862,"使":863,"個":864,"儘":865,"其":866,"再":867,"出":868,"分":869,"到":870,"前":871,"北":872,"卍":873,"卐":874,"友":875,"口":876,"只":877,"可":878,"告":879,"和":880,"哈":881,"因":882,"国":883,"國":884,"在":885,"地":886,"外":887,"多":888,"大":889,"天":890,"女":891,"好":892,"如":893,"姑":894,"子":895,"字":896,"学":897,"完":898,"客":899,"当":900,"彼":901,"很":902,"律":903,"得":904,"必":905,"思":906,"性":907,"您":908,"想":909,"意":910,"愛":911,"感":912,"懂":913,"我":914,"所":915,"手":916,"据":917,"搜":918,"放":919,"政":920,"文":921,"新":922,"日":923,"明":924,"春":925,"是":926,"显":927,"時":928,"書":929,"會":930,"有":931,"望":932,"未":933,"本":934,"来":935,"果":936,"気":937,"汉":938,"法":939,"波":940,"王":941,"生":942,"男":943,"白":944,"的":945,"看":946,"知":947,"示":948,"私":949,"笑":950,"策":951,"管":952,"索":953,"结":954,"美":955,"老":956,"能":957,"英":958,"行":959,"要":960,"見":961,"规":962,"言":963,"語":964,"說":965,"讓":966,"语":967,"说":968,"这":969,"這":970,"進":971,"道":972,"達":973,"部":974,"間":975,"陀":976,"青":977,"高":978,"鬼":979,"黑":980,"가":981,"고":982,"국":983,"그":984,"나":985,"는":986,"니":987,"다":988,"도":989,"라":990,"말":991,"아":992,"어":993,"예":994,"요":995,"은":996,"이":997,"지":998,"하":999,"한":1000,"":1001,"﴾":1002,"﴿":1003,"﻿":1004,"�":1005,"▁t":1006,"▁a":1007,"▁th":1008,"in":1009,"re":1010,"ou":1011,"▁s":1012,"▁w":1013,"▁the":1014,"on":1015,"er":1016,"at":1017,"it":1018,"▁b":1019,"is":1020,"▁I":1021,"▁h":1022,"▁c":1023,"▁m":1024,"ing":1025,"en":1026,"or":1027,"an":1028,"▁f":1029,"▁p":1030,"▁d":1031,"es":1032,"▁to":1033,"ll":1034,"▁o":1035,"ed":1036,"▁an":1037,"▁y":1038,"▁l":1039,"om":1040,"▁you":1041,"ar":1042,"▁g":1043,"as":1044,"▁n":1045,"▁of":1046,"▁in":1047,"le":1048,"ot":1049,"ic":1050,"us":1051,"ve":1052,"▁is":1053,"▁it":1054,"▁be":1055,"▁and":1056,"▁that":1057,"ow":1058,"al":1059,"▁T":1060,"▁e":1061,"▁re":1062,"▁wh":1063,"et":1064,"..":1065,"▁on":1066,"ly":1067,"id":1068,"'s":1069,"he":1070,"ld":1071,"ay":1072,"'t":1073,"ion":1074,"ut":1075,"▁ha":1076,"ver":1077,"ke":1078,"ent":1079,"▁for":1080,"st":1081,"ac":1082,"▁A":1083,"im":1084,"gh":1085,"am":1086,"all":1087,"ad":1088,"out":1089,"▁W":1090,"oo":1091,"▁st":1092,"ro":1093,"un":1094,"▁S":1095,"e.":1096,"ould":1097,"ith":1098,"▁he":1099,"ch":1100,"▁do":1101,"▁not":1102,"▁li":1103,"op":1104,"se":1105,"ir":1106,"▁are":1107,"s.":1108,"ri":1109,"▁was":1110,"ct":1111,"▁we":1112,"▁have":1113,"▁with":1114,"▁j":1115,"ust":1116,"th":1117,"▁as":1118,"if":1119,"ally":1120,"tt":1121,"ill":1122,"▁H":1123,"up":1124,"▁k":1125,"▁this":1126,"▁\"":1127,"▁I'":1128,"▁The":1129,"ght":1130,"▁Y":1131,"▁me":1132,"▁se":1133,"ome":1134,"▁M":1135,"▁C":1136,"n't":1137,"ce":1138,"▁but":1139,"▁B":1140,"▁sh":1141,"▁mo":1142,"...":1143,"▁Th":1144,"▁they":1145,"ur":1146,"▁my":1147,"▁can":1148,"▁N":1149,"▁ab":1150,"il":1151,"▁like":1152,"▁ne":1153,"▁D":1154,"ck":1155,"ink":1156,"ist":1157,"ag":1158,"▁your":1159,"▁so":1160,"▁just":1161,"on't":1162,"▁r":1163,"▁O":1164,"▁P":1165,"ant":1166,"▁com":1167,"▁or":1168,"one":1169,"ter":1170,"nd":1171,"▁It":1172,"ol":1173,"▁would":1174,"use":1175,"ul":1176,"▁de":1177,"and":1178,"ig":1179,"ate":1180,"▁go":1181,"ation":1182,"▁all":1183,"um":1184,"ab":1185,"▁wor":1186,"est":1187,"▁at":1188,"▁pro":1189,"▁get":1190,"ers":1191,"▁ex":1192,"ap":1193,"▁about":1194,"eop":1195,"▁con":1196,"▁Wh":1197,"ain":1198,"ww":1199,"eople":1200,"ess":1201,"▁don't":1202,"ere":1203,"▁F":1204,"▁*":1205,"▁You":1206,"▁what":1207,"▁up":1208,"▁think":1209,"▁if":1210,"▁v":1211,"▁al":1212,"▁fr":1213,"em":1214,"▁su":1215,"▁G":1216,"▁people":1217,":/":1218,"▁some":1219,"▁R":1220,"▁I'm":1221,"▁any":1222,"ttp":1223,"end":1224,"://":1225,"▁kn":1226,"▁po":1227,"com":1228,"ttp://":1229,"▁out":1230,"nt":1231,"▁(":1232,"very":1233,"pe":1234,"ind":1235,"qu":1236,"▁ma":1237,"▁un":1238,"ment":1239,"▁E":1240,"▁tr":1241,"ard":1242,"art":1243,"t;":1244,"▁ch":1245,"el":1246,"s,":1247,"▁[":1248,"▁know":1249,"ack":1250,"▁one":1251,"ive":1252,"ame":1253,"▁from":1254,"▁who":1255,"ie":1256,"▁there":1257,"dd":1258,"▁&":1259,"gt;":1260,"'re":1261,"pp":1262,"ood":1263,"y.":1264,"ast":1265,"▁L":1266,"ook":1267,"ca":1268,"▁it's":1269,"▁us":1270,"▁no":1271,"our":1272,"▁more":1273,"▁le":1274,"▁&gt;":1275,"ell":1276,"ous":1277,"uck":1278,"are":1279,"ort":1280,"es.":1281,"▁1":1282,"▁did":1283,"ven":1284,"▁them":1285,"ong":1286,"ough":1287,"00":1288,"ure":1289,"ide":1290,"▁pre":1291,"▁pl":1292,"▁ar":1293,"▁say":1294,"▁has":1295,"hing":1296,"ore":1297,"od":1298,"▁when":1299,"▁by":1300,"cause":1301,"▁than":1302,"▁tim":1303,"king":1304,"▁U":1305,"▁will":1306,"▁does":1307,"ound":1308,"act":1309,"com/":1310,"▁That":1311,"her":1312,"ight":1313,"os":1314,"▁int":1315,"▁ag":1316,"▁how":1317,"▁gu":1318,"own":1319,"e,":1320,"ear":1321,"▁J":1322,"der":1323,"http://":1324,"ick":1325,"ity":1326,"](":1327,"ble":1328,"▁their":1329,"ci":1330,"▁thing":1331,"](http://":1332,"ite":1333,"ra":1334,"▁It's":1335,"pl":1336,"w.":1337,"▁i":1338,"▁lo":1339,"ff":1340,"▁man":1341,"▁really":1342,"▁because":1343,"▁If":1344,"right":1345,"ah":1346,"▁-":1347,"ep":1348,"ub":1349,"▁want":1350,"▁only":1351,"ually":1352,"ry":1353,"ed.":1354,"▁ta":1355,"int":1356,"ther":1357,"▁cl":1358,"ire":1359,"▁act":1360,"▁should":1361,"▁his":1362,"▁sa":1363,"ss":1364,"▁qu":1365,"www.":1366,"▁am":1367,"ip":1368,"▁too":1369,"so":1370,"ang":1371,"▁fe":1372,"ose":1373,"ies":1374,"ans":1375,"iz":1376,"ud":1377,"▁had":1378,"way":1379,"▁every":1380,"pt":1381,"▁2":1382,"▁en":1383,"▁it.":1384,"ine":1385,"ich":1386,"ice":1387,"▁see":1388,"▁comp":1389,"uch":1390,"▁What":1391,"▁could":1392,"ing.":1393,"▁were":1394,"▁right":1395,"▁good":1396,"▁im":1397,"ddit":1398,"ber":1399,"▁then":1400,"omet":1401,"ect":1402,"▁off":1403,"▁other":1404,"▁make":1405,"ia":1406,"▁much":1407,"▁look":1408,"▁been":1409,"▁down":1410,"itt":1411,"er.":1412,"ish":1413,"▁way":1414,"▁work":1415,"let":1416,"age":1417,"▁year":1418,"▁And":1419,"▁pr":1420,"ious":1421,"es,":1422,"iv":1423,".com/":1424,"▁He":1425,"▁bl":1426,"▁need":1427,"▁This":1428,"og":1429,"▁somet":1430,"▁fuck":1431,"▁now":1432,"▁over":1433,"▁sp":1434,"reat":1435,"▁even":1436,"ree":1437,"lf":1438,"▁co":1439,"▁she":1440,"ount":1441,"atch":1442,"▁wr":1443,"▁No":1444,"ass":1445,"▁time":1446,"able":1447,"▁being":1448,"▁you're":1449,"▁dis":1450,"ik":1451,"▁http://":1452,"▁why":1453,"▁him":1454,"amp":1455,"ile":1456,"▁going":1457,"mo":1458,"▁use":1459,"▁bu":1460,"▁her":1461,"▁here":1462,"▁They":1463,"▁got":1464,"▁something":1465,"!!":1466,"▁guy":1467,"▁So":1468,"▁gr":1469,"sh":1470,"mer":1471,"ak":1472,"ue":1473,"▁never":1474,"▁ac":1475,"de":1476,"▁read":1477,"▁still":1478,"ving":1479,"ian":1480,"▁point":1481,"ge":1482,"▁I've":1483,"▁:":1484,"ought":1485,"y,":1486,"▁part":1487,"ens":1488,"▁doesn't":1489,"▁can't":1490,"▁into":1491,"ult":1492,"▁back":1493,"con":1494,"▁most":1495,"▁But":1496,"ace":1497,"per":1498,"be":1499,"ail":1500,"▁actually":1501,"ence":1502,"irst":1503,"ting":1504,"▁mean":1505,"ase":1506,"▁cont":1507,"▁cr":1508,"▁sup":1509,"▁didn't":1510,"ool":1511,"▁bel":1512,"▁Is":1513,"ign":1514,"thing":1515,"▁spe":1516,"dit":1517,"ical":1518,"ank":1519,"eah":1520,"▁How":1521,"ew":1522,"▁In":1523,"ob":1524,"](http://www.":1525,").":1526,"fere":1527,"▁fun":1528,"read":1529,"ade":1530,"▁under":1531,"▁res":1532,"▁post":1533,"▁real":1534,"▁same":1535,"ict":1536,"▁3":1537,"wn":1538,"ated":1539,"s?":1540,"tty":1541,"▁That's":1542,"▁very":1543,"▁te":1544,"▁ad":1545,"▁call":1546,"▁which":1547,"wik":1548,"▁well":1549,"▁K":1550,"▁those":1551,"▁day":1552,"▁that's":1553,"▁br":1554,"kes":1555,"▁sure":1556,"port":1557,"▁comment":1558,"▁happ":1559,"▁la":1560,"▁St":1561,"▁sc":1562,"ach":1563,"oy":1564,"▁Ch":1565,"ably":1566,"▁where":1567,"other":1568,"▁first":1569,"▁reddit":1570,"▁bett":1571,"fore":1572,"▁try":1573,"**":1574,"iss":1575,"▁new":1576,"▁someone":1577,"self":1578,"▁pretty":1579,"av":1580,"▁There":1581,"▁per":1582,"▁tw":1583,"▁'":1584,"▁belie":1585,"▁also":1586,"fter":1587,"igh":1588,"ft":1589,"erson":1590,"▁said":1591,"ion.":1592,"en.":1593,"ions":1594,"here":1595,"▁lot":1596,"riend":1597,"ave":1598,"▁We":1599,"▁dif":1600,"▁thought":1601,"ild":1602,"ote":1603,"ull":1604,"▁ser":1605,"ason":1606,"orm":1607,"▁again":1608,"▁Do":1609,"org":1610,"▁sub":1611,"ark":1612,"▁may":1613,"tern":1614,"▁play":1615,"▁ro":1616,"▁Not":1617,"▁find":1618,"ress":1619,"▁bad":1620,"▁take":1621,"▁ke":1622,"▁though":1623,"meric":1624,"ny":1625,"▁Why":1626,"ism":1627,"xt":1628,"▁isn't":1629,"a.":1630,"▁better":1631,"▁cons":1632,"ory":1633,"ance":1634,"▁rel":1635,"▁seem":1636,"▁My":1637,"▁app":1638,"bably":1639,"ways":1640,"leted":1641,"oc":1642,"ary":1643,"▁V":1644,"▁ever":1645,"▁person":1646,"we":1647,"▁ph":1648,"▁many":1649,"▁shit":1650,"▁own":1651,"cl":1652,"▁before":1653,"ath":1654,"▁long":1655,"▁fl":1656,"edia":1657,"▁Americ":1658,"▁start":1659,"▁these":1660,"▁its":1661,"ual":1662,"gr":1663,"lic":1664,"▁after":1665,"▁our":1666,"▁Al":1667,"▁feel":1668,"▁[de":1669,"leted]":1670,"▁[deleted]":1671,"▁che":1672,"ord":1673,"oth":1674,"ed,":1675,"less":1676,"ug":1677,"▁differe":1678,"▁count":1679,"▁tal":1680,"urn":1681,"▁dr":1682,"vers":1683,"▁always":1684,"ible":1685,"▁Yeah":1686,"▁old":1687,"ittle":1688,"ating":1689,"▁thr":1690,"▁def":1691,"▁Well":1692,"▁made":1693,"blem":1694,"▁ass":1695,"▁I'd":1696,"▁reason":1697,"▁tell":1698,"▁kind":1699,"▁des":1700,"▁el":1701,"▁pol":1702,"▁acc":1703,"▁att":1704,"▁art":1705,"ly.":1706,"ically":1707,"▁probably":1708,"orn":1709,"▁sm":1710,"▁put":1711,"▁ob":1712,"▁gir":1713,"▁problem":1714,"▁around":1715,"▁4":1716,"▁little":1717,"cept":1718,"org/":1719,"▁fact":1720,"▁love":1721,"▁show":1722,"▁bit":1723,"▁mone":1724,"▁Be":1725,"ons":1726,"pect":1727,"▁two":1728,"ly,":1729,"▁wom":1730,"▁let":1731,"▁US":1732,"amp;":1733,"▁inst":1734,"'ll":1735,"▁http://www.":1736,"▁believe":1737,"▁ide":1738,"▁wrong":1739,"s/":1740,"▁hard":1741,"ful":1742,"\".":1743,"▁years":1744,"▁kid":1745,"ince":1746,"ont":1747,"ee":1748,"▁sy":1749,"▁used":1750,"▁world":1751,"▁$":1752,"▁lif":1753,"▁that.":1754,"h,":1755,"▁On":1756,"ost":1757,"▁things":1758,"▁aw":1759,"▁car":1760,"ial":1761,"▁great":1762,"▁anything":1763,"'ve":1764,"red":1765,"▁ev":1766,"ert":1767,"▁pay":1768,"▁gen":1769,"▁word":1770,"▁rem":1771,"▁enough":1772,"ody":1773,"....":1774,"▁end":1775,"▁friend":1776,"▁high":1777,"vel":1778,"ing,":1779,"▁fucking":1780,"▁sl":1781,"▁comm":1782,"▁5":1783,"▁**":1784,"ib":1785,"ph":1786,"o.":1787,"ox":1788,"▁it,":1789,"▁while":1790,"▁makes":1791,"▁sim":1792,"▁big":1793,"'d":1794,"ait":1795,"stand":1796,"the":1797,"▁care":1798,"az":1799,"reddit":1800,"ock":1801,"▁quest":1802,"▁might":1803,"▁few":1804,"ce.":1805,"▁kill":1806,"ves":1807,"ake":1808,"ved":1809,"▁you.":1810,"▁mon":1811,"▁ins":1812,"▁ter":1813,"▁hand":1814,"du":1815,"vot":1816,".org/":1817,"▁em":1818,"▁As":1819,"▁me.":1820,"▁...":1821,"ng":1822,"▁run":1823,"get":1824,"ater":1825,"erest":1826,"ily":1827,"ely":1828,"ple":1829,"▁op":1830,"vern":1831,"ever":1832,"▁give":1833,"▁least":1834,"▁bas":1835,"▁inf":1836,"a,":1837,"▁Can":1838,"▁Just":1839,"arm":1840,"ipedia":1841,"▁Ob":1842,"▁rec":1843,"ublic":1844,"▁bet":1845,"ident":1846,"uff":1847,"▁watch":1848,"ather":1849,"lp":1850,"▁Or":1851,"icle":1852,"▁anyone":1853,"▁ent":1854,"▁name":1855,"▁girl":1856,"▁without":1857,"▁cor":1858,"ates":1859,"▁understand":1860,"ors":1861,"ise":1862,"▁min":1863,"▁getting":1864,"▁dec":1865,"les":1866,"ix":1867,"▁keep":1868,"▁I'll":1869,"▁Red":1870,"ash":1871,"old":1872,"vernment":1873,"▁Thank":1874,"▁happen":1875,"▁best":1876,"ize":1877,"arn":1878,"air":1879,"▁jo":1880,"▁inv":1881,"ered":1882,"▁last":1883,"▁stop":1884,"ama":1885,"▁doing":1886,"&amp;":1887,"pos":1888,"▁sound":1889,"▁hum":1890,"▁come":1891,"ead":1892,"i/":1893,"man":1894,"▁help":1895,"▁money":1896,"▁chang":1897,"▁nothing":1898,"ush":1899,"▁link":1900,"er,":1901,"▁sex":1902,"cial":1903,"wh":1904,"▁head":1905,"▁through":1906,"AA":1907,"ics":1908,"▁live":1909,"▁guess":1910,"on.":1911,"ular":1912,"ks":1913,"▁cle":1914,"▁tri":1915,"e.com/":1916,"▁sch":1917,"lect":1918,"gg":1919,"ows":1920,"rist":1921,"ope":1922,"ike":1923,"▁Yeah,":1924,"vie":1925,"ense":1926,"ER":1927,"▁else":1928,"day":1929,"▁saying":1930,"▁expl":1931,"▁such":1932,"▁different":1933,"▁he's":1934,"arch":1935,"▁government":1936,"res":1937,"ative":1938,"ex":1939,"▁interest":1940,"stem":1941,"▁str":1942,"▁since":1943,"ternet":1944,"▁trying":1945,"cess":1946,"▁Reddit":1947,"ation.":1948,"wiki/":1949,"▁less":1950,"olog":1951,"arent":1952,"eg":1953,"▁No,":1954,"yp":1955,"▁won":1956,"ention":1957,"wikipedia":1958,"▁using":1959,"ower":1960,"▁wouldn't":1961,"▁job":1962,"▁rep":1963,"ren":1964,"▁alread":1965,"▁ed":1966,"upid":1967,"▁:)":1968,"atter":1969,"▁eas":1970,"▁buy":1971,"▁another":1972,"▁they're":1973,"ject":1974,"▁vide":1975,"▁reg":1976,"body":1977,"▁cour":1978,"▁TH":1979,"▁both":1980,"▁child":1981,"▁When":1982,"mm":1983,"▁dri":1984,"▁add":1985,"▁ask":1986,"▁far":1987,"wikipedia.org/":1988,"▁everyone":1989,"gle":1990,"▁sur":1991,"en.wikipedia.org/":1992,"en.wikipedia.org/wiki/":1993,"IN":1994,"amn":1995,"cond":1996,"ists":1997,"--":1998,"▁article":1999,"oll":2000,"▁must":2001,"▁exact":2002,"ces":2003,"▁9":2004,"▁system":2005,"▁inc":2006,"▁seen":2007,"000":2008,"pr":2009,"amm":2010,"▁having":2011,"outub":2012,"ition":2013,"iously":2014,"▁ref":2015,"▁You're":2016,"watch":2017,"inal":2018,"▁school":2019,"▁leg":2020,"▁ca":2021,"▁May":2022,"lease":2023,"▁free":2024,"▁law":2025,"ution":2026,"uss":2027,"▁them.":2028,"▁hate":2029,"oot":2030,"▁state":2031,"▁sit":2032,"▁arg":2033,"IT":2034,"▁question":2035,"▁stupid":2036,"▁Oh":2037,".\"":2038,"▁Don't":2039,"umb":2040,"▁Un":2041,"▁Sh":2042,"▁seems":2043,"▁away":2044,"▁ap":2045,"alth":2046,"▁list":2047,"rael":2048,"rect":2049,"youtub":2050,"aw":2051,"lo":2052,"ations":2053,"▁whole":2054,"pg":2055,"▁already":2056,"ced":2057,"▁eith":2058,"▁too.":2059,"ars":2060,"▁game":2061,"▁stand":2062,"▁stuff":2063,"▁unt":2064,"▁gener":2065,"app":2066,"v=":2067,"tm":2068,"▁wasn't":2069,"youtube.com/":2070,"▁She":2071,"▁talking":2072,"▁turn":2073,"▁gam":2074,"ument":2075,"not":2076,"▁making":2077,"▁=":2078,"?v=":2079,"▁ind":2080,"▁vot":2081,"ember":2082,"▁relig":2083,"aul":2084,"ertain":2085,"uc":2086,"▁life":2087,"▁cre":2088,"youtube.com/watch":2089,"youtube.com/watch?v=":2090,"ann":2091,"ward":2092,"▁mind":2093,"▁book":2094,"▁against":2095,"nce":2096,"ied":2097,"▁Are":2098,"▁Well,":2099,"orry":2100,"▁support":2101,"▁For":2102,"),":2103,"▁Obama":2104,"▁6":2105,"ity.":2106,"▁poss":2107,"ari":2108,"▁Also":2109,"OO":2110,"roll":2111,"▁miss":2112,"sw":2113,"▁10":2114,"jpg":2115,"ific":2116,"▁ext":2117,"▁aren't":2118,"oogle":2119,"▁complet":2120,"icture":2121,"▁Re":2122,"▁fre":2123,"▁idea":2124,"??":2125,"▁wait":2126,"▁dou":2127,"▁ret":2128,"▁fin":2129,"▁gl":2130,"▁cop":2131,"ys":2132,"▁there's":2133,"▁heard":2134,"▁until":2135,"ese":2136,"▁done":2137,"▁eff":2138,"▁met":2139,"▁second":2140,"▁awes":2141,"ty":2142,"▁char":2143,"▁consid":2144,"htm":2145,"▁war":2146,"most":2147,"▁wee":2148,"▁time.":2149,"le.":2150,"uth":2151,"▁\"I":2152,"ime":2153,"▁pres":2154,"▁set":2155,"▁internet":2156,"▁yet":2157,"▁pop":2158,"▁this.":2159,"▁defin":2160,"▁resp":2161,"▁conf":2162,"▁wonder":2163,"unch":2164,"ages":2165,"▁God":2166,"200":2167,"▁Maybe":2168,"▁Paul":2169,"ouse":2170,"▁hell":2171,"ature":2172,"OU":2173,"▁/":2174,"▁bre":2175,"▁called":2176,"ction":2177,"▁disc":2178,"▁found":2179,"ond":2180,"▁Ex":2181,"ween":2182,"▁rest":2183,"▁imp":2184,"The":2185,"▁video":2186,"11":2187,"▁month":2188,"▁quite":2189,"▁coll":2190,"▁picture":2191,"ier":2192,"▁sk":2193,"▁Yes,":2194,"arly":2195,"▁Because":2196,"▁next":2197,"ird":2198,"▁it?":2199,"▁Israel":2200,"ger":2201,"▁American":2202,"bl":2203,"▁women":2204,"▁matter":2205,"▁agree":2206,"▁guys":2207,"where":2208,"ies.":2209,"al.":2210,"▁looks":2211,"▁hope":2212,"▁mem":2213,"ians":2214,"▁Now":2215,"▁once":2216,"▁8":2217,"▁Did":2218,"ork":2219,"▁Christ":2220,"▁between":2221,"▁progr":2222,"▁though.":2223,"ic.":2224,"cri":2225,"▁sw":2226,"ten":2227,"▁won't":2228,"▁exper":2229,"▁country":2230,"ute":2231,"rop":2232,"▁polit":2233,"▁maybe":2234,"▁full":2235,"▁top":2236,"▁cou":2237,"▁Any":2238,"ru":2239,"▁means":2240,"umber":2241,"▁Some":2242,"reddit.com/":2243,"ers.":2244,"▁gets":2245,"▁tax":2246,"bs":2247,"▁instead":2248,"▁left":2249,"▁rather":2250,"alf":2251,"▁Then":2252,"▁black":2253,"ude":2254,"bert":2255,"▁compan":2256,"▁sci":2257,"▁answ":2258,"▁mark":2259,"▁learn":2260,"▁iss":2261,"ning":2262,"its":2263,"▁cur":2264,"▁suck":2265,"te":2266,"ats":2267,"▁remember":2268,"▁exactly":2269,"▁hour":2270,"▁All":2271,"▁inter":2272,"▁human":2273,"led":2274,"ne":2275,"▁you,":2276,"r/":2277,"▁cool":2278,"'m":2279,"rent":2280,"▁says":2281,"ode":2282,"▁looking":2283,"▁mus":2284,"ational":2285,"▁.":2286,"▁home":2287,"▁hear":2288,"▁bus":2289,"▁now.":2290,"▁yourself":2291,"ror":2292,"▁check":2293,"aps":2294,"ized":2295,"AT":2296,"▁7":2297,"▁fam":2298,"▁Who":2299,"als":2300,"▁win":2301,"▁sign":2302,"come":2303,"▁Your":2304,".jpg":2305,"aim":2306,"▁god":2307,"▁produ":2308,"▁went":2309,"▁able":2310,"ice.":2311,"oh":2312,"tc":2313,"ate.":2314,"▁certain":2315,"cc":2316,"o,":2317,"10":2318,"ired":2319,"aph":2320,"ott":2321,"ering":2322,"▁elect":2323,"▁correct":2324,"▁small":2325,"ility":2326,"▁assum":2327,"ret":2328,"▁thread":2329,"▁place":2330,"▁tru":2331,"▁everything":2332,"on-":2333,"▁obv":2334,"i-":2335,"▁perf":2336,"▁that,":2337,"▁pass":2338,"ives":2339,"rit":2340,"▁gun":2341,"lish":2342,"ven't":2343,"](http://en.wikipedia.org/wiki/":2344,"RE":2345,"20":2346,"voted":2347,"▁thinking":2348,"▁nice":2349,"▁open":2350,"ife":2351,"▁dep":2352,"▁exp":2353,"ove":2354,"▁sing":2355,"ited":2356,"&gt;":2357,"▁comput":2358,"▁up.":2359,"OT":2360,"▁mar":2361,"▁plan":2362,"▁worth":2363,"▁entire":2364,"▁joke":2365,"▁scre":2366,"▁there.":2367,"LL":2368,"ric":2369,"html":2370,"▁explain":2371,"▁Act":2372,"▁course":2373,"▁exist":2374,"▁form":2375,"▁id":2376,"▁tot":2377,"▁myself":2378,"▁came":2379,"▁sort":2380,"ents":2381,"▁here.":2382,"▁times":2383,"aking":2384,"▁etc":2385,"ump":2386,"ken":2387,"▁cap":2388,"ract":2389,"▁almost":2390,"▁yeah":2391,"▁expect":2392,"▁saw":2393,"▁power":2394,"▁number":2395,"▁week":2396,"itch":2397,"▁class":2398,"ern":2399,"gin":2400,"att":2401,"ent.":2402,"angu":2403,"▁lar":2404,"▁fail":2405,"▁At":2406,"▁requ":2407,"▁Good":2408,"▁Se":2409,"▁one.":2410,"▁opp":2411,"TF":2412,"▁story":2413,"▁sol":2414,"▁health":2415,"or.":2416,"age.":2417,"iot":2418,"it.":2419,"ON":2420,"▁val":2421,"▁woman":2422,"\",":2423,"ugh":2424,"ef":2425,"▁19":2426,"▁haven't":2427,"▁fil":2428,"▁adv":2429,"ets":2430,"oup":2431,"▁beh":2432,"▁public":2433,"one.":2434,"▁Fuck":2435,"▁To":2436,"▁argument":2437,"onest":2438,"AN":2439,"▁mom":2440,"▁mil":2441,"▁Does":2442,"▁20":2443,"owing":2444,"▁ill":2445,"inu":2446,"▁stud":2447,"▁term":2448,"land":2449,"▁change":2450,"-s":2451,"▁rac":2452,"▁dist":2453,"ous.":2454,"▁z":2455,"▁talk":2456,"idd":2457,"▁ir":2458,"▁Fr":2459,"▁claim":2460,"▁vote":2461,"img":2462,"bt":2463,"uring":2464,"▁Wow":2465,"▁men":2466,"▁X":2467,"▁me,":2468,"-f":2469,"▁fair":2470,"ion,":2471,"▁half":2472,"▁cra":2473,"▁cost":2474,"▁each":2475,"▁Every":2476,"sel":2477,"aa":2478,"br":2479,"imes":2480,"▁vers":2481,"erv":2482,"ying":2483,"▁eat":2484,"▁movie":2485,"▁There's":2486,"ware":2487,"ines":2488,"▁wish":2489,"cy":2490,"alk":2491,"load":2492,"leas":2493,"unt":2494,"chn":2495,"ING":2496,"▁langu":2497,"ness":2498,"ply":2499,"▁fav":2500,"ught":2501,"jor":2502,"▁sense":2503,"▁orig":2504,"ings":2505,"iness":2506,"▁either":2507,"▁out.":2508,"igure":2509,"ending":2510,"▁Q":2511,"che":2512,"cially":2513,"▁completely":2514,"▁funny":2515,"▁ign":2516,"▁mention":2517,"conom":2518,"▁An":2519,"▁Also,":2520,"ES":2521,"ital":2522,"bo":2523,"vote":2524,"▁Ar":2525,"unk":2526,"ately":2527,"▁Edit":2528,"▁Mc":2529,"▁bull":2530,"▁Actually":2531,"▁abs":2532,"!\"":2533,"▁Pro":2534,"▁sent":2535,"▁damn":2536,"▁prof":2537,"ype":2538,"▁Thanks":2539,"▁food":2540,"EE":2541,"illion":2542,"▁pri":2543,"▁200":2544,"▁plac":2545,"▁equ":2546,"cr":2547,"joy":2548,"por":2549,"▁--":2550,"▁cut":2551,"zy":2552,"posed":2553,"▁edit":2554,"▁night":2555,"ilar":2556,"▁prot":2557,"▁you?":2558,"▁case":2559,"▁ant":2560,"▁One":2561,"▁par":2562,"▁imag":2563,"▁adm":2564,"ised":2565,"▁experi":2566,"to":2567,"ers,":2568,"▁vie":2569,"▁sounds":2570,"CK":2571,"!!!!":2572,"▁is.":2573,"pro":2574,"▁ey":2575,"▁pur":2576,"▁gay":2577,"▁subm":2578,"▁Go":2579,"▁drink":2580,"▁athe":2581,"hh":2582,"▁;":2583,"▁He's":2584,"▁hot":2585,"-b":2586,"▁His":2587,"outh":2588,"▁foll":2589,"▁100":2590,"▁rid":2591,"▁New":2592,"ator":2593,"▁idiot":2594,"es?":2595,"▁light":2596,"▁di":2597,"50":2598,"▁major":2599,"▁water":2600,"▁took":2601,"fer":2602,"ross":2603,"▁figure":2604,"onn":2605,"▁av":2606,"irect":2607,"velop":2608,"rol":2609,"▁log":2610,"▁smo":2611,"▁news":2612,"▁awesome":2613,"](http://www.youtube.com/watch?v=":2614,"atever":2615,"▁kids":2616,"▁side":2617,"▁comes":2618,"▁THE":2619,"▁trans":2620,"line":2621,"ale":2622,"▁well.":2623,"▁cas":2624,"▁past":2625,"▁det":2626,"▁rap":2627,"▁People":2628,"▁Com":2629,"▁needs":2630,"▁opin":2631,"▁reading":2632,"fort":2633,"irt":2634,"▁working":2635,"▁know,":2636,"▁creat":2637,"▁sec":2638,"ole":2639,"▁move":2640,"rem":2641,"▁Canad":2642,"▁effect":2643,"ality":2644,"ome.":2645,"▁ok":2646,"▁market":2647,"▁anyway":2648,"▁dog":2649,"UU":2650,"▁bro":2651,"▁sour":2652,"▁test":2653,"▁es":2654,"comment":2655,"▁all.":2656,"itely":2657,"▁hor":2658,"▁Where":2659,"▁self":2660,"▁allow":2661,"acy":2662,"rib":2663,"▁What's":2664,"▁gi":2665,"▁true":2666,"▁Let":2667,"▁dead":2668,"▁view":2669,"Th":2670,"▁comments":2671,"▁sn":2672,"S.":2673,"▁told":2674,"▁tried":2675,"▁pen":2676,"▁laugh":2677,"▁fire":2678,"lt;":2679,"▁import":2680,"io":2681,"▁account":2682,"aid":2683,"▁stor":2684,"▁started":2685,"▁nam":2686,"se.":2687,"▁single":2688,"▁Z":2689,"/0":2690,"▁mis":2691,"▁agre":2692,"▁typ":2693,"ipp":2694,"▁deal":2695,"▁you've":2696,"▁parent":2697,"▁YOU":2698,"▁prov":2699,"ence.":2700,"ient":2701,"pecially":2702,"▁wanted":2703,"▁Bush":2704,"-m":2705,"▁group":2706,"▁children":2707,"?!":2708,"▁possible":2709,"▁sugg":2710,"▁phot":2711,"▁we're":2712,"▁suggest":2713,"▁break":2714,"aster":2715,"▁goes":2716,"▁usually":2717,"*.":2718,"▁App":2719,"arc":2720,"▁econom":2721,"▁enjoy":2722,"▁:(":2723,"▁mor":2724,"HH":2725,"▁Edit:":2726,"?\"":2727,"ange":2728,"▁non-":2729,"of":2730,"▁mess":2731,"▁incl":2732,"▁friends":2733,"▁serious":2734,",000":2735,"esus":2736,"▁couldn't":2737,"▁Ser":2738,"▁people.":2739,"ation,":2740,"▁Man":2741,"▁fight":2742,"▁sad":2743,"und":2744,"▁Bl":2745,"DIT":2746,"▁tit":2747,"▁spec":2748,"▁Eng":2749,"▁death":2750,"▁build":2751,"▁mod":2752,"reddit.com/r/":2753,"▁today":2754,"ship":2755,"▁meant":2756,"▁level":2757,"▁Cl":2758,"▁is,":2759,"aring":2760,"▁main":2761,"▁ste":2762,"▁examp":2763,"ities":2764,"▁pos":2765,"for":2766,"▁hit":2767,"▁hu":2768,"▁hist":2769,"ins":2770,"▁hold":2771,"▁pe":2772,"▁face":2773,"▁imm":2774,"▁troll":2775,"fe":2776,"▁const":2777,"rible":2778,"▁white":2779,"▁that?":2780,"ether":2781,"ry.":2782,"▁proper":2783,"idence":2784,"▁Look":2785,"▁Most":2786,"uri":2787,"▁commun":2788,"▁med":2789,"igg":2790,"▁pun":2791,"▁Rep":2792,"▁doll":2793,"▁&gt;I":2794,"▁vi":2795,"used":2796,"itting":2797,"▁minut":2798,"▁attack":2799,"ax":2800,"▁Here":2801,"▁front":2802,"oid":2803,"▁surpr":2804,"ream":2805,"ive.":2806,"omb":2807,"▁Am":2808,"▁Oh,":2809,"▁bab":2810,"head":2811,"this":2812,"▁current":2813,"ine.":2814,"comments/":2815,"▁works":2816,"12":2817,"▁bar":2818,"you":2819,"haps":2820,"▁house":2821,"OR":2822,"ault":2823,"▁right?":2824,"▁uni":2825,"▁_":2826,"\"?":2827,"▁aff":2828,"▁ear":2829,"▁right.":2830,"row":2831,"AR":2832,"▁red":2833,"ery":2834,"▁pick":2835,"▁thing.":2836,"▁program":2837,"ony":2838,"▁favor":2839,"more":2840,"able.":2841,"ed?":2842,"ared":2843,"olut":2844,"ption":2845,"iter":2846,"an.":2847,"▁compl":2848,"▁not.":2849,"▁perfect":2850,"▁simply":2851,"▁eng":2852,"▁techn":2853,"like":2854,"▁cho":2855,"iving":2856,"▁bo":2857,"ton":2858,"▁type":2859,"▁Up":2860,"▁page":2861,"▁develop":2862,"full":2863,"▁fore":2864,"▁do.":2865,"atic":2866,"▁poor":2867,"▁lead":2868,"▁music":2869,"▁drug":2870,"▁taking":2871,"▁supposed":2872,"▁wind":2873,"▁control":2874,"▁difference":2875,"▁super":2876,"ling":2877,"▁\"W":2878,"▁inform":2879,"▁honest":2880,"▁mov":2881,"▁answer":2882,"▁couple":2883,"▁totally":2884,"▁Have":2885,"my":2886,"▁themsel":2887,"▁col":2888,"ane":2889,"▁fall":2890,"▁song":2891,"IS":2892,"ters":2893,"▁except":2894,"ext":2895,"▁appe":2896,"▁shot":2897,"▁America":2898,"lev":2899,"▁important":2900,"▁Even":2901,"▁social":2902,"!!!":2903,"▁likely":2904,"▁original":2905,"▁issu":2906,"oop":2907,"work":2908,"▁ri":2909,"▁site":2910,"▁sell":2911,"▁realize":2912,"▁become":2913,"▁assh":2914,"▁him.":2915,"new":2916,"▁ago":2917,"▁line":2918,"OL":2919,"▁often":2920,"et.":2921,"▁please":2922,"▁amaz":2923,"▁three":2924,"view":2925,"▁direct":2926,"▁based":2927,"▁air":2928,"▁ones":2929,"ring":2930,"▁speak":2931,"side":2932,"inux":2933,"▁ball":2934,"▁knew":2935,"▁funn":2936,"imgur":2937,"pose":2938,"vert":2939,"ison":2940,"onna":2941,"-d":2942,"▁days":2943,"ment.":2944,"▁gre":2945,"▁Per":2946,"▁(I":2947,"▁leave":2948,"▁short":2949,"ards":2950,"▁dem":2951,"▁sorry":2952,"lim":2953,"ural":2954,"▁Pl":2955,"imgur.com/":2956,"gre":2957,"▁large":2958,"▁ru":2959,"▁Pal":2960,"oint":2961,"-p":2962,"how":2963,"ral":2964,"iting":2965,"▁partic":2966,"▁vis":2967,"▁amount":2968,"▁whatever":2969,"▁room":2970,"▁example":2971,"▁Sorry":2972,".html":2973,"▁Ok":2974,"ploy":2975,"urt":2976,"▁ann":2977,"uro":2978,"ants":2979,"▁boy":2980,"▁you'll":2981,"AAAA":2982,"li":2983,"aper":2984,"▁loc":2985,"▁ve":2986,"▁definitely":2987,"ology":2988,"▁business":2989,"top":2990,"▁point.":2991,"ibly":2992,"at.":2993,"oph":2994,"▁thank":2995,"▁fix":2996,"modd":2997,"▁pain":2998,"▁this,":2999,"▁close":3000,"ried":3001,"▁anim":3002,"ocr":3003,"▁way.":3004,"sy":3005,"search":3006,"▁Jew":3007,"ess.":3008,"ever,":3009,"gan":3010,"▁crap":3011,"99":3012,"▁Sp":3013,"ing?":3014,"▁conc":3015,"▁order":3016,"gy":3017,"▁McC":3018,"▁situ":3019,"iddle":3020,"got":3021,"net":3022,"▁1.":3023,"▁result":3024,"▁pot":3025,"▁accept":3026,"▁sens":3027,"▁what's":3028,"sp":3029,"empt":3030,"ries":3031,"▁repl":3032,"ional":3033,"▁prev":3034,"▁norm":3035,"▁fan":3036,"-c":3037,"oof":3038,"▁De":3039,"▁drive":3040,"▁interesting":3041,"▁happened":3042,"▁version":3043,"no":3044,"▁dick":3045,"▁serv":3046,"▁write":3047,"▁etc.":3048,"ently":3049,"▁during":3050,"tr":3051,"▁Which":3052,"▁+":3053,"▁common":3054,"do":3055,"▁young":3056,"rel":3057,"▁Its":3058,"▁pie":3059,"▁gonna":3060,"▁consider":3061,"▁oth":3062,"irc":3063,"▁wants":3064,"by":3065,"▁lost":3066,"▁similar":3067,"▁shouldn't":3068,"▁Ro":3069,"▁Ind":3070,"book":3071,"▁wrong.":3072,"▁easy":3073,"▁brain":3074,"OM":3075,"ety":3076,"▁computer":3077,"ist.":3078,"▁Of":3079,"▁playing":3080,"▁she's":3081,"AS":3082,"ulation":3083,"▁intell":3084,"▁disag":3085,"▁living":3086,"oly":3087,"ided":3088,"aut":3089,"/c":3090,"▁viol":3091,"ED":3092,"▁running":3093,"▁refere":3094,"▁EDIT":3095,"▁soft":3096,"ler":3097,"▁design":3098,"▁forget":3099,"▁bitch":3100,"fl":3101,"▁mother":3102,"▁Like":3103,"▁pull":3104,"though":3105,"▁Please":3106,"▁Me":3107,"▁dat":3108,"▁Tr":3109,"ides":3110,"▁Ron":3111,"▁product":3112,"i.":3113,"ends":3114,"▁Jesus":3115,"▁soci":3116,"▁listen":3117,"▁fac":3118,"▁bill":3119,"▁text":3120,"▁offic":3121,"▁fem":3122,"▁Would":3123,"▁legal":3124,"▁stra":3125,"ner":3126,"▁rock":3127,"▁(and":3128,"▁subreddit":3129,"▁bring":3130,"▁respons":3131,"▁Ir":3132,"▁cannot":3133,"▁land":3134,"comm":3135,"▁chick":3136,"▁prefer":3137,"▁clos":3138,"▁games":3139,"▁stay":3140,"▁ep":3141,"▁porn":3142,"oud":3143,"UCK":3144,"-w":3145,"r.":3146,"arently":3147,"▁oppos":3148,"/)":3149,"▁AN":3150,"▁given":3151,"urb":3152,"▁cult":3153,"▁They're":3154,"▁tast":3155,"ield":3156,"▁takes":3157,"ey":3158,"▁McCain":3159,"▁discuss":3160,"▁store":3161,"EN":3162,"▁doubt":3163,"icro":3164,"▁invol":3165,"▁lim":3166,"▁Republic":3167,"▁police":3168,"▁cent":3169,"30":3170,"ked":3171,"▁With":3172,"▁coming":3173,"ounds":3174,"▁cause":3175,"▁girls":3176,"ify":3177,"on,":3178,"cing":3179,"▁search":3180,"▁dumb":3181,"▁huge":3182,"▁bank":3183,"amer":3184,"▁day.":3185,"▁&lt;":3186,"▁on.":3187,"▁yes":3188,"▁priv":3189,"oooo":3190,"ouch":3191,"▁lol":3192,"▁code":3193,"▁;)":3194,"▁2.":3195,"oose":3196,"▁evidence":3197,"h.":3198,"▁certainly":3199,"▁Christian":3200,"▁er":3201,"▁low":3202,"▁mass":3203,"▁conv":3204,"▁quick":3205,"▁illeg":3206,"▁wife":3207,"▁words":3208,"oss":3209,"AM":3210,"ina":3211,"verage":3212,"/s":3213,"▁behind":3214,"▁EDIT:":3215,"▁years.":3216,"▁occ":3217,"▁stat":3218,"▁fund":3219,"▁Really":3220,"AH":3221,"ity,":3222,"60":3223,"▁mach":3224,"▁company":3225,"▁IS":3226,"▁key":3227,"▁i'm":3228,".jpg)":3229,"itten":3230,"▁aut":3231,"▁family":3232,"olutely":3233,"▁stick":3234,"ivil":3235,"arian":3236,"▁bullsh":3237,"▁30":3238,"mod":3239,"uture":3240,"▁Google":3241,"▁knows":3242,"▁work.":3243,"leep":3244,"▁unless":3245,"▁again.":3246,"icul":3247,"▁Wind":3248,"▁others":3249,"▁hours":3250,"▁bott":3251,"ped":3252,"▁English":3253,"▁mag":3254,"▁cit":3255,"▁actual":3256,"play":3257,"▁you'd":3258,"▁click":3259,"▁box":3260,"▁anti-":3261,"▁shoot":3262,"▁ignor":3263,"go":3264,"▁arm":3265,"olution":3266,"▁auth":3267,"in'":3268,"▁0":3269,"▁charac":3270,"fully":3271,"▁pat":3272,"▁experience":3273,"▁dont":3274,"▁piss":3275,"▁lack":3276,"ement":3277,"▁bunch":3278,"▁deb":3279,"thing.":3280,"▁luck":3281,"▁camp":3282,"▁mist":3283,"▁general":3284,"itive":3285,"ies,":3286,"▁source":3287,"▁Actually,":3288,"asm":3289,"▁simple":3290,"lfriend":3291,"ices":3292,"istic":3293,"▁respect":3294,"▁webs":3295,"ither":3296,"▁worse":3297,"▁months":3298,"▁shit.":3299,"▁fat":3300,"▁\"s":3301,"▁Get":3302,"▁mur":3303,"▁toget":3304,"▁party":3305,"▁president":3306,"▁whether":3307,"▁time,":3308,"▁gave":3309,"▁spell":3310,"▁together":3311,"▁yes,":3312,"▁sal":3313,"▁know.":3314,"▁exc":3315,"US":3316,"▁watching":3317,"▁happens":3318,"__":3319,"▁treat":3320,"▁cat":3321,"-t":3322,"andom":3323,"▁follow":3324,"▁imagine":3325,"▁12":3326,"ensive":3327,"-h":3328,"▁religion":3329,"▁spend":3330,"▁happy":3331,"▁million":3332,"raph":3333,"▁asked":3334,"▁retard":3335,"ET":3336,"ior":3337,"▁\"f":3338,"▁descri":3339,"▁obviously":3340,"▁itself":3341,"▁Was":3342,"▁Wait":3343,"▁this?":3344,"▁50":3345,"▁http://en.wikipedia.org/wiki/":3346,"▁die":3347,"▁asking":3348,"urope":3349,"▁require":3350,"▁?":3351,"▁posted":3352,"▁$1":3353,"ism.":3354,"▁Americans":3355,"▁report":3356,"▁So,":3357,"▁stre":3358,"▁Sure":3359,"▁prom":3360,"▁dest":3361,"▁Yes":3362,"▁\"S":3363,"▁&amp;":3364,"▁TV":3365,"light":3366,"▁refer":3367,"▁phys":3368,"▁karm":3369,"▁clear":3370,"▁religious":3371,"▁milit":3372,"ments":3373,"▁necess":3374,"▁taken":3375,"▁though,":3376,"OW":3377,"▁now,":3378,"▁x":3379,"ID":3380,"▁future":3381,"▁ben":3382,"▁life.":3383,"▁\"A":3384,"▁da":3385,"▁paid":3386,"▁Only":3387,"▁http://www.youtube.com/watch?v=":3388,"els":3389,"ech":3390,"](http://www.reddit.com/r/":3391,"▁install":3392,"▁worked":3393,"▁web":3394,"▁reddit.":3395,"▁weird":3396,"▁middle":3397,"aff":3398,"▁along":3399,"ision":3400,"▁dev":3401,"▁mult":3402,"▁true.":3403,"ance.":3404,"board":3405,"▁terror":3406,"▁polic":3407,"ially":3408,"▁demo":3409,"fortun":3410,"▁truth":3411,"astic":3412,"ots":3413,"wards":3414,"▁language":3415,"aving":3416,"/comments/":3417,"▁especially":3418,"▁particular":3419,"ary.":3420,"urch":3421,"▁thanks":3422,"▁NOT":3423,"ored":3424,"▁them,":3425,"▁hom":3426,"▁software":3427,"▁anymore":3428,"ased":3429,"that":3430,"oun":3431,"▁well,":3432,"▁programm":3433,"orld":3434,"ec":3435,"▁beat":3436,"▁record":3437,"▁\"H":3438,"ster":3439,"▁killed":3440,"it,":3441,"what":3442,"▁Dem":3443,"▁girlfriend":3444,"erm":3445,"▁Robert":3446,"▁chance":3447,"▁Wow,":3448,"ron":3449,"▁crazy":3450,"ege":3451,"▁civil":3452,"▁extrem":3453,"▁walk":3454,"ined":3455,"▁scient":3456,"▁net":3457,"▁Gu":3458,"▁IT":3459,"▁parents":3460,"▁science":3461,"▁pract":3462,"▁seeing":3463,"form":3464,"▁#":3465,"▁personal":3466,"rup":3467,"iction":3468,"▁card":3469,"▁jud":3470,"▁clearly":3471,"▁phone":3472,"uu":3473,"▁good.":3474,"ame.":3475,"▁themselves":3476,"▁remo":3477,"▁political":3478,"▁known":3479,"80":3480,"soft":3481,"▁sca":3482,"▁ra":3483,"▁minutes":3484,"▁includ":3485,"over":3486,"ising":3487,"▁15":3488,"FF":3489,"▁absolutely":3490,"fic":3491,"ahah":3492,"▁issue":3493,"rest":3494,"▁sick":3495,"▁media":3496,"▁Right":3497,"▁protect":3498,"▁assume":3499,"▁downvot":3500,"▁yeah,":3501,"▁above":3502,"40":3503,"You":3504,"▁[this":3505,"key":3506,"▁sever":3507,"aining":3508,"edom":3509,"▁hop":3510,"orth":3511,"▁title":3512,"▁cand":3513,"▁Im":3514,"imate":3515,"▁ago.":3516,"▁giving":3517,"raw":3518,"▁near":3519,"'.":3520,"▁ridicul":3521,"▁begin":3522,"ev":3523,"▁educ":3524,"▁Br":3525,"▁Qu":3526,"eral":3527,"▁strong":3528,"ape":3529,"ended":3530,"erman":3531,"▁edit:":3532,"▁evil":3533,"▁outside":3534,"ant.":3535,"▁pleas":3536,"/2":3537,"fox":3538,"gress":3539,"verse":3540,"▁straight":3541,"ball":3542,"ilt":3543,"▁belief":3544,"▁fast":3545,"▁circ":3546,"AL":3547,"▁seriously":3548,"▁crim":3549,"▁author":3550,"▁mean,":3551,"son.":3552,"▁Tw":3553,"▁voted":3554,"▁no,":3555,"ii":3556,"me":3557,"▁basically":3558,"off":3559,"▁liber":3560,"anger":3561,"▁opinion":3562,"▁random":3563,"erve":3564,"af":3565,"ands":3566,"▁fine":3567,"▁Ph":3568,"▁Those":3569,"▁smart":3570,"▁either.":3571,"▁film":3572,".com":3573,"▁slow":3574,"▁Serious":3575,"▁curi":3576,"▁favorite":3577,"▁cheap":3578,"ium":3579,"ift":3580,"ged":3581,"▁looked":3582,"ging":3583,"▁(or":3584,"▁man.":3585,"s!":3586,"▁FUCK":3587,"▁lab":3588,"▁several":3589,"▁up,":3590,"▁standard":3591,"▁|":3592,"▁oh":3593,"▁bought":3594,"but":3595,"▁annoy":3596,"enn":3597,"▁sir":3598,"using":3599,"raq":3600,"IC":3601,"ar.":3602,"-l":3603,"▁popular":3604,"▁den":3605,"▁employ":3606,"▁Damn":3607,"sc":3608,"▁moder":3609,"▁cal":3610,"▁intellig":3611,"▁rul":3612,"lying":3613,"▁body":3614,"▁organ":3615,"in.":3616,"▁Gr":3617,"▁hair":3618,"yn":3619,"▁due":3620,"enty":3621,"▁Sc":3622,"▁played":3623,"ice,":3624,"apan":3625,"ental":3626,"pir":3627,"s...":3628,"▁Che":3629,"icking":3630,"15":3631,"▁Af":3632,"▁Fl":3633,"▁here,":3634,"▁Brit":3635,"ic,":3636,"▁Somet":3637,"s\"":3638,"▁off.":3639,"▁awesome.":3640,"▁to.":3641,"aged":3642,"as.":3643,"▁glad":3644,"er?":3645,"▁appro":3646,"▁burn":3647,"▁meet":3648,"ung":3649,"▁suc":3650,"ics.":3651,"▁crit":3652,"▁written":3653,"arr":3654,"▁Iraq":3655,"ien":3656,"▁worst":3657,"▁sleep":3658,"ones":3659,"▁allowed":3660,"itution":3661,"▁Mac":3662,"▁forgot":3663,"▁longer":3664,"put":3665,"▁bac":3666,"▁attempt":3667,"▁bor":3668,"▁obvious":3669,"▁download":3670,"ps":3671,"itted":3672,"uk":3673,"▁somewhere":3674,"▁No.":3675,"lex":3676,"ie.":3677,"▁By":3678,"▁send":3679,"ization":3680,"▁From":3681,"▁More":3682,"now":3683,"room":3684,"▁Europe":3685,"▁save":3686,"▁hurt":3687,"▁sold":3688,"▁calling":3689,"▁history":3690,"edi":3691,"y?":3692,"▁incre":3693,"▁screen":3694,"▁democr":3695,"▁process":3696,"▁too,":3697,"icrosoft":3698,"▁later":3699,"ay,":3700,"▁sus":3701,"bed":3702,"▁:-":3703,"chan":3704,"▁bi":3705,"php":3706,"▁vo":3707,"▁soon":3708,"▁telling":3709,"▁impress":3710,"LE":3711,"▁corpor":3712,"▁Aust":3713,"ission":3714,"▁copy":3715,"ent,":3716,"▁gives":3717,"▁sometimes":3718,"▁Try":3719,"▁swe":3720,"▁brows":3721,"ate,":3722,"▁considered":3723,"ivid":3724,"▁paying":3725,"▁right,":3726,"----":3727,"▁himself":3728,"▁college":3729,"▁After":3730,"▁\"The":3731,"▁Con":3732,"nect":3733,"elt":3734,"ustom":3735,"ohn":3736,"▁Pr":3737,"▁what?":3738,"is.":3739,"▁credit":3740,"▁Paulson.":3741,"▁OK":3742,"▁better.":3743,"▁share":3744,"▁Windows":3745,"▁rich":3746,"al,":3747,"▁shows":3748,"ified":3749,"▁character":3750,"▁citiz":3751,"/d":3752,"▁Down":3753,"▁pack":3754,"▁Russ":3755,"▁clean":3756,"a?":3757,"irth":3758,"▁weap":3759,"▁squ":3760,"age,":3761,"illy":3762,"▁WH":3763,"/m":3764,"▁kick":3765,"antly":3766,"iced":3767,"▁statement":3768,"▁average":3769,"▁Linux":3770,"▁Anyone":3771,"▁los":3772,"▁people,":3773,"▁heart":3774,"▁PC":3775,"ude,":3776,"▁Let's":3777,"▁engine":3778,"gen":3779,"▁insur":3780,"ia.":3781,"itty":3782,"cent":3783,"▁piece":3784,"modded":3785,"ains":3786,"▁port":3787,"▁wall":3788,"▁Mus":3789,"▁doct":3790,"▁marri":3791,"▁special":3792,"▁Ne":3793,"▁However,":3794,"▁These":3795,"▁complete":3796,"asc":3797,"▁Ad":3798,"▁invest":3799,"▁mot":3800,"▁oper":3801,"s.com/":3802,"▁stri":3803,"anc":3804,"▁kinda":3805,"▁nut":3806,"uel":3807,"▁anal":3808,"rill":3809,"▁oil":3810,"unn":3811,"▁foot":3812,"2.":3813,"▁WTF":3814,"▁touch":3815,"▁said,":3816,"izing":3817,"▁way,":3818,"▁rad":3819,"▁say,":3820,"gu":3821,"▁regard":3822,"▁UK":3823,"▁sarc":3824,"ube":3825,"VE":3826,"▁Ge":3827,"▁age":3828,"ograph":3829,"▁laws":3830,"word":3831,"irm":3832,"▁there,":3833,"19":3834,"▁majority":3835,"cle":3836,"▁rights":3837,"▁atheist":3838,"ide.":3839,"▁user":3840,"VER":3841,"▁local":3842,".S.":3843,"▁google":3844,"▁needed":3845,"▁in.":3846,"isk":3847,"cont":3848,"/200":3849,"▁nat":3850,"▁lose":3851,"▁world.":3852,"h?":3853,"▁af":3854,"uses":3855,"▁remind":3856,"▁something.":3857,"▁event":3858,"▁blood":3859,"▁dad":3860,"▁scen":3861,"▁3.":3862,"▁camer":3863,"OOOO":3864,"ally,":3865,"▁space":3866,"▁step":3867,"▁IN":3868,"ory.":3869,"▁benef":3870,"onse":3871,"▁blog":3872,"ording":3873,"▁teac":3874,"▁sum":3875,"▁regular":3876,"us.":3877,"▁thous":3878,"▁extra":3879,"▁opt":3880,"▁avail":3881,"▁Fire":3882,"Wh":3883,"par":3884,"▁mine":3885,"▁press":3886,"▁suff":3887,"▁don":3888,"▁liter":3889,"ruct":3890,"iny":3891,"▁object":3892,"▁money.":3893,"▁OS":3894,"▁band":3895,"▁tool":3896,"ination":3897,"▁down.":3898,"▁uses":3899,"▁Great":3900,"▁Int":3901,"akes":3902,"▁inde":3903,"▁within":3904,"▁are.":3905,"▁subject":3906,"▁While":3907,"ouble":3908,"gest":3909,"▁information":3910,"1.":3911,"▁inside":3912,"just":3913,"▁willing":3914,"▁enc":3915,"▁\"b":3916,"zz":3917,"t.":3918,"16":3919,"▁grow":3920,"eng":3921,"▁star":3922,"▁research":3923,"▁capital":3924,"▁neg":3925,"▁thinks":3926,"arily":3927,"▁relation":3928,"mp":3929,"▁becom":3930,"resent":3931,"ous,":3932,"▁cover":3933,"sych":3934,"▁man,":3935,"▁trust":3936,"▁Isn't":3937,"▁infl":3938,"▁Pre":3939,"eric":3940,"▁18":3941,"▁project":3942,"25":3943,"yle":3944,"▁one,":3945,"▁team":3946,"▁indust":3947,"acc":3948,"▁force":3949,"bit":3950,"▁\"p":3951,"▁not,":3952,"▁much.":3953,"▁upvote":3954,"▁thats":3955,"▁killing":3956,"▁racist":3957,"▁compet":3958,"▁avoid":3959,"▁meaning":3960,"▁feature":3961,"asp":3962,"13":3963,"▁u":3964,"▁countries":3965,"ze":3966,"▁turned":3967,"ems":3968,"▁companies":3969,"▁problems":3970,"▁block":3971,"iet":3972,"▁illegal":3973,"▁Perhaps":3974,"▁gold":3975,"▁situation":3976,"▁fucked":3977,"▁douche":3978,"ites":3979,"▁throw":3980,"ficult":3981,"This":3982,"▁four":3983,"▁40":3984,"▁military":3985,"ogn":3986,"▁lots":3987,"▁Le":3988,"▁response":3989,"▁tend":3990,"ure.":3991,"/11":3992,"▁Except":3993,"oke":3994,"ite.":3995,"▁Democr":3996,"▁worry":3997,"▁gone":3998,"images":3999,"II":4000,"gn":4001,"▁feeling":4002,"▁First":4003,"▁freedom":4004,"▁out,":4005,"▁Yes.":4006,"▁email":4007,"▁surprised":4008,"▁road":4009,"▁speed":4010,"▁amazing":4011,"mb":4012,"▁context":4013,"id=":4014,"▁custom":4015,"▁upvot":4016,"▁tre":4017,"▁weren't":4018,"s)":4019,"▁so.":4020,"izz":4021,"▁bag":4022,"▁Japan":4023,"▁dude":4024,"▁\"d":4025,"OP":4026,"▁spent":4027,"▁load":4028,"▁meth":4029,"bum":4030,"▁fake":4031,"▁normal":4032,"oe":4033,"▁points":4034,"▁boo":4035,"▁jump":4036,"ta":4037,"▁all,":4038,"▁contin":4039,"▁track":4040,"▁then.":4041,"▁difficult":4042,"google":4043,"ated.":4044,"blog":4045,"rench":4046,"▁writing":4047,"▁bur":4048,"▁nobody":4049,"▁Sounds":4050,"](http://imgur.com/":4051,"▁recomm":4052,"ibility":4053,"ask":4054,"▁connect":4055,"m,":4056,"ively":4057,"▁bad.":4058,"cell":4059,"▁\"m":4060,"yth":4061,"rom":4062,"▁fear":4063,"▁(wh":4064,"▁convers":4065,"▁decided":4066,"reci":4067,"an,":4068,"▁fur":4069,"▁ener":4070,"▁hang":4071,"▁anything.":4072,"A.":4073,"▁pow":4074,"▁dollar":4075,"ured":4076,"▁Never":4077,"/p":4078,"▁mostly":4079,"▁terrible":4080,"%2":4081,"▁more.":4082,"▁interested":4083,"▁univers":4084,"▁\"D":4085,"▁liked":4086,"▁grand":4087,"or,":4088,"▁destro":4089,"AD":4090,"▁sat":4091,"▁Since":4092,"eth":4093,"▁accident":4094,"▁create":4095,"▁speech":4096,"ividual":4097,"▁\"M":4098,"▁Hell":4099,"▁image":4100,"▁born":4101,"▁catch":4102,"▁quot":4103,"▁alone":4104,"▁beaut":4105,"▁proof":4106,"▁across":4107,"▁TO":4108,"▁easier":4109,"▁switch":4110,"▁karma":4111,"▁private":4112,"18":4113,"▁problem.":4114,"▁threat":4115,"▁choose":4116,"▁missed":4117,"▁anyway.":4118,"clus":4119,"▁Apple":4120,"oon":4121,"▁carry":4122,"ah,":4123,"▁otherw":4124,"▁her.":4125,"any":4126,"▁price":4127,"▁Rem":4128,"▁cook":4129,"▁rece":4130,"▁prop":4131,"▁easily":4132,"ana":4133,"▁things.":4134,"rew":4135,"▁about.":4136,"▁Here's":4137,"itter":4138,"▁access":4139,"ero":4140,"▁earth":4141,"▁mouth":4142,"▁wear":4143,"▁fill":4144,"++":4145,"▁\"C":4146,"▁conserv":4147,"▁profess":4148,"▁Cal":4149,"14":4150,"▁baby":4151,"▁John":4152,"▁voting":4153,"▁drunk":4154,"dom":4155,"▁attract":4156,"▁\"h":4157,"▁concept":4158,"▁shop":4159,"▁react":4160,"AY":4161,"tf":4162,"ves.":4163,"▁epis":4164,"▁wrote":4165,"▁eating":4166,"▁subs":4167,"ful.":4168,"▁return":4169,"▁disagree":4170,"▁roll":4171,"▁candid":4172,"▁missing":4173,"▁secret":4174,"▁politic":4175,"▁Pres":4176,"undred":4177,"▁higher":4178,"▁downvoted":4179,"▁\"B":4180,"▁birth":4181,"▁pret":4182,"lear":4183,"son":4184,"▁murder":4185,"▁See":4186,"▁female":4187,"70":4188,"▁late":4189,"ass.":4190,"▁hah":4191,"▁choice":4192,"▁collect":4193,"inist":4194,"fuck":4195,"▁*s":4196,"▁funny.":4197,"▁notice":4198,"▁Could":4199,"▁mad":4200,"▁data":4201,"urity":4202,"▁Unless":4203,"▁function":4204,"comp":4205,"▁fell":4206,"lam":4207,"▁comb":4208,"tain":4209,"ances":4210,"▁definition":4211,"▁father":4212,"▁so,":4213,"▁fa":4214,"estin":4215,"▁lad":4216,"aur":4217,"33":4218,"isc":4219,"▁accur":4220,"UUUU":4221,"▁putting":4222,"ration":4223,"▁German":4224,"▁Gl":4225,"▁Hmm":4226,"90":4227,"iod":4228,"ious.":4229,"▁grad":4230,"AC":4231,"rap":4232,"arb":4233,"▁posting":4234,"OS":4235,"back":4236,"▁americ":4237,"▁Internet":4238,"▁comment.":4239,"▁drop":4240,"▁back.":4241,"▁it!":4242,"▁paper":4243,"▁relationship":4244,"hem":4245,"▁insurance":4246,"icles":4247,"▁Muslim":4248,"▁Really?":4249,"arth":4250,"raid":4251,"▁SH":4252,"duct":4253,"▁position":4254,"iful":4255,"▁church":4256,"▁ang":4257,"omen":4258,"ions.":4259,"▁deep":4260,"▁fing":4261,"▁hasn't":4262,"▁Fox":4263,"▁address":4264,"▁individual":4265,"▁impl":4266,"▁course,":4267,"▁horrible":4268,"▁Microsoft":4269,"sec":4270,"▁\"c":4271,"▁penis":4272,"▁somebody":4273,"▁doc":4274,"▁cell":4275,"▁wal":4276,"▁generally":4277,"vir":4278,"▁We're":4279,"▁third":4280,"ow.":4281,"▁hyp":4282,"▁perform":4283,"cient":4284,"▁reference":4285,"ater.":4286,"ikipedia":4287,"ential":4288,"▁states":4289,"▁idea.":4290,"erc":4291,"poss":4292,"▁:D":4293,"-in":4294,"iqu":4295,"rr":4296,"▁attention":4297,"▁ST":4298,"▁smell":4299,"▁AND":4300,"▁teach":4301,"aign":4302,"phot":4303,"▁steal":4304,"▁did.":4305,"▁Someone":4306,"▁odd":4307,"ues":4308,"▁cry":4309,"aked":4310,"▁morn":4311,"▁Te":4312,"▁aware":4313,"▁mill":4314,"▁ground":4315,"▁possibly":4316,"ine,":4317,"▁complain":4318,"▁felt":4319,"▁game.":4320,"▁prove":4321,"▁fed":4322,"▁ban":4323,"▁file":4324,"ver.":4325,"▁gas":4326,"▁value":4327,"▁:P":4328,"ili":4329,"▁specific":4330,"▁smoke":4331,"▁fact,":4332,"▁Exact":4333,"▁Will":4334,"ohol":4335,"▁Nice":4336,"▁incred":4337,"xual":4338,"▁users":4339,"▁Too":4340,"-C":4341,"▁finish":4342,"▁agree.":4343,"etic":4344,"▁numb":4345,"▁repe":4346,"q=":4347,"▁slight":4348,"▁Nothing":4349,"▁Agre":4350,"ighb":4351,"▁apparently":4352,"▁posts":4353,"cript":4354,"▁hundred":4355,"▁rob":4356,"ground":4357,"▁trave":4358,"oles":4359,"17":4360,"▁shut":4361,"▁hy":4362,"▁question.":4363,"▁vir":4364,"▁on,":4365,"orrect":4366,"▁yes.":4367,"ining":4368,"box":4369,"▁somehow":4370,"▁est":4371,"▁success":4372,"▁option":4373,"▁be.":4374,"▁vol":4375,"▁buying":4376,"▁vag":4377,"▁aud":4378,"ropri":4379,"▁\"N":4380,"▁created":4381,"▁blame":4382,"▁waiting":4383,"cohol":4384,"▁ver":4385,"ray":4386,"▁lives":4387,"▁Hey,":4388,"▁available":4389,"us,":4390,"▁perhaps":4391,"▁poll":4392,"▁learned":4393,"ury":4394,"▁male":4395,"▁provide":4396,"k.":4397,"inc":4398,"▁hands":4399,"UT":4400,"▁city":4401,"▁screw":4402,"ability":4403,"▁dom":4404,"▁train":4405,"ald":4406,"▁[H":4407,"cons":4408,"▁town":4409,"▁cod":4410,"▁tab":4411,"▁\"w":4412,"oul":4413,"▁society":4414,"▁quality":4415,"▁dig":4416,"ise.":4417,"osh":4418,"▁danger":4419,"ia,":4420,"▁appreci":4421,"▁Hey":4422,"▁Still":4423,"▁blow":4424,"▁Austral":4425,"3.":4426,"▁bomb":4427,"▁plenty":4428,"rupt":4429,"▁fol":4430,"▁no.":4431,"▁corn":4432,"▁fant":4433,"▁beer":4434,"▁sense.":4435,"▁watched":4436,"ented":4437,"▁(s":4438,"▁100%":4439,"/f":4440,"▁size":4441,"▁\"the":4442,"/h":4443,"▁respond":4444,"▁draw":4445,"▁again,":4446,"▁MS":4447,"▁place.":4448,"▁\"O":4449,"▁90":4450,"▁eyes":4451,"▁flo":4452,"osp":4453,"▁skill":4454,"et,":4455,"er's":4456,"IG":4457,"▁Sorry,":4458,"▁OP":4459,"▁afraid":4460,"▁Chin":4461,"▁Probably":4462,"▁Same":4463,"▁vict":4464,"▁pictures":4465,"▁nor":4466,"▁stopped":4467,"▁concern":4468,"pped":4469,".....":4470,"▁neighb":4471,"▁ridiculous":4472,"ledge":4473,"▁year.":4474,"▁culture":4475,"▁crack":4476,"▁do,":4477,"▁cold":4478,"▁dollars":4479,"▁wearing":4480,"▁RE":4481,"▁lap":4482,"en,":4483,"ips":4484,"▁Hah":4485,"inn":4486,"▁consum":4487,"▁Sup":4488,"▁afford":4489,"add":4490,"▁trad":4491,"4.":4492,"▁Ste":4493,"▁website":4494,"▁Cong":4495,"▁anywhere":4496,"▁DO":4497,"appy":4498,"▁hous":4499,"▁recommend":4500,"▁U.S.":4501,"*,":4502,"▁Holy":4503,"ers?":4504,"▁campaign":4505,"▁Sw":4506,"sk":4507,"▁ce":4508,"▁ident":4509,"▁Canada":4510,"▁eye":4511,"▁En":4512,"▁represent":4513,"▁saf":4514,"raft":4515,"▁quote":4516,"▁nearly":4517,"▁ur":4518,"aud":4519,"▁kidd":4520,"▁total":4521,"▁Everyone":4522,"▁sexual":4523,"▁16":4524,"udd":4525,"ping":4526,"▁bullshit":4527,"▁bother":4528,"▁valid":4529,"▁population":4530,"▁psych":4531,"▁lived":4532,"levant":4533,"▁altern":4534,"ts":4535,"▁online":4536,"▁decent":4537,"IL":4538,"▁apart":4539,"▁content":4540,"▁guy.":4541,"▁dream":4542,"▁dro":4543,"▁fault":4544,"▁War":4545,"▁now?":4546,"▁autom":4547,"str":4548,"▁25":4549,"▁upd":4550,"▁five":4551,"▁LOL":4552,"iest":4553,")?":4554,"▁finally":4555,"22":4556,"▁trouble":4557,"▁let's":4558,"▁fit":4559,"▁noticed":4560,"▁us.":4561,"▁referring":4562,"▁Us":4563,"▁jail":4564,"▁libert":4565,"▁insult":4566,"▁cock":4567,"▁Should":4568,"▁dam":4569,"▁recogn":4570,"▁gramm":4571,"▁feed":4572,"▁double":4573,"ribut":4574,"▁waste":4575,"▁Car":4576,"▁obs":4577,"arely":4578,"-g":4579,"▁coff":4580,"▁christ":4581,"▁President":4582,"▁suppose":4583,"pic":4584,"▁USA":4585,"▁Has":4586,"unny":4587,"▁detail":4588,"s_":4589,"▁risk":4590,"olit":4591,"▁iP":4592,"▁\"Wh":4593,"▁service":4594,"▁immedi":4595,"▁door":4596,"▁She's":4597,"irl":4598,"▁field":4599,"▁iron":4600,"OD":4601,"dered":4602,"nce.":4603,"FW":4604,"▁driving":4605,"tw":4606,"▁ut":4607,"▁changed":4608,"▁document":4609,"▁stories":4610,"iding":4611,"care":4612,"▁downvote":4613,"▁Mar":4614,"▁coun":4615,"▁Looks":4616,"ude.":4617,"▁joke.":4618,"▁express":4619,"▁office":4620,"▁releas":4621,"▁energy":4622,"possible":4623,"▁useful":4624,"▁rev":4625,"▁Seriously,":4626,"▁movies":4627,"ifically":4628,"ay.":4629,"les.":4630,"▁animal":4631,"▁Iran":4632,"▁bottom":4633,"ram":4634,"▁method":4635,"▁impro":4636,"ories":4637,"▁Read":4638,"▁lay":4639,"▁they'll":4640,"▁ON":4641,"▁hat":4642,"uclear":4643,"RR":4644,"ov":4645,"bers":4646,"▁\"F":4647,"TH":4648,"SS":4649,"AK":4650,"45":4651,"AHAH":4652,"▁ped":4653,"alse":4654,"▁period":4655,"▁died":4656,"???":4657,"▁community":4658,"▁Jav":4659,"▁effort":4660,"▁div":4661,"viron":4662,"▁fool":4663,"▁cops":4664,"▁fairly":4665,"ister":4666,"▁sem":4667,"▁meas":4668,"a!":4669,"▁cross":4670,"▁&gt;A":4671,"▁republic":4672,"▁harm":4673,"▁enough.":4674,"▁[I":4675,"▁gotten":4676,"▁Cons":4677,"▁early":4678,"▁behav":4679,"▁ton":4680,"▁ten":4681,"▁trick":4682,"▁starting":4683,"▁[S":4684,"a_":4685,"▁sentence":4686,"▁asshole":4687,"▁admit":4688,"▁books":4689,"reg":4690,"▁questions":4691,"▁weeks":4692,"▁warm":4693,"▁NO":4694,"ace.":4695,"▁80":4696,"▁towards":4697,"▁tort":4698,"HHHH":4699,"▁dark":4700,"▁Ah,":4701,"▁truly":4702,"▁entirely":4703,"▁prim":4704,"-up":4705,"▁graph":4706,"▁`":4707,"▁surv":4708,"▁thing,":4709,"▁extremely":4710,"▁print":4711,"▁continue":4712,"uct":4713,"▁IM":4714,"▁host":4715,"▁machine":4716,"bag":4717,"▁Upvoted":4718,"▁push":4719,"▁else.":4720,"▁it...":4721,"▁moment":4722,"▁solution":4723,"ival":4724,"▁!":4725,"▁Palestin":4726,"▁with.":4727,"▁British":4728,"▁Aw":4729,"▁disapp":4730,"hood":4731,"▁pred":4732,"eal":4733,"ames":4734,"▁reply":4735,"▁for.":4736,"▁building":4737,"in,":4738,"/b":4739,"▁Ke":4740,"▁criminal":4741,"ju":4742,"▁lower":4743,"▁Mon":4744,"▁caught":4745,"yond":4746,"35":4747,"orge":4748,"▁advert":4749,"▁tar":4750,"▁rule":4751,"▁alcohol":4752,"▁faith":4753,"▁pers":4754,"▁point,":4755,"▁sitting":4756,"▁Republican":4757,"▁prin":4758,"/c0":4759,"m.":4760,"ue.":4761,"▁lic":4762,"▁tem":4763,"able,":4764,"▁inn":4765,"▁THAT":4766,"rim":4767,"▁who's":4768,"rav":4769,"ilos":4770,"▁mistake":4771,"mark":4772,"aming":4773,"▁built":4774,"obal":4775,"▁Very":4776,"▁Stop":4777,"i,":4778,"ALL":4779,"o-":4780,"ard.":4781,"ourn":4782,"▁weight":4783,"▁modern":4784,"ive,":4785,"AP":4786,"▁rape":4787,"▁national":4788,"▁them?":4789,"▁recent":4790,"▁mentioned":4791,"the_":4792,"ter.":4793,"▁faster":4794,"▁&gt;The":4795,"▁\"G":4796,"▁purpose":4797,"▁pir":4798,"▁heav":4799,"▁Sim":4800,"▁usern":4801,"▁Afric":4802,"▁prison":4803,"▁places":4804,"▁brother":4805,"▁\"t":4806,"▁tick":4807,"E.":4808,"▁Tex":4809,"▁Ah":4810,"▁country.":4811,"▁expensive":4812,"▁realized":4813,"▁abort":4814,"▁phr":4815,"▁further":4816,"atives":4817,"▁personally":4818,"▁multip":4819,"▁meat":4820,"▁server":4821,"▁him,":4822,"bel":4823,"▁qual":4824,"▁stuff.":4825,"▁perfectly":4826,"▁Yep":4827,"plement":4828,"▁theory":4829,"▁natural":4830,"mas":4831,"▁contract":4832,"▁sand":4833,"▁United":4834,"of_":4835,"▁ability":4836,"▁recently":4837,"ures":4838,"▁AM":4839,"▁lock":4840,"o/":4841,"▁stupid.":4842,"▁minor":4843,"▁sun":4844,"erd":4845,"▁message":4846,"▁none":4847,"▁beautiful":4848,"iff":4849,"▁years,":4850,"▁destroy":4851,"▁\"P":4852,"▁shirt":4853,"uit":4854,"google.com/":4855,"▁mix":4856,"oil":4857,"▁related":4858,"▁me?":4859,"BC":4860,"▁applic":4861,"▁Spe":4862,"▁street":4863,"▁although":4864,"aterial":4865,"▁taxes":4866,"▁voice":4867,"inf":4868,"▁upon":4869,"▁area":4870,"▁bann":4871,"IM":4872,"▁cow":4873,"ett":4874,"olf":4875,"▁day,":4876,"▁South":4877,"▁Bill":4878,"▁teacher":4879,"▁ele":4880,"ism,":4881,"▁'s":4882,"enc":4883,"▁you!":4884,"▁yourself.":4885,"▁job.":4886,"▁signific":4887,"sl":4888,"▁window":4889,"▁album":4890,"php?":4891,"▁argu":4892,"▁currently":4893,"▁base":4894,"▁shitty":4895,"▁issues":4896,"less.":4897,"▁reasons":4898,"au":4899,"▁yet.":4900,"▁model":4901,"▁arrest":4902,"▁disagre":4903,"▁intern":4904,"▁manag":4905,"▁math":4906,"▁(the":4907,"TW":4908,"▁Unfortun":4909,"mon":4910,"▁times.":4911,"ource":4912,"▁Although":4913,"▁depress":4914,"ived":4915,"▁laptop":4916,"▁Other":4917,"atically":4918,"▁knowing":4919,"LY":4920,"cience":4921,"▁decide":4922,"aaaa":4923,"▁pub":4924,"▁adult":4925,"▁argue":4926,"▁ever.":4927,"▁/r/":4928,"-st":4929,"▁system.":4930,"▁crime":4931,"▁punch":4932,"▁away.":4933,"▁shit,":4934,"urs":4935,"▁environ":4936,"png":4937,"▁like,":4938,"▁work,":4939,"▁court":4940,"icient":4941,"▁del":4942,"▁said.":4943,"urd":4944,"▁prevent":4945,"▁appear":4946,"oes":4947,"▁color":4948,"ations.":4949,"▁Ye":4950,"▁then,":4951,"▁yell":4952,"▁photo":4953,"time":4954,"▁appl":4955,"▁moving":4956,"75":4957,"▁days.":4958,"\\*":4959,"▁honestly":4960,"▁exec":4961,"▁compared":4962,"▁ahead":4963,"onym":4964,"%20":4965,"▁Can't":4966,"▁Li":4967,"erk":4968,"▁blind":4969,"▁Nop":4970,"▁wrong,":4971,"▁ignore":4972,"ist,":4973,"▁true,":4974,"iant":4975,"▁kept":4976,"▁creep":4977,"ai":4978,"NN":4979,"ges":4980,"▁considering":4981,"▁we'll":4982,"index":4983,"ance,":4984,"une":4985,"▁Hit":4986,"▁self-":4987,"▁PS":4988,"▁smoking":4989,"▁*w":4990,"▁Sm":4991,"▁contr":4992,"▁among":4993,"▁affect":4994,"▁impossible":4995,"▁budd":4996,"▁foreign":4997,"▁buck":4998,"▁negative":4999,"▁\"T":5000,"year":5001,"▁path":5002,"▁before.":5003,"▁taste":5004,"itor":5005,"_of_":5006,"▁apolog":5007,"entially":5008,"▁Clint":5009,"▁fish":5010,"ider":5011,"▁Nor":5012,"▁Bet":5013,"▁glass":5014,"▁separ":5015,"▁Take":5016,"friend":5017,"▁compar":5018,"▁Hill":5019,"▁Jews":5020,"rodu":5021,"▁however":5022,"▁emb":5023,"▁charge":5024,"▁Firefox":5025,"▁pet":5026,"▁jew":5027,"▁reach":5028,"▁emot":5029,"▁critic":5030,"iforn":5031,"ender":5032,"▁Col":5033,"ency":5034,"▁beyond":5035,"▁safe":5036,"▁eth":5037,"9.":5038,"ences":5039,"24":5040,"▁nature":5041,"▁Canadian":5042,"▁liberal":5043,"▁story.":5044,"▁following":5045,"▁weak":5046,"▁60":5047,"▁son":5048,"▁button":5049,"▁ess":5050,"▁cy":5051,"aves":5052,"▁Ab":5053,"▁cart":5054,"▁programming":5055,"▁forward":5056,"▁they've":5057,"▁brought":5058,"▁bacon":5059,"orrent":5060,"rely":5061,"▁loved":5062,"▁ideas":5063,"SFW":5064,"▁action":5065,"epend":5066,"▁numbers":5067,"...\"":5068,"▁Gen":5069,"▁Arab":5070,"▁commer":5071,"▁tired":5072,"▁pan":5073,"▁deli":5074,"▁material":5075,"▁Earth":5076,"▁\"l":5077,"▁good,":5078,"▁You've":5079,"▁ass.":5080,"▁this:":5081,"cd":5082,"▁really.":5083,"▁speaking":5084,"▁upvoted":5085,"atory":5086,"'s.":5087,"▁Wait,":5088,"hip":5089,"▁bast":5090,"▁condit":5091,"▁medical":5092,"olic":5093,"...I":5094,"▁conspir":5095,"ted":5096,"under":5097,"vide":5098,"▁rate":5099,"▁pure":5100,"face":5101,"▁bed":5102,"val":5103,"▁canc":5104,"▁har":5105,"▁cash":5106,"▁curious":5107,"▁article.":5108,"▁deserve":5109,"anna":5110,"▁forced":5111,"7.":5112,"▁anymore.":5113,"▁punish":5114,"▁\"g":5115,"▁hoping":5116,"▁skin":5117,"ge.":5118,"▁Doesn't":5119,"▁Tell":5120,"▁think.":5121,"▁exam":5122,"ok":5123,"-sh":5124,"▁Black":5125,"▁ug":5126,"ples":5127,"▁logic":5128,"▁bigger":5129,"D.":5130,"▁involved":5131,"▁NY":5132,"▁ran":5133,"▁multiple":5134,"▁otherwise":5135,"▁14":5136,"▁:-)":5137,"exic":5138,"▁terms":5139,"▁case,":5140,"86":5141,"▁ignorant":5142,"▁tom":5143,"▁9/11":5144,"▁mac":5145,"▁ways":5146,"▁stuck":5147,"▁victim":5148,"ilosoph":5149,"▁Dr":5150,"▁Digg":5151,"▁craz":5152,"▁..":5153,"ython":5154,"ment,":5155,"▁Once":5156,"▁gotta":5157,"ariju":5158,"▁foc":5159,"▁ago,":5160,"s.\"":5161,"ieve":5162,"▁season":5163,"▁guns":5164,"ishing":5165,"ris":5166,"▁then?":5167,"est.":5168,"▁cars":5169,"▁name.":5170,"▁(which":5171,"▁bod":5172,"▁nation":5173,"▁likes":5174,"▁disappoint":5175,"▁Naz":5176,"▁Star":5177,"▁biggest":5178,"▁appropri":5179,".html)":5180,"▁pic":5181,"▁11":5182,"osexual":5183,"8/":5184,"▁parts":5185,"▁hack":5186,"g.":5187,"gust":5188,"attle":5189,"▁done.":5190,"▁does.":5191,"cious":5192,"▁responsible":5193,"apped":5194,"▁redditors":5195,"▁blue":5196,"▁links":5197,"▁student":5198,"▁shall":5199,"▁security":5200,"▁China":5201,"ache":5202,"▁required":5203,"▁nuclear":5204,"ow,":5205,"▁everywhere":5206,"TFY":5207,"▁false":5208,"▁moral":5209,"▁shock":5210,"can":5211,"▁libr":5212,"▁flash":5213,"ham":5214,"▁basic":5215,"a-":5216,"ot.":5217,"real":5218,"▁sarcasm":5219,"▁suspect":5220,"▁Obam":5221,"cellent":5222,"bing":5223,"▁butt":5224,"iment":5225,"St":5226,"untu":5227,"▁Es":5228,"▁13":5229,"▁Apparently":5230,"▁knowledge":5231,"▁debt":5232,"▁reality":5233,"▁directly":5234,"▁billion":5235,"▁hook":5236,"itation":5237,"ek":5238,"▁Mr.":5239,"▁named":5240,"▁today.":5241,"▁race":5242,"▁World":5243,"▁movie.":5244,"▁style":5245,"▁[A":5246,"▁costs":5247,"▁percent":5248,"_s":5249,"▁figured":5250,"▁(in":5251,"▁mid":5252,"ateg":5253,"▁note":5254,"▁drinking":5255,"▁implement":5256,"fact":5257,"▁economy":5258,"band":5259,"▁demand":5260,"▁date":5261,"▁vari":5262,"▁desk":5263,"p.":5264,"▁they'd":5265,"▁mind.":5266,"IR":5267,"▁target":5268,"stood":5269,"▁in,":5270,"asing":5271,"▁sport":5272,"▁post.":5273,"▁present":5274,"▁broken":5275,"▁Seems":5276,"ILL":5277,"ages.":5278,"64":5279,"▁Obv":5280,"▁Big":5281,"que":5282,"lete":5283,"▁decl":5284,"▁daught":5285,"▁Wow.":5286,"ays":5287,"▁reason.":5288,"▁continu":5289,"▁twice":5290,"▁internet.":5291,"ortun":5292,"CH":5293,"▁specifically":5294,"▁industry":5295,"▁anybody":5296,"ney":5297,"down":5298,"▁AT":5299,"▁purch":5300,"▁rules":5301,"▁cool.":5302,"▁lines":5303,"ole.":5304,"▁including":5305,"▁handle":5306,"▁economic":5307,"▁broke":5308,"▁Islam":5309,"▁Dude,":5310,"iles":5311,"icated":5312,"▁myself.":5313,"tle":5314,"▁evolution":5315,"▁dress":5316,"&lt;":5317,"▁circum":5318,"yr":5319,"▁digg":5320,"▁literally":5321,"reen":5322,"▁http://www.reddit.com/r/":5323,"▁pron":5324,"▁OF":5325,"▁Sometimes":5326,"▁Ham":5327,"▁match":5328,"▁innoc":5329,"ivers":5330,"▁activ":5331,"34":5332,"▁scri":5333,"▁legit":5334,"set":5335,"▁profit":5336,"▁explan":5337,"▁Mexic":5338,"pell":5339,"▁older":5340,".c":5341,"▁spread":5342,"▁wondering":5343,"pet":5344,"▁Dep":5345,"▁really,":5346,"▁tip":5347,"▁round":5348,"▁Ok,":5349,"▁non":5350,"irty":5351,"ators":5352,"▁Palin":5353,"▁entertain":5354,"▁humans":5355,"▁first.":5356,"▁Interest":5357,"ates.":5358,"chool":5359,"ists.":5360,"orry.":5361,"▁\"L":5362,"▁series":5363,"▁commercial":5364,"lig":5365,"▁assuming":5366,"▁reddit,":5367,"▁slightly":5368,"▁script":5369,"Ch":5370,"▁desp":5371,"▁discussion":5372,"eel":5373,"▁jack":5374,"▁Pretty":5375,"ief":5376,"▁Fre":5377,"asy":5378,"▁spending":5379,"▁eventually":5380,"▁letter":5381,"▁green":5382,"with":5383,"▁around.":5384,"ael":5385,"▁error":5386,"▁spam":5387,"▁stock":5388,"▁network":5389,"ilet":5390,"t's":5391,"88":5392,"▁Mich":5393,"▁Def":5394,"edy":5395,"▁lie":5396,"ume":5397,"gar":5398,"estern":5399,"▁seconds":5400,"▁there?":5401,"▁meme":5402,"▁Reddit.":5403,"net/":5404,"▁'t":5405,"▁Come":5406,"2009":5407,"▁IE":5408,"▁relative":5409,"▁everybody":5410,"▁thousands":5411,"▁wel":5412,"▁school.":5413,"▁hol":5414,"▁FTFY":5415,"ION":5416,"▁equal":5417,"ition.":5418,"gree":5419,"▁include":5420,"ological":5421,"ises":5422,"▁ment":5423,"▁4chan":5424,"▁select":5425,"Red":5426,"▁redu":5427,"▁doctor":5428,"▁sil":5429,"eff":5430,"ately,":5431,"▁wealth":5432,"▁counter":5433,"▁French":5434,"▁advice":5435,"▁happen.":5436,"▁appreciate":5437,"ma":5438,"32":5439,"▁Seriously":5440,"▁six":5441,"▁disgust":5442,"▁official":5443,"',":5444,"▁loud":5445,"rif":5446,"▁rub":5447,"▁Californ":5448,"▁replac":5449,"▁Republicans":5450,"ros":5451,"▁crow":5452,"▁Didn't":5453,"▁according":5454,"_p":5455,"orrow":5456,"36":5457,"▁tag":5458,"▁retarded":5459,"▁unf":5460,"annel":5461,"5.":5462,"stitution":5463,"gl":5464,"alt":5465,"ifi":5466,"▁headline":5467,"▁Jewish":5468,"▁feels":5469,"▁bug":5470,"ky":5471,"▁limit":5472,"▁uns":5473,"▁protest":5474,"▁keeps":5475,"▁Best":5476,"related":5477,"-to":5478,"imum":5479,"▁downmod":5480,"▁comic":5481,"eter":5482,"rd":5483,"▁added":5484,"▁finding":5485,"ise,":5486,"▁Christians":5487,"inst":5488,"as,":5489,"▁Jack":5490,"▁Israeli":5491,"▁travel":5492,"▁Think":5493,"1/":5494,"▁background":5495,"▁universe":5496,"▁intelligent":5497,"▁incredibly":5498,"ipe":5499,"▁sucks":5500,"▁*h":5501,"▁BE":5502,"itut":5503,"▁camera":5504,"▁go.":5505,"▁married":5506,"▁sudd":5507,"76":5508,"▁balls":5509,"▁North":5510,"▁Being":5511,"▁Especially":5512,"▁moved":5513,"▁drugs":5514,"▁walking":5515,"def":5516,"▁pointing":5517,"▁ALL":5518,"▁seemed":5519,"▁bec":5520,"well":5521,"▁highly":5522,"▁Person":5523,"▁deser":5524,"▁physical":5525,"ically,":5526,"▁http://imgur.com/":5527,"▁Comp":5528,"▁Why?":5529,"▁showing":5530,"▁say.":5531,"▁lawy":5532,"▁teen":5533,"▁societ":5534,"▁bon":5535,"▁propag":5536,"▁sites":5537,"▁club":5538,"▁Fed":5539,"▁complex":5540,"▁review":5541,"▁depends":5542,"▁HE":5543,"rome":5544,"▁24":5545,"lin":5546,"▁holding":5547,"sequ":5548,"pen":5549,"▁Part":5550,"AAAAAAAA":5551,"▁nerd":5552,"▁spl":5553,"▁subst":5554,"▁map":5555,"▁warn":5556,"▁submission":5557,"▁old.":5558,"▁puss":5559,"▁person.":5560,"▁ble":5561,"▁don't.":5562,"▁unfortun":5563,"▁Ev":5564,"▁therefore":5565,"ournal":5566,"▁Chinese":5567,"▁massive":5568,"news/":5569,"▁keyboard":5570,"▁transl":5571,"▁Tru":5572,"▁Hope":5573,"▁conservative":5574,"?)":5575,"▁understanding":5576,"-M":5577,"▁windows":5578,"▁HA":5579,"▁suppor":5580,"▁great.":5581,"▁traff":5582,"▁federal":5583,"esome":5584,"▁Check":5585,"'T":5586,"▁was.":5587,"▁Inst":5588,"soci":5589,"your":5590,"▁yout":5591,"▁neither":5592,"▁turns":5593,"▁pissed":5594,"icted":5595,"rog":5596,"▁giant":5597,"▁opposite":5598,"▁crash":5599,"▁sure.":5600,"▁esc":5601,"▁sorry,":5602,"▁var":5603,"▁\"n":5604,"▁reasonable":5605,"▁member":5606,"▁minute":5607,"▁millions":5608,"ained":5609,"iven":5610,"▁Sad":5611,"▁interview":5612,"7/":5613,"▁mir":5614,"84":5615,"gun":5616,"▁Two":5617,"▁fine.":5618,"▁coffee":5619,"ales":5620,"▁iPh":5621,"▁Thats":5622,"▁about?":5623,"men":5624,"▁mut":5625,"▁citizen":5626,"ously":5627,"▁US.":5628,"▁Either":5629,"100":5630,"pping":5631,"▁Bu":5632,"▁Keep":5633,"content":5634,"yl":5635,"▁annoying":5636,"▁something?":5637,"▁excuse":5638,"▁egg":5639,"▁grammar":5640,"▁remove":5641,"▁pig":5642,"▁Thanks.":5643,"▁onto":5644,"▁debate":5645,"8.":5646,"▁sweet":5647,"▁[M":5648,"▁indic":5649,"-A":5650,"IA":5651,"▁benefit":5652,"▁sudden":5653,"▁fasc":5654,"asturb":5655,"▁peace":5656,"▁cant":5657,"▁UP":5658,"ary,":5659,"▁election":5660,"▁offer":5661,"ounce":5662,"uke":5663,"▁bear":5664,"edit":5665,"cul":5666,"/w":5667,"ML":5668,"roc":5669,"ading":5670,"▁rational":5671,"ight.":5672,"▁Nobody":5673,"itle":5674,"▁bal":5675,"at,":5676,"pret":5677,"▁scientific":5678,"▁origin":5679,"▁weapon":5680,"▁States":5681,"ible.":5682,"▁init":5683,"▁bud":5684,"▁finan":5685,"▁~":5686,"▁ID":5687,"▁Har":5688,"'S":5689,"EEEE":5690,"▁thus":5691,"▁healthcare":5692,"▁confused":5693,"▁toilet":5694,"▁like.":5695,"▁decision":5696,"▁Sure,":5697,"▁education":5698,"▁we've":5699,"ades":5700,"▁necessarily":5701,"▁to,":5702,"▁policy":5703,"ause":5704,"ved.":5705,"ience":5706,"▁ended":5707,"▁bullshit.":5708,"▁bath":5709,"boy":5710,"▁News":5711,"▁idiot.":5712,"▁marriage":5713,"▁Her":5714,"▁income":5715,"▁members":5716,"▁property":5717,"▁head.":5718,"ams":5719,"cast":5720,"▁medic":5721,"▁browser":5722,"▁pregn":5723,"▁histor":5724,"▁planet":5725,"▁\"You":5726,"▁angry":5727,"▁Give":5728,"▁philosoph":5729,"▁controll":5730,"▁defend":5731,"▁lets":5732,"ees":5733,"▁episode":5734,"▁becomes":5735,"▁Their":5736,"▁earn":5737,"aging":5738,"ense.":5739,"▁do?":5740,"▁runs":5741,"▁*I":5742,"95":5743,"▁global":5744,"▁fully":5745,"E!":5746,"▁people's":5747,"ases":5748,"▁silly":5749,"▁fly":5750,"▁ya":5751,"▁Honest":5752,"▁however,":5753,"rant":5754,"▁bail":5755,"▁contact":5756,"▁neighbor":5757,"▁Fucking":5758,"-the":5759,"▁confus":5760,"▁have.":5761,"=1":5762,"▁17":5763,"▁animals":5764,"inary":5765,"edu":5766,"▁same.":5767,"▁are,":5768,"arter":5769,"UR":5770,"▁pap":5771,"▁positive":5772,"-r":5773,"▁,":5774,"▁names":5775,"ym":5776,"▁humor":5777,"olute":5778,"imm":5779,"▁(not":5780,"▁starts":5781,"▁Cap":5782,"▁plann":5783,"icide":5784,"▁lazy":5785,"▁perspect":5786,"▁jobs":5787,"▁mail":5788,"▁caused":5789,"▁spot":5790,"▁username":5791,"▁i've":5792,"▁Clinton":5793,"acy.":5794,"▁belong":5795,"▁*is":5796,"▁money,":5797,"asion":5798,"isp":5799,"▁opposed":5800,"▁conversation":5801,"▁bow":5802,"▁breat":5803,"▁boot":5804,"o.uk":5805,"▁mat":5806,"▁memory":5807,"▁appears":5808,"ashing":5809,"▁flu":5810,"C.":5811,"▁NSFW":5812,"▁over.":5813,"▁Many":5814,"▁hardly":5815,"▁Both":5816,"iness.":5817,"ification":5818,"▁atheists":5819,"▁Make":5820,"▁cute":5821,"▁previous":5822,"it's":5823,"▁plug":5824,"▁Agreed.":5825,"▁tells":5826,"▁driver":5827,"▁taught":5828,"▁influ":5829,"▁selling":5830,"eb":5831,"▁technology":5832,"▁ice":5833,"inate":5834,"▁knock":5835,"▁release":5836,"▁Cr":5837,"▁Java":5838,"▁thread.":5839,"ness.":5840,"id.":5841,"85":5842,"oshop":5843,"96":5844,"▁apply":5845,"▁politics":5846,"▁immediately":5847,"▁example,":5848,"▁life,":5849,"ley":5850,"▁[C":5851,"▁hide":5852,"▁Ap":5853,"line.":5854,"ddamn":5855,"▁Our":5856,"▁too!":5857,"oos":5858,"cies":5859,"point":5860,"itude":5861,"arant":5862,"▁fun.":5863,"That":5864,"oman":5865,"▁quit":5866,"▁enem":5867,"▁pizz":5868,"▁Ass":5869,"▁tough":5870,"ened":5871,"▁rout":5872,"in't":5873,"’s":5874,"terday":5875,"▁conclus":5876,"▁4.":5877,"▁demon":5878,"▁case.":5879,"▁down,":5880,"!!!!!!!!":5881,"▁ult":5882,"▁Cle":5883,"ario":5884,"▁propagand":5885,"▁crowd":5886,"▁off,":5887,"_d":5888,"job":5889,"nces":5890,"▁keeping":5891,"▁EVER":5892,"▁Off":5893,"▁Man,":5894,"▁MY":5895,"▁THIS":5896,"▁scr":5897,"▁became":5898,"ack.":5899,"▁ship":5900,"▁degree":5901,"▁fighting":5902,"inct":5903,"▁confirm":5904,"agon":5905,"▁failed":5906,"26":5907,"▁articles":5908,"▁violence":5909,"▁farm":5910,"▁comfort":5911,"▁raise":5912,"▁votes":5913,"um.":5914,"▁works.":5915,"▁George":5916,"▁popul":5917,"▁proud":5918,"▁weed":5919,"anced":5920,"bar":5921,"▁Dis":5922,"▁guessing":5923,"▁page.":5924,"▁shame":5925,"▁prep":5926,"▁ready":5927,"▁visit":5928,"lm":5929,"▁unlike":5930,"vered":5931,"▁via":5932,"eeee":5933,"▁agree,":5934,"▁delic":5935,"▁Second":5936,"▁relevant":5937,"aries":5938,"istan":5939,"▁designed":5940,"▁scared":5941,"▁tiny":5942,"▁guy,":5943,"▁gift":5944,"▁fundam":5945,"▁alternative":5946,"▁UN":5947,"▁Acc":5948,"da":5949,"▁plat":5950,"▁strange":5951,"▁morning":5952,"▁stere":5953,"▁study":5954,"▁cup":5955,"▁Bar":5956,"user":5957,"kn":5958,"ension":5959,"▁cloth":5960,"umm":5961,"/l":5962,"**.":5963,"▁standing":5964,"▁Something":5965,"▁und":5966,"▁display":5967,"▁folks":5968,"▁calls":5969,"le,":5970,"▁redditor":5971,"▁rat":5972,"▁particularly":5973,"▁Remember":5974,"▁chall":5975,"▁bike":5976,"▁Sun":5977,"▁anything,":5978,"▁wanna":5979,"▁ye":5980,"oor":5981,"▁judge":5982,"rong":5983,"▁okay":5984,"▁administ":5985,"feature":5986,"▁Step":5987,"▁Vist":5988,"▁cond":5989,"▁bad,":5990,"▁princi":5991,"ids":5992,"am.":5993,"arijuana":5994,"▁Inde":5995,"▁government.":5996,"▁of.":5997,"Reddit":5998,"▁requires":5999,"▁join":6000,"▁please.":6001,"▁week.":6002,"▁dangerous":6003,"▁understood":6004,"▁Athe":6005,"_the_":6006,"▁freak":6007,"▁regardless":6008,"▁night.":6009,"▁hosp":6010,"▁$5":6011,"▁Japanese":6012,"▁actually.":6013,"▁opportun":6014,"▁he'd":6015,"▁results":6016,"▁bot":6017,"▁mental":6018,"▁conspiracy":6019,"▁convin":6020,"ocol":6021,"▁fixed":6022,"force":6023,"▁wtf":6024,"_c":6025,"▁videos":6026,"▁pill":6027,"▁somewhat":6028,"-n":6029,"▁once.":6030,"/t":6031,"▁zomb":6032,"▁hardware":6033,"▁determ":6034,"==":6035,"▁Cath":6036,"▁Pol":6037,"uman":6038,"th.":6039,"ipping":6040,"▁ME":6041,"▁facts":6042,"Re":6043,"▁brill":6044,"▁below":6045,"▁mer":6046,"abor":6047,"▁truck":6048,"▁70":6049,"ile.":6050,"P.":6051,"mail":6052,",\"":6053,"alm":6054,"▁PR":6055,"▁occur":6056,"▁spelling":6057,"HT":6058,"▁addit":6059,"▁frequ":6060,"▁subscri":6061,"▁learning":6062,"▁Though":6063,"▁rh":6064,"▁Hitler":6065,"O.":6066,"-)":6067,"▁corrupt":6068,"ain.":6069,"▁consist":6070,"▁password":6071,"▁defense":6072,"▁What?":6073,"ening":6074,"▁electric":6075,"ily.":6076,"every":6077,"PS":6078,"▁whose":6079,"▁chem":6080,"▁boyfriend":6081,"▁bra":6082,"▁saving":6083,"▁hilar":6084,"▁sake":6085,"sem":6086,"▁plus":6087,"▁flag":6088,"▁masturb":6089,"▁Rel":6090,"aven":6091,"▁harder":6092,"▁feet":6093,"▁request":6094,"▁America.":6095,"▁*d":6096,"▁default":6097,"▁Kore":6098,"▁zero":6099,"iring":6100,"▁wood":6101,"nc":6102,"ickr":6103,"▁environment":6104,"ENT":6105,"▁irre":6106,"ius":6107,"ish.":6108,"wich":6109,"▁milk":6110,"▁corporate":6111,"▁tap":6112,"▁issue.":6113,"ility.":6114,"py":6115,"▁claims":6116,"▁world,":6117,"is,":6118,"▁sir.":6119,"▁batter":6120,"▁hole":6121,"▁logical":6122,"▁nothing.":6123,"▁1)":6124,"▁ach":6125,"▁libertarian":6126,"▁douchebag":6127,"leg":6128,"▁associ":6129,"▁Kind":6130,"▁radio":6131,"____":6132,"▁lying":6133,"▁board":6134,"o?":6135,"▁You'll":6136,"▁[P":6137,"▁course.":6138,"▁hus":6139,"▁indeed":6140,"▁potential":6141,"▁clar":6142,"overed":6143,"8/0":6144,"uh":6145,"▁park":6146,"▁want.":6147,"_f":6148,"▁command":6149,"▁linked":6150,"db":6151,"▁setting":6152,"!?":6153,"reh":6154,"▁expecting":6155,"iliar":6156,"▁NE":6157,"▁FOR":6158,"icit":6159,"▁&gt;S":6160,"▁grab":6161,"▁compare":6162,"▁held":6163,"▁leaving":6164,"▁Res":6165,"▁Comm":6166,"▁cele":6167,"▁infin":6168,"arrass":6169,"▁linux":6170,"9/":6171,"▁White":6172,"apt":6173,"ene":6174,"▁Another":6175,"ession":6176,"*?":6177,"▁thousand":6178,"37":6179,"▁gee":6180,"▁encour":6181,"▁quickly":6182,"ushing":6183,"▁Wikipedia":6184,"▁hip":6185,"▁correct.":6186,"▁fired":6187,"▁students":6188,"▁Better":6189,"▁powerful":6190,"▁it'll":6191,"▁progress":6192,"▁jokes":6193,"▁Time":6194,"ian.":6195,"▁necessary":6196,"▁DV":6197,"antic":6198,"▁brand":6199,"ceed":6200,"▁intention":6201,"shot":6202,"▁Sy":6203,"▁increase":6204,"▁York":6205,"imes.":6206,"▁[Here":6207,"▁miles":6208,"iers":6209,"article":6210,"▁ARE":6211,"▁Ag":6212,"_m":6213,"▁citizens":6214,"▁der":6215,"ite,":6216,"▁care.":6217,"▁Sl":6218,"ST":6219,"/or":6220,"▁Ha":6221,"▁sucks.":6222,"▁wait,":6223,"▁plant":6224,"ruction":6225,"▁perm":6226,"▁face.":6227,"▁friend.":6228,"▁too?":6229,"hhhh":6230,"▁tow":6231,"▁Sat":6232,"athe":6233,"ux":6234,"▁[B":6235,"▁You'd":6236,"▁[here":6237,"5%":6238,"▁Out":6239,"ation?":6240,"▁phrase":6241,"web":6242,"ilit":6243,"▁ain't":6244,"▁label":6245,"▁refuse":6246,"▁useless":6247,"▁excellent":6248,"▁hearing":6249,"▁downmodded":6250,"0.":6251,"▁submit":6252,"▁restaur":6253,"▁SU":6254,"ipped":6255,"▁Call":6256,"▁equival":6257,"bur":6258,"▁enough,":6259,"▁hand,":6260,"▁ads":6261,"▁Put":6262,"▁hadn't":6263,"▁scene":6264,"▁accurate":6265,"photos":6266,"▁fresh":6267,"ugg":6268,"▁execut":6269,"ghan":6270,"▁LI":6271,"▁But,":6272,"▁word.":6273,"▁mouse":6274,"▁player":6275,"▁cheese":6276,"▁covered":6277,"▁dise":6278,"▁see.":6279,"▁one?":6280,"▁*is*":6281,"▁analog":6282,"▁FUCKING":6283,"ulate":6284,"-year":6285,"▁picked":6286,"94":6287,"▁alien":6288,"▁video.":6289,"ing\"":6290,"▁appropriate":6291,"▁yesterday":6292,"▁dude.":6293,"▁master":6294,"▁Michael":6295,"▁here?":6296,"▁ride":6297,"▁trip":6298,"▁Bel":6299,"▁bes":6300,"▁hero":6301,"▁homosexual":6302,"▁independ":6303,"CT":6304,"▁possible.":6305,"▁weapons":6306,"vent":6307,"▁wire":6308,"▁resour":6309,"▁Obama's":6310,"▁Okay,":6311,"really":6312,"▁Last":6313,"uuuu":6314,"rat":6315,"anch":6316,"▁site.":6317,"▁Next":6318,"▁clever":6319,"▁advoc":6320,"ERE":6321,"▁chicken":6322,"▁(A":6323,"▁terrorist":6324,"ain,":6325,"▁wild":6326,"▁everything.":6327,"compl":6328,"wood":6329,"66":6330,"2/":6331,"▁dump":6332,"▁cig":6333,"rict":6334,"ure,":6335,"▁*not":6336,"▁advant":6337,"▁idiots":6338,"ino":6339,"▁degre":6340,"3/":6341,"▁“":6342,"))":6343,"▁strang":6344,"▁expected":6345,"▁Exactly.":6346,"aying":6347,"oney":6348,"▁colleg":6349,"▁tear":6350,"ms":6351,"▁yet,":6352,"▁law.":6353,"▁whenever":6354,"▁changes":6355,"▁lat":6356,"erry":6357,"▁not?":6358,"▁lucky":6359,"▁pulled":6360,"▁lob":6361,"press":6362,"▁YOUR":6363,"▁insan":6364,"▁other.":6365,"▁SO":6366,"lier":6367,"▁Wor":6368,"&amp;s":6369,"lock":6370,"▁comments.":6371,"▁capt":6372,"▁beginning":6373,"ilty":6374,"nder":6375,"▁sex.":6376,"idge":6377,"▁Beck":6378,"▁various":6379,"▁Ever":6380,"apping":6381,"_h":6382,"▁plain":6383,"SD":6384,"ucin":6385,"2,":6386,"▁innocent":6387,"▁pock":6388,"▁detect":6389,"▁funny,":6390,"▁Bible":6391,"▁vast":6392,"▁book.":6393,"▁wide":6394,"▁shooting":6395,"▁reminds":6396,"up.":6397,"▁iPhone":6398,"▁interpret":6399,"▁cast":6400,"inter":6401,"▁Co":6402,"▁rent":6403,"stream":6404,"c.":6405,"▁youtube":6406,"▁flaw":6407,"▁Watch":6408,"▁former":6409,"▁valu":6410,"▁din":6411,"buntu":6412,"▁constitution":6413,"▁showed":6414,"▁Amaz":6415,"▁....":6416,"▁approach":6417,"▁topic":6418,"▁question,":6419,"▁prem":6420,"▁broad":6421,"▁themselves.":6422,"▁(as":6423,"ress.":6424,"▁[This":6425,"▁others.":6426,"▁Way":6427,"reak":6428,"lt":6429,"RL":6430,"▁Christmas":6431,"▁candidate":6432,"think":6433,"usion":6434,"▁arguing":6435,"▁stereot":6436,"hered":6437,"▁types":6438,"s:":6439,"▁becoming":6440,"▁2000":6441,"▁up?":6442,"▁pretend":6443,"▁produce":6444,"▁link.":6445,"▁tomorrow":6446,"▁final":6447,"▁score":6448,"▁High":6449,"--------":6450,"alo":6451,"▁greatest":6452,"▁Hillary":6453,"▁replace":6454,"▁wing":6455,"▁\"I'm":6456,"▁guess.":6457,"▁CD":6458,"IP":6459,"▁files":6460,"▁thanks.":6461,"▁smaller":6462,"▁part.":6463,"▁listening":6464,"▁prices":6465,"▁something,":6466,"▁american":6467,"▁lady":6468,"▁improve":6469,"▁boss":6470,"▁acting":6471,"▁recall":6472,"_b":6473,"▁reaction":6474,"▁home.":6475,"▁ge":6476,"isl":6477,"▁merely":6478,"▁things,":6479,"27":6480,"▁is?":6481,"▁Wouldn't":6482,"▁bible":6483,"▁\"E":6484,"aught":6485,"▁women.":6486,"rated":6487,"▁metal":6488,"▁soul":6489,"UN":6490,"▁can.":6491,"▁laughing":6492,"▁god,":6493,"▁effective":6494,"▁Pe":6495,"▁actions":6496,"▁cens":6497,"▁OM":6498,"▁that...":6499,"▁significant":6500,"ed\"":6501,"▁throwing":6502,"ocal":6503,"▁ring":6504,"▁Yeah.":6505,"▁behavior":6506,"▁introdu":6507,"▁here's":6508,"-S":6509,"▁C++":6510,"▁veget":6511,"▁helps":6512,"▁swear":6513,"▁nom":6514,"ablish":6515,"iday":6516,"▁intellect":6517,"▁license":6518,"▁awful":6519,"aces":6520,"▁God,":6521,"▁Cont":6522,"▁rare":6523,"rug":6524,"▁larger":6525,"▁matter.":6526,"change":6527,"▁husband":6528,"▁embarrass":6529,"▁cares":6530,"▁***":6531,"▁Russia":6532,"▁IP":6533,"▁Texas":6534,"-D":6535,"▁fuel":6536,"hold":6537,"▁hun":6538,"▁vac":6539,"▁fellow":6540,"▁Bas":6541,"▁writ":6542,"▁existence":6543,"▁religion.":6544,"▁end.":6545,"-of":6546,"▁desktop":6547,"ally.":6548,"▁fet":6549,"▁[D":6550,"win":6551,"▁ugly":6552,"▁condom":6553,"▁pics":6554,"▁despite":6555,"▁free.":6556,"▁upgr":6557,"▁Got":6558,"▁grew":6559,"▁sen":6560,"▁guarant":6561,"iling":6562,"▁sequ":6563,"▁downmodd":6564,"▁launch":6565,"▁automatically":6566,"▁arch":6567,"izes":6568,"▁cases":6569,"TA":6570,"el.":6571,"▁Thanks,":6572,"▁passed":6573,"87":6574,"upload":6575,"▁DR":6576,"▁daily":6577,"▁he'll":6578,"▁regist":6579,"▁sandwich":6580,"herent":6581,"▁measure":6582,"▁Da":6583,"▁platform":6584,"▁much,":6585,"▁lot.":6586,"▁traffic":6587,"-old":6588,"▁breaking":6589,"TER":6590,"m...":6591,"▁describe":6592,"idden":6593,"▁saved":6594,"▁&gt;H":6595,"ians.":6596,"▁Wo":6597,"▁WE":6598,"▁\"R":6599,"▁cred":6600,"▁loves":6601,"▁&gt;\"":6602,"▁WW":6603,"▁interesting.":6604,"▁Post":6605,"▁tank":6606,"▁war.":6607,"onald":6608,"▁plastic":6609,"▁flying":6610,"▁CH":6611,"yy":6612,"▁plane":6613,"vi":6614,"▁Love":6615,"PG":6616,"▁argument.":6617,"▁incorrect":6618,"▁welcome":6619,"1,":6620,"▁checked":6621,"▁Reg":6622,"rs":6623,"oring":6624,"▁financial":6625,"▁Now,":6626,"LD":6627,"97":6628,"uz":6629,"▁;-)":6630,"▁superior":6631,"▁pee":6632,"▁Having":6633,"▁nons":6634,"▁was,":6635,"▁did,":6636,"ference":6637,"▁struct":6638,"▁trade":6639,"▁0.":6640,"▁people?":6641,"nn":6642,"shit":6643,"▁West":6644,"▁Democrats":6645,"▁hundreds":6646,"phone":6647,"▁seat":6648,"▁from?":6649,"inated":6650,"▁show.":6651,"hib":6652,"ion?":6653,"▁naked":6654,"avid":6655,"▁bat":6656,"▁Frank":6657,"egr":6658,"▁novel":6659,"▁vs":6660,"▁comment,":6661,"▁forum":6662,"▁veh":6663,"▁Free":6664,"▁OK,":6665,"▁fair,":6666,"▁mean?":6667,"ase.":6668,"▁pup":6669,"▁Cool":6670,"▁submiss":6671,"▁eh?":6672,"▁Scient":6673,"ans.":6674,"▁turning":6675,"▁empt":6676,"▁summ":6677,"enced":6678,"clud":6679,"check":6680,"▁her,":6681,"▁wanting":6682,"▁suit":6683,"▁purpos":6684,"▁grade":6685,"look":6686,"▁bird":6687,"▁episod":6688,"gramm":6689,"▁Wel":6690,"▁prior":6691,"▁separate":6692,"▁que":6693,"▁DE":6694,"▁Anyway":6695,"▁Des":6696,"▁pant":6697,"▁Ed":6698,"▁Use":6699,"zen":6700,"▁typical":6701,"aint":6702,"▁languages":6703,"/4":6704,"▁and/or":6705,"▁managed":6706,"▁journal":6707,"▁weekend":6708,"▁own.":6709,"▁till":6710,"itions":6711,"YY":6712,"ating.":6713,"▁opinion.":6714,"?q=":6715,"▁pants":6716,"▁)":6717,"▁practice":6718,"ALLY":6719,"content/":6720,"▁constantly":6721,"▁car.":6722,"ica":6723,"▁before,":6724,"pre":6725,"▁Ubuntu":6726,"▁Rock":6727,"▁[The":6728,"co":6729,"ength":6730,"▁cheaper":6731,"▁crap.":6732,"▁happening":6733,"▁Id":6734,"amb":6735,"▁damage":6736,"▁growing":6737,"▁article,":6738,"▁Cor":6739,"ingly":6740,"▁Palestinians":6741,"▁moon":6742,"▁spir":6743,"▁decis":6744,"uts":6745,"▁exerc":6746,"▁&gt;Wh":6747,"▁\\":6748,"edd":6749,"▁tv":6750,"ilities":6751,"▁someone's":6752,"ious,":6753,"kward":6754,"▁sho":6755,"23":6756,"▁computers":6757,"▁ast":6758,"▁House":6759,"▁game,":6760,"kin":6761,"▁read.":6762,"war":6763,"▁water.":6764,"▁info":6765,"▁solid":6766,"▁Nah,":6767,"▁Everything":6768,"A,":6769,"-a":6770,"agine":6771,"ors.":6772,"▁Afghan":6773,"oom":6774,"action":6775,"▁immig":6776,"why":6777,"▁already.":6778,"ilari":6779,"▁for,":6780,"▁joking":6781,"▁cab":6782,"▁guilty":6783,"▁Swed":6784,"▁hilarious":6785,"▁exist.":6786,"▁familiar":6787,"▁submitted":6788,"kell":6789,"▁rough":6790,"▁dirty":6791,"▁worried":6792,"▁[F":6793,"wor":6794,"▁limited":6795,"▁re-":6796,"▁house.":6797,"▁sister":6798,"▁mechan":6799,"▁shown":6800,"▁alive":6801,"▁accidentally":6802,"▁max":6803,"▁me!":6804,"▁goal":6805,"▁Oper":6806,"▁loss":6807,"agn":6808,"▁Python":6809,"▁cake":6810,"▁ske":6811,"▁losing":6812,"▁moron":6813,"▁depend":6814,"▁reven":6815,"▁judg":6816,"▁supporting":6817,"a's":6818,"▁sheep":6819,"▁PH":6820,"l.":6821,"▁mount":6822,"▁parties":6823,"▁fundamental":6824,"▁Er":6825,"▁breast":6826,"use.":6827,"▁Hu":6828,"▁motiv":6829,"oops":6830,"_t":6831,"▁die.":6832,"Edit":6833,"▁Kn":6834,"uine":6835,"▁[s":6836,"aching":6837,"▁puts":6838,"imp":6839,"▁job,":6840,"▁alt":6841,"ufact":6842,"ager":6843,"\")":6844,"▁goddamn":6845,"icks":6846,"▁year,":6847,"flickr":6848,"▁images":6849,"▁time?":6850,"▁brown":6851,"▁Australia":6852,"▁...and":6853,"55":6854,"▁2)":6855,"▁friends.":6856,"6.":6857,"▁upmod":6858,"▁language.":6859,"▁*f":6860,"▁hon":6861,"▁cancer":6862,"▁games.":6863,"▁section":6864,"▁pages":6865,"▁mean.":6866,"▁HD":6867,"▁we'd":6868,"▁bub":6869,"▁\"Y":6870,"▁equivalent":6871,"▁reflect":6872,"▁owned":6873,"▁asshole.":6874,"imb":6875,"▁Back":6876,"feature=":6877,"▁prec":6878,"see":6879,"ka":6880,"▁vs.":6881,"▁proven":6882,"about":6883,"▁outr":6884,"▁kids.":6885,"▁dead.":6886,"▁torrent":6887,"▁whore":6888,"▁muslim":6889,"▁gradu":6890,"▁\"st":6891,"▁insane":6892,"▁ord":6893,"▁barely":6894,"▁CAN":6895,"▁elected":6896,"▁explanation":6897,"▁virt":6898,"▁abuse":6899,"▁Hamas":6900,"▁disturb":6901,"▁confl":6902,"flickr.com/":6903,"info/":6904,"▁Tre":6905,"arett":6906,"▁communic":6907,"&amp;feature=":6908,"ology.":6909,"▁symb":6910,"▁assault":6911,"▁owners":6912,"/3":6913,"▁Univers":6914,"ime.":6915,"▁ju":6916,"▁enjoyed":6917,"ah.":6918,"imal":6919,"▁King":6920,"▁resist":6921,"▁itself.":6922,"RA":6923,"ical.":6924,"riv":6925,"▁sir,":6926,"h...":6927,"▁CS":6928,"▁[N":6929,"▁changing":6930,"▁root":6931,"ij":6932,"illa":6933,"▁south":6934,"▁dire":6935,"▁AL":6936,"host":6937,"▁assumed":6938,"▁mal":6939,"▁letting":6940,"xy":6941,"▁finger":6942,"▁focus":6943,"▁Dear":6944,"▁while.":6945,"▁atheism":6946,"GB":6947,"anish":6948,"▁wake":6949,"***":6950,"eless":6951,"!)":6952,"▁Show":6953,"▁suddenly":6954,"▁consequ":6955,"▁heavy":6956,"▁bread":6957,"▁one's":6958,"▁instead.":6959,"▁commit":6960,"▁frame":6961,"▁depart":6962,"world":6963,"▁Sec":6964,"▁ends":6965,"▁help.":6966,"▁thumb":6967,"▁drag":6968,"▁list.":6969,"▁investig":6970,"▁lame":6971,"▁creation":6972,"▁bathroom":6973,"▁serve":6974,"images/":6975,"▁sure,":6976,"▁enter":6977,"▁core":6978,"▁pointed":6979,"order":6980,"0000":6981,"▁better,":6982,"▁utter":6983,"▁Old":6984,"▁out?":6985,"OME":6986,"▁WHAT":6987,"ife.":6988,"▁raised":6989,"▁didnt":6990,"▁solve":6991,"▁poster":6992,"▁cunt":6993,"▁filled":6994,"▁politicians":6995,"▁earlier":6996,"▁^":6997,"df":6998,"▁aside":6999,"▁Gold":7000,"▁trash":7001,"▁professional":7002,"itar":7003,"▁favour":7004,"▁AS":7005,"▁allows":7006,"▁kinds":7007,"▁rain":7008,"▁celebr":7009,"KE":7010,"ih":7011,"GE":7012,"▁Instead":7013,"FFFF":7014,"▁Par":7015,"▁*c":7016,"▁calcul":7017,"▁diss":7018,"▁establish":7019,"▁nail":7020,"orid":7021,"▁mistak":7022,"▁ruin":7023,"I.":7024,"▁500":7025,"▁occup":7026,"icag":7027,"▁Face":7028,"▁systems":7029,"▁Obviously":7030,"▁om":7031,"▁*m":7032,"▁released":7033,"▁'em":7034,"▁Ask":7035,"▁words,":7036,"▁dish":7037,"ass,":7038,"▁clip":7039,"arah":7040,"core":7041,"ices.":7042,"▁Abs":7043,"▁girl.":7044,"ucinich":7045,"▁arguments":7046,"▁marry":7047,"▁exists":7048,"▁According":7049,"▁(f":7050,"▁!=":7051,"29":7052,"▁(m":7053,"ns":7054,"▁Met":7055,"▁Yep,":7056,"▁essentially":7057,"▁closer":7058,"▁school,":7059,"▁tradition":7060,"▁Open":7061,"▁seriously,":7062,"z.":7063,"▁children.":7064,"▁European":7065,"▁Seriously.":7066,"ls":7067,"▁be,":7068,"▁$10":7069,"▁DVD":7070,"UST":7071,"▁dogs":7072,"PL":7073,"▁mob":7074,"▁guys.":7075,"▁Congress":7076,"illing":7077,"▁intelligence":7078,"ian,":7079,"▁tech":7080,"▁tall":7081,"y\"":7082,"ept":7083,"▁Plus":7084,"▁forever":7085,"▁state.":7086,"▁*that":7087,"▁first,":7088,"▁England":7089,"▁legisl":7090,"ries.":7091,"▁garb":7092,"jpg)":7093,"▁channel":7094,"▁situation.":7095,"▁recognize":7096,"only":7097,"▁idea,":7098,"▁groups":7099,"atri":7100,"-8":7101,"▁fag":7102,"▁development":7103,"▁work?":7104,"▁mort":7105,"▁hard.":7106,"▁will.":7107,"▁subreddit.":7108,"▁Fin":7109,"▁difference.":7110,"28":7111,"▁$100":7112,"▁removed":7113,"nic":7114,"▁helped":7115,"▁nice.":7116,"▁trail":7117,"employ":7118,"▁horse":7119,"▁sugar":7120,"▁Ant":7121,"▁see,":7122,"gov":7123,"▁banned":7124,"▁flat":7125,"mpath":7126,"index.":7127,"▁budget":7128,"gif":7129,"kcd":7130,"iche":7131,"ounced":7132,"▁bit.":7133,"47":7134,"▁I,":7135,"▁Lets":7136,"▁statist":7137,"▁Law":7138,"▁virgin":7139,"▁worse.":7140,"▁exclus":7141,"▁Awesome":7142,"9%":7143,"title":7144,"oooooooo":7145,"▁California":7146,"ahoo":7147,"▁dropped":7148,"▁busy":7149,"▁anarch":7150,"ancy":7151,"ast.":7152,"▁accompl":7153,"l=":7154,"▁minimum":7155,"▁360":7156,"▁Wal":7157,"▁inch":7158,"arians":7159,"retch":7160,"▁Em":7161,"▁3rd":7162,"▁deserves":7163,"▁apparent":7164,"iam":7165,"▁win.":7166,"▁hospital":7167,"▁believes":7168,"▁suicide":7169,"▁generation":7170,".co.uk":7171,"▁grav":7172,"esh":7173,"▁Tom":7174,"▁Sub":7175,"▁:/":7176,"▁hates":7177,"▁it'd":7178,"ity?":7179,"▁fash":7180,"▁manufact":7181,"arl":7182,"▁wheel":7183,"▁torture":7184,"▁laid":7185,"OOOOOOOO":7186,"▁Sen":7187,"▁\"you":7188,"▁cats":7189,"us/":7190,"ato":7191,"▁Nope,":7192,"▁bottle":7193,"▁GOD":7194,"▁laughed":7195,"IV":7196,"▁great,":7197,"▁ending":7198,"▁back,":7199,"▁helping":7200,"▁for?":7201,"block":7202,"▁disagree.":7203,"▁beliefs":7204,"▁Dr.":7205,"▁Haha,":7206,"'?":7207,"▁crappy":7208,"▁programmer":7209,"▁capable":7210,"▁justify":7211,"▁sales":7212,"▁border":7213,"-re":7214,"▁pair":7215,"ter,":7216,"post":7217,"fire":7218,"▁supply":7219,"▁wikipedia":7220,"ated,":7221,"▁motherfuck":7222,"▁to?":7223,"▁Jud":7224,"▁contribut":7225,"▁him?":7226,"▁Unfortunately,":7227,"▁snow":7228,"▁pool":7229,"▁again?":7230,"▁successful":7231,"ayer":7232,"y!":7233,"▁different.":7234,"▁ticket":7235,"les,":7236,"ier.":7237,"▁characters":7238,"▁\"J":7239,"round":7240,"▁causes":7241,"▁bored":7242,"▁Imagine":7243,"▁Reddit,":7244,"▁scary":7245,"▁bright":7246,"▁Bad":7247,"▁best.":7248,"ies?":7249,"▁daughter":7250,"▁tree":7251,"u.":7252,"term":7253,"▁*not*":7254,"▁photos":7255,"UL":7256,"▁reject":7257,"▁adop":7258,"S!":7259,"▁Bes":7260,"/g":7261,"▁satis":7262,"▁abortion":7263,"▁genuine":7264,"▁liqu":7265,"▁Rich":7266,"▁gang":7267,"vere":7268,"▁bastard":7269,"▁telev":7270,"ribly":7271,"▁rarely":7272,"▁Vista":7273,"▁dare":7274,"▁reb":7275,"▁toler":7276,"▁holy":7277,"aling":7278,"ics/":7279,"▁fold":7280,"▁greater":7281,"▁thing?":7282,"▁hilari":7283,"-B":7284,"▁discovered":7285,"▁problem,":7286,"▁magic":7287,"ate?":7288,"▁Obama.":7289,"▁Men":7290,"inds":7291,"▁table":7292,"▁tour":7293,"▁truth.":7294,"▁is:":7295,"oca":7296,"▁Bull":7297,"ribute":7298,"▁sorry.":7299,"▁[T":7300,"▁suggesting":7301,"▁jerk":7302,"▁FF":7303,"▁properly":7304,"▁awkward":7305,"▁that!":7306,"AKE":7307,"▁closed":7308,"▁Hard":7309,"98":7310,"▁*you":7311,"ja":7312,"▁dict":7313,"▁absolute":7314,"▁wow":7315,"▁summer":7316,"acon":7317,"amed":7318,"?!?!":7319,"▁sock":7320,"▁rot":7321,"asses":7322,"▁claiming":7323,"▁technically":7324,"▁creating":7325,"part":7326,"):":7327,"▁Otherw":7328,"ops":7329,"▁Thanks!":7330,"▁gain":7331,"▁concerned":7332,"▁views":7333,"▁um":7334,"▁ANY":7335,"inem":7336,"▁gig":7337,"allow":7338,"▁copyright":7339,"▁300":7340,"▁[c":7341,"▁deny":7342,"▁god.":7343,"▁dying":7344,"▁choice.":7345,"▁verb":7346,"arcasm":7347,"▁\"a":7348,"▁times,":7349,"▁-&gt;":7350,"▁maintain":7351,"▁stab":7352,"▁assholes":7353,"_w":7354,"▁schools":7355,"▁SP":7356,"▁bang":7357,"ANT":7358,"▁amazing.":7359,"zer":7360,"▁intended":7361,"▁Real":7362,"▁addict":7363,"/st":7364,"▁boring":7365,"▁Mo":7366,"ace,":7367,"awn":7368,"bon":7369,"imately":7370,"ament":7371,"hern":7372,"▁prob":7373,"▁me...":7374,"▁use.":7375,"▁integr":7376,"▁contain":7377,"▁point?":7378,"▁BTW":7379,"aded":7380,"▁predict":7381,"▁spin":7382,"▁teaching":7383,"▁categ":7384,"▁1000":7385,"▁(I'm":7386,"▁convert":7387,"▁[L":7388,"▁Care":7389,"▁violent":7390,"utch":7391,"▁democracy":7392,"▁native":7393,"▁Expl":7394,"up,":7395,"mmmm":7396,"emon":7397,"▁challen":7398,"▁business.":7399,"▁OMG":7400,"▁remote":7401,"▁upset":7402,"ness,":7403,"▁irony":7404,"less,":7405,"▁ones.":7406,"▁impression":7407,"▁\"What":7408,"▁line.":7409,"▁international":7410,"▁together.":7411,"ides,":7412,"▁manage":7413,"▁responsibility":7414,"ONE":7415,"oral":7416,"▁marijuana":7417,"▁dude,":7418,"▁naz":7419,"........":7420,"▁tact":7421,"▁XP":7422,"-ch":7423,"▁HT":7424,"▁org":7425,"▁kid.":7426,"ant,":7427,"▁comparison":7428,"▁mock":7429,"umer":7430,"▁means.":7431,"anted":7432,"▁answer.":7433,"▁Tot":7434,"2009/0":7435,"▁90%":7436,"▁dry":7437,"idence.":7438,"ORE":7439,"CE":7440,"ge,":7441,"Is":7442,"aser":7443,"▁guy's":7444,"▁Funny":7445,"▁mand":7446,"eney":7447,"▁curren":7448,"▁direction":7449,"▁sad.":7450,"▁convince":7451,"▁&gt;B":7452,"▁power.":7453,"-and":7454,"▁problems.":7455,"▁trend":7456,"▁21":7457,"▁cigarett":7458,"▁understand.":7459,"▁publish":7460,"others":7461,"▁invented":7462,"_to":7463,"ront":7464,"gor":7465,"▁simpl":7466,"▁conven":7467,"▁EVERY":7468,"▁station":7469,"▁finished":7470,"liv":7471,"▁happened.":7472,"▁compreh":7473,"polit":7474,"▁Over":7475,"▁english":7476,"▁banks":7477,"otic":7478,"▁[W":7479,"▁programs":7480,"▁OH":7481,"▁Whatever":7482,"ves,":7483,"▁cable":7484,"▁stealing":7485,"▁mirror":7486,"▁kiss":7487,"▁normally":7488,"dr":7489,"product":7490,"▁Women":7491,"▁products":7492,"mber":7493,"▁Life":7494,"t=":7495,"1)":7496,"Un":7497,"▁birthday":7498,"▁clicked":7499,"▁boob":7500,"▁Muslims":7501,"▁food.":7502,"▁neck":7503,"▁particip":7504,"imdb":7505,"appe":7506,"ribution":7507,"▁God.":7508,"▁experience.":7509,"▁poop":7510,"▁chose":7511,"▁reve":7512,"▁convinced":7513,"▁country,":7514,"▁raped":7515,"_a_":7516,"ativ":7517,"▁hated":7518,"_in":7519,"EO":7520,"▁El":7521,"icial":7522,"▁define":7523,"▁US,":7524,"▁wont":7525,"▁lunch":7526,"▁legitimate":7527,"resp":7528,"▁songs":7529,"▁sympath":7530,"▁aim":7531,"▁Sn":7532,"▁Unt":7533,"▁impact":7534,"ha":7535,"S,":7536,"▁(a":7537,"▁dial":7538,"er.com/":7539,"▁McD":7540,"▁adding":7541,"▁YE":7542,"▁absurd":7543,"they":7544,"-P":7545,"▁later.":7546,"▁months.":7547,"▁Ma":7548,"▁demonstr":7549,"▁sides":7550,"▁obsc":7551,"▁desire":7552,"▁La":7553,"▁Super":7554,"▁football":7555,"▁Val":7556,"▁troll.":7557,"▁elabor":7558,"▁America,":7559,"▁complaining":7560,"imdb.com/":7561,"oog":7562,"▁effects":7563,"44":7564,"▁pizza":7565,"esc":7566,"os.":7567,"▁hell.":7568,"▁Indian":7569,"reme":7570,"▁monitor":7571,"bb":7572,"edic":7573,"▁wit":7574,"opath":7575,"](http://www.reddit.com/":7576,"▁real.":7577,"▁shar":7578,"MM":7579,"▁sill":7580,"icy":7581,"jo":7582,"▁title.":7583,"-0":7584,"▁Before":7585,"▁True":7586,"▁CO":7587,"▁Hell,":7588,"▁change.":7589,"▁opinions":7590,"ocaust":7591,"know":7592,"▁sending":7593,"65":7594,"▁Park":7595,"▁heads":7596,"▁haha":7597,"▁Leg":7598,"▁tons":7599,"UUUUUUUU":7600,"▁music.":7601,"IGHT":7602,"▁ston":7603,"▁kills":7604,"▁efficient":7605,"er\"":7606,"▁incident":7607,"▁Sch":7608,"▁Welcome":7609,"▁Were":7610,"▁opportunity":7611,"▁circle":7612,"▁hug":7613,"▁system,":7614,"▁Cent":7615,"▁attractive":7616,"la":7617,"▁words.":7618,"▁Kucinich":7619,"▁ridiculous.":7620,"▁mainstream":7621,"aby":7622,"▁talked":7623,"▁israel":7624,"▁*S":7625,"▁Social":7626,"ick.":7627,"▁seen.":7628,"▁Yet":7629,"▁amb":7630,"▁symbol":7631,"▁dism":7632,"▁Joe":7633,"▁conflict":7634,"▁dun":7635,"▁san":7636,"▁nast":7637,"▁long.":7638,"▁army":7639,"▁Nope.":7640,"▁relatively":7641,"CD":7642,"▁history.":7643,"▁surprise":7644,"▁facebook":7645,"▁(N":7646,"onymous":7647,"ve.":7648,"▁condition":7649,"▁dislike":7650,"▁crazy.":7651,"necess":7652,"▁i'd":7653,"▁na":7654,"▁why.":7655,"▁us,":7656,"▁Constitution":7657,"▁plays":7658,"67":7659,"ule":7660,"▁news.":7661,"▁seriously.":7662,"▁hur":7663,"▁attach":7664,"▁Guess":7665,"????":7666,"▁followed":7667,"▁bailout":7668,"▁far.":7669,"▁length":7670,"!*":7671,"man.":7672,"▁Tor":7673,"▁format":7674,"▁hung":7675,"▁flav":7676,"▁lies":7677,"▁wash":7678,"▁Interesting":7679,"▁what,":7680,"▁yours":7681,"▁Government":7682,"ities.":7683,"▁usual":7684,"▁dating":7685,"▁wonderful":7686,"In":7687,"▁TF":7688,"▁more,":7689,"▁huh?":7690,"▁acceptable":7691,"▁rab":7692,"▁tatt":7693,"▁invent":7694,"▁[O":7695,"inating":7696,"▁aspect":7697,"▁role":7698,"▁cann":7699,"html)":7700,"▁treated":7701,"▁attacks":7702,"▁compil":7703,"▁shift":7704,"▁from.":7705,"▁Mark":7706,"▁Defin":7707,"▁incomp":7708,"▁stol":7709,"▁basis":7710,"▁players":7711,"▁blank":7712,"6/":7713,"▁nar":7714,"▁*t":7715,"ap.":7716,"▁Add":7717,"▁alone.":7718,"▁DN":7719,"▁Unfortunately":7720,"▁wondered":7721,"▁Port":7722,"law":7723,"'s,":7724,"▁Gaz":7725,"▁dim":7726,"anta":7727,"rial":7728,"▁Hel":7729,"s'":7730,"▁2nd":7731,"▁Jon":7732,".)":7733,"▁Ital":7734,"▁oblig":7735,"▁accomplish":7736,"▁Without":7737,"▁(S":7738,"▁hire":7739,"rief":7740,"▁expert":7741,"▁babies":7742,"▁vacc":7743,"▁remain":7744,"ator.":7745,"▁emer":7746,"▁congress":7747,"eds":7748,"ormon":7749,"uzz":7750,"▁connection":7751,"▁photograph":7752,"▁brilliant":7753,"/S":7754,"▁mine.":7755,"▁&gt;W":7756,"▁myself,":7757,"▁newsp":7758,"▁inj":7759,"▁upvotes":7760,"▁death.":7761,"▁folk":7762,"▁ok,":7763,"ines.":7764,"am,":7765,"▁blah":7766,"▁herself":7767,"ad.":7768,"CC":7769,"▁GU":7770,"▁Yea,":7771,"▁imply":7772,"endment":7773,"▁San":7774,"-th":7775,"▁why?":7776,"text":7777,"▁achieve":7778,"▁planning":7779,"▁knife":7780,"▁Catholic":7781,"/P":7782,"▁enforce":7783,"/comments/9":7784,"eez":7785,"▁scale":7786,"spot":7787,"▁would've":7788,"’t":7789,"▁*A":7790,"▁font":7791,"-3":7792,"▁Girl":7793,"▁50%":7794,"▁reddit?":7795,"M.":7796,"▁guys,":7797,"▁item":7798,"prof":7799,"▁Makes":7800,"▁(d":7801,"▁deal.":7802,"x.":7803,"▁neut":7804,"▁yeah.":7805,"▁$2":7806,"-e":7807,"▁tele":7808,"▁retarded.":7809,"\"...":7810,"▁sin":7811,"aine":7812,"▁Rub":7813,"ITH":7814,"▁(h":7815,"▁ham":7816,"▁sky":7817,"▁David":7818,"▁reason,":7819,"WW":7820,"▁performance":7821,"▁production":7822,"ander":7823,"▁standards":7824,"page":7825,"▁floor":7826,"▁sect":7827,"▁evol":7828,"▁fact.":7829,"▁gall":7830,"▁class.":7831,"▁stated":7832,"▁stream":7833,"▁sarcastic":7834,"▁mathem":7835,"▁spo":7836,"▁heat":7837,"uce":7838,"▁deleted":7839,"▁\"he":7840,"▁Church":7841,"▁benefits":7842,"▁temper":7843,"▁Libert":7844,"▁shell":7845,"▁stretch":7846,"▁unc":7847,"▁Pleas":7848,"▁extreme":7849,"▁chair":7850,"ifying":7851,"p-":7852,"▁thoughts":7853,"▁flight":7854,"▁myth":7855,"▁AP":7856,"▁Damn,":7857,"▁5.":7858,"▁delete":7859,"▁firm":7860,"ATE":7861,"▁wars":7862,"▁pal":7863,"▁walked":7864,"▁marketing":7865,"▁(if":7866,"▁Honestly,":7867,"▁Fair":7868,"mind":7869,"ils":7870,"▁arms":7871,"▁in?":7872,"rate":7873,"▁bell":7874,"▁person,":7875,"ucks":7876,"berg":7877,"▁micro":7878,"▁regul":7879,"hap":7880,"does":7881,"▁syn":7882,"▁woman.":7883,"▁Until":7884,"y's":7885,"▁ens":7886,"GG":7887,"▁bush":7888,"▁Flash":7889,"▁$3":7890,"▁cool,":7891,"▁dick.":7892,"▁explains":7893,"▁orange":7894,"▁stuff,":7895,":**":7896,"agan":7897,"▁apple":7898,"▁advantage":7899,"outhern":7900,"▁CP":7901,"▁included":7902,"ye":7903,"▁soon.":7904,"ternal":7905,"-4":7906,"▁famous":7907,"▁application":7908,"▁movement":7909,"▁Word":7910,"▁Que":7911,"▁Right,":7912,"▁old,":7913,"▁monop":7914,"amaz":7915,"▁charged":7916,"▁WAS":7917,"▁construct":7918,"b/":7919,"▁Ac":7920,"▁library":7921,"png)":7922,"▁stole":7923,"▁bringing":7924,"▁[G":7925,"▁True,":7926,"▁thrown":7927,"▁bark":7928,"▁resources":7929,"▁status":7930,"▁&gt;M":7931,"▁kidding":7932,"▁healthy":7933,"▁fuck.":7934,"\\_":7935,"▁joke,":7936,"...but":7937,"▁sac":7938,"▁doesnt":7939,"▁Israel.":7940,"▁misle":7941,"▁About":7942,"▁Uh,":7943,"▁thought.":7944,"ade.":7945,"show":7946,"▁Mine":7947,"▁believing":7948,"▁Ang":7949,"▁republican":7950,"/n":7951,"-cl":7952,"▁Bob":7953,"▁Washing":7954,"viet":7955,"▁corporations":7956,"▁State":7957,"▁Florid":7958,"▁forg":7959,"ed!":7960,"▁hand.":7961,"▁supports":7962,"ients":7963,"▁IQ":7964,"▁update":7965,"▁Relig":7966,"ement.":7967,"▁whom":7968,"▁aggress":7969,"▁picture.":7970,"▁EX":7971,"▁device":7972,"ists,":7973,"▁(b":7974,"▁minutes.":7975,"▁Russian":7976,"▁clue":7977,"▁percentage":7978,"▁tastes":7979,"▁(like":7980,"er!":7981,"▁Um,":7982,"ces.":7983,"▁prosec":7984,"▁christian":7985,"▁story,":7986,"/M":7987,"▁CNN":7988,"▁Dude":7989,"▁saying.":7990,"▁provided":7991,"ory,":7992,"/C":7993,"▁Say":7994,"ste":7995,"T.":7996,"vy":7997,"uming":7998,"▁spoil":7999,"▁Chicag":8000,"▁Techn":8001,"▁you...":8002,"▁know?":8003,"esb":8004,"▁typing":8005,"▁boys":8006,"▁ironic":8007,"▁Science":8008,"▁fantastic":8009,"▁gov":8010,"▁vote.":8011,"▁safety":8012,"kill":8013,"▁advertis":8014,"▁promot":8015,"▁plot":8016,"anks":8017,"▁2008":8018,"▁cutting":8019,"_S":8020,"▁employees":8021,"▁empty":8022,"▁drives":8023,"▁party.":8024,"▁Sarah":8025,"▁originally":8026,"▁areas":8027,"▁chicks":8028,"▁LO":8029,"_C":8030,"▁regarding":8031,"▁bullet":8032,"▁pound":8033,"▁soldiers":8034,"▁ic":8035,"▁here:":8036,"▁features":8037,"cess.":8038,"▁jav":8039,"▁Str":8040,"▁filter":8041,"on.com/":8042,"▁frust":8043,"_and":8044,"▁slowly":8045,"▁primary":8046,"▁photoshop":8047,"onder":8048,"▁Count":8049,"reet":8050,"udes":8051,"▁side.":8052,"▁stom":8053,"io.":8054,"ful,":8055,"▁really?":8056,"▁propert":8057,"▁kicked":8058,"▁Or,":8059,"▁bothered":8060,"aled":8061,"▁Anything":8062,"house":8063,"▁hits":8064,"▁Might":8065,"/).":8066,"▁&gt;You":8067,"while":8068,"▁beating":8069,"▁future.":8070,"▁men.":8071,"▁sources":8072,"-le":8073,"▁services":8074,"RI":8075,"▁conso":8076,"claim":8077,"▁receive":8078,"earch":8079,"▁assert":8080,"▁leaders":8081,"▁classic":8082,"SE":8083,"itute":8084,"ables":8085,"▁dirt":8086,"▁Facebook":8087,"▁O'":8088,"▁rocket":8089,"▁scientists":8090,"fect":8091,"merican":8092,"a...":8093,"▁legally":8094,"▁racism":8095,"▁bust":8096,"▁\"re":8097,"astic.":8098,"ears":8099,"▁pattern":8100,"ocrit":8101,"▁Win":8102,"▁Coll":8103,"▁sty":8104,"▁\"We":8105,"▁occasion":8106,"▁Downvoted":8107,"▁stereotyp":8108,"link":8109,"ewart":8110,"-2":8111,"xic":8112,"▁paint":8113,"▁equally":8114,"▁infect":8115,"▁drivers":8116,"▁DON":8117,"log":8118,"▁bitch.":8119,"▁weather":8120,"▁*\"":8121,"▁examples":8122,"▁clothes":8123,"▁crimes":8124,"▁repeated":8125,"▁about,":8126,"▁on?":8127,"▁nic":8128,"▁sole":8129,"▁name,":8130,"▁Lol":8131,"k,":8132,"cat":8133,"77":8134,"▁falling":8135,"▁offensive":8136,"▁suffer":8137,"▁Nazi":8138,"AB":8139,"ison.":8140,"▁quant":8141,"▁fans":8142,"▁Hopefully":8143,"ily,":8144,"▁constant":8145,"▁besides":8146,"▁surely":8147,"er:":8148,"▁training":8149,"▁nose":8150,"▁i'll":8151,"▁ing":8152,"ize.":8153,"▁string":8154,"▁rates":8155,"▁want,":8156,"▁Net":8157,"▁installed":8158,"MA":8159,"▁explo":8160,"▁Georg":8161,"▁gay.":8162,"▁example.":8163,"▁Rob":8164,"▁highest":8165,"▁behavi":8166,"▁hitting":8167,"ensive.":8168,"▁downvoting":8169,"3,":8170,"▁Boy":8171,"because":8172,"▁agend":8173,"▁guitar":8174,"ascript":8175,"iiii":8176,"▁propaganda":8177,"ates,":8178,"▁oursel":8179,"olly":8180,"▁eight":8181,"▁hanging":8182,"▁firefox":8183,"▁hilarious.":8184,"▁Dan":8185,"▁much?":8186,"▁=)":8187,"ails":8188,"▁1:":8189,"aning":8190,"gged":8191,"▁downvotes":8192,"▁(for":8193,"MB":8194,"▁and,":8195,"▁grown":8196,"-L":8197,"vest":8198,"▁emp":8199,"▁stands":8200,"ics,":8201,"▁Note":8202,"▁straw":8203,"rock":8204,"▁And,":8205,"▁two.":8206,"▁observ":8207,"▁fort":8208,"▁also,":8209,"▁trolling":8210,"▁signed":8211,"rary":8212,"▁but,":8213,"▁cities":8214,"ette":8215,"▁justice":8216,"▁elsewhere":8217,"▁Must":8218,"IST":8219,"▁opening":8220,"▁Window":8221,"▁ignorance":8222,"▁gaming":8223,"▁paran":8224,"▁pump":8225,"ception":8226,"▁failure":8227,"▁square":8228,"▁GO":8229,"▁leads":8230,"▁Min":8231,"▁post,":8232,"▁remark":8233,"pop":8234,"▁think,":8235,"▁We've":8236,"C,":8237,"▁reci":8238,"▁FTW":8239,"2008/0":8240,"▁chemical":8241,"▁Trans":8242,"place":8243,"38":8244,"▁fap":8245,"▁smile":8246,"▁both.":8247,"▁operating":8248,"▁amounts":8249,"roid":8250,"even":8251,"▁hall":8252,"▁\"If":8253,"oday":8254,"▁developed":8255,"▁everyday":8256,"-year-old":8257,"▁Day":8258,"▁MP":8259,"▁classes":8260,"erg":8261,"▁ate":8262,"▁Dead":8263,"▁strip":8264,"▁supporters":8265,"▁Umm":8266,"-1":8267,"▁brings":8268,"▁electron":8269,"▁*b":8270,"ar,":8271,"▁[http://":8272,"▁Wrong":8273,"▁Mod":8274,"raz":8275,"▁dunn":8276,"l=en":8277,"▁McDonald":8278,"aus":8279,"▁upload":8280,"%3":8281,"▁central":8282,"▁warrant":8283,"▁coke":8284,"()":8285,"▁heaven":8286,"▁actually,":8287,"▁motor":8288,"agger":8289,"▁unemploy":8290,"istory":8291,"▁once,":8292,"▁received":8293,"▁range":8294,"▁explos":8295,"▁authority":8296,"ader":8297,"▁Exactly":8298,"iber":8299,"mate":8300,"▁SE":8301,"▁days,":8302,"▁western":8303,"▁cards":8304,"▁OR":8305,"▁statement.":8306,"uous":8307,"▁butter":8308,"▁&gt;N":8309,"▁tub":8310,"▁tight":8311,"▁alright":8312,"-F":8313,"▁surf":8314,"▁epic":8315,"▁fraud":8316,"▁hob":8317,"name":8318,"lines":8319,"-5":8320,"list":8321,"ons.":8322,"who":8323,"▁center":8324,"adem":8325,"▁URL":8326,"-j":8327,"omething":8328,"▁picking":8329,"▁East":8330,"▁chocol":8331,"▁ruined":8332,"rovers":8333,"-T":8334,"othing":8335,"▁Guy":8336,"▁physics":8337,"▁hyper":8338,"▁leaves":8339,"_P":8340,"▁buff":8341,"ention.":8342,"▁largest":8343,"▁auto":8344,"▁junk":8345,"unes":8346,"▁society.":8347,"▁@":8348,"▁critical":8349,"▁battle":8350,"▁tries":8351,"news.":8352,"▁attitude":8353,"▁Dark":8354,"▁factor":8355,"▁Den":8356,"QL":8357,"-out":8358,"▁yet?":8359,".com/)":8360,"▁natur":8361,"▁accent":8362,"▁reform":8363,"▁circumst":8364,"▁bigot":8365,"wwww":8366,"ada":8367,"▁\"in":8368,"/tt":8369,"▁SC":8370,"▁nowhere":8371,"▁skills":8372,"▁divor":8373,"aq":8374,"▁surprising":8375,"▁bandw":8376,"IF":8377,"ose.":8378,"▁YouT":8379,"▁client":8380,"▁flow":8381,"fm":8382,"▁code.":8383,"y.com/":8384,"▁HAVE":8385,"▁supported":8386,"ingu":8387,"▁gender":8388,"▁Jim":8389,"iance":8390,"▁Ter":8391,"▁letters":8392,"etch":8393,"...?":8394,"▁vagina":8395,"rypt":8396,"-R":8397,"eding":8398,"▁{":8399,"▁Mad":8400,"▁Germany":8401,"▁answers":8402,"c0":8403,"▁hot.":8404,"-shirt":8405,"gers":8406,"aspx":8407,"▁developers":8408,"▁month.":8409,"htm)":8410,"▁Fall":8411,"▁Much":8412,"▁terrorists":8413,"▁threads":8414,"▁jer":8415,"▁movie,":8416,"▁organization":8417,"ample":8418,"▁Half":8419,"▁corner":8420,"▁Christianity":8421,"▁discrim":8422,"▁bias":8423,"▁tong":8424,"4/":8425,"▁ho":8426,"...and":8427,"whe":8428,"▁2:":8429,"▁conscious":8430,"▁experiment":8431,"▁&gt;T":8432,"pres":8433,"title/tt":8434,"▁either,":8435,"atural":8436,"▁Cre":8437,"▁restaurant":8438,"imdb.com/title/tt":8439,"▁Air":8440,"▁BS":8441,"▁programmers":8442,"▁Glenn":8443,"▁pray":8444,"▁contrad":8445,"rive":8446,"▁monkey":8447,"▁intellectual":8448,"▁nuts":8449,"▁defending":8450,"▁carrying":8451,"rig":8452,"NET":8453,"▁else,":8454,"5/":8455,"iger":8456,"▁Jer":8457,"▁dealing":8458,"▁technical":8459,"field":8460,"▁*really":8461,"▁oh,":8462,"▁FA":8463,"▁pays":8464,"ker":8465,"▁manip":8466,"▁Mont":8467,"▁Ice":8468,"▁WITH":8469,"▁with,":8470,"▁GOP":8471,"▁officer":8472,"▁robot":8473,"ie,":8474,"▁winning":8475,"39":8476,"▁checking":8477,"▁WoW":8478,"es!":8479,"▁science.":8480,"▁$20":8481,"▁*n":8482,"hl=en":8483,"▁unable":8484,"▁Link":8485,"omed":8486,"▁genoc":8487,"▁toward":8488,"▁BBC":8489,"▁PHP":8490,"AND":8491,"▁element":8492,"▁creepy":8493,"▁Liber":8494,"trl":8495,"s*":8496,"▁excited":8497,"▁expand":8498,"▁delicious":8499,"▁pieces":8500,"▁spirit":8501,"cel":8502,"acle":8503,"▁audience":8504,"▁pocket":8505,"▁\\*":8506,"▁hours.":8507,"sters":8508,"▁universal":8509,"▁arrow":8510,"ashed":8511,"ying.":8512,"▁temperature":8513,"▁None":8514,"▁neighborhood":8515,"orse":8516,"▁Bo":8517,"▁transport":8518,"▁Haskell":8519,"▁unnecess":8520,"▁WTF?":8521,"▁believed":8522,"▁damned":8523,"-based":8524,"▁unique":8525,"il.":8526,"▁$50":8527,"uls":8528,"▁freaking":8529,"▁split":8530,"▁threw":8531,"▁backwards":8532,"▁initial":8533,"▁curios":8534,"gorith":8535,"▁bound":8536,"▁lights":8537,"▁surround":8538,"▁assumption":8539,"▁[R":8540,"▁clock":8541,"ouse.":8542,"▁Start":8543,"▁clicking":8544,"FC":8545,"comfort":8546,"bes":8547,"aybe":8548,"▁\"r":8549,"▁Had":8550,"▁gross":8551,"▁sink":8552,"▁pressure":8553,"▁workers":8554,"▁regret":8555,"▁Green":8556,"▁Fix":8557,"▁levels":8558,"▁possibility":8559,"▁Ben":8560,"▁Sex":8561,"help":8562,"▁datab":8563,"ague":8564,"▁2009":8565,"▁pil":8566,"▁hmm":8567,"ctr":8568,"▁parag":8569,"eat":8570,"▁latest":8571,"▁Correct":8572,"▁fingers":8573,"/B":8574,"▁account.":8575,"ophob":8576,"vey":8577,"▁So...":8578,"olar":8579,"▁purchase":8580,"▁techniqu":8581,"▁isn't.":8582,"▁competition":8583,"hand":8584,"▁explained":8585,"▁Ill":8586,"orial":8587,"▁Surely":8588,"▁sle":8589,"n.":8590,"▁artist":8591,"▁doctors":8592,"ires":8593,"▁modd":8594,"▁bubble":8595,"89":8596,"▁Palestinian":8597,"▁Sam":8598,"EST":8599,"▁&gt;D":8600,"urrent":8601,"▁chees":8602,"kes.":8603,"vin":8604,"▁pushing":8605,"▁awesome,":8606,"▁forces":8607,"come.":8608,"▁kids,":8609,"▁internet,":8610,"▁wow,":8611,"▁meeting":8612,"▁Lad":8613,"▁thre":8614,"▁Canada.":8615,"▁Chrome":8616,"▁perspective":8617,"▁answered":8618,"▁\"He":8619,"▁accounts":8620,"▁comfortable":8621,"▁expos":8622,"uns":8623,"▁offend":8624,"▁However":8625,"▁live.":8626,"▁computer.":8627,"▁least.":8628,"****":8629,"▁this...":8630,"▁whats":8631,"▁servers":8632,"rian":8633,"alled":8634,"▁jeal":8635,"idering":8636,"▁issues.":8637,"I,":8638,"▁hypocrit":8639,"▁revolution":8640,"land.":8641,"▁satisf":8642,"▁details":8643,"▁overall":8644,"ooo":8645,"▁suspic":8646,"▁optim":8647,"_M":8648,"▁SHIT":8649,"▁rip":8650,"ahahahah":8651,"▁What,":8652,"▁misunder":8653,"▁implies":8654,"▁treatment":8655,"▁claimed":8656,"▁Clearly":8657,"▁jesus":8658,"awk":8659,"▁stupid,":8660,"AW":8661,"DD":8662,"▁lesb":8663,"roph":8664,"▁least,":8665,"▁gent":8666,"evit":8667,"▁homeless":8668,"▁gra":8669,"▁suck.":8670,"▁patch":8671,"▁unw":8672,"▁bucks":8673,"▁fail.":8674,"▁Swe":8675,"▁Personally,":8676,"▁fox":8677,"a.com/":8678,"▁customers":8679,"▁didn't.":8680,"▁whoever":8681,"▁man's":8682,"▁involve":8683,"Ex":8684,"ynam":8685,"▁burning":8686,"▁Daily":8687,"▁Israelis":8688,"cles":8689,"esis":8690,"▁propos":8691,"▁includes":8692,"▁guilt":8693,"craft":8694,"▁aid":8695,"amily":8696,"▁tattoo":8697,"▁Uh":8698,"idth":8699,"▁less.":8700,"▁10%":8701,"▁be?":8702,"▁Stewart":8703,"▁subsid":8704,"▁described":8705,"▁teeth":8706,"acked":8707,"▁cous":8708,"▁shap":8709,"enomen":8710,"-ass":8711,"▁Inc":8712,"▁reli":8713,"onic":8714,"▁survive":8715,"▁everyone.":8716,"alty":8717,"▁car,":8718,"aced":8719,"▁news,":8720,"▁solar":8721,"▁sports":8722,"▁Turn":8723,"etor":8724,"neck":8725,"known":8726,"▁arr":8727,"rep":8728,"▁insist":8729,"▁solut":8730,"&amp;q=":8731,"▁'b":8732,"▁hey":8733,"▁lol.":8734,"▁Buy":8735,"▁loop":8736,"ctu":8737,"▁girl,":8738,"▁homework":8739,"▁peop":8740,"ized.":8741,"▁murd":8742,"▁thin":8743,"▁beer.":8744,"▁scroll":8745,"▁oppress":8746,"▁desper":8747,"▁kitch":8748,"▁options":8749,"ination.":8750,"▁Cheney":8751,"▁Neither":8752,"▁independent":8753,"▁bul":8754,"▁anyway,":8755,"▁prost":8756,"▁university":8757,"▁have,":8758,"▁*sh":8759,"▁We'll":8760,"▁repeat":8761,"▁surger":8762,"▁Phot":8763,"▁TR":8764,"edly":8765,"▁Budd":8766,"reddit.com/info/":8767,"▁opinion,":8768,"▁Lots":8769,"rip":8770,"▁it:":8771,"▁hey,":8772,"▁Yep.":8773,"hack.":8774,"▁disappointed":8775,"fil":8776,"▁(c":8777,"▁abst":8778,"▁arrested":8779,"▁quiet":8780,"o's":8781,"▁chart":8782,"▁gar":8783,"▁accepted":8784,"▁dut":8785,"▁hipp":8786,"ads":8787,"▁know...":8788,"▁AC":8789,"estion":8790,"▁influence":8791,"▁fine,":8792,"▁Art":8793,"▁disappe":8794,"▁strict":8795,"▁mic":8796,"bow":8797,"rain":8798,"bod":8799,"▁Plus,":8800,"▁Anyway,":8801,"▁ack":8802,"▁Wall":8803,"▁depending":8804,"▁stolen":8805,"i_":8806,"▁Glad":8807,"▁groc":8808,"▁African":8809,"▁all?":8810,"osaur":8811,"-like":8812,"▁place,":8813,"▁explaining":8814,"▁ax":8815,"▁inherent":8816,"char":8817,"▁scratch":8818,"▁RAM":8819,"&amp;feature=related":8820,"▁Congrat":8821,"▁*any":8822,"▁shout":8823,"▁Depends":8824,"▁45":8825,"ing!":8826,"▁Still,":8827,"▁&gt;O":8828,"▁settle":8829,"▁mile":8830,"elect":8831,"▁policies":8832,"▁reference.":8833,"orter":8834,"▁Washington":8835,"▁led":8836,"▁Miss":8837,"sex":8838,"▁Rand":8839,"▁anyway?":8840,"▁Where's":8841,"▁machines":8842,"www":8843,"▁'f":8844,"▁fart":8845,"▁north":8846,"▁younger":8847,"▁[the":8848,"▁saying,":8849,"elf":8850,"▁Cour":8851,"▁Mag":8852,"ran":8853,"ntax":8854,"▁Almost":8855,"▁cris":8856,"▁Under":8857,"▁garbage":8858,"print":8859,"▁IR":8860,"▁Lo":8861,"▁Sur":8862,"▁but...":8863,"▁sees":8864,"▁is...":8865,"tin":8866,"▁magaz":8867,"▁fif":8868,"▁today,":8869,"blogspot":8870,"▁company.":8871,",000,000":8872,"alking":8873,"2)":8874,"▁fro":8875,"▁yourself,":8876,"▁applies":8877,"▁unb":8878,"ization.":8879,"▁believe.":8880,"▁pussy":8881,"▁opened":8882,"▁rights.":8883,"▁See,":8884,"▁asham":8885,"▁vehicle":8886,"▁around,":8887,"▁family.":8888,"▁GET":8889,"▁sense,":8890,"▁COM":8891,"avery":8892,"IE":8893,"▁friends,":8894,"sm":8895,"▁troops":8896,"▁*p":8897,"▁exception":8898,"▁racist.":8899,"▁\"we":8900,"▁err":8901,"▁causing":8902,"▁like?":8903,"▁fashion":8904,"▁owner":8905,"▁magn":8906,"▁wrong?":8907,"▁irrelevant":8908,"▁ideal":8909,"▁unit":8910,"▁office.":8911,"▁conclusion":8912,"▁climate":8913,"▁Mr":8914,"ly?":8915,"aste":8916,"▁insight":8917,"▁offered":8918,"▁engineer":8919,"ubs":8920,"ester":8921,"▁cream":8922,"▁wave":8923,"▁committed":8924,"▁chances":8925,"▁lawn":8926,"▁east":8927,"▁says,":8928,"▁spelled":8929,"▁typically":8930,"▁mixed":8931,"SA":8932,"▁asks":8933,"▁plans":8934,"levant.":8935,"▁CIA":8936,"▁I.":8937,"ism?":8938,"▁republicans":8939,"▁*The":8940,"are.":8941,"▁Who's":8942,"▁sue":8943,"▁btw":8944,"ving.":8945,"▁Lond":8946,"▁pulling":8947,"▁32":8948,"▁talks":8949,"atic.":8950,"▁==":8951,"/2009":8952,"▁circumc":8953,"▁pregnant":8954,"▁India":8955,"▁staff":8956,"▁backward":8957,"▁Prof":8958,"ictionary.":8959,"-C-C":8960,"▁*that*":8961,"/10":8962,"▁statements":8963,"s-":8964,"▁PM":8965,"▁cert":8966,"▁pix":8967,"▁orang":8968,"▁*really*":8969,"▁intent":8970,"urban":8971,"OX":8972,"▁64":8973,"▁#1":8974,"▁passing":8975,"▁tape":8976,"▁$4":8977,"ostic":8978,"oob":8979,"▁go,":8980,"▁ded":8981,"▁president.":8982,"▁Given":8983,"▁Usually":8984,"▁government,":8985,"belie":8986,"▁whatso":8987,"▁Lear":8988,"?!?":8989,"▁Dar":8990,"▁administration":8991,"▁digital":8992,"▁paragraph":8993,"▁confusing":8994,"estic":8995,"ancing":8996,"▁species":8997,"▁distract":8998,"▁nu":8999,"olution.":9000,"▁Sil":9001,"▁comed":9002,"▁perman":9003,"hen":9004,"ngth":9005,"▁acqu":9006,"▁Gree":9007,"▁habit":9008,"▁Luck":9009,"▁crime.":9010,"▁Karm":9011,"fast":9012,"▁shoes":9013,"health":9014,"▁cultural":9015,"▁shape":9016,"cluding":9017,"▁now...":9018,"oms":9019,"▁question:":9020,"▁candidates":9021,"▁loose":9022,"▁Prot":9023,"▁visual":9024,"▁NOW":9025,"▁Redditors":9026,"▁Pak":9027,"▁reads":9028,"angel":9029,"▁nin":9030,"▁(at":9031,"pper":9032,"▁console":9033,"ire.":9034,"▁ali":9035,"▁Soviet":9036,"▁signs":9037,"be.":9038,"▁easy.":9039,"▁philosophy":9040,"est,":9041,"▁coinc":9042,"flickr.com/photos":9043,"apse":9044,"ifies":9045,"▁worry,":9046,"▁Tim":9047,"▁union":9048,"▁description":9049,"▁multi":9050,"▁famil":9051,"▁choos":9052,"▁tools":9053,"▁chip":9054,"ken.":9055,"▁poison":9056,"▁boat":9057,"▁career":9058,"▁Bus":9059,"/re":9060,"▁acid":9061,"nov":9062,"ilight":9063,"imageshack.":9064,"▁22":9065,"_B":9066,"▁joint":9067,"▁&gt;&gt;":9068,"▁of,":9069,"▁crying":9070,"▁Dog":9071,"▁disab":9072,"▁replaced":9073,"▁video,":9074,"▁(with":9075,"▁exchange":9076,"▁world's":9077,"ised.":9078,"▁active":9079,"▁pedoph":9080,"▁legs":9081,"▁war,":9082,"▁sist":9083,"▁tail":9084,"](http://www.m":9085,"▁Stupid":9086,"▁breaks":9087,"▁Hot":9088,"▁Zion":9089,"▁wedd":9090,"▁minority":9091,"▁analys":9092,"▁Hol":9093,"▁iT":9094,"▁shad":9095,"▁doing.":9096,"abs":9097,"▁pirate":9098,"▁pink":9099,"▁matters":9100,"doc":9101,"▁DRM":9102,"good":9103,"▁enlight":9104,"▁algorith":9105,"▁Asian":9106,"▁implying":9107,"dot":9108,"▁stim":9109,"▁Considering":9110,"-O":9111,"▁Mur":9112,"▁Funn":9113,"▁house,":9114,"uploads/":9115,"▁1,":9116,"▁Kill":9117,".jpg).":9118,"_A":9119,"ARD":9120,"▁bum":9121,"FL":9122,"inform":9123,"▁govern":9124,"▁oce":9125,"BS":9126,"▁thinking.":9127,"ry,":9128,"▁moment.":9129,"cott":9130,"ife,":9131,"▁note,":9132,"ately.":9133,"na":9134,"ee.":9135,"▁friend,":9136,"▁nice,":9137,"nam":9138,"▁humanity":9139,"▁diet":9140,"▁cartoon":9141,"den":9142,"▁arbit":9143,"lor":9144,"▁HTML":9145,"▁anyone.":9146,"ivity":9147,"▁Hmm,":9148,"▁They've":9149,"▁reward":9150,"▁End":9151,"▁CEO":9152,"▁though...":9153,"▁ub":9154,"▁emotional":9155,"▁made.":9156,"oust":9157,"▁happens.":9158,"_is":9159,"▁fle":9160,"▁alleg":9161,"▁labor":9162,"▁instant":9163,"-time":9164,"▁bik":9165,"▁events":9166,"▁CL":9167,"▁engin":9168,"▁Web":9169,"▁censor":9170,"rawn":9171,"▁politician":9172,"▁offended":9173,"▁evidence.":9174,"▁screwed":9175,"afe":9176,"vill":9177,"▁weigh":9178,"▁illegal.":9179,"▁&gt;If":9180,"▁proves":9181,"▁reduce":9182,"▁battery":9183,"▁Mor":9184,"kel":9185,"▁riding":9186,"▁offense":9187,"▁ok.":9188,"▁market.":9189,"▁proced":9190,"▁armed":9191,"......":9192,"▁laz":9193,"▁Find":9194,"girl":9195,"itarian":9196,"url":9197,"relig":9198,"▁worship":9199,"▁allowing":9200,"▁upper":9201,"iate":9202,"▁food,":9203,"▁socialist":9204,"▁hidden":9205,"▁apartment":9206,"▁Lou":9207,"▁himself.":9208,"▁Shit":9209,"▁sharing":9210,"▁left.":9211,"▁Sorry.":9212,"d.":9213,"▁done,":9214,"unning":9215,"▁am.":9216,"▁reality.":9217,"▁they?":9218,"lymp":9219,"ctor":9220,"reddit.com/comments/":9221,"▁alot":9222,"▁sett":9223,"▁2,":9224,"▁rating":9225,"▁elim":9226,"ouche":9227,"▁area.":9228,"▁soap":9229,"icing":9230,"▁reverse":9231,"▁outs":9232,"gency":9233,"▁values":9234,"TV":9235,"▁isnt":9236,"urday":9237,"▁games,":9238,"▁porn.":9239,"▁infinite":9240,"▁Game":9241,"▁blat":9242,"▁Regard":9243,"▁mind,":9244,"▁level.":9245,"▁zombie":9246,"▁Att":9247,"unte":9248,"▁twist":9249,"▁&gt;P":9250,"▁conservatives":9251,"▁Federal":9252,"▁peoples":9253,"ooper":9254,"▁Death":9255,"That's":9256,"▁smug":9257,"▁appeal":9258,"▁Commun":9259,"▁throughout":9260,"▁water,":9261,"▁Bur":9262,"▁wasting":9263,"bling":9264,"EEP":9265,"player":9266,"74":9267,"alin":9268,"onent":9269,"▁well-":9270,"▁warning":9271,"▁wage":9272,"osed":9273,"500":9274,"▁acknow":9275,"▁points.":9276,"ations,":9277,"▁conce":9278,"▁law,":9279,"there":9280,"▁agreed":9281,"eed":9282,"arcraft":9283,"▁rif":9284,"▁capac":9285,"een":9286,"▁Dick":9287,"that's":9288,"on's":9289,"▁hors":9290,"▁23":9291,"▁concent":9292,"▁increasing":9293,"▁pre-":9294,"▁hopefully":9295,"▁Bat":9296,"▁strike":9297,"▁dies":9298,"▁punishment":9299,"i?":9300,"▁equip":9301,"!**":9302,"▁salt":9303,"▁religion,":9304,"ch.":9305,"▁sex,":9306,"▁beach":9307,"▁physically":9308,"ulf":9309,"▁years?":9310,"▁blew":9311,"rite":9312,"K.":9313,"▁seven":9314,"▁tea":9315,"▁prepared":9316,"/?":9317,"on?":9318,"▁i.":9319,"▁finds":9320,"▁tur":9321,"▁interact":9322,"▁high.":9323,"▁room.":9324,"▁hypoth":9325,"▁hes":9326,"▁flip":9327,"](http://www.s":9328,"▁poorly":9329,"ue,":9330,"▁perpet":9331,"▁REALLY":9332,"▁reported":9333,"▁parking":9334,"▁virus":9335,"plan":9336,"▁doesn't.":9337,"▁WOR":9338,"▁book,":9339,"▁Steve":9340,"▁unre":9341,"▁careful":9342,"bre":9343,"▁age.":9344,"▁domain":9345,"▁graphics":9346,"▁Saud":9347,"▁je":9348,"ulated":9349,"▁religions":9350,"▁guarantee":9351,"%2F":9352,"▁mel":9353,"▁customer":9354,"▁Western":9355,"pelled":9356,"▁night,":9357,"▁happy.":9358,"▁ath":9359,"▁GM":9360,"▁phenomen":9361,"▁civilians":9362,"o)":9363,"▁vagin":9364,"▁co-":9365,"▁badly":9366,"▁*you*":9367,"▁*and":9368,"ient.":9369,"▁confused.":9370,"▁comments,":9371,"▁warming":9372,"▁nasty":9373,"▁hatred":9374,"▁shower":9375,"▁Vir":9376,"▁audio":9377,"Ask":9378,"▁weird.":9379,"rink":9380,"▁hunt":9381,"▁tonight":9382,"HHHHHHHH":9383,"▁attacking":9384,"▁sorts":9385,"▁acts":9386,"▁Pot":9387,"essed":9388,"▁oft":9389,"rob":9390,"▁Cra":9391,"▁chain":9392,"▁(n":9393,"▁Therefore":9394,"▁/s":9395,"▁though?":9396,"▁bom":9397,"▁beef":9398,"▁task":9399,"acs":9400,"parent":9401,"min":9402,"▁does,":9403,"▁Thom":9404,"ard,":9405,"▁distance":9406,"izations":9407,"▁feelings":9408,"rational":9409,"▁Africa":9410,"▁away,":9411,"▁way?":9412,"p-content/":9413,"▁evil.":9414,"▁hint":9415,"i.e.":9416,"ourse":9417,"▁occas":9418,"RRRR":9419,"▁child.":9420,"▁Quick":9421,"inger":9422,"▁college.":9423,"▁home,":9424,"ography":9425,"iation":9426,"ats.":9427,"▁rend":9428,"▁stomach":9429,"osen":9430,"▁Eas":9431,"black":9432,"▁quotes":9433,"▁favourite":9434,"▁Sk":9435,"▁Play":9436,"ic.com/":9437,"▁AW":9438,"▁wine":9439,"▁Definitely":9440,"▁ram":9441,"▁NAS":9442,"blogspot.com/":9443,"▁Opera":9444,"urop":9445,"▁branch":9446,"-to-":9447,"▁Ugh":9448,"▁Sadly,":9449,"▁minds":9450,"▁patent":9451,"▁Indeed.":9452,"▁kid,":9453,"82":9454,"▁apps":9455,"OULD":9456,"▁women,":9457,"jud":9458,"▁owns":9459,"▁NEVER":9460,"ers!":9461,"▁charges":9462,"▁shot.":9463,"▁syntax":9464,"rough":9465,"▁National":9466,"▁experience,":9467,"▁outrage":9468,"ished":9469,"▁attention.":9470,"es.com/":9471,"▁Hum":9472,"▁lobby":9473,"▁principle":9474,"▁Rad":9475,"ioc":9476,"▁commenting":9477,"▁Phil":9478,"▁hypocr":9479,"▁chin":9480,"▁eyes.":9481,"▁song.":9482,"ucking":9483,"▁diff":9484,"andon":9485,"██":9486,"ollywood":9487,"▁ethnic":9488,"▁Always":9489,"▁femin":9490,"▁pointless":9491,"▁Blue":9492,"▁Shouldn't":9493,"DF":9494,"a/":9495,"▁sne":9496,"▁Point":9497,"o!":9498,"▁brut":9499,"▁management":9500,"▁witness":9501,"▁department":9502,"▁Using":9503,"▁Smith":9504,"▁Jo":9505,"▁pitch":9506,"OB":9507,"ugs":9508,"▁lawyer":9509,"▁Besides,":9510,"▁terrif":9511,"▁explicit":9512,"▁comparing":9513,"▁dinner":9514,"▁Fact":9515,"search?q=":9516,"▁jews":9517,"▁rise":9518,"▁triv":9519,"▁advertising":9520,"▁KN":9521,"▁diam":9522,"▁France":9523,"▁morning.":9524,"ban":9525,"ning.":9526,"ie=":9527,"▁Forg":9528,"love":9529,"umin":9530,"▁rhetor":9531,"▁Obvious":9532,"▁page,":9533,"▁latter":9534,"▁exercise":9535,"▁DON'T":9536,"▁asshol":9537,"osphere":9538,"arg":9539,"en-":9540,"▁stating":9541,"▁suffering":9542,"a\"":9543,"▁mistake.":9544,"▁proport":9545,"▁decisions":9546,"▁context.":9547,"lay":9548,"▁hill":9549,"▁YES":9550,"▁portion":9551,"ONG":9552,"▁balance":9553,"▁School":9554,"▁friendly":9555,"water":9556,"▁space.":9557,"▁too...":9558,"ucket":9559,"▁FY":9560,"▁pin":9561,"▁Obama,":9562,"▁experienced":9563,"▁99%":9564,"▁Reminds":9565,"album":9566,"coming":9567,"ail.":9568,"▁engineering":9569,"▁Home":9570,"▁capitalism":9571,"▁usage":9572,"▁impressed":9573,"▁submissions":9574,"gypt":9575,"▁say?":9576,"▁spamm":9577,"▁long,":9578,"▁City":9579,"overy":9580,"puter":9581,"▁Hahah":9582,"▁patri":9583,"▁criticism":9584,"▁at.":9585,"▁sentence.":9586,"▁Rom":9587,"▁lesson":9588,"▁uncle":9589,"▁smarter":9590,"▁honest,":9591,"▁murdered":9592,"▁dance":9593,"▁Afghanistan":9594,"▁wet":9595,"▁locked":9596,"▁Little":9597,"▁movies.":9598,"▁french":9599,"igsl":9600,"ellig":9601,"▁inevit":9602,"▁mentally":9603,"atical":9604,"▁toss":9605,"peach":9606,"▁combination":9607,"▁iPod":9608,"▁'c":9609,"▁Del":9610,"▁mouth.":9611,"▁destroyed":9612,"DE":9613,"**,":9614,"▁stress":9615,"▁meg":9616,"▁controvers":9617,"vis":9618,"▁simple.":9619,"ferent":9620,"▁here...":9621,"▁forcing":9622,"view.":9623,"▁theme":9624,"▁attacked":9625,"▁taxes.":9626,"image":9627,"re.":9628,"▁unfortunately":9629,"▁complicated":9630,"▁books.":9631,"gramming":9632,"▁keys":9633,"AskReddit":9634,"▁drawing":9635,"ae":9636,"▁controlled":9637,"▁uncomfort":9638,"anny":9639,"video":9640,"-10":9641,"▁ah":9642,"▁Det":9643,"▁comedy":9644,"▁providing":9645,"▁funding":9646,"▁Lord":9647,"▁remem":9648,"▁woman,":9649,"▁ol":9650,"ers\"":9651,"ww.":9652,"▁harsh":9653,"▁distribut":9654,"▁Mass":9655,"AHAHAHAH":9656,"vid":9657,"father":9658,"ist?":9659,"▁questions.":9660,"▁skept":9661,"▁whatsoever":9662,"▁response.":9663,"▁admitted":9664,"stal":9665,"weight":9666,"▁rom":9667,"▁[h":9668,"▁PS3":9669,"KK":9670,"▁dismiss":9671,"be,":9672,"▁Mart":9673,"▁alarm":9674,"AG":9675,"▁control.":9676,"opp":9677,"acking":9678,"gging":9679,"▁unfair":9680,"▁[E":9681,"▁century":9682,"▁lie.":9683,"▁promise":9684,"phas":9685,"▁University":9686,"▁Pat":9687,"▁no?":9688,"▁perhap":9689,"▁information.":9690,"▁excess":9691,"land,":9692,"regard":9693,"▁else's":9694,"▁Wars":9695,"man,":9696,"iden":9697,"-for":9698,"anut":9699,"▁colour":9700,"ildren":9701,"▁\"no":9702,"orough":9703,"▁listed":9704,"▁+1":9705,"▁heavily":9706,"s).":9707,"▁twitter":9708,"▁scare":9709,"igger":9710,"▁gear":9711,"▁practical":9712,"▁[this](http://":9713,"▁\"This":9714,"▁leader":9715,"▁encourage":9716,"▁blown":9717,"▁advanced":9718,"▁genius":9719,"ence,":9720,"▁vegetarian":9721,"▁Saf":9722,"▁correctly":9723,"hell":9724,"▁emotion":9725,"93":9726,"▁AR":9727,"rast":9728,"auc":9729,"▁Seriously?":9730,"▁strength":9731,"ums":9732,"▁intend":9733,"▁disgusting":9734,"▁thick":9735,"▁items":9736,"▁Wasn't":9737,"ish,":9738,"▁funct":9739,"▁sword":9740,"▁suggestion":9741,"83":9742,"▁van":9743,"▁television":9744,"▁mode":9745,"▁conduct":9746,"▁lives.":9747,"▁1st":9748,"▁otherwise.":9749,"acks":9750,"▁arrog":9751,"▁pile":9752,"▁hell,":9753,"▁forb":9754,"▁falls":9755,"▁atm":9756,"▁metaph":9757,"▁obama":9758,"▁*l":9759,"▁YouTube":9760,"space":9761,"▁genuinely":9762,"▁Weird":9763,"▁far,":9764,"night":9765,"▁link,":9766,"](http://en.wikipedia.org/wiki/S":9767,"▁DS":9768,"NG":9769,"▁geek":9770,"▁(p":9771,"rating":9772,"▁life?":9773,"▁Sir":9774,"▁associated":9775,"MS":9776,"▁FB":9777,"ictionary":9778,"▁package":9779,"▁body.":9780,"▁(C":9781,"pace":9782,"▁democratic":9783,"▁airport":9784,"▁upmodded":9785,"▁Aren't":9786,"izar":9787,"▁ignoring":9788,"%.":9789,"▁nations":9790,"▁versions":9791,"▁AID":9792,"▁SS":9793,"▁another.":9794,"▁taxp":9795,"46":9796,"▁beg":9797,"▁get.":9798,"▁obliv":9799,"▁site,":9800,"▁breath":9801,"▁trill":9802,"▁stores":9803,"whelm":9804,"▁(i.e.":9805,"▁thread,":9806,"▁Ins":9807,"works":9808,"▁slavery":9809,"itled":9810,"▁protection":9811,"▁Gre":9812,"▁moron.":9813,"▁fruit":9814,"▁cloud":9815,"▁educated":9816,"R.":9817,"pm":9818,"▁II":9819,"oler":9820,"▁cere":9821,"then":9822,"▁agn":9823,"▁\"It's":9824,"▁w/":9825,"▁AB":9826,"▁vill":9827,"▁screaming":9828,"▁Beat":9829,"▁du":9830,"▁ONE":9831,"▁crush":9832,"▁deliver":9833,"▁Barack":9834,"acy,":9835,"▁dozen":9836,"▁serious.":9837,"▁sea":9838,"WH":9839,"▁Alask":9840,"▁so?":9841,"▁source.":9842,"▁WWII":9843,"▁Such":9844,"aren":9845,"▁loan":9846,"▁reasoning":9847,"▁bowl":9848,"=0":9849,"_l":9850,"▁input":9851,"DS":9852,"▁horror":9853,"ered.":9854,"graph":9855,"▁soldier":9856,"▁ought":9857,"▁ignored":9858,"▁Gore":9859,"▁Haw":9860,"educ":9861,"▁consent":9862,"72":9863,"▁sometimes.":9864,"▁35":9865,"▁indeed.":9866,"igned":9867,"imageshack.us/":9868,"ner.":9869,"ages,":9870,"▁List":9871,"▁ourselves":9872,"isely":9873,"▁memor":9874,"▁Poor":9875,"sey":9876,"▁discover":9877,"▁fancy":9878,"▁yellow":9879,"▁EU":9880,"▁defined":9881,"What":9882,"▁pipe":9883,"▁website.":9884,"▁through.":9885,"▁dunno":9886,"▁lift":9887,"▁PE":9888,"ford":9889,"amazon.com/":9890,"▁stop.":9891,"organ":9892,"▁correl":9893,"▁structure":9894,"▁pathetic":9895,"▁logo":9896,"▁volunte":9897,"▁C#":9898,"ulu":9899,"▁realise":9900,"▁strongly":9901,"▁challenge":9902,"▁merc":9903,"▁disp":9904,"▁mortg":9905,"rm":9906,"▁reasons.":9907,"▁silly.":9908,"el,":9909,"▁plants":9910,"thern":9911,"▁colon":9912,"kers":9913,"nes":9914,"92":9915,"▁Work":9916,"▁Upmodded":9917,"iki":9918,"hhh":9919,"▁prohib":9920,"-de":9921,"fin":9922,"▁Upvote":9923,"state":9924,"▁service.":9925,"▁thro":9926,"▁stopping":9927,"▁BUT":9928,"▁reminded":9929,"▁unus":9930,"▁leading":9931,"▁supporter":9932,"▁version.":9933,"▁Bank":9934,"p-content/uploads/":9935,"▁upgrade":9936,"▁decades":9937,"accur":9938,"▁susp":9939,"▁collection":9940,"ibility.":9941,"▁trait":9942,"dro":9943,"▁cru":9944,"▁(B":9945,"▁forgotten":9946,"▁west":9947,"ors,":9948,"▁interface":9949,"▁ashamed":9950,"▁&gt;C":9951,"▁identify":9952,"ites.":9953,"▁poo":9954,"](http://www.imdb.com/title/tt":9955,"▁dog.":9956,"▁dram":9957,"erved":9958,"▁currency":9959,"▁there...":9960,"▁boobs":9961,"](http://www.c":9962,"rid":9963,"▁sung":9964,"ology,":9965,"road":9966,"rad":9967,"▁fucks":9968,"▁sexy":9969,"white":9970,"▁voters":9971,"lord":9972,"f=":9973,"▁reporting":9974,"7/0":9975,"-E":9976,"▁disease":9977,"http":9978,"ERS":9979,"shit.":9980,"▁powers":9981,"▁cure":9982,"▁carbon":9983,"respect":9984,"bles":9985,"▁CR":9986,"iat":9987,"▁edited":9988,"▁would.":9989,"▁Middle":9990,"](http://m":9991,"▁James":9992,"▁decade":9993,"▁worthless":9994,"▁casual":9995,"edit:":9996,"▁well?":9997,"▁regularly":9998,"▁chill":9999,"▁sounded":10000,"▁parad":10001,"ICK":10002,"▁historical":10003,"▁stage":10004,"▁economics":10005,"▁practically":10006,"▁lone":10007,"▁Tur":10008,"ell,":10009,"aha":10010,"enses":10011,"▁Paul.":10012,"▁subtle":10013,"/A":10014,"▁chocolate":10015,"etary":10016,"▁\"not":10017,"▁*P":10018,"alu":10019,"cil":10020,"ounter":10021,"▁support.":10022,"▁subt":10023,"-hand":10024,"▁shotgun":10025,"yes":10026,"_n":10027,"mA":10028,"▁king":10029,"▁also.":10030,"▁Long":10031,"▁t-shirt":10032,"▁tooth":10033,"▁needed]":10034,"▁Twitter":10035,"▁tone":10036,"##":10037,"▁convention":10038,"th,":10039,"▁nightm":10040,"▁resort":10041,"▁MM":10042,"bama":10043,"iform":10044,"▁metric":10045,"▁convenient":10046,"▁up!":10047,"▁insane.":10048,"lett":10049,"▁dust":10050,"▁infer":10051,"▁kidding.":10052,"▁collaps":10053,"▁now!":10054,"▁produced":10055,"iver":10056,"▁mainly":10057,"▁week,":10058,"ences.":10059,"atheism":10060,"▁HU":10061,"REAK":10062,"▁collapse":10063,"_0":10064,"▁6.":10065,"▁Space":10066,"▁orgasm":10067,"▁cos":10068,"imageshack.us/img":10069,"▁teachers":10070,"▁determine":10071,"▁everywhere.":10072,"▁vague":10073,"avy":10074,"UTF":10075,"wing":10076,"!!!!!":10077,"▁rail":10078,"▁fantasy":10079,"▁Getting":10080,"NT":10081,"▁poly":10082,"▁i.e.":10083,"▁presum":10084,"▁incredible":10085,"▁territ":10086,"O,":10087,"▁*the":10088,"▁shopping":10089,"▁switched":10090,"al?":10091,"▁Sunday":10092,"600":10093,"_you":10094,"▁Lisp":10095,"▁Jan":10096,"ses":10097,"▁karma.":10098,"unction":10099,"▁(M":10100,"▁fun,":10101,"▁wipe":10102,"ale.":10103,"writ":10104,"▁while,":10105,"▁pretending":10106,"OTH":10107,"▁free,":10108,"▁liberals":10109,"▁adopt":10110,"ger.":10111,"ase,":10112,"edge":10113,"▁trigg":10114,"▁DU":10115,"▁Jackson":10116,"▁Rick":10117,"▁quarter":10118,"▁highlight":10119,"▁provides":10120,"▁websites":10121,"...)":10122,"▁wait.":10123,"▁explod":10124,"▁duck":10125,"▁place?":10126,"▁bloody":10127,"icien":10128,"▁\"pro":10129,"▁Di":10130,"▁existing":10131,"▁rockets":10132,"▁cruel":10133,"▁raw":10134,"ury.":10135,"▁music,":10136,"▁trained":10137,"ula":10138,"▁often.":10139,"ries,":10140,"way.":10141,"ubm":10142,"FA":10143,"▁testing":10144,"xkcd":10145,"▁deliber":10146,"▁fict":10147,"▁wasted":10148,"▁thought,":10149,"▁Talk":10150,"▁investment":10151,"▁spray":10152,"▁nonsense":10153,"IVE":10154,"▁goog":10155,"▁BL":10156,"▁over,":10157,"▁liquid":10158,"trans":10159,"▁rum":10160,"▁everyone's":10161,"▁THEY":10162,"▁neo":10163,"▁batt":10164,"▁dup":10165,"▁wise":10166,"ACT":10167,"▁apologize":10168,"▁*H":10169,"▁day?":10170,"▁compress":10171,"▁okay,":10172,"pan":10173,"▁It'll":10174,"▁fast.":10175,"▁Stud":10176,"▁degrees":10177,"▁DID":10178,"▁dialog":10179,"uy":10180,"▁sleeping":10181,"▁effectively":10182,"▁refers":10183,"▁applied":10184,"CA":10185,"▁wip":10186,"▁geni":10187,"▁Class":10188,"ki":10189,"▁tas":10190,"itution.":10191,"▁rant":10192,"▁Haven't":10193,"▁billions":10194,"/comments/8":10195,"▁sauce":10196,"ba":10197,"▁award":10198,"▁exactly.":10199,"arry":10200,"rastruct":10201,"▁money?":10202,"▁LE":10203,"▁studies":10204,"54":10205,"▁theft":10206,"▁paranoid":10207,"▁reput":10208,"▁Canada,":10209,"▁Lat":10210,"▁Please,":10211,"GH":10212,"▁tor":10213,"▁Alex":10214,"esome.":10215,"▁ordered":10216,"ristian":10217,"▁manager":10218,"▁Democratic":10219,"berman":10220,"▁restr":10221,"-off":10222,"▁noise":10223,"▁tends":10224,"-H":10225,"▁attend":10226,"▁attracted":10227,"▁*are":10228,"▁'d":10229,"▁Enjoy":10230,"ners":10231,"▁Hi":10232,"▁gentle":10233,"▁skip":10234,"▁Cop":10235,"▁box.":10236,"kind":10237,"▁else?":10238,"tml":10239,"▁sweat":10240,"▁adjust":10241,"vil":10242,"▁option.":10243,"New":10244,"▁professor":10245,"ormal":10246,"olt":10247,"▁countries.":10248,"▁harass":10249,"▁Fur":10250,"▁compat":10251,"▁bite":10252,"▁speaks":10253,"e?":10254,"▁individuals":10255,"airs":10256,"keys":10257,"▁discussion.":10258,"▁brief":10259,"ested":10260,"▁interests":10261,"▁loving":10262,"▁anything?":10263,"_.":10264,"▁transfer":10265,"▁penis.":10266,"▁Top":10267,"▁seconds.":10268,"▁laugh.":10269,"p/":10270,"▁Everybody":10271,"▁so...":10272,"▁consumer":10273,"▁height":10274,"▁additional":10275,"▁AMA":10276,"▁ways.":10277,"▁Libertarian":10278,"which":10279,"LC":10280,"▁welf":10281,"▁lifet":10282,"aaa":10283,"▁heck":10284,"▁eaten":10285,"▁frank":10286,"▁genetic":10287,"▁10.":10288,"▁restrict":10289,"▁7.":10290,"▁goat":10291,"▁whatever.":10292,"▁Irish":10293,"▁pronounced":10294,"▁\"In":10295,"▁matter,":10296,"heart":10297,"▁---":10298,"▁part,":10299,"▁Steam":10300,"▁cyn":10301,"▁TF2":10302,"▁escape":10303,"▁Whenever":10304,"▁steam":10305,"user/":10306,"aware":10307,"▁bills":10308,"▁JUST":10309,"▁enemy":10310,"▁Brown":10311,"800":10312,"▁amendment":10313,"▁try.":10314,"▁&gt;*":10315,"▁/b/":10316,"▁dispro":10317,"▁politics.":10318,"news":10319,"▁mild":10320,"▁hardcore":10321,"thes":10322,"▁Right.":10323,"▁Captain":10324,"standing":10325,"▁holds":10326,"▁2012":10327,"56":10328,"▁Live":10329,"▁Ver":10330,"▁Somebody":10331,"obucket":10332,"▁(P":10333,"▁Really,":10334,"▁grasp":10335,"▁SN":10336,"▁q":10337,"▁*B":10338,"▁shocked":10339,"edu/":10340,"▁exactly?":10341,"▁Otherwise":10342,"▁prosecut":10343,"▁roughly":10344,"▁Elect":10345,"-wing":10346,"▁increased":10347,"▁Again,":10348,"▁desert":10349,"▁Spanish":10350,"▁rang":10351,"s.org/":10352,"▁can,":10353,"▁coverage":10354,"▁island":10355,"otta":10356,"▁other,":10357,"▁sufficient":10358,"▁imper":10359,"▁childhood":10360,".*":10361,"▁semi-":10362,"▁girls.":10363,"▁(D":10364,"amin":10365,"▁wast":10366,"cture":10367,"▁downvoted.":10368,"▁Power":10369,"▁&gt;F":10370,"▁side,":10371,"▁hiding":10372,"▁typed":10373,"AMN":10374,"um,":10375,"▁suggested":10376,"▁donate":10377,"▁dynam":10378,"8)":10379,"▁Alright":10380,"Qu":10381,"▁analogy":10382,"ata":10383,"▁important.":10384,"▁badass":10385,"omp":10386,"▁care,":10387,"▁LIKE":10388,"▁houses":10389,"b.":10390,"bay":10391,"▁angle":10392,"▁man!":10393,"▁elev":10394,"aed":10395,"▁cameras":10396,"▁ultimate":10397,"▁Haha":10398,"▁beats":10399,"▁correct,":10400,"▁those.":10401,"▁numer":10402,"▁purs":10403,"▁USB":10404,"forum":10405,"▁http://www.s":10406,"▁infrastruct":10407,"▁hurts":10408,"ed*":10409,"OWN":10410,"▁tests":10411,"▁apost":10412,"▁contains":10413,"conf":10414,"iac":10415,"▁Office":10416,"▁insp":10417,"▁pounds":10418,"▁attempting":10419,"▁somewhere.":10420,"▁mood":10421,"▁*M":10422,"▁Scott":10423,"▁fantas":10424,"eps":10425,"mother":10426,"uild":10427,"▁stops":10428,"▁Human":10429,"▁resolution":10430,"▁'re":10431,"▁awesome!":10432,"▁\"No":10433,"▁LA":10434,"▁Vis":10435,"▁Trust":10436,"vention":10437,"▁obvious.":10438,"▁cycl":10439,"rot":10440,"▁whereas":10441,"▁Virgin":10442,"▁neat":10443,"▁references":10444,"▁gun.":10445,"▁utterly":10446,"▁Richard":10447,"i.imgur.com/":10448,"▁wins":10449,"▁\"...":10450,"▁bits":10451,"▁punctu":10452,"▁distinct":10453,"▁discussing":10454,"▁kern":10455,"▁academ":10456,"▁chop":10457,"▁LOT":10458,"ube.":10459,"▁pros":10460,"▁Dub":10461,"▁'h":10462,"▁Light":10463,"expl":10464,"pal":10465,"els.":10466,"▁ratio":10467,"▁Iron":10468,"▁Cut":10469,"aj":10470,"ulating":10471,"▁yours.":10472,"▁[this](http://www.":10473,"▁walks":10474,"▁start.":10475,"▁Valve":10476,"aly":10477,"▁DC":10478,"▁ancient":10479,"▁MAN":10480,"▁honor":10481,"▁addition":10482,"▁chat":10483,"▁*and*":10484,"▁ass,":10485,"▁atheist.":10486,"▁annoying.":10487,"▁O'Re":10488,"▁coast":10489,"▁served":10490,"▁911":10491,"PR":10492,"sell":10493,"▁wow.":10494,"▁okay.":10495,"▁amazed":10496,"▁effect.":10497,"▁wait...":10498,"ifferent":10499,"fw":10500,"effect":10501,"▁dow":10502,"▁Jeff":10503,"▁statistics":10504,"aved":10505,"fre":10506,"press.com/":10507,"▁officially":10508,"▁400":10509,"▁turt":10510,"▁sav":10511,"arden":10512,"▁sungl":10513,"▁*C":10514,"▁problem?":10515,"▁repost":10516,"ore.":10517,"▁fire.":10518,"▁Quite":10519,"▁[\"":10520,"▁involves":10521,"▁entry":10522,"▁mall":10523,"▁Whether":10524,"images.":10525,"▁Pop":10526,"▁Egypt":10527,"▁think?":10528,"▁involved.":10529,"▁Yea":10530,"▁Conserv":10531,"▁medium":10532,"▁fault.":10533,"▁www.":10534,"ril":10535,"▁Fight":10536,"▁grocery":10537,"▁guard":10538,"▁Roman":10539,"▁Xbox":10540,"uster":10541,"▁idiots.":10542,"▁Buddh":10543,"▁150":10544,"▁enjoying":10545,"▁impressive":10546,"xx":10547,"pdf":10548,"▁machine.":10549,"▁tun":10550,"▁traditional":10551,"ross.":10552,"▁Police":10553,"▁CA":10554,"▁OUT":10555,"▁viewpoint":10556,"▁Grand":10557,"▁stars":10558,"▁down?":10559,"▁Mormon":10560,"urope.":10561,"▁tin":10562,"thread":10563,"▁aver":10564,"▁cheating":10565,"▁American.":10566,"line,":10567,"▁:-(":10568,"▁sale":10569,"▁caps":10570,"▁CON":10571,"iled":10572,"▁Whats":10573,"oice":10574,"except":10575,"▁racial":10576,"▁painful":10577,"▁posts.":10578,"▁TV.":10579,"ios":10580,"▁slave":10581,"▁shel":10582,"▁children,":10583,"▁remains":10584,"▁Bell":10585,"erer":10586,"obs":10587,"▁Learn":10588,"▁Mario":10589,"▁Nazis":10590,"▁PA":10591,"▁Three":10592,"▁state,":10593,"▁illust":10594,"▁sucked":10595,"▁fails":10596,"▁Things":10597,"▁blowing":10598,"▁relax":10599,"ie=UTF":10600,"▁why,":10601,"▁teenag":10602,"▁assist":10603,"▁bacon.":10604,"▁resident":10605,"rend":10606,"▁abandon":10607,"▁purely":10608,"▁lately":10609,"was":10610,"▁lin":10611,"▁tongue":10612,"▁end,":10613,"▁Anybody":10614,"4)":10615,"▁8.":10616,"▁dunno,":10617,"▁inh":10618,"ication":10619,"ak.":10620,"▁irrational":10621,"chang":10622,"▁forever.":10623,"▁Mexico":10624,"▁largely":10625,"▁frequently":10626,"▁instance":10627,"ery.":10628,"▁driven":10629,"▁crap,":10630,"▁buddy":10631,"▁officers":10632,"▁Party":10633,"▁balls.":10634,"fall":10635,"▁weeks.":10636,"▁toy":10637,"sect":10638,"▁helpful":10639,"▁jumping":10640,"▁Odd":10641,"▁Shit,":10642,"▁Street":10643,"▁creative":10644,"▁Perl":10645,"▁Couldn't":10646,"It":10647,"▁Pri":10648,"▁grant":10649,"▁episodes":10650,"▁wis":10651,"▁anonymous":10652,"▁governments":10653,"4,":10654,"▁Squ":10655,"▁roof":10656,"▁shit?":10657,"when":10658,"▁Simps":10659,"greg":10660,"▁possess":10661,"▁Need":10662,"▁cam":10663,"omy":10664,"▁Ju":10665,"▁jealous":10666,"▁[J":10667,"THING":10668,"▁content.":10669,"/D":10670,"▁dogg":10671,"▁fab":10672,"▁shark":10673,"▁burned":10674,"it!":10675,"▁Canadians":10676,"▁pronounce":10677,"▁(al":10678,"▁bugs":10679,"▁multi-":10680,"▁Britain":10681,"▁kitchen":10682,"▁Capital":10683,"celer":10684,"▁manual":10685,"▁forms":10686,"awg":10687,"etic.":10688,"wordpress.com/":10689,"igh*":10690,"▁instruct":10691,"▁same,":10692,"▁advice.":10693,"▁messages":10694,"▁WHY":10695,"OST":10696,"▁NYC":10697,"▁ladies":10698,"▁unlikely":10699,"▁nit":10700,"▁hence":10701,"oo.":10702,"▁asleep":10703,"▁deaths":10704,"ing*":10705,"▁stone":10706,"▁Upvot":10707,"▁funnier":10708,"▁Santa":10709,"▁manufacture":10710,"ded":10711,"lessly":10712,"▁bin":10713,"▁comprom":10714,"ZZ":10715,"t,":10716,"▁English.":10717,"▁*st":10718,"▁naturally":10719,"▁awh":10720,"▁Mil":10721,"▁ISP":10722,"uge":10723,"▁*D":10724,"▁disaster":10725,"▁community.":10726,"GA":10727,"▁4th":10728,"▁play.":10729,"inge":10730,"rophe":10731,"▁states.":10732,"▁twenty":10733,"▁borrow":10734,"ed...":10735,"▁with?":10736,"▁tied":10737,"bin":10738,"▁devil":10739,"▁her?":10740,"▁Small":10741,"udge":10742,"etter":10743,"ograp":10744,"▁\"sh":10745,"▁nipp":10746,"▁word,":10747,"exist":10748,"48":10749,"▁language,":10750,"_st":10751,"▁RED":10752,"▁overwhelm":10753,"▁Chicago":10754,"reddit.com/info/6":10755,"wear":10756,"redit":10757,"▁Agreed,":10758,"rument":10759,"▁Pir":10760,"▁entitled":10761,"▁'n":10762,"▁head,":10763,"▁race.":10764,"We":10765,"ress,":10766,"rrrr":10767,"▁ster":10768,"ests":10769,"-on":10770,"ing...":10771,"▁flood":10772,"appropri":10773,"ly*":10774,"▁Polit":10775,"▁Ruby":10776,"▁mature":10777,"](http://en.wikipedia.org/wiki/M":10778,"▁delivery":10779,"gam":10780,"▁sight":10781,"▁referred":10782,"▁mart":10783,"▁cir":10784,"▁setup":10785,"▁Buff":10786,"▁uniform":10787,"roduct":10788,"ical,":10789,"▁26":10790,"techn":10791,"▁Plan":10792,"▁invite":10793,"▁shared":10794,"▁Atl":10795,"▁\"Th":10796,"photobucket":10797,"▁orders":10798,"▁reprodu":10799,"-down":10800,"▁better?":10801,"▁hands.":10802,"▁Australian":10803,"ices,":10804,"▁redneck":10805,"▁writer":10806,"rt":10807,"▁bash":10808,"▁2007":10809,"▁bonus":10810,"▁Trek":10811,"▁*every":10812,"▁instrument":10813,"photobucket.com/":10814,"▁Water":10815,"▁They'll":10816,"▁scream":10817,"▁dedicated":10818,"▁baseball":10819,"▁Hom":10820,"▁second.":10821,"▁lit":10822,"▁sensational":10823,"▁Gaza":10824,"▁Democrat":10825,"▁BTW,":10826,"▁incent":10827,"▁knowled":10828,"▁chosen":10829,"▁Ign":10830,"](http://www.google.com/":10831,"▁(but":10832,"▁phones":10833,"▁sust":10834,"▁Youtub":10835,"▁manner":10836,"▁Yup,":10837,"▁calm":10838,"▁Photoshop":10839,".co.uk/":10840,"opher":10841,"▁period.":10842,"eh":10843,"▁experim":10844,"▁CPU":10845,"▁bars":10846,"▁gal":10847,"▁phone.":10848,"▁Secret":10849,"▁bar.":10850,"▁[d":10851,"](http://en.wikipedia.org/wiki/C":10852,"an?":10853,"▁(l":10854,"ota":10855,"▁administr":10856,"▁forth":10857,"▁store.":10858,"augh":10859,"velope":10860,"▁[citation":10861,"▁Char":10862,"umn":10863,"▁\"un":10864,"▁works,":10865,"▁afterward":10866,"ulations":10867,"▁offering":10868,"▁stupidity":10869,"▁love.":10870,"▁IT'S":10871,"i's":10872,"▁rush":10873,"ia?":10874,"▁talent":10875,"▁location":10876,"▁inflation":10877,"▁contradict":10878,"▁wife.":10879,"ategy":10880,"▁shots":10881,"▁Typ":10882,"▁Pay":10883,"▁applications":10884,"▁trial":10885,"▁mission":10886,"albums/":10887,"▁beard":10888,"▁ven":10889,"▁Key":10890,"otch":10891,"▁adds":10892,"▁redund":10893,"able?":10894,"▁significantly":10895,"ealand":10896,")...":10897,"▁Bush.":10898,"▁Log":10899,"▁pra":10900,"▁parall":10901,"▁Source":10902,"▁question?":10903,"_D":10904,"▁dumb.":10905,"▁Pakistan":10906,"▁responding":10907,"▁anyone?":10908,"ur.":10909,"▁caus":10910,"](http://www.b":10911,"Edit:":10912,"_g":10913,"▁fals":10914,"▁choices":10915,"▁differences":10916,"▁fake.":10917,"▁failing":10918,"▁she'll":10919,"e's":10920,"▁spare":10921,"▁Viet":10922,"▁terribly":10923,"▁curious.":10924,"▁trees":10925,"▁\"Ch":10926,"ket":10927,"▁*all":10928,"▁messed":10929,"▁Speaking":10930,"▁Adm":10931,"▁began":10932,"▁Rog":10933,"▁read,":10934,"▁decre":10935,"OUT":10936,"▁ris":10937,"▁Far":10938,"▁sets":10939,"▁Rush":10940,"▁general.":10941,"▁creates":10942,"▁election.":10943,"▁consequences":10944,"▁magnet":10945,"▁employee":10946,"▁barrel":10947,"▁planet.":10948,"▁Yay":10949,"ein":10950,"▁humor.":10951,"79":10952,"icious":10953,"](http://img":10954,"▁one!":10955,"moz":10956,"▁situations":10957,"▁—":10958,"IRE":10959,"▁interesting,":10960,"▁joy":10961,"▁suppl":10962,"DP":10963,"ushroom":10964,"ances.":10965,"▁spy":10966,"▁laws.":10967,"▁randomly":10968,"▁existed":10969,"▁AT&amp;":10970,"▁Mind":10971,"▁[f":10972,"▁searching":10973,"eration":10974,"N'T":10975,"▁dudes":10976,"▁Colbert":10977,"▁sym":10978,"▁software.":10979,"▁Religion":10980,"▁fanboy":10981,"▁GN":10982,"▁bizar":10983,"▁smoked":10984,"rific":10985,"semb":10986,"▁Chuck":10987,"▁prime":10988,"awkins":10989,"▁sexually":10990,"▁Health":10991,"_1":10992,"▁economy.":10993,"▁\"How":10994,"▁'m":10995,".html).":10996,"▁Jesus.":10997,"ative.":10998,"▁&lt;3":10999,"_on":11000,"▁time...":11001,"rants":11002,"▁person's":11003,"▁Safari":11004,"▁process.":11005,"▁compens":11006,"ake.":11007,"▁pushed":11008,"▁Ire":11009,"▁clothing":11010,"▁expression":11011,"▁Vote":11012,"▁Somehow":11013,"ican":11014,"▁mol":11015,"▁profile":11016,"▁occasionally":11017,"inction":11018,"▁Look,":11019,"▁menu":11020,"▁delet":11021,"▁sharp":11022,"▁slap":11023,"▁ridiculously":11024,"▁obscure":11025,"▁e-m":11026,"▁lifest":11027,"▁here!":11028,"▁adults":11029,"21":11030,"▁cousin":11031,"▁well...":11032,"▁innov":11033,"▁actively":11034,"▁edge":11035,"▁inaccur":11036,"](http://en.wikipedia.org/wiki/A":11037,"▁py":11038,"clude":11039,"▁winter":11040,"▁dated":11041,"▁notion":11042,"▁functional":11043,"she":11044,"▁stamp":11045,"tv":11046,"▁replying":11047,"▁guy?":11048,"▁potentially":11049,"▁dollars.":11050,"▁peanut":11051,"▁FD":11052,"▁nowad":11053,"▁dressed":11054,"▁Totally":11055,"▁spons":11056,"▁decad":11057,"▁\"th":11058,"estine":11059,"▁chuck":11060,"▁witch":11061,"▁[m":11062,"▁buildings":11063,"▁fewer":11064,"▁stink":11065,"alib":11066,"▁nick":11067,"▁seed":11068,"ixt":11069,"▁coc":11070,"▁ripped":11071,"▁volume":11072,"▁elaborate":11073,"▁socialism":11074,"▁Problem":11075,"▁register":11076,"▁theory.":11077,"▁substant":11078,"▁KNOW":11079,"▁victims":11080,"▁guns.":11081,"an's":11082,"▁gather":11083,"▁(un":11084,"▁submitter":11085,"▁approve":11086,"▁Book":11087,"com.":11088,"ologist":11089,"teen":11090,"▁WILL":11091,"tw.":11092,"▁ups":11093,"OUS":11094,"Y!":11095,"▁Wonder":11096,"▁politically":11097,"▁later,":11098,"▁replied":11099,"▁logic.":11100,"▁partner":11101,"▁Shut":11102,"▁riot":11103,"▁Left":11104,"▁(O":11105,"▁3:":11106,"ocracy":11107,"▁chap":11108,"▁ground.":11109,"▁attached":11110,"▁It'd":11111,"van":11112,"▁Olymp":11113,"▁bog":11114,"▁rage":11115,"▁(t":11116,"etically":11117,"▁\"K":11118,"▁need.":11119,"dev":11120,"▁developer":11121,"▁alph":11122,"▁smooth":11123,"s://":11124,"▁transm":11125,"▁odds":11126,"intend":11127,"▁internal":11128,"▁lol,":11129,"▁FL":11130,"▁democrats":11131,"▁Vi":11132,"▁tempt":11133,"/comments/7":11134,"AYS":11135,"▁\"Why":11136,"▁Mom":11137,"▁trut":11138,"▁amusing":11139,"▁died.":11140,"▁streets":11141,"▁3,":11142,"▁biased":11143,"berry":11144,"▁stayed":11145,"▁growth":11146,"▁1/2":11147,"▁inject":11148,".php?":11149,"-spe":11150,"PE":11151,"▁**I":11152,"▁genocide":11153,"y-":11154,"uper":11155,"▁invis":11156,"▁wolf":11157,"▁Ann":11158,"▁approx":11159,"▁Bost":11160,"▁emergency":11161,"es...":11162,"▁[Here's":11163,"▁contribute":11164,"▁tie":11165,"▁dip":11166,"▁needed.":11167,"▁lung":11168,"▁clim":11169,"▁article?":11170,"▁models":11171,"▁blowjob":11172,"▁strategy":11173,"▁accus":11174,"iant.":11175,"▁Saudi":11176,"_(":11177,"rah":11178,"▁remotely":11179,"▁agreement":11180,"▁gut":11181,"▁Yahoo":11182,"▁seek":11183,"or?":11184,"▁drinks":11185,"-mind":11186,"▁\"what":11187,"▁perce":11188,"▁irrit":11189,"▁secure":11190,"▁number.":11191,"▁rules.":11192,"▁Happy":11193,"▁supposedly":11194,"▁Stay":11195,"▁pit":11196,"▁fo":11197,"tinyp":11198,"▁welfare":11199,"▁show,":11200,"▁iTunes":11201,"▁declare":11202,"▁scar":11203,"3)":11204,"▁profession":11205,"▁off?":11206,"PN":11207,"▁black.":11208,"ACK":11209,"▁bicy":11210,"▁hating":11211,"▁medicine":11212,"▁Vot":11213,"AST":11214,"▁scenario":11215,"▁Certain":11216,"▁stance":11217,"owse":11218,"rick":11219,"▁criminals":11220,"▁domestic":11221,"▁fits":11222,"▁Fant":11223,"▁trivial":11224,"▁theor":11225,"▁city.":11226,"▁yo":11227,"▁Du":11228,"▁tits":11229,"▁energ":11230,"aver":11231,"▁Inter":11232,"imes,":11233,"ets.":11234,"▁Mike":11235,"▁upside":11236,"▁reports":11237,"▁belongs":11238,"▁blacks":11239,"▁Personally":11240,"▁(H":11241,"reck":11242,"▁$200":11243,"▁Mexican":11244,"▁diamond":11245,"::":11246,"▁civilian":11247,"▁terrible.":11248,"▁Found":11249,"prot":11250,"▁atmosphere":11251,"▁holiday":11252,"a)":11253,"▁of?":11254,"▁Tax":11255,"▁Jones":11256,"▁please?":11257,"▁IF":11258,"▁bandwidth":11259,"▁28":11260,"▁dinosaur":11261,"▁eggs":11262,"tinypic.com/":11263,"OOK":11264,"▁she'd":11265,"▁refused":11266,"▁bitching":11267,"▁mountain":11268,"z,":11269,"aters":11270,"▁down-":11271,"▁lord":11272,"▁3)":11273,"▁PL":11274,"▁Fun":11275,"▁personality":11276,"▁LOVE":11277,"▁placed":11278,"▁combat":11279,"isy":11280,"▁sticking":11281,"▁volunt":11282,"▁downloaded":11283,"▁subscribe":11284,"▁incompet":11285,"▁storm":11286,"▁me:":11287,"▁Europe.":11288,"▁Jesus,":11289,"▁presidential":11290,"▁replies":11291,"▁pupp":11292,"▁Aut":11293,"y.\"":11294,"ravel":11295,"▁envelope":11296,"walk":11297,"▁jumped":11298,"▁instance,":11299,"▁homes":11300,"icorn":11301,"▁WANT":11302,"-be":11303,"▁blast":11304,"▁Arm":11305,"aker":11306,"▁hunting":11307,"▁wedding":11308,"▁swing":11309,"▁proceed":11310,"▁vent":11311,"▁action.":11312,"▁power,":11313,"▁\"Oh":11314,"▁automatic":11315,"▁experiences":11316,"▁Scientology":11317,"78":11318,"ountain":11319,"▁bodies":11320,"▁modded":11321,"▁hired":11322,"▁bridge":11323,"▁Bay":11324,"▁serious?":11325,"▁fiction":11326,"▁anyways.":11327,"▁pleasure":11328,"▁thorough":11329,"cer":11330,"-W":11331,"aire":11332,"▁Cook":11333,"▁\"fuck":11334,"▁Mat":11335,"izard":11336,"▁WHO":11337,"seud":11338,"▁value.":11339,"▁term.":11340,"▁ensure":11341,"bled":11342,"▁speech.":11343,"▁rein":11344,"▁Pen":11345,"_to_":11346,"▁RP":11347,"qual":11348,"▁patient":11349,"▁Adam":11350,"▁Ford":11351,"▁lot,":11352,"▁gravity":11353,"atics":11354,"EL":11355,"▁close.":11356,"cha":11357,"▁FR":11358,"▁published":11359,"▁Awesome.":11360,"▁(\"":11361,"i=":11362,"rier":11363,"▁drove":11364,"▁gf":11365,"▁(F":11366,"▁Ext":11367,"▁scientist":11368,"▁downloading":11369,"▁advocate":11370,"▁expensive.":11371,"▁Stephen":11372,"▁ownership":11373,"▁*are*":11374,"omal":11375,"▁counting":11376,"▁margin":11377,"▁etc...":11378,"▁world?":11379,"▁Nic":11380,"photobucket.com/albums/":11381,"▁bong":11382,"▁sam":11383,"▁damm":11384,"▁Huh?":11385,"▁roommate":11386,"====":11387,"▁Absolutely":11388,"▁Bon":11389,"ATION":11390,"BM":11391,"_T":11392,"▁idiotic":11393,"▁developing":11394,"▁surface":11395,"▁position.":11396,"▁worthy":11397,"▁past.":11398,"▁impeach":11399,"▁artists":11400,"bered":11401,"▁27":11402,"▁Heh,":11403,"▁9.":11404,"▁registered":11405,"▁dictator":11406,"▁staying":11407,"▁vacu":11408,"ographic":11409,"▁top.":11410,"▁industrial":11411,"▁cath":11412,"-G":11413,"▁Fore":11414,"▁headline.":11415,"▁*N":11416,"▁Less":11417,"▁YEAH":11418,"B.":11419,"▁\"ch":11420,"▁meal":11421,"▁real,":11422,"▁message.":11423,"HING":11424,"rec":11425,"▁Ol":11426,"▁:p":11427,"▁clarify":11428,"ments.":11429,"▁portray":11430,"▁raz":11431,"spe":11432,"▁pisses":11433,"-gr":11434,"interest":11435,"▁escap":11436,".com/w":11437,"▁snip":11438,"▁handed":11439,"▁morality":11440,"▁complaint":11441,"▁clown":11442,"▁americans":11443,"▁|.":11444,"42":11445,"▁us?":11446,"lers":11447,"▁holes":11448,"▁Name":11449,"ora":11450,"type":11451,"▁thanks!":11452,"▁HIV":11453,"▁Don":11454,"▁preferred":11455,"ified.":11456,"](http://en.wikipedia.org/wiki/P":11457,"▁Zealand":11458,"▁WAY":11459,"ART":11460,"▁Saturday":11461,"▁rely":11462,"▁History":11463,"pelling":11464,"▁valuable":11465,"es\"":11466,"▁*al":11467,"oret":11468,"index.php?":11469,"▁sneak":11470,"▁therap":11471,"▁preced":11472,"▁solved":11473,"▁bombs":11474,"icked":11475,"▁annoyed":11476,"INK":11477,"](http://en.wikipedia.org/wiki/F":11478,"▁emphas":11479,"iders":11480,"▁sensitive":11481,"▁rolling":11482,"▁drugs.":11483,"▁Wii":11484,"▁theories":11485,"▁loaded":11486,"/her":11487,"▁population.":11488,"rigg":11489,"▁abus":11490,"▁drawn":11491,"imedia":11492,"▁steps":11493,"▁confident":11494,"nox":11495,"usic":11496,"▁http://www.m":11497,"▁database":11498,"oh,":11499,"▁http://www.c":11500,"OOD":11501,"active":11502,"▁you:":11503,"▁Feel":11504,"▁bitter":11505,"▁reached":11506,"▁Gotta":11507,"▁regulation":11508,"believ":11509,"▁recurs":11510,"▁OK.":11511,"ize,":11512,"Israel":11513,"o\"":11514,"▁breakfast":11515,"▁history,":11516,"▁style.":11517,"▁businesses":11518,"▁eats":11519,"▁screenshot":11520,"EM":11521,"orpor":11522,"gb":11523,"articles":11524,"▁copies":11525,"▁conditions":11526,"▁meme.":11527,"▁Florida":11528,"▁80%":11529,"▁\"de":11530,"▁accused":11531,"ved,":11532,"▁pilot":11533,"▁holocaust":11534,"▁\"It":11535,"limited":11536,"pass":11537,"-11":11538,"▁don't,":11539,"▁First,":11540,"▁USA.":11541,"▁Hy":11542,"▁A.":11543,"clop":11544,"▁firearm":11545,"abb":11546,"/12":11547,"▁dropping":11548,"▁morally":11549,"reddit.com":11550,"▁RI":11551,"▁projects":11552,"▁Korea":11553,"▁dual":11554,"▁consens":11555,"▁flesh":11556,"▁twice.":11557,"▁argument,":11558,"▁group.":11559,"▁activity":11560,"▁retail":11561,"mart":11562,"▁bands":11563,"▁fat.":11564,"▁cite":11565,"▁try,":11566,"▁Americans.":11567,"story":11568,"ollow":11569,"▁boycott":11570,"/2009/0":11571,"▁men,":11572,"▁spoken":11573,"▁enlighten":11574,"_G":11575,"▁steel":11576,"▁*F":11577,"AMA":11578,"illed":11579,"fish":11580,"▁liking":11581,"▁socially":11582,"▁&gt;It":11583,"▁Iraq.":11584,"▁Further":11585,"▁Dutch":11586,"andal":11587,"social":11588,"▁pref":11589,"▁bags":11590,"▁variety":11591,"▁southern":11592,"▁enfor":11593,"uil":11594,"▁bond":11595,"▁cave":11596,"▁please,":11597,"▁Oct":11598,"▁True.":11599,"-k":11600,"▁monit":11601,"▁exagger":11602,"▁Run":11603,"▁exist,":11604,"▁backup":11605,"▁AD":11606,"▁this!":11607,"▁Poss":11608,"aaaaaaaa":11609,"▁helm":11610,"▁Freedom":11611,"▁strateg":11612,"▁slut":11613,"▁repres":11614,"▁film.":11615,"▁discount":11616,"▁fee":11617,"atell":11618,"▁very,":11619,"▁bone":11620,"▁ration":11621,"▁fuck,":11622,"▁miser":11623,"▁Head":11624,"agging":11625,"▁Nove":11626,"▁atheist,":11627,"_W":11628,"▁}":11629,"▁penalty":11630,"ND":11631,"exper":11632,"▁happen,":11633,"▁concert":11634,"▁public.":11635,"▁stood":11636,"](http://d":11637,"▁trap":11638,"▁listened":11639,"TC":11640,"ographer":11641,"▁such.":11642,"▁tested":11643,"▁precisely":11644,"▁trolls":11645,"a.org/":11646,"▁bare":11647,"▁HOW":11648,"▁online.":11649,"▁Av":11650,"▁bed.":11651,"▁Damm":11652,"▁said:":11653,"▁cars.":11654,"▁ghost":11655,"ESS":11656,"▁anymore,":11657,"▁Twilight":11658,"▁upvoting":11659,"▁tob":11660,"▁card.":11661,"our.":11662,"▁guess,":11663,"▁DNA":11664,"▁stimul":11665,"▁families":11666,"▁*a":11667,"co.uk":11668,"▁stable":11669,"▁eleph":11670,"▁downt":11671,"especially":11672,"▁make.":11673,"▁bashing":11674,"▁wireless":11675,"▁TIM":11676,"▁ever,":11677,"▁destroying":11678,"fly":11679,"▁mentions":11680,"PA":11681,"ilst":11682,"▁insert":11683,"▁baby.":11684,"▁motion":11685,"▁program.":11686,"▁God's":11687,"▁informed":11688,"▁Pet":11689,"▁view.":11690,"▁javascript":11691,"▁[b":11692,"▁distribution":11693,"▁policy.":11694,"▁gym":11695,"▁Die":11696,"▁bothers":11697,"one*":11698,"▁assumpt":11699,"▁phon":11700,"0)":11701,"ould*":11702,"▁BM":11703,"▁exposed":11704,"going":11705,"▁crop":11706,"▁one...":11707,"▁impr":11708,"▁anec":11709,"▁analysis":11710,"▁embed":11711,"▁occurred":11712,"▁it.\"":11713,"▁boom":11714,"▁solution.":11715,"-v":11716,"▁killer":11717,"ERY":11718,"ortion":11719,"▁someone.":11720,"▁olds":11721,"▁uncon":11722,"▁voice.":11723,"68":11724,"▁moves":11725,"▁disk":11726,"▁used.":11727,"cuse":11728,"▁smells":11729,"▁condem":11730,"oz":11731,"▁hij":11732,"esign":11733,"▁kicking":11734,"▁chest":11735,"▁facts.":11736,"▁morons":11737,"▁sane":11738,"▁promote":11739,"▁implied":11740,"▁consistent":11741,"▁months,":11742,"▁Bacon":11743,"eries":11744,"▁dang":11745,"▁privacy":11746,"▁hour.":11747,"▁Troll":11748,"igur":11749,"▁plate":11750,"▁bold":11751,"▁spaces":11752,"▁lip":11753,"imming":11754,"▁Yup.":11755,"wl":11756,"▁draft":11757,"ffff":11758,"3%":11759,"▁screen.":11760,"▁advance":11761,"IX":11762,"ean":11763,"▁move.":11764,"▁Yo":11765,"▁correctly.":11766,"▁DOES":11767,"▁cub":11768,"▁tempor":11769,"▁ec":11770,"▁linking":11771,"▁Toront":11772,"whal":11773,"▁A:":11774,"________":11775,"-se":11776,"▁privile":11777,"_H":11778,"▁Fallout":11779,"▁Civil":11780,"▁others,":11781,"▁GUI":11782,"ockey":11783,"▁solely":11784,"▁vamp":11785,"▁faces":11786,"▁American,":11787,"kk":11788,"▁descript":11789,"▁paste":11790,"▁disturbing":11791,"xkcd.com/":11792,"▁fought":11793,"irrel":11794,"-N":11795,"▁Gal":11796,"▁Funny,":11797,"▁Today":11798,"Im":11799,"jack":11800,"usi":11801,"▁\"be":11802,"▁Cub":11803,"▁suggests":11804,"▁resc":11805,"▁bump":11806,"▁[Y":11807,"▁grass":11808,"▁Reagan":11809,"▁can't.":11810,"▁monster":11811,"▁involving":11812,"▁Engine":11813,"▁MORE":11814,"▁Test":11815,"▁BR":11816,"▁Carl":11817,"▁one:":11818,"▁price.":11819,"▁collective":11820,"ience.":11821,"▁Cause":11822,"▁retire":11823,"▁quickly.":11824,"▁narrow":11825,"▁plan.":11826,"ds":11827,"upport":11828,"▁issue,":11829,"▁drive.":11830,"▁broadcast":11831,"lly":11832,"▁Israel,":11833,"▁glo":11834,"commun":11835,"▁debate.":11836,"pa":11837,"▁anger":11838,"lets":11839,"▁accurate.":11840,"▁will,":11841,"▁light.":11842,"va":11843,"again":11844,"▁'p":11845,"▁intentionally":11846,"▁uh,":11847,"▁Braz":11848,"agram":11849,"▁20%":11850,"▁Veg":11851,"▁writes":11852,"▁positions":11853,"73":11854,"▁*do":11855,"prise":11856,"▁Sweden":11857,"▁anc":11858,"▁WR":11859,"▁Meg":11860,"▁loans":11861,"▁artific":11862,"▁coal":11863,"▁raid":11864,"olve":11865,"liber":11866,"▁et":11867,"▁Dou":11868,"▁infring":11869,"▁from,":11870,"▁Kinda":11871,"BA":11872,"ez":11873,"▁nerv":11874,"n't*":11875,"respons":11876,"ives.":11877,"▁bad?":11878,"▁FAIL":11879,"▁twe":11880,"hole":11881,"▁cheer":11882,"▁Interesting.":11883,"oosh":11884,"](http://f":11885,"▁cute.":11886,"▁shit!":11887,"▁downmodding":11888,"▁unnecessary":11889,"▁apparently.":11890,"UP":11891,"▁puzz":11892,"▁editor":11893,"▁Dawkins":11894,"2008":11895,"rac":11896,"▁Econom":11897,"▁zoom":11898,"▁python":11899,"▁have?":11900,"open":11901,"▁soda":11902,"▁whining":11903,"▁Dun":11904,"▁teet":11905,"▁buddy.":11906,"▁gri":11907,"▁mistakes":11908,"although":11909,"▁champ":11910,"▁entertainment":11911,"▁wrap":11912,"▁UK.":11913,"▁controls":11914,"=1&amp;":11915,"▁answering":11916,"hill":11917,"▁gays":11918,"▁AT&amp;T":11919,"▁newspaper":11920,"uggle":11921,"inator":11922,"▁You,":11923,"wed":11924,"▁terrorism":11925,"▁quoting":11926,"ly)":11927,"▁lied":11928,"▁row":11929,"▁paper.":11930,"▁Absolute":11931,"ference.":11932,"▁insulting":11933,"▁Excellent":11934,"▁america":11935,"▁\"good":11936,"▁London":11937,"▁shave":11938,"▁hair.":11939,"▁industry.":11940,"rete":11941,"▁(even":11942,"ision.":11943,"▁earli":11944,"ias":11945,"arge":11946,"▁&gt;I'm":11947,"▁decides":11948,"▁vul":11949,"▁vap":11950,"ethe":11951,"▁suic":11952,"▁divorce":11953,"▁graphic":11954,"▁Downmodded":11955,"apers":11956,"▁Conn":11957,"▁couch":11958,"▁archite":11959,"▁fist":11960,"ideo":11961,"▁e.":11962,"▁Hollywood":11963,"▁cycle":11964,"▁Mach":11965,"▁brainw":11966,"▁$500":11967,"stick":11968,"cies.":11969,"ants.":11970,"actually":11971,"](http://www.reddit.com/r/AskReddit":11972,"▁Cost":11973,"▁crisis":11974,"▁signal":11975,"_O":11976,"▁ip":11977,"ash,":11978,"▁Mmm":11979,"▁browsing":11980,"▁Indeed,":11981,"ver,":11982,"▁brains":11983,"▁Family":11984,"AME":11985,"▁raising":11986,"▁little.":11987,"▁presented":11988,"▁algorithm":11989,"▁doors":11990,"▁shoe":11991,"▁studying":11992,"▁statistic":11993,"?*":11994,"▁3D":11995,"▁oxy":11996,"athers":11997,"▁virtual":11998,"▁inherently":11999}